<?xml version="1.0"?>
<MethodSetup Method="BDT::BDTG">
  <GeneralInfo>
    <Info name="TMVA Release" value="4.2.1 [262657]"/>
    <Info name="ROOT Release" value="6.20/06 [398342]"/>
    <Info name="Creator" value="xuzh"/>
    <Info name="Date" value="Thu Jan  7 11:55:14 2021"/>
    <Info name="Host" value="Linux lcgapp-centos7-x86-64-31.cern.ch-docker 3.10.0-1062.9.1.el7.x86_64 #1 SMP Fri Dec 6 15:49:49 UTC 2019 x86_64 x86_64 x86_64 GNU/Linux"/>
    <Info name="Dir" value="/publicfs/ucas/user/xuzh/xzh/Xicst2XicK/TMVA/forRUN1/SB+MC"/>
    <Info name="Training events" value="132368"/>
    <Info name="TrainingTime" value="2.00292143e+02"/>
    <Info name="AnalysisType" value="Classification"/>
  </GeneralInfo>
  <Options>
    <Option name="V" modified="Yes">False</Option>
    <Option name="VerbosityLevel" modified="No">Default</Option>
    <Option name="VarTransform" modified="No">None</Option>
    <Option name="H" modified="Yes">False</Option>
    <Option name="CreateMVAPdfs" modified="No">False</Option>
    <Option name="IgnoreNegWeightsInTraining" modified="No">False</Option>
    <Option name="NTrees" modified="Yes">1000</Option>
    <Option name="MaxDepth" modified="Yes">2</Option>
    <Option name="MinNodeSize" modified="Yes">2.5%</Option>
    <Option name="nCuts" modified="Yes">20</Option>
    <Option name="BoostType" modified="Yes">Grad</Option>
    <Option name="AdaBoostR2Loss" modified="No">quadratic</Option>
    <Option name="UseBaggedBoost" modified="Yes">True</Option>
    <Option name="Shrinkage" modified="Yes">1.000000e-01</Option>
    <Option name="AdaBoostBeta" modified="No">5.000000e-01</Option>
    <Option name="UseRandomisedTrees" modified="No">False</Option>
    <Option name="UseNvars" modified="No">6</Option>
    <Option name="UsePoissonNvars" modified="No">True</Option>
    <Option name="BaggedSampleFraction" modified="Yes">5.000000e-01</Option>
    <Option name="UseYesNoLeaf" modified="No">True</Option>
    <Option name="NegWeightTreatment" modified="No">pray</Option>
    <Option name="Css" modified="No">1.000000e+00</Option>
    <Option name="Cts_sb" modified="No">1.000000e+00</Option>
    <Option name="Ctb_ss" modified="No">1.000000e+00</Option>
    <Option name="Cbb" modified="No">1.000000e+00</Option>
    <Option name="NodePurityLimit" modified="No">5.000000e-01</Option>
    <Option name="SeparationType" modified="No">giniindex</Option>
    <Option name="RegressionLossFunctionBDTG" modified="No">huber</Option>
    <Option name="HuberQuantile" modified="No">7.000000e-01</Option>
    <Option name="DoBoostMonitor" modified="No">False</Option>
    <Option name="UseFisherCuts" modified="No">False</Option>
    <Option name="MinLinCorrForFisher" modified="No">8.000000e-01</Option>
    <Option name="UseExclusiveVars" modified="No">False</Option>
    <Option name="DoPreselection" modified="No">False</Option>
    <Option name="SigToBkgFraction" modified="No">1.000000e+00</Option>
    <Option name="PruneMethod" modified="No">nopruning</Option>
    <Option name="PruneStrength" modified="No">0.000000e+00</Option>
    <Option name="PruningValFraction" modified="No">5.000000e-01</Option>
    <Option name="SkipNormalization" modified="No">False</Option>
    <Option name="nEventsMin" modified="No">0</Option>
    <Option name="UseBaggedGrad" modified="No">False</Option>
    <Option name="GradBaggingFraction" modified="No">5.000000e-01</Option>
    <Option name="UseNTrainEvents" modified="No">0</Option>
    <Option name="NNodesMax" modified="No">0</Option>
  </Options>
  <Variables NVar="35">
    <Variable VarIndex="0" Expression="sqrt(XicK_IPCHI2_OWNPV)" Label="sqrt(XicK_IPCHI2_OWNPV)" Title="sqrt(XicK_IPCHI2_OWNPV)" Unit="" Internal="sqrt_XicK_IPCHI2_OWNPV_" Type="D" Min="1.20869887e+00" Max="2.12601837e+02"/>
    <Variable VarIndex="1" Expression="sqrt(XicPi_IPCHI2_OWNPV)" Label="sqrt(XicPi_IPCHI2_OWNPV)" Title="sqrt(XicPi_IPCHI2_OWNPV)" Unit="" Internal="sqrt_XicPi_IPCHI2_OWNPV_" Type="D" Min="1.57366216e+00" Max="1.73081406e+02"/>
    <Variable VarIndex="2" Expression="sqrt(XicP_IPCHI2_OWNPV)" Label="sqrt(XicP_IPCHI2_OWNPV)" Title="sqrt(XicP_IPCHI2_OWNPV)" Unit="" Internal="sqrt_XicP_IPCHI2_OWNPV_" Type="D" Min="2.58733559e+00" Max="1.69813812e+02"/>
    <Variable VarIndex="3" Expression="sqrt(Xic_IPCHI2_OWNPV)" Label="sqrt(Xic_IPCHI2_OWNPV)" Title="sqrt(Xic_IPCHI2_OWNPV)" Unit="" Internal="sqrt_Xic_IPCHI2_OWNPV_" Type="D" Min="7.20086228e-03" Max="4.99998856e+00"/>
    <Variable VarIndex="4" Expression="sqrt(C_IPCHI2_OWNPV)" Label="sqrt(C_IPCHI2_OWNPV)" Title="sqrt(C_IPCHI2_OWNPV)" Unit="" Internal="sqrt_C_IPCHI2_OWNPV_" Type="D" Min="4.78269532e-03" Max="3.28362946e+02"/>
    <Variable VarIndex="5" Expression="sqrt(K_IPCHI2_OWNPV)" Label="sqrt(K_IPCHI2_OWNPV)" Title="sqrt(K_IPCHI2_OWNPV)" Unit="" Internal="sqrt_K_IPCHI2_OWNPV_" Type="D" Min="2.17444194e-03" Max="3.60293945e+02"/>
    <Variable VarIndex="6" Expression="log(Xic_FDCHI2_OWNPV)" Label="log(Xic_FDCHI2_OWNPV)" Title="log(Xic_FDCHI2_OWNPV)" Unit="" Internal="log_Xic_FDCHI2_OWNPV_" Type="D" Min="1.94889379e+00" Max="1.43852758e+01"/>
    <Variable VarIndex="7" Expression="log(C_FDCHI2_OWNPV)" Label="log(C_FDCHI2_OWNPV)" Title="log(C_FDCHI2_OWNPV)" Unit="" Internal="log_C_FDCHI2_OWNPV_" Type="D" Min="-7.57201624e+00" Max="1.51115417e+01"/>
    <Variable VarIndex="8" Expression="log(Xic_DIRA_OWNPV)" Label="log(Xic_DIRA_OWNPV)" Title="log(Xic_DIRA_OWNPV)" Unit="" Internal="log_Xic_DIRA_OWNPV_" Type="D" Min="-3.27628231e+00" Max="0.00000000e+00"/>
    <Variable VarIndex="9" Expression="sqrt(XicK_IPCHI2_OWNPV+XicPi_IPCHI2_OWNPV+XicP_IPCHI2_OWNPV)" Label="sqrt(XicK_IPCHI2_OWNPV+XicPi_IPCHI2_OWNPV+XicP_IPCHI2_OWNPV)" Title="sqrt(XicK_IPCHI2_OWNPV+XicPi_IPCHI2_OWNPV+XicP_IPCHI2_OWNPV)" Unit="" Internal="sqrt_XicK_IPCHI2_OWNPV_P_XicPi_IPCHI2_OWNPV_P_XicP_IPCHI2_OWNPV_" Type="D" Min="5.25345707e+00" Max="2.73954742e+02"/>
    <Variable VarIndex="10" Expression="log(XicK_PT)" Label="log(XicK_PT)" Title="log(XicK_PT)" Unit="" Internal="log_XicK_PT_" Type="D" Min="5.52163029e+00" Max="9.86251545e+00"/>
    <Variable VarIndex="11" Expression="log(XicPi_PT)" Label="log(XicPi_PT)" Title="log(XicPi_PT)" Unit="" Internal="log_XicPi_PT_" Type="D" Min="5.52150726e+00" Max="9.58753967e+00"/>
    <Variable VarIndex="12" Expression="log(XicP_PT)" Label="log(XicP_PT)" Title="log(XicP_PT)" Unit="" Internal="log_XicP_PT_" Type="D" Min="5.52177477e+00" Max="9.70674133e+00"/>
    <Variable VarIndex="13" Expression="log(Xic_PT)" Label="log(Xic_PT)" Title="log(Xic_PT)" Unit="" Internal="log_Xic_PT_" Type="D" Min="6.90783978e+00" Max="1.03588104e+01"/>
    <Variable VarIndex="14" Expression="log(C_PT)" Label="log(C_PT)" Title="log(C_PT)" Unit="" Internal="log_C_PT_" Type="D" Min="5.57443810e+00" Max="1.05418873e+01"/>
    <Variable VarIndex="15" Expression="log(K_PT)" Label="log(K_PT)" Title="log(K_PT)" Unit="" Internal="log_K_PT_" Type="D" Min="4.51664257e+00" Max="9.57906532e+00"/>
    <Variable VarIndex="16" Expression="XicP_P/(XicP_P+XicK_P+XicPi_P)" Label="XicP_P/(XicP_P+XicK_P+XicPi_P)" Title="XicP_P/(XicP_P+XicK_P+XicPi_P)" Unit="" Internal="XicP_P_D__XicP_P_P_XicK_P_P_XicPi_P_" Type="D" Min="1.52644977e-01" Max="9.00457501e-01"/>
    <Variable VarIndex="17" Expression="XicK_PIDK" Label="XicK_PIDK" Title="XicK_PIDK" Unit="" Internal="XicK_PIDK" Type="D" Min="-1.98397007e+01" Max="1.66133408e+02"/>
    <Variable VarIndex="18" Expression="XicPi_PIDK" Label="XicPi_PIDK" Title="XicPi_PIDK" Unit="" Internal="XicPi_PIDK" Type="D" Min="-1.57924606e+02" Max="3.94684982e+01"/>
    <Variable VarIndex="19" Expression="XicK_PIDp" Label="XicK_PIDp" Title="XicK_PIDp" Unit="" Internal="XicK_PIDp" Type="D" Min="-8.14917984e+01" Max="6.50840988e+01"/>
    <Variable VarIndex="20" Expression="XicPi_PIDp" Label="XicPi_PIDp" Title="XicPi_PIDp" Unit="" Internal="XicPi_PIDp" Type="D" Min="-1.46265900e+02" Max="4.46501999e+01"/>
    <Variable VarIndex="21" Expression="K_PIDK" Label="K_PIDK" Title="K_PIDK" Unit="" Internal="K_PIDK" Type="D" Min="-3.03843002e+01" Max="1.66133408e+02"/>
    <Variable VarIndex="22" Expression="K_PIDp" Label="K_PIDp" Title="K_PIDp" Unit="" Internal="K_PIDp" Type="D" Min="-6.60544968e+01" Max="7.03864975e+01"/>
    <Variable VarIndex="23" Expression="XicP_MC15TuneV1_ProbNNp" Label="XicP_MC15TuneV1_ProbNNp" Title="XicP_MC15TuneV1_ProbNNp" Unit="" Internal="XicP_MC15TuneV1_ProbNNp" Type="D" Min="1.14373502e-03" Max="9.99945760e-01"/>
    <Variable VarIndex="24" Expression="XicK_MC15TuneV1_ProbNNk" Label="XicK_MC15TuneV1_ProbNNk" Title="XicK_MC15TuneV1_ProbNNk" Unit="" Internal="XicK_MC15TuneV1_ProbNNk" Type="D" Min="1.60119857e-03" Max="9.99805510e-01"/>
    <Variable VarIndex="25" Expression="XicK_MC15TuneV1_ProbNNpi" Label="XicK_MC15TuneV1_ProbNNpi" Title="XicK_MC15TuneV1_ProbNNpi" Unit="" Internal="XicK_MC15TuneV1_ProbNNpi" Type="D" Min="9.79330935e-07" Max="9.71756101e-01"/>
    <Variable VarIndex="26" Expression="XicPi_MC15TuneV1_ProbNNk" Label="XicPi_MC15TuneV1_ProbNNk" Title="XicPi_MC15TuneV1_ProbNNk" Unit="" Internal="XicPi_MC15TuneV1_ProbNNk" Type="D" Min="6.28245971e-06" Max="9.98688579e-01"/>
    <Variable VarIndex="27" Expression="XicPi_MC15TuneV1_ProbNNpi" Label="XicPi_MC15TuneV1_ProbNNpi" Title="XicPi_MC15TuneV1_ProbNNpi" Unit="" Internal="XicPi_MC15TuneV1_ProbNNpi" Type="D" Min="5.01805916e-04" Max="9.99724627e-01"/>
    <Variable VarIndex="28" Expression="K_MC15TuneV1_ProbNNk" Label="K_MC15TuneV1_ProbNNk" Title="K_MC15TuneV1_ProbNNk" Unit="" Internal="K_MC15TuneV1_ProbNNk" Type="D" Min="2.51902267e-03" Max="9.99824822e-01"/>
    <Variable VarIndex="29" Expression="K_MC15TuneV1_ProbNNpi" Label="K_MC15TuneV1_ProbNNpi" Title="K_MC15TuneV1_ProbNNpi" Unit="" Internal="K_MC15TuneV1_ProbNNpi" Type="D" Min="5.13608541e-07" Max="9.80625689e-01"/>
    <Variable VarIndex="30" Expression="XicP_MC15TuneV1_ProbNNghost" Label="XicP_MC15TuneV1_ProbNNghost" Title="XicP_MC15TuneV1_ProbNNghost" Unit="" Internal="XicP_MC15TuneV1_ProbNNghost" Type="D" Min="2.95888076e-05" Max="3.99967998e-01"/>
    <Variable VarIndex="31" Expression="XicK_MC15TuneV1_ProbNNghost" Label="XicK_MC15TuneV1_ProbNNghost" Title="XicK_MC15TuneV1_ProbNNghost" Unit="" Internal="XicK_MC15TuneV1_ProbNNghost" Type="D" Min="6.05265905e-06" Max="3.99804682e-01"/>
    <Variable VarIndex="32" Expression="XicPi_MC15TuneV1_ProbNNghost" Label="XicPi_MC15TuneV1_ProbNNghost" Title="XicPi_MC15TuneV1_ProbNNghost" Unit="" Internal="XicPi_MC15TuneV1_ProbNNghost" Type="D" Min="5.04032232e-06" Max="3.99894059e-01"/>
    <Variable VarIndex="33" Expression="K_MC15TuneV1_ProbNNghost" Label="K_MC15TuneV1_ProbNNghost" Title="K_MC15TuneV1_ProbNNghost" Unit="" Internal="K_MC15TuneV1_ProbNNghost" Type="D" Min="1.09618368e-05" Max="3.99983853e-01"/>
    <Variable VarIndex="34" Expression="Xic_ENDVERTEX_CHI2/Xic_ENDVERTEX_NDOF" Label="Xic_ENDVERTEX_CHI2/Xic_ENDVERTEX_NDOF" Title="Xic_ENDVERTEX_CHI2/Xic_ENDVERTEX_NDOF" Unit="" Internal="Xic_ENDVERTEX_CHI2_D_Xic_ENDVERTEX_NDOF" Type="D" Min="5.89517702e-04" Max="8.33316898e+00"/>
  </Variables>
  <Spectators NSpec="0"/>
  <Classes NClass="2">
    <Class Name="Signal" Index="0"/>
    <Class Name="Background" Index="1"/>
  </Classes>
  <Transformations NTransformations="0"/>
  <MVAPdfs/>
  <Weights NTrees="1000" AnalysisType="1">
    <BinaryTree type="DecisionTree" boostWeight="1.0000000000000000e+00" itree="0">
      <Node pos="s" depth="0" NCoef="0" IVar="23" Cut="8.5734504461288452e-01" cType="1" res="1.1924176942557096e-04" rms="5.0000000000000000e-01" purity="5.0011926889419556e-01" nType="0">
        <Node pos="l" depth="1" NCoef="0" IVar="3" Cut="2.6238608360290527e+00" cType="1" res="-3.0104124546051025e-01" rms="3.9921694993972778e-01" purity="1.9895875453948975e-01" nType="0">
          <Node pos="l" depth="2" NCoef="0" IVar="-1" Cut="0.0000000000000000e+00" cType="1" res="-3.4502945840358734e-02" rms="4.6929591894149780e-01" purity="3.2748526334762573e-01" nType="-99"/>
          <Node pos="r" depth="2" NCoef="0" IVar="-1" Cut="0.0000000000000000e+00" cType="1" res="-9.4206579029560089e-02" rms="1.6771411895751953e-01" purity="2.8967119753360748e-02" nType="-99"/>
        </Node>
        <Node pos="r" depth="1" NCoef="0" IVar="3" Cut="3.0971875190734863e+00" cType="1" res="3.5735830664634705e-01" rms="3.4970709681510925e-01" purity="8.5735827684402466e-01" nType="0">
          <Node pos="l" depth="2" NCoef="0" IVar="-1" Cut="0.0000000000000000e+00" cType="1" res="8.3630427718162537e-02" rms="2.7413281798362732e-01" purity="9.1815209388732910e-01" nType="-99"/>
          <Node pos="r" depth="2" NCoef="0" IVar="-1" Cut="0.0000000000000000e+00" cType="1" res="-1.0000000149011612e-01" rms="0.0000000000000000e+00" purity="0.0000000000000000e+00" nType="-99"/>
        </Node>
      </Node>
    </BinaryTree>
    <BinaryTree type="DecisionTree" boostWeight="1.0000000000000000e+00" itree="1">
      <Node pos="s" depth="0" NCoef="0" IVar="23" Cut="8.5749405622482300e-01" cType="1" res="2.4043151643127203e-03" rms="4.7203046083450317e-01" purity="5.0247097015380859e-01" nType="0">
        <Node pos="l" depth="1" NCoef="0" IVar="3" Cut="2.8647511005401611e+00" cType="1" res="-2.6933890581130981e-01" rms="3.9521837234497070e-01" purity="2.0053698122501373e-01" nType="0">
          <Node pos="l" depth="2" NCoef="0" IVar="-1" Cut="0.0000000000000000e+00" cType="1" res="-3.2664500176906586e-02" rms="4.6474486589431763e-01" purity="3.1719899177551270e-01" nType="-99"/>
          <Node pos="r" depth="2" NCoef="0" IVar="-1" Cut="0.0000000000000000e+00" cType="1" res="-8.9274831116199493e-02" rms="1.0240617394447327e-01" purity="1.0599375702440739e-02" nType="-99"/>
        </Node>
        <Node pos="r" depth="1" NCoef="0" IVar="3" Cut="3.0963037014007568e+00" cType="1" res="3.2306304574012756e-01" rms="3.3385664224624634e-01" purity="8.5875481367111206e-01" nType="0">
          <Node pos="l" depth="2" NCoef="0" IVar="-1" Cut="0.0000000000000000e+00" cType="1" res="7.6042979955673218e-02" rms="2.7239540219306946e-01" purity="9.1928601264953613e-01" nType="-99"/>
          <Node pos="r" depth="2" NCoef="0" IVar="-1" Cut="0.0000000000000000e+00" cType="1" res="-9.0942867100238800e-02" rms="1.7053784104064107e-03" purity="0.0000000000000000e+00" nType="-99"/>
        </Node>
      </Node>
    </BinaryTree>
    <BinaryTree type="DecisionTree" boostWeight="1.0000000000000000e+00" itree="2">
      <Node pos="s" depth="0" NCoef="0" IVar="23" Cut="8.0981165170669556e-01" cType="1" res="1.4207477215677500e-03" rms="4.4803774356842041e-01" purity="5.0215893983840942e-01" nType="0">
        <Node pos="l" depth="1" NCoef="0" IVar="27" Cut="9.5205605030059814e-01" cType="1" res="-2.7071914076805115e-01" rms="3.6877220869064331e-01" purity="1.7212824523448944e-01" nType="0">
          <Node pos="l" depth="2" NCoef="0" IVar="-1" Cut="0.0000000000000000e+00" cType="1" res="-7.1581341326236725e-02" rms="2.7710133790969849e-01" purity="8.8143713772296906e-02" nType="-99"/>
          <Node pos="r" depth="2" NCoef="0" IVar="-1" Cut="0.0000000000000000e+00" cType="1" res="-2.4269852787256241e-02" rms="4.5989120006561279e-01" purity="3.2888373732566833e-01" nType="-99"/>
        </Node>
        <Node pos="r" depth="1" NCoef="0" IVar="3" Cut="3.0992736816406250e+00" cType="1" res="2.6702761650085449e-01" rms="3.4799313545227051e-01" purity="8.2426685094833374e-01" nType="0">
          <Node pos="l" depth="2" NCoef="0" IVar="-1" Cut="0.0000000000000000e+00" cType="1" res="6.6873051226139069e-02" rms="2.9703554511070251e-01" purity="8.9696753025054932e-01" nType="-99"/>
          <Node pos="r" depth="2" NCoef="0" IVar="-1" Cut="0.0000000000000000e+00" cType="1" res="-8.4257520735263824e-02" rms="1.5612574061378837e-03" purity="0.0000000000000000e+00" nType="-99"/>
        </Node>
      </Node>
    </BinaryTree>
    <BinaryTree type="DecisionTree" boostWeight="1.0000000000000000e+00" itree="3">
      <Node pos="s" depth="0" NCoef="0" IVar="23" Cut="9.0500271320343018e-01" cType="1" res="-1.7707591177895665e-04" rms="4.2653700709342957e-01" purity="5.0031507015228271e-01" nType="0">
        <Node pos="l" depth="1" NCoef="0" IVar="3" Cut="2.1541395187377930e+00" cType="1" res="-2.0358401536941528e-01" rms="3.9249593019485474e-01" purity="2.2932377457618713e-01" nType="0">
          <Node pos="l" depth="2" NCoef="0" IVar="-1" Cut="0.0000000000000000e+00" cType="1" res="-1.3424430973827839e-02" rms="4.7140944004058838e-01" purity="4.0026125311851501e-01" nType="-99"/>
          <Node pos="r" depth="2" NCoef="0" IVar="-1" Cut="0.0000000000000000e+00" cType="1" res="-6.8381197750568390e-02" rms="2.4827426671981812e-01" purity="7.7354267239570618e-02" nType="-99"/>
        </Node>
        <Node pos="r" depth="1" NCoef="0" IVar="3" Cut="2.8588232994079590e+00" cType="1" res="2.9526731371879578e-01" rms="2.7394750714302063e-01" purity="8.9392423629760742e-01" nType="0">
          <Node pos="l" depth="2" NCoef="0" IVar="-1" Cut="0.0000000000000000e+00" cType="1" res="7.0980593562126160e-02" rms="2.2067381441593170e-01" purity="9.4866806268692017e-01" nType="-99"/>
          <Node pos="r" depth="2" NCoef="0" IVar="-1" Cut="0.0000000000000000e+00" cType="1" res="-5.1457852125167847e-02" rms="3.1849735975265503e-01" purity="1.9612157344818115e-01" nType="-99"/>
        </Node>
      </Node>
    </BinaryTree>
    <BinaryTree type="DecisionTree" boostWeight="1.0000000000000000e+00" itree="4">
      <Node pos="s" depth="0" NCoef="0" IVar="23" Cut="7.6227873563766479e-01" cType="1" res="4.4926730333827436e-04" rms="4.0912985801696777e-01" purity="4.9952355027198792e-01" nType="0">
        <Node pos="l" depth="1" NCoef="0" IVar="27" Cut="9.5224648714065552e-01" cType="1" res="-2.4277417361736298e-01" rms="3.4398671984672546e-01" purity="1.5130373835563660e-01" nType="0">
          <Node pos="l" depth="2" NCoef="0" IVar="-1" Cut="0.0000000000000000e+00" cType="1" res="-6.4734205603599548e-02" rms="2.6097959280014038e-01" purity="7.8264698386192322e-02" nType="-99"/>
          <Node pos="r" depth="2" NCoef="0" IVar="-1" Cut="0.0000000000000000e+00" cType="1" res="-2.4650903418660164e-02" rms="4.4383367896080017e-01" purity="2.9886633157730103e-01" nType="-99"/>
        </Node>
        <Node pos="r" depth="1" NCoef="0" IVar="3" Cut="3.0971875190734863e+00" cType="1" res="2.0564997196197510e-01" rms="3.4170329570770264e-01" purity="7.9330670833587646e-01" nType="0">
          <Node pos="l" depth="2" NCoef="0" IVar="-1" Cut="0.0000000000000000e+00" cType="1" res="5.6497532874345779e-02" rms="3.0718591809272766e-01" purity="8.7633901834487915e-01" nType="-99"/>
          <Node pos="r" depth="2" NCoef="0" IVar="-1" Cut="0.0000000000000000e+00" cType="1" res="-7.5944870710372925e-02" rms="6.4611337147653103e-03" purity="0.0000000000000000e+00" nType="-99"/>
        </Node>
      </Node>
    </BinaryTree>
    <BinaryTree type="DecisionTree" boostWeight="1.0000000000000000e+00" itree="5">
      <Node pos="s" depth="0" NCoef="0" IVar="23" Cut="8.5741132497787476e-01" cType="1" res="3.1254994682967663e-03" rms="3.9362263679504395e-01" purity="5.0363516807556152e-01" nType="0">
        <Node pos="l" depth="1" NCoef="0" IVar="3" Cut="2.3862552642822266e+00" cType="1" res="-1.8042556941509247e-01" rms="3.7489745020866394e-01" purity="2.0135349035263062e-01" nType="0">
          <Node pos="l" depth="2" NCoef="0" IVar="-1" Cut="0.0000000000000000e+00" cType="1" res="-1.6104018315672874e-02" rms="4.6117794513702393e-01" purity="3.4525370597839355e-01" nType="-99"/>
          <Node pos="r" depth="2" NCoef="0" IVar="-1" Cut="0.0000000000000000e+00" cType="1" res="-6.5453186631202698e-02" rms="1.9792236387729645e-01" purity="4.6017490327358246e-02" nType="-99"/>
        </Node>
        <Node pos="r" depth="1" NCoef="0" IVar="3" Cut="3.1024091243743896e+00" cType="1" res="2.1993167698383331e-01" rms="2.9178205132484436e-01" purity="8.6068320274353027e-01" nType="0">
          <Node pos="l" depth="2" NCoef="0" IVar="-1" Cut="0.0000000000000000e+00" cType="1" res="5.7726040482521057e-02" rms="2.6487740874290466e-01" purity="9.2149698734283447e-01" nType="-99"/>
          <Node pos="r" depth="2" NCoef="0" IVar="-1" Cut="0.0000000000000000e+00" cType="1" res="-7.2136372327804565e-02" rms="3.2554380595684052e-03" purity="0.0000000000000000e+00" nType="-99"/>
        </Node>
      </Node>
    </BinaryTree>
    <BinaryTree type="DecisionTree" boostWeight="1.0000000000000000e+00" itree="6">
      <Node pos="s" depth="0" NCoef="0" IVar="23" Cut="7.6238334178924561e-01" cType="1" res="-7.8763510100543499e-04" rms="3.8020646572113037e-01" purity="4.9953955411911011e-01" nType="0">
        <Node pos="l" depth="1" NCoef="0" IVar="27" Cut="9.5205605030059814e-01" cType="1" res="-2.0120011270046234e-01" rms="3.3977261185646057e-01" purity="1.5094710886478424e-01" nType="0">
          <Node pos="l" depth="2" NCoef="0" IVar="-1" Cut="0.0000000000000000e+00" cType="1" res="-5.7912435382604599e-02" rms="2.6031482219696045e-01" purity="7.8530482947826385e-02" nType="-99"/>
          <Node pos="r" depth="2" NCoef="0" IVar="-1" Cut="0.0000000000000000e+00" cType="1" res="-2.0194226875901222e-02" rms="4.3853124976158142e-01" purity="2.9347541928291321e-01" nType="-99"/>
        </Node>
        <Node pos="r" depth="1" NCoef="0" IVar="3" Cut="2.8596618175506592e+00" cType="1" res="1.6578543186187744e-01" rms="3.2805961370468140e-01" purity="7.8927260637283325e-01" nType="0">
          <Node pos="l" depth="2" NCoef="0" IVar="-1" Cut="0.0000000000000000e+00" cType="1" res="5.0576113164424896e-02" rms="3.0057185888290405e-01" purity="8.8314443826675415e-01" nType="-99"/>
          <Node pos="r" depth="2" NCoef="0" IVar="-1" Cut="0.0000000000000000e+00" cType="1" res="-5.5503137409687042e-02" rms="2.3309391736984253e-01" purity="1.0847625881433487e-01" nType="-99"/>
        </Node>
      </Node>
    </BinaryTree>
    <BinaryTree type="DecisionTree" boostWeight="1.0000000000000000e+00" itree="7">
      <Node pos="s" depth="0" NCoef="0" IVar="23" Cut="9.0486288070678711e-01" cType="1" res="8.9709798339754343e-04" rms="3.6727100610733032e-01" purity="5.0094020366668701e-01" nType="0">
        <Node pos="l" depth="1" NCoef="0" IVar="27" Cut="9.5214259624481201e-01" cType="1" res="-1.3888159394264221e-01" rms="3.7117865681648254e-01" purity="2.3176497220993042e-01" nType="0">
          <Node pos="l" depth="2" NCoef="0" IVar="-1" Cut="0.0000000000000000e+00" cType="1" res="-5.1898270845413208e-02" rms="2.8771266341209412e-01" purity="1.1497776210308075e-01" nType="-99"/>
          <Node pos="r" depth="2" NCoef="0" IVar="-1" Cut="0.0000000000000000e+00" cType="1" res="-2.6226838235743344e-04" rms="4.4644960761070251e-01" purity="4.2679896950721741e-01" nType="-99"/>
        </Node>
        <Node pos="r" depth="1" NCoef="0" IVar="3" Cut="2.8614695072174072e+00" cType="1" res="2.0569495856761932e-01" rms="2.4513578414916992e-01" purity="8.9532440900802612e-01" nType="0">
          <Node pos="l" depth="2" NCoef="0" IVar="-1" Cut="0.0000000000000000e+00" cType="1" res="5.7561572641134262e-02" rms="2.1780519187450409e-01" purity="9.5005518198013306e-01" nType="-99"/>
          <Node pos="r" depth="2" NCoef="0" IVar="-1" Cut="0.0000000000000000e+00" cType="1" res="-3.9372701197862625e-02" rms="2.8053909540176392e-01" purity="1.9143530726432800e-01" nType="-99"/>
        </Node>
      </Node>
    </BinaryTree>
    <BinaryTree type="DecisionTree" boostWeight="1.0000000000000000e+00" itree="8">
      <Node pos="s" depth="0" NCoef="0" IVar="23" Cut="7.1487790346145630e-01" cType="1" res="-7.6402572449296713e-04" rms="3.5971507430076599e-01" purity="4.9719125032424927e-01" nType="0">
        <Node pos="l" depth="1" NCoef="0" IVar="25" Cut="4.6126451343297958e-02" cType="1" res="-1.7647702991962433e-01" rms="3.2728144526481628e-01" purity="1.4183557033538818e-01" nType="0">
          <Node pos="l" depth="2" NCoef="0" IVar="-1" Cut="0.0000000000000000e+00" cType="1" res="-2.1236984059214592e-02" rms="4.0398272871971130e-01" purity="2.4215377867221832e-01" nType="-99"/>
          <Node pos="r" depth="2" NCoef="0" IVar="-1" Cut="0.0000000000000000e+00" cType="1" res="-5.6660324335098267e-02" rms="2.4038101732730865e-01" purity="6.9184437394142151e-02" nType="-99"/>
        </Node>
        <Node pos="r" depth="1" NCoef="0" IVar="3" Cut="3.0986747741699219e+00" cType="1" res="1.2690640985965729e-01" rms="3.2688143849372864e-01" purity="7.5538736581802368e-01" nType="0">
          <Node pos="l" depth="2" NCoef="0" IVar="-1" Cut="0.0000000000000000e+00" cType="1" res="4.2432300746440887e-02" rms="3.1698420643806458e-01" purity="8.5034447908401489e-01" nType="-99"/>
          <Node pos="r" depth="2" NCoef="0" IVar="-1" Cut="0.0000000000000000e+00" cType="1" res="-6.6498667001724243e-02" rms="1.7826797440648079e-02" purity="0.0000000000000000e+00" nType="-99"/>
        </Node>
      </Node>
    </BinaryTree>
    <BinaryTree type="DecisionTree" boostWeight="1.0000000000000000e+00" itree="9">
      <Node pos="s" depth="0" NCoef="0" IVar="23" Cut="9.0482175350189209e-01" cType="1" res="-1.8879813142120838e-03" rms="3.4952616691589355e-01" purity="4.9826842546463013e-01" nType="0">
        <Node pos="l" depth="1" NCoef="0" IVar="7" Cut="1.5542711019515991e+00" cType="1" res="-1.1699465662240982e-01" rms="3.6299467086791992e-01" purity="2.3082275688648224e-01" nType="0">
          <Node pos="l" depth="2" NCoef="0" IVar="-1" Cut="0.0000000000000000e+00" cType="1" res="2.5524238590151072e-03" rms="4.5210829377174377e-01" purity="4.3688064813613892e-01" nType="-99"/>
          <Node pos="r" depth="2" NCoef="0" IVar="-1" Cut="0.0000000000000000e+00" cType="1" res="-4.5388560742139816e-02" rms="2.8683155775070190e-01" purity="1.2632387876510620e-01" nType="-99"/>
        </Node>
        <Node pos="r" depth="1" NCoef="0" IVar="3" Cut="2.8588232994079590e+00" cType="1" res="1.6653650999069214e-01" rms="2.4570950865745544e-01" purity="8.8959586620330811e-01" nType="0">
          <Node pos="l" depth="2" NCoef="0" IVar="-1" Cut="0.0000000000000000e+00" cType="1" res="5.1673308014869690e-02" rms="2.2583143413066864e-01" purity="9.4607108831405640e-01" nType="-99"/>
          <Node pos="r" depth="2" NCoef="0" IVar="-1" Cut="0.0000000000000000e+00" cType="1" res="-3.7732936441898346e-02" rms="2.7278479933738708e-01" purity="1.8414078652858734e-01" nType="-99"/>
        </Node>
      </Node>
    </BinaryTree>
    <BinaryTree type="DecisionTree" boostWeight="1.0000000000000000e+00" itree="10">
      <Node pos="s" depth="0" NCoef="0" IVar="23" Cut="7.1487748622894287e-01" cType="1" res="2.4159010499715805e-03" rms="3.4297344088554382e-01" purity="5.0235372781753540e-01" nType="0">
        <Node pos="l" depth="1" NCoef="0" IVar="16" Cut="3.6609011888504028e-01" cType="1" res="-1.4639462530612946e-01" rms="3.2568323612213135e-01" purity="1.4213052392005920e-01" nType="0">
          <Node pos="l" depth="2" NCoef="0" IVar="-1" Cut="0.0000000000000000e+00" cType="1" res="-5.0945848226547241e-02" rms="2.6596537232398987e-01" purity="8.5881084203720093e-02" nType="-99"/>
          <Node pos="r" depth="2" NCoef="0" IVar="-1" Cut="0.0000000000000000e+00" cType="1" res="-1.6904074698686600e-02" rms="3.7626811861991882e-01" purity="2.1623921394348145e-01" nType="-99"/>
        </Node>
        <Node pos="r" depth="1" NCoef="0" IVar="3" Cut="3.0978677272796631e+00" cType="1" res="1.0813302546739578e-01" rms="3.1454107165336609e-01" purity="7.5826144218444824e-01" nType="0">
          <Node pos="l" depth="2" NCoef="0" IVar="-1" Cut="0.0000000000000000e+00" cType="1" res="3.8391817361116409e-02" rms="3.1182932853698730e-01" purity="8.5176163911819458e-01" nType="-99"/>
          <Node pos="r" depth="2" NCoef="0" IVar="-1" Cut="0.0000000000000000e+00" cType="1" res="-6.3245311379432678e-02" rms="1.5333889052271843e-02" purity="0.0000000000000000e+00" nType="-99"/>
        </Node>
      </Node>
    </BinaryTree>
    <BinaryTree type="DecisionTree" boostWeight="1.0000000000000000e+00" itree="11">
      <Node pos="s" depth="0" NCoef="0" IVar="23" Cut="9.5237654447555542e-01" cType="1" res="-8.7062403326854110e-04" rms="3.3745017647743225e-01" purity="4.9691733717918396e-01" nType="0">
        <Node pos="l" depth="1" NCoef="0" IVar="27" Cut="9.5222848653793335e-01" cType="1" res="-8.1505782902240753e-02" rms="3.6060011386871338e-01" purity="2.8931567072868347e-01" nType="0">
          <Node pos="l" depth="2" NCoef="0" IVar="-1" Cut="0.0000000000000000e+00" cType="1" res="-4.3256338685750961e-02" rms="2.9876756668090820e-01" purity="1.4643499255180359e-01" nType="-99"/>
          <Node pos="r" depth="2" NCoef="0" IVar="-1" Cut="0.0000000000000000e+00" cType="1" res="9.0082641690969467e-03" rms="4.0924781560897827e-01" purity="5.0432544946670532e-01" nType="-99"/>
        </Node>
        <Node pos="r" depth="1" NCoef="0" IVar="24" Cut="7.6341140270233154e-01" cType="1" res="1.6671982407569885e-01" rms="1.9668795168399811e-01" purity="9.2839229106903076e-01" nType="0">
          <Node pos="l" depth="2" NCoef="0" IVar="-1" Cut="0.0000000000000000e+00" cType="1" res="1.3128348626196384e-02" rms="3.3558315038681030e-01" purity="7.5094360113143921e-01" nType="-99"/>
          <Node pos="r" depth="2" NCoef="0" IVar="-1" Cut="0.0000000000000000e+00" cType="1" res="5.6099105626344681e-02" rms="1.4742907881736755e-01" purity="9.6117997169494629e-01" nType="-99"/>
        </Node>
      </Node>
    </BinaryTree>
    <BinaryTree type="DecisionTree" boostWeight="1.0000000000000000e+00" itree="12">
      <Node pos="s" depth="0" NCoef="0" IVar="23" Cut="7.1457374095916748e-01" cType="1" res="-6.2293501105159521e-04" rms="3.3022803068161011e-01" purity="5.0095164775848389e-01" nType="0">
        <Node pos="l" depth="1" NCoef="0" IVar="3" Cut="1.9170204401016235e+00" cType="1" res="-1.2776440382003784e-01" rms="3.1810373067855835e-01" purity="1.3724172115325928e-01" nType="0">
          <Node pos="l" depth="2" NCoef="0" IVar="-1" Cut="0.0000000000000000e+00" cType="1" res="-1.0958616621792316e-02" rms="4.2756795883178711e-01" purity="2.7536615729331970e-01" nType="-99"/>
          <Node pos="r" depth="2" NCoef="0" IVar="-1" Cut="0.0000000000000000e+00" cType="1" res="-5.0343524664640427e-02" rms="2.1501351892948151e-01" purity="5.4708942770957947e-02" nType="-99"/>
        </Node>
        <Node pos="r" depth="1" NCoef="0" IVar="3" Cut="2.6245729923248291e+00" cType="1" res="8.9089326560497284e-02" rms="3.0845198035240173e-01" purity="7.5758892297744751e-01" nType="0">
          <Node pos="l" depth="2" NCoef="0" IVar="-1" Cut="0.0000000000000000e+00" cType="1" res="3.7303425371646881e-02" rms="2.9661712050437927e-01" purity="8.6986601352691650e-01" nType="-99"/>
          <Node pos="r" depth="2" NCoef="0" IVar="-1" Cut="0.0000000000000000e+00" cType="1" res="-3.4877207130193710e-02" rms="2.7716469764709473e-01" purity="2.2818243503570557e-01" nType="-99"/>
        </Node>
      </Node>
    </BinaryTree>
    <BinaryTree type="DecisionTree" boostWeight="1.0000000000000000e+00" itree="13">
      <Node pos="s" depth="0" NCoef="0" IVar="23" Cut="9.5238322019577026e-01" cType="1" res="3.2329256646335125e-04" rms="3.2641464471817017e-01" purity="5.0044196844100952e-01" nType="0">
        <Node pos="l" depth="1" NCoef="0" IVar="25" Cut="4.6256635338068008e-02" cType="1" res="-6.8888247013092041e-02" rms="3.5477966070175171e-01" purity="2.8857749700546265e-01" nType="0">
          <Node pos="l" depth="2" NCoef="0" IVar="-1" Cut="0.0000000000000000e+00" cType="1" res="5.8274040929973125e-03" rms="3.9452841877937317e-01" purity="4.4234699010848999e-01" nType="-99"/>
          <Node pos="r" depth="2" NCoef="0" IVar="-1" Cut="0.0000000000000000e+00" cType="1" res="-4.2130608111619949e-02" rms="2.9103103280067444e-01" purity="1.5039457380771637e-01" nType="-99"/>
        </Node>
        <Node pos="r" depth="1" NCoef="0" IVar="7" Cut="2.4936754703521729e+00" cType="1" res="1.4054659008979797e-01" rms="1.9501835107803345e-01" purity="9.2968165874481201e-01" nType="0">
          <Node pos="l" depth="2" NCoef="0" IVar="-1" Cut="0.0000000000000000e+00" cType="1" res="5.2075061947107315e-02" rms="1.6586028039455414e-01" purity="9.6734106540679932e-01" nType="-99"/>
          <Node pos="r" depth="2" NCoef="0" IVar="-1" Cut="0.0000000000000000e+00" cType="1" res="-1.8693937454372644e-03" rms="3.1136229634284973e-01" purity="6.3242262601852417e-01" nType="-99"/>
        </Node>
      </Node>
    </BinaryTree>
    <BinaryTree type="DecisionTree" boostWeight="1.0000000000000000e+00" itree="14">
      <Node pos="s" depth="0" NCoef="0" IVar="7" Cut="2.2404670715332031e+00" cType="1" res="2.3623984307050705e-03" rms="3.2221716642379761e-01" purity="5.0315183401107788e-01" nType="0">
        <Node pos="l" depth="1" NCoef="0" IVar="16" Cut="3.6502331495285034e-01" cType="1" res="7.3673799633979797e-02" rms="3.3505079150199890e-01" purity="6.8150073289871216e-01" nType="0">
          <Node pos="l" depth="2" NCoef="0" IVar="-1" Cut="0.0000000000000000e+00" cType="1" res="-1.2521917931735516e-02" rms="3.6502957344055176e-01" purity="4.4817978143692017e-01" nType="-99"/>
          <Node pos="r" depth="2" NCoef="0" IVar="-1" Cut="0.0000000000000000e+00" cType="1" res="4.2896654456853867e-02" rms="2.9296857118606567e-01" purity="8.2025617361068726e-01" nType="-99"/>
        </Node>
        <Node pos="r" depth="1" NCoef="0" IVar="3" Cut="1.9269291162490845e+00" cType="1" res="-1.3221612572669983e-01" rms="2.4535034596920013e-01" purity="1.6657271981239319e-01" nType="0">
          <Node pos="l" depth="2" NCoef="0" IVar="-1" Cut="0.0000000000000000e+00" cType="1" res="-2.1511691156774759e-03" rms="3.8377618789672852e-01" purity="5.3024333715438843e-01" nType="-99"/>
          <Node pos="r" depth="2" NCoef="0" IVar="-1" Cut="0.0000000000000000e+00" cType="1" res="-5.1243484020233154e-02" rms="1.9226005673408508e-01" purity="8.6751081049442291e-02" nType="-99"/>
        </Node>
      </Node>
    </BinaryTree>
    <BinaryTree type="DecisionTree" boostWeight="1.0000000000000000e+00" itree="15">
      <Node pos="s" depth="0" NCoef="0" IVar="25" Cut="4.6275034546852112e-02" cType="1" res="4.6667491551488638e-04" rms="3.1801158189773560e-01" purity="5.0136137008666992e-01" nType="0">
        <Node pos="l" depth="1" NCoef="0" IVar="3" Cut="3.0994513034820557e+00" cType="1" res="7.7772833406925201e-02" rms="3.1145340204238892e-01" purity="6.7521882057189941e-01" nType="0">
          <Node pos="l" depth="2" NCoef="0" IVar="-1" Cut="0.0000000000000000e+00" cType="1" res="3.2146677374839783e-02" rms="3.1570559740066528e-01" purity="7.6296037435531616e-01" nType="-99"/>
          <Node pos="r" depth="2" NCoef="0" IVar="-1" Cut="0.0000000000000000e+00" cType="1" res="-6.1454635113477707e-02" rms="3.2318316400051117e-02" purity="0.0000000000000000e+00" nType="-99"/>
        </Node>
        <Node pos="r" depth="1" NCoef="0" IVar="23" Cut="9.5238375663757324e-01" cType="1" res="-1.0195101797580719e-01" rms="2.9697400331497192e-01" purity="2.7102932333946228e-01" nType="0">
          <Node pos="l" depth="2" NCoef="0" IVar="-1" Cut="0.0000000000000000e+00" cType="1" res="-3.9926502853631973e-02" rms="2.8640955686569214e-01" purity="1.4730133116245270e-01" nType="-99"/>
          <Node pos="r" depth="2" NCoef="0" IVar="-1" Cut="0.0000000000000000e+00" cType="1" res="1.6263028606772423e-02" rms="2.9678726196289062e-01" purity="8.1326097249984741e-01" nType="-99"/>
        </Node>
      </Node>
    </BinaryTree>
    <BinaryTree type="DecisionTree" boostWeight="1.0000000000000000e+00" itree="16">
      <Node pos="s" depth="0" NCoef="0" IVar="23" Cut="6.6720002889633179e-01" cType="1" res="5.1084760343655944e-04" rms="3.1085252761840820e-01" purity="5.0115865468978882e-01" nType="0">
        <Node pos="l" depth="1" NCoef="0" IVar="16" Cut="3.9775067567825317e-01" cType="1" res="-1.0850604623556137e-01" rms="2.9723080992698669e-01" purity="1.2437293678522110e-01" nType="0">
          <Node pos="l" depth="2" NCoef="0" IVar="-1" Cut="0.0000000000000000e+00" cType="1" res="-4.4440221041440964e-02" rms="2.5431329011917114e-01" purity="7.9791270196437836e-02" nType="-99"/>
          <Node pos="r" depth="2" NCoef="0" IVar="-1" Cut="0.0000000000000000e+00" cType="1" res="-8.6570149287581444e-03" rms="3.4839650988578796e-01" purity="2.0482365787029266e-01" nType="-99"/>
        </Node>
        <Node pos="r" depth="1" NCoef="0" IVar="24" Cut="7.6228564977645874e-01" cType="1" res="6.5680190920829773e-02" rms="3.0038186907768250e-01" purity="7.2639781236648560e-01" nType="0">
          <Node pos="l" depth="2" NCoef="0" IVar="-1" Cut="0.0000000000000000e+00" cType="1" res="-2.3435942828655243e-02" rms="3.4548211097717285e-01" purity="4.2232647538185120e-01" nType="-99"/>
          <Node pos="r" depth="2" NCoef="0" IVar="-1" Cut="0.0000000000000000e+00" cType="1" res="3.5363666713237762e-02" rms="2.6882064342498779e-01" purity="8.2339107990264893e-01" nType="-99"/>
        </Node>
      </Node>
    </BinaryTree>
    <BinaryTree type="DecisionTree" boostWeight="1.0000000000000000e+00" itree="17">
      <Node pos="s" depth="0" NCoef="0" IVar="27" Cut="9.5214259624481201e-01" cType="1" res="-2.8328963089734316e-03" rms="3.0782788991928101e-01" purity="4.9518209695816040e-01" nType="0">
        <Node pos="l" depth="1" NCoef="0" IVar="23" Cut="9.5247530937194824e-01" cType="1" res="-8.3595447242259979e-02" rms="2.9357498884201050e-01" purity="2.8223252296447754e-01" nType="0">
          <Node pos="l" depth="2" NCoef="0" IVar="-1" Cut="0.0000000000000000e+00" cType="1" res="-3.5988185554742813e-02" rms="2.8930500149726868e-01" purity="1.5064601600170135e-01" nType="-99"/>
          <Node pos="r" depth="2" NCoef="0" IVar="-1" Cut="0.0000000000000000e+00" cType="1" res="1.7751494422554970e-02" rms="2.7470847964286804e-01" purity="8.3390951156616211e-01" nType="-99"/>
        </Node>
        <Node pos="r" depth="1" NCoef="0" IVar="3" Cut="3.0978677272796631e+00" cType="1" res="7.9598888754844666e-02" rms="3.0009081959724426e-01" purity="7.1253305673599243e-01" nType="0">
          <Node pos="l" depth="2" NCoef="0" IVar="-1" Cut="0.0000000000000000e+00" cType="1" res="3.3551827073097229e-02" rms="3.0196577310562134e-01" purity="7.9983240365982056e-01" nType="-99"/>
          <Node pos="r" depth="2" NCoef="0" IVar="-1" Cut="0.0000000000000000e+00" cType="1" res="-6.1776597052812576e-02" rms="2.2606935352087021e-02" purity="0.0000000000000000e+00" nType="-99"/>
        </Node>
      </Node>
    </BinaryTree>
    <BinaryTree type="DecisionTree" boostWeight="1.0000000000000000e+00" itree="18">
      <Node pos="s" depth="0" NCoef="0" IVar="23" Cut="6.2008762359619141e-01" cType="1" res="1.5663386147934943e-04" rms="3.0325159430503845e-01" purity="5.0033473968505859e-01" nType="0">
        <Node pos="l" depth="1" NCoef="0" IVar="16" Cut="3.6630570888519287e-01" cType="1" res="-1.0537429898977280e-01" rms="2.7919492125511169e-01" purity="1.1007038503885269e-01" nType="0">
          <Node pos="l" depth="2" NCoef="0" IVar="-1" Cut="0.0000000000000000e+00" cType="1" res="-4.6565998345613480e-02" rms="2.2844724357128143e-01" purity="6.1883788555860519e-02" nType="-99"/>
          <Node pos="r" depth="2" NCoef="0" IVar="-1" Cut="0.0000000000000000e+00" cType="1" res="-1.5091173350811005e-02" rms="3.2693311572074890e-01" purity="1.7439386248588562e-01" nType="-99"/>
        </Node>
        <Node pos="r" depth="1" NCoef="0" IVar="34" Cut="3.1748065948486328e+00" cType="1" res="5.3443226963281631e-02" rms="3.0095469951629639e-01" purity="6.9739407300949097e-01" nType="0">
          <Node pos="l" depth="2" NCoef="0" IVar="-1" Cut="0.0000000000000000e+00" cType="1" res="3.0389668419957161e-02" rms="2.8217518329620361e-01" purity="7.7715122699737549e-01" nType="-99"/>
          <Node pos="r" depth="2" NCoef="0" IVar="-1" Cut="0.0000000000000000e+00" cType="1" res="-2.9506484046578407e-02" rms="3.2234382629394531e-01" purity="4.0372061729431152e-01" nType="-99"/>
        </Node>
      </Node>
    </BinaryTree>
    <BinaryTree type="DecisionTree" boostWeight="1.0000000000000000e+00" itree="19">
      <Node pos="s" depth="0" NCoef="0" IVar="7" Cut="2.0900511741638184e+00" cType="1" res="-1.0569324949756265e-03" rms="3.0054330825805664e-01" purity="4.9988114833831787e-01" nType="0">
        <Node pos="l" depth="1" NCoef="0" IVar="16" Cut="3.2827588915824890e-01" cType="1" res="5.7533685117959976e-02" rms="3.1748497486114502e-01" purity="6.9199395179748535e-01" nType="0">
          <Node pos="l" depth="2" NCoef="0" IVar="-1" Cut="0.0000000000000000e+00" cType="1" res="-1.9060205668210983e-02" rms="3.5411962866783142e-01" purity="4.1140881180763245e-01" nType="-99"/>
          <Node pos="r" depth="2" NCoef="0" IVar="-1" Cut="0.0000000000000000e+00" cType="1" res="3.3601026982069016e-02" rms="2.8996270895004272e-01" purity="7.9362076520919800e-01" nType="-99"/>
        </Node>
        <Node pos="r" depth="1" NCoef="0" IVar="17" Cut="3.4068565368652344e+01" cType="1" res="-9.2156425118446350e-02" rms="2.4578376114368439e-01" purity="2.0117494463920593e-01" nType="0">
          <Node pos="l" depth="2" NCoef="0" IVar="-1" Cut="0.0000000000000000e+00" cType="1" res="-4.0066368877887726e-02" rms="2.3343278467655182e-01" purity="1.5213239192962646e-01" nType="-99"/>
          <Node pos="r" depth="2" NCoef="0" IVar="-1" Cut="0.0000000000000000e+00" cType="1" res="1.5133692882955074e-02" rms="2.8681880235671997e-01" purity="5.6369966268539429e-01" nType="-99"/>
        </Node>
      </Node>
    </BinaryTree>
    <BinaryTree type="DecisionTree" boostWeight="1.0000000000000000e+00" itree="20">
      <Node pos="s" depth="0" NCoef="0" IVar="27" Cut="9.5226937532424927e-01" cType="1" res="1.4648601645603776e-03" rms="2.9762068390846252e-01" purity="5.0364685058593750e-01" nType="0">
        <Node pos="l" depth="1" NCoef="0" IVar="34" Cut="1.9846696853637695e+00" cType="1" res="-6.8460308015346527e-02" rms="2.9050111770629883e-01" purity="2.8639078140258789e-01" nType="0">
          <Node pos="l" depth="2" NCoef="0" IVar="-1" Cut="0.0000000000000000e+00" cType="1" res="-3.3521763980388641e-03" rms="3.1094360351562500e-01" purity="4.1570210456848145e-01" nType="-99"/>
          <Node pos="r" depth="2" NCoef="0" IVar="-1" Cut="0.0000000000000000e+00" cType="1" res="-4.5746821910142899e-02" rms="2.5461655855178833e-01" purity="1.5472114086151123e-01" nType="-99"/>
        </Node>
        <Node pos="r" depth="1" NCoef="0" IVar="3" Cut="3.1041934490203857e+00" cType="1" res="7.0958368480205536e-02" rms="2.8818514943122864e-01" purity="7.1956169605255127e-01" nType="0">
          <Node pos="l" depth="2" NCoef="0" IVar="-1" Cut="0.0000000000000000e+00" cType="1" res="3.0860014259815216e-02" rms="2.9330998659133911e-01" purity="8.0407989025115967e-01" nType="-99"/>
          <Node pos="r" depth="2" NCoef="0" IVar="-1" Cut="0.0000000000000000e+00" cType="1" res="-5.9402473270893097e-02" rms="2.1426932886242867e-02" purity="0.0000000000000000e+00" nType="-99"/>
        </Node>
      </Node>
    </BinaryTree>
    <BinaryTree type="DecisionTree" boostWeight="1.0000000000000000e+00" itree="21">
      <Node pos="s" depth="0" NCoef="0" IVar="31" Cut="1.9050572067499161e-02" cType="1" res="-7.6805695425719023e-04" rms="2.9559826850891113e-01" purity="4.9915724992752075e-01" nType="0">
        <Node pos="l" depth="1" NCoef="0" IVar="3" Cut="3.0997743606567383e+00" cType="1" res="5.5676821619272232e-02" rms="2.8691554069519043e-01" purity="6.4185136556625366e-01" nType="0">
          <Node pos="l" depth="2" NCoef="0" IVar="-1" Cut="0.0000000000000000e+00" cType="1" res="2.7522975578904152e-02" rms="2.9957631230354309e-01" purity="7.4606537818908691e-01" nType="-99"/>
          <Node pos="r" depth="2" NCoef="0" IVar="-1" Cut="0.0000000000000000e+00" cType="1" res="-5.7137880474328995e-02" rms="2.3287665098905563e-02" purity="0.0000000000000000e+00" nType="-99"/>
        </Node>
        <Node pos="r" depth="1" NCoef="0" IVar="23" Cut="9.5246082544326782e-01" cType="1" res="-7.7378019690513611e-02" rms="2.8991326689720154e-01" purity="3.0548518896102905e-01" nType="0">
          <Node pos="l" depth="2" NCoef="0" IVar="-1" Cut="0.0000000000000000e+00" cType="1" res="-3.4687872976064682e-02" rms="2.8904908895492554e-01" purity="1.6788190603256226e-01" nType="-99"/>
          <Node pos="r" depth="2" NCoef="0" IVar="-1" Cut="0.0000000000000000e+00" cType="1" res="1.6081916168332100e-02" rms="2.6294499635696411e-01" purity="8.4526872634887695e-01" nType="-99"/>
        </Node>
      </Node>
    </BinaryTree>
    <BinaryTree type="DecisionTree" boostWeight="1.0000000000000000e+00" itree="22">
      <Node pos="s" depth="0" NCoef="0" IVar="21" Cut="1.8078784942626953e+01" cType="1" res="8.3802943117916584e-04" rms="2.9216745495796204e-01" purity="5.0234580039978027e-01" nType="0">
        <Node pos="l" depth="1" NCoef="0" IVar="16" Cut="3.6670452356338501e-01" cType="1" res="-4.7752406448125839e-02" rms="2.9576879739761353e-01" purity="3.6997371912002563e-01" nType="0">
          <Node pos="l" depth="2" NCoef="0" IVar="-1" Cut="0.0000000000000000e+00" cType="1" res="-3.9882440119981766e-02" rms="2.7757978439331055e-01" purity="1.9140660762786865e-01" nType="-99"/>
          <Node pos="r" depth="2" NCoef="0" IVar="-1" Cut="0.0000000000000000e+00" cType="1" res="3.5199029371142387e-03" rms="2.9715734720230103e-01" purity="5.1285624504089355e-01" nType="-99"/>
        </Node>
        <Node pos="r" depth="1" NCoef="0" IVar="7" Cut="2.6684780120849609e+00" cType="1" res="8.3553962409496307e-02" rms="2.6626354455947876e-01" purity="7.2768390178680420e-01" nType="0">
          <Node pos="l" depth="2" NCoef="0" IVar="-1" Cut="0.0000000000000000e+00" cType="1" res="4.0134403854608536e-02" rms="2.5980293750762939e-01" purity="8.1962257623672485e-01" nType="-99"/>
          <Node pos="r" depth="2" NCoef="0" IVar="-1" Cut="0.0000000000000000e+00" cType="1" res="-3.2866574823856354e-02" rms="2.3863342404365540e-01" purity="2.0399151742458344e-01" nType="-99"/>
        </Node>
      </Node>
    </BinaryTree>
    <BinaryTree type="DecisionTree" boostWeight="1.0000000000000000e+00" itree="23">
      <Node pos="s" depth="0" NCoef="0" IVar="25" Cut="4.6255223453044891e-02" cType="1" res="3.5177206154912710e-04" rms="2.8921204805374146e-01" purity="5.0070095062255859e-01" nType="0">
        <Node pos="l" depth="1" NCoef="0" IVar="3" Cut="3.0977692604064941e+00" cType="1" res="5.4486140608787537e-02" rms="2.8549173474311829e-01" purity="6.7445492744445801e-01" nType="0">
          <Node pos="l" depth="2" NCoef="0" IVar="-1" Cut="0.0000000000000000e+00" cType="1" res="2.5947662070393562e-02" rms="2.9653954505920410e-01" purity="7.6555460691452026e-01" nType="-99"/>
          <Node pos="r" depth="2" NCoef="0" IVar="-1" Cut="0.0000000000000000e+00" cType="1" res="-5.6922428309917450e-02" rms="2.3395450785756111e-02" purity="0.0000000000000000e+00" nType="-99"/>
        </Node>
        <Node pos="r" depth="1" NCoef="0" IVar="34" Cut="2.7786273956298828e+00" cType="1" res="-7.1841150522232056e-02" rms="2.7816358208656311e-01" purity="2.6898476481437683e-01" nType="0">
          <Node pos="l" depth="2" NCoef="0" IVar="-1" Cut="0.0000000000000000e+00" cType="1" res="-1.0658451355993748e-02" rms="2.9537543654441833e-01" purity="3.6772146821022034e-01" nType="-99"/>
          <Node pos="r" depth="2" NCoef="0" IVar="-1" Cut="0.0000000000000000e+00" cType="1" res="-5.1664553582668304e-02" rms="2.3524244129657745e-01" purity="1.1633328348398209e-01" nType="-99"/>
        </Node>
      </Node>
    </BinaryTree>
    <BinaryTree type="DecisionTree" boostWeight="1.0000000000000000e+00" itree="24">
      <Node pos="s" depth="0" NCoef="0" IVar="31" Cut="1.9041195511817932e-02" cType="1" res="-1.5517319552600384e-03" rms="2.8572052717208862e-01" purity="4.9759450554847717e-01" nType="0">
        <Node pos="l" depth="1" NCoef="0" IVar="3" Cut="2.8656806945800781e+00" cType="1" res="4.7378309071063995e-02" rms="2.7788892388343811e-01" purity="6.4153343439102173e-01" nType="0">
          <Node pos="l" depth="2" NCoef="0" IVar="-1" Cut="0.0000000000000000e+00" cType="1" res="2.5546656921505928e-02" rms="2.9128527641296387e-01" purity="7.6070028543472290e-01" nType="-99"/>
          <Node pos="r" depth="2" NCoef="0" IVar="-1" Cut="0.0000000000000000e+00" cType="1" res="-4.2026758193969727e-02" rms="1.3609245419502258e-01" purity="5.7829529047012329e-02" nType="-99"/>
        </Node>
        <Node pos="r" depth="1" NCoef="0" IVar="23" Cut="9.5244073867797852e-01" cType="1" res="-6.8184807896614075e-02" rms="2.8274875879287720e-01" purity="3.0157798528671265e-01" nType="0">
          <Node pos="l" depth="2" NCoef="0" IVar="-1" Cut="0.0000000000000000e+00" cType="1" res="-3.2045915722846985e-02" rms="2.8436708450317383e-01" purity="1.6684025526046753e-01" nType="-99"/>
          <Node pos="r" depth="2" NCoef="0" IVar="-1" Cut="0.0000000000000000e+00" cType="1" res="1.4991790987551212e-02" rms="2.5159159302711487e-01" purity="8.4402799606323242e-01" nType="-99"/>
        </Node>
      </Node>
    </BinaryTree>
    <BinaryTree type="DecisionTree" boostWeight="1.0000000000000000e+00" itree="25">
      <Node pos="s" depth="0" NCoef="0" IVar="16" Cut="3.6699822545051575e-01" cType="1" res="-9.7061670385301113e-04" rms="2.8626316785812378e-01" purity="4.9741730093955994e-01" nType="0">
        <Node pos="l" depth="1" NCoef="0" IVar="17" Cut="3.8591384887695312e+01" cType="1" res="-6.9088645279407501e-02" rms="2.9219111800193787e-01" purity="2.9544949531555176e-01" nType="0">
          <Node pos="l" depth="2" NCoef="0" IVar="-1" Cut="0.0000000000000000e+00" cType="1" res="-3.4272801131010056e-02" rms="2.8209945559501648e-01" purity="2.1438509225845337e-01" nType="-99"/>
          <Node pos="r" depth="2" NCoef="0" IVar="-1" Cut="0.0000000000000000e+00" cType="1" res="2.3224689066410065e-02" rms="3.0106654763221741e-01" purity="6.9719356298446655e-01" nType="-99"/>
        </Node>
        <Node pos="r" depth="1" NCoef="0" IVar="34" Cut="3.1749646663665771e+00" cType="1" res="4.6648874878883362e-02" rms="2.7209943532943726e-01" purity="6.3860756158828735e-01" nType="0">
          <Node pos="l" depth="2" NCoef="0" IVar="-1" Cut="0.0000000000000000e+00" cType="1" res="3.5097926855087280e-02" rms="2.5726372003555298e-01" purity="7.6219379901885986e-01" nType="-99"/>
          <Node pos="r" depth="2" NCoef="0" IVar="-1" Cut="0.0000000000000000e+00" cType="1" res="-2.7566654607653618e-02" rms="2.7429413795471191e-01" purity="3.0722391605377197e-01" nType="-99"/>
        </Node>
      </Node>
    </BinaryTree>
    <BinaryTree type="DecisionTree" boostWeight="1.0000000000000000e+00" itree="26">
      <Node pos="s" depth="0" NCoef="0" IVar="24" Cut="8.0967134237289429e-01" cType="1" res="8.8751898147165775e-04" rms="2.8197020292282104e-01" purity="5.0019174814224243e-01" nType="0">
        <Node pos="l" depth="1" NCoef="0" IVar="20" Cut="-3.3529212951660156e+01" cType="1" res="-7.2215437889099121e-02" rms="2.6749977469444275e-01" purity="2.4106889963150024e-01" nType="0">
          <Node pos="l" depth="2" NCoef="0" IVar="-1" Cut="0.0000000000000000e+00" cType="1" res="2.0046554505825043e-02" rms="2.9434707760810852e-01" purity="6.2252324819564819e-01" nType="-99"/>
          <Node pos="r" depth="2" NCoef="0" IVar="-1" Cut="0.0000000000000000e+00" cType="1" res="-3.3775880932807922e-02" rms="2.6024919748306274e-01" purity="1.9815014302730560e-01" nType="-99"/>
        </Node>
        <Node pos="r" depth="1" NCoef="0" IVar="16" Cut="3.2804754376411438e-01" cType="1" res="4.1732951998710632e-02" rms="2.8159457445144653e-01" purity="6.4497375488281250e-01" nType="0">
          <Node pos="l" depth="2" NCoef="0" IVar="-1" Cut="0.0000000000000000e+00" cType="1" res="-1.7141088843345642e-02" rms="3.2077726721763611e-01" purity="3.5365873575210571e-01" nType="-99"/>
          <Node pos="r" depth="2" NCoef="0" IVar="-1" Cut="0.0000000000000000e+00" cType="1" res="3.1622029840946198e-02" rms="2.5289520621299744e-01" purity="7.6873570680618286e-01" nType="-99"/>
        </Node>
      </Node>
    </BinaryTree>
    <BinaryTree type="DecisionTree" boostWeight="1.0000000000000000e+00" itree="27">
      <Node pos="s" depth="0" NCoef="0" IVar="27" Cut="9.0456056594848633e-01" cType="1" res="-2.7845639851875603e-04" rms="2.8177893161773682e-01" purity="4.9811893701553345e-01" nType="0">
        <Node pos="l" depth="1" NCoef="0" IVar="17" Cut="2.9229532241821289e+01" cType="1" res="-6.4984485507011414e-02" rms="2.6663419604301453e-01" purity="2.4799552559852600e-01" nType="0">
          <Node pos="l" depth="2" NCoef="0" IVar="-1" Cut="0.0000000000000000e+00" cType="1" res="-3.4335721284151077e-02" rms="2.5290894508361816e-01" purity="1.7954483628273010e-01" nType="-99"/>
          <Node pos="r" depth="2" NCoef="0" IVar="-1" Cut="0.0000000000000000e+00" cType="1" res="6.3043436966836452e-03" rms="3.0655777454376221e-01" purity="5.4796326160430908e-01" nType="-99"/>
        </Node>
        <Node pos="r" depth="1" NCoef="0" IVar="3" Cut="3.1027958393096924e+00" cType="1" res="3.9565190672874451e-02" rms="2.8345718979835510e-01" purity="6.5213596820831299e-01" nType="0">
          <Node pos="l" depth="2" NCoef="0" IVar="-1" Cut="0.0000000000000000e+00" cType="1" res="2.1177669987082481e-02" rms="2.9847487807273865e-01" purity="7.5147122144699097e-01" nType="-99"/>
          <Node pos="r" depth="2" NCoef="0" IVar="-1" Cut="0.0000000000000000e+00" cType="1" res="-5.5923096835613251e-02" rms="2.4842921644449234e-02" purity="0.0000000000000000e+00" nType="-99"/>
        </Node>
      </Node>
    </BinaryTree>
    <BinaryTree type="DecisionTree" boostWeight="1.0000000000000000e+00" itree="28">
      <Node pos="s" depth="0" NCoef="0" IVar="3" Cut="2.3846845626831055e+00" cType="1" res="1.4080284745432436e-04" rms="2.7787402272224426e-01" purity="4.9801024794578552e-01" nType="0">
        <Node pos="l" depth="1" NCoef="0" IVar="16" Cut="3.6457061767578125e-01" cType="1" res="3.5407960414886475e-02" rms="3.0437743663787842e-01" purity="6.8308967351913452e-01" nType="0">
          <Node pos="l" depth="2" NCoef="0" IVar="-1" Cut="0.0000000000000000e+00" cType="1" res="-1.3326930813491344e-02" rms="3.3991417288780212e-01" purity="4.4136330485343933e-01" nType="-99"/>
          <Node pos="r" depth="2" NCoef="0" IVar="-1" Cut="0.0000000000000000e+00" cType="1" res="3.1656678766012192e-02" rms="2.7017283439636230e-01" purity="8.2724565267562866e-01" nType="-99"/>
        </Node>
        <Node pos="r" depth="1" NCoef="0" IVar="17" Cut="3.3373355865478516e+01" cType="1" res="-6.6501751542091370e-02" rms="2.0313060283660889e-01" purity="1.4827530086040497e-01" nType="0">
          <Node pos="l" depth="2" NCoef="0" IVar="-1" Cut="0.0000000000000000e+00" cType="1" res="-3.9990961551666260e-02" rms="1.8925097584724426e-01" purity="1.0089407861232758e-01" nType="-99"/>
          <Node pos="r" depth="2" NCoef="0" IVar="-1" Cut="0.0000000000000000e+00" cType="1" res="1.3090836815536022e-02" rms="2.6715299487113953e-01" purity="5.0951653718948364e-01" nType="-99"/>
        </Node>
      </Node>
    </BinaryTree>
    <BinaryTree type="DecisionTree" boostWeight="1.0000000000000000e+00" itree="29">
      <Node pos="s" depth="0" NCoef="0" IVar="29" Cut="4.6697653830051422e-02" cType="1" res="-1.7553745419718325e-04" rms="2.7567946910858154e-01" purity="4.9925762414932251e-01" nType="0">
        <Node pos="l" depth="1" NCoef="0" IVar="3" Cut="3.0978677272796631e+00" cType="1" res="5.9072073549032211e-02" rms="2.5484377145767212e-01" purity="7.0725929737091064e-01" nType="0">
          <Node pos="l" depth="2" NCoef="0" IVar="-1" Cut="0.0000000000000000e+00" cType="1" res="3.0253985896706581e-02" rms="2.6580968499183655e-01" purity="8.0314296483993530e-01" nType="-99"/>
          <Node pos="r" depth="2" NCoef="0" IVar="-1" Cut="0.0000000000000000e+00" cType="1" res="-5.4815329611301422e-02" rms="2.3571047931909561e-02" purity="0.0000000000000000e+00" nType="-99"/>
        </Node>
        <Node pos="r" depth="1" NCoef="0" IVar="16" Cut="4.0118938684463501e-01" cType="1" res="-4.0900629013776779e-02" rms="2.8200325369834900e-01" purity="3.5628336668014526e-01" nType="0">
          <Node pos="l" depth="2" NCoef="0" IVar="-1" Cut="0.0000000000000000e+00" cType="1" res="-3.0605133622884750e-02" rms="2.7393063902854919e-01" purity="2.2257222235202789e-01" nType="-99"/>
          <Node pos="r" depth="2" NCoef="0" IVar="-1" Cut="0.0000000000000000e+00" cType="1" res="2.2375688422471285e-03" rms="2.8382787108421326e-01" purity="5.0847160816192627e-01" nType="-99"/>
        </Node>
      </Node>
    </BinaryTree>
    <BinaryTree type="DecisionTree" boostWeight="1.0000000000000000e+00" itree="30">
      <Node pos="s" depth="0" NCoef="0" IVar="27" Cut="9.5214259624481201e-01" cType="1" res="-4.7234198427759111e-04" rms="2.7192091941833496e-01" purity="5.0006455183029175e-01" nType="0">
        <Node pos="l" depth="1" NCoef="0" IVar="34" Cut="2.3809947967529297e+00" cType="1" res="-4.6666353940963745e-02" rms="2.6769986748695374e-01" purity="2.8888362646102905e-01" nType="0">
          <Node pos="l" depth="2" NCoef="0" IVar="-1" Cut="0.0000000000000000e+00" cType="1" res="-4.3635074980556965e-03" rms="2.8425425291061401e-01" purity="3.9868581295013428e-01" nType="-99"/>
          <Node pos="r" depth="2" NCoef="0" IVar="-1" Cut="0.0000000000000000e+00" cType="1" res="-4.1875030845403671e-02" rms="2.3647284507751465e-01" purity="1.4541614055633545e-01" nType="-99"/>
        </Node>
        <Node pos="r" depth="1" NCoef="0" IVar="23" Cut="3.8408368825912476e-01" cType="1" res="4.6369615942239761e-02" rms="2.6812818646430969e-01" purity="7.1420758962631226e-01" nType="0">
          <Node pos="l" depth="2" NCoef="0" IVar="-1" Cut="0.0000000000000000e+00" cType="1" res="-3.2843668013811111e-02" rms="3.0411681532859802e-01" purity="1.5235398709774017e-01" nType="-99"/>
          <Node pos="r" depth="2" NCoef="0" IVar="-1" Cut="0.0000000000000000e+00" cType="1" res="2.5455111637711525e-02" rms="2.5783461332321167e-01" purity="7.7656978368759155e-01" nType="-99"/>
        </Node>
      </Node>
    </BinaryTree>
    <BinaryTree type="DecisionTree" boostWeight="1.0000000000000000e+00" itree="31">
      <Node pos="s" depth="0" NCoef="0" IVar="24" Cut="6.6727775335311890e-01" cType="1" res="-8.6513755377382040e-04" rms="2.7184334397315979e-01" purity="4.9922442436218262e-01" nType="0">
        <Node pos="l" depth="1" NCoef="0" IVar="34" Cut="3.5711984634399414e+00" cType="1" res="-7.7693857252597809e-02" rms="2.5107651948928833e-01" purity="1.9390192627906799e-01" nType="0">
          <Node pos="l" depth="2" NCoef="0" IVar="-1" Cut="0.0000000000000000e+00" cType="1" res="-2.2443277761340141e-02" rms="2.7141344547271729e-01" purity="2.6720958948135376e-01" nType="-99"/>
          <Node pos="r" depth="2" NCoef="0" IVar="-1" Cut="0.0000000000000000e+00" cType="1" res="-5.7234801352024078e-02" rms="2.0284663140773773e-01" purity="6.0985997319221497e-02" nType="-99"/>
        </Node>
        <Node pos="r" depth="1" NCoef="0" IVar="23" Cut="5.7188332080841064e-01" cType="1" res="2.6571322232484818e-02" rms="2.7370816469192505e-01" purity="6.0825878381729126e-01" nType="0">
          <Node pos="l" depth="2" NCoef="0" IVar="-1" Cut="0.0000000000000000e+00" cType="1" res="-2.0336156710982323e-02" rms="2.9570287466049194e-01" purity="1.4409731328487396e-01" nType="-99"/>
          <Node pos="r" depth="2" NCoef="0" IVar="-1" Cut="0.0000000000000000e+00" cType="1" res="2.2308437153697014e-02" rms="2.6034772396087646e-01" purity="7.5960880517959595e-01" nType="-99"/>
        </Node>
      </Node>
    </BinaryTree>
    <BinaryTree type="DecisionTree" boostWeight="1.0000000000000000e+00" itree="32">
      <Node pos="s" depth="0" NCoef="0" IVar="32" Cut="1.9049024209380150e-02" cType="1" res="9.1776848421432078e-05" rms="2.7167406678199768e-01" purity="4.9930158257484436e-01" nType="0">
        <Node pos="l" depth="1" NCoef="0" IVar="16" Cut="3.2316365838050842e-01" cType="1" res="3.4034397453069687e-02" rms="2.6954540610313416e-01" purity="6.3501977920532227e-01" nType="0">
          <Node pos="l" depth="2" NCoef="0" IVar="-1" Cut="0.0000000000000000e+00" cType="1" res="-1.7220949754118919e-02" rms="3.0205783247947693e-01" purity="3.3859762549400330e-01" nType="-99"/>
          <Node pos="r" depth="2" NCoef="0" IVar="-1" Cut="0.0000000000000000e+00" cType="1" res="2.6139004155993462e-02" rms="2.5176110863685608e-01" purity="7.3449552059173584e-01" nType="-99"/>
        </Node>
        <Node pos="r" depth="1" NCoef="0" IVar="28" Cut="9.5275664329528809e-01" cType="1" res="-5.4673485457897186e-02" rms="2.6609683036804199e-01" purity="2.8032484650611877e-01" nType="0">
          <Node pos="l" depth="2" NCoef="0" IVar="-1" Cut="0.0000000000000000e+00" cType="1" res="-3.0008452013134956e-02" rms="2.6307243108749390e-01" purity="2.2368392348289490e-01" nType="-99"/>
          <Node pos="r" depth="2" NCoef="0" IVar="-1" Cut="0.0000000000000000e+00" cType="1" res="1.1829940602183342e-02" rms="2.6614665985107422e-01" purity="5.6992870569229126e-01" nType="-99"/>
        </Node>
      </Node>
    </BinaryTree>
    <BinaryTree type="DecisionTree" boostWeight="1.0000000000000000e+00" itree="33">
      <Node pos="s" depth="0" NCoef="0" IVar="17" Cut="2.3008377075195312e+01" cType="1" res="-1.7586920876055956e-03" rms="2.6619851589202881e-01" purity="4.9959629774093628e-01" nType="0">
        <Node pos="l" depth="1" NCoef="0" IVar="18" Cut="-3.3379539489746094e+01" cType="1" res="-3.7619773298501968e-02" rms="2.6555716991424561e-01" purity="3.3352181315422058e-01" nType="0">
          <Node pos="l" depth="2" NCoef="0" IVar="-1" Cut="0.0000000000000000e+00" cType="1" res="1.9674316048622131e-02" rms="2.7011996507644653e-01" purity="6.8035846948623657e-01" nType="-99"/>
          <Node pos="r" depth="2" NCoef="0" IVar="-1" Cut="0.0000000000000000e+00" cType="1" res="-2.3125957697629929e-02" rms="2.6145306229591370e-01" purity="2.6965779066085815e-01" nType="-99"/>
        </Node>
        <Node pos="r" depth="1" NCoef="0" IVar="9" Cut="3.2160240173339844e+01" cType="1" res="4.6777531504631042e-02" rms="2.5928148627281189e-01" purity="7.2437006235122681e-01" nType="0">
          <Node pos="l" depth="2" NCoef="0" IVar="-1" Cut="0.0000000000000000e+00" cType="1" res="2.5553165003657341e-02" rms="2.5339150428771973e-01" purity="7.5135111808776855e-01" nType="-99"/>
          <Node pos="r" depth="2" NCoef="0" IVar="-1" Cut="0.0000000000000000e+00" cType="1" res="-3.5094894468784332e-02" rms="2.7626532316207886e-01" purity="4.4379347562789917e-01" nType="-99"/>
        </Node>
      </Node>
    </BinaryTree>
    <BinaryTree type="DecisionTree" boostWeight="1.0000000000000000e+00" itree="34">
      <Node pos="s" depth="0" NCoef="0" IVar="33" Cut="3.8103617727756500e-02" cType="1" res="1.5324575360864401e-03" rms="2.6599550247192383e-01" purity="5.0185030698776245e-01" nType="0">
        <Node pos="l" depth="1" NCoef="0" IVar="3" Cut="3.1037976741790771e+00" cType="1" res="3.1797446310520172e-02" rms="2.6176336407661438e-01" purity="6.0219424962997437e-01" nType="0">
          <Node pos="l" depth="2" NCoef="0" IVar="-1" Cut="0.0000000000000000e+00" cType="1" res="2.0063389092683792e-02" rms="2.8194844722747803e-01" purity="7.2105383872985840e-01" nType="-99"/>
          <Node pos="r" depth="2" NCoef="0" IVar="-1" Cut="0.0000000000000000e+00" cType="1" res="-5.4272390902042389e-02" rms="2.5385720655322075e-02" purity="0.0000000000000000e+00" nType="-99"/>
        </Node>
        <Node pos="r" depth="1" NCoef="0" IVar="16" Cut="3.9923247694969177e-01" cType="1" res="-5.5658150464296341e-02" rms="2.6452335715293884e-01" purity="3.1223416328430176e-01" nType="0">
          <Node pos="l" depth="2" NCoef="0" IVar="-1" Cut="0.0000000000000000e+00" cType="1" res="-3.7334918975830078e-02" rms="2.5655996799468994e-01" purity="1.8618598580360413e-01" nType="-99"/>
          <Node pos="r" depth="2" NCoef="0" IVar="-1" Cut="0.0000000000000000e+00" cType="1" res="-5.7265330106019974e-03" rms="2.6744809746742249e-01" purity="4.6009317040443420e-01" nType="-99"/>
        </Node>
      </Node>
    </BinaryTree>
    <BinaryTree type="DecisionTree" boostWeight="1.0000000000000000e+00" itree="35">
      <Node pos="s" depth="0" NCoef="0" IVar="34" Cut="3.5715837478637695e+00" cType="1" res="-8.2311511505395174e-04" rms="2.6627507805824280e-01" purity="4.9870476126670837e-01" nType="0">
        <Node pos="l" depth="1" NCoef="0" IVar="16" Cut="3.6568301916122437e-01" cType="1" res="2.1447375416755676e-02" rms="2.6872298121452332e-01" purity="5.8246862888336182e-01" nType="0">
          <Node pos="l" depth="2" NCoef="0" IVar="-1" Cut="0.0000000000000000e+00" cType="1" res="-1.2610013596713543e-02" rms="2.9317530989646912e-01" purity="3.4662732481956482e-01" nType="-99"/>
          <Node pos="r" depth="2" NCoef="0" IVar="-1" Cut="0.0000000000000000e+00" cType="1" res="2.7382176369428635e-02" rms="2.4255536496639252e-01" purity="7.5002551078796387e-01" nType="-99"/>
        </Node>
        <Node pos="r" depth="1" NCoef="0" IVar="18" Cut="-2.8818344116210938e+01" cType="1" res="-7.8582085669040680e-02" rms="2.4197436869144440e-01" purity="2.0623740553855896e-01" nType="0">
          <Node pos="l" depth="2" NCoef="0" IVar="-1" Cut="0.0000000000000000e+00" cType="1" res="-1.8716662889346480e-03" rms="2.7296754717826843e-01" purity="5.3978657722473145e-01" nType="-99"/>
          <Node pos="r" depth="2" NCoef="0" IVar="-1" Cut="0.0000000000000000e+00" cType="1" res="-4.3360374867916107e-02" rms="2.3347489535808563e-01" purity="1.4608599245548248e-01" nType="-99"/>
        </Node>
      </Node>
    </BinaryTree>
    <BinaryTree type="DecisionTree" boostWeight="1.0000000000000000e+00" itree="36">
      <Node pos="s" depth="0" NCoef="0" IVar="24" Cut="7.1483099460601807e-01" cType="1" res="-6.0889904852956533e-04" rms="2.6237961649894714e-01" purity="4.9814555048942566e-01" nType="0">
        <Node pos="l" depth="1" NCoef="0" IVar="20" Cut="-2.5639156341552734e+01" cType="1" res="-6.0757201164960861e-02" rms="2.4599005281925201e-01" purity="1.9998955726623535e-01" nType="0">
          <Node pos="l" depth="2" NCoef="0" IVar="-1" Cut="0.0000000000000000e+00" cType="1" res="3.9873928762972355e-03" rms="2.9423001408576965e-01" purity="4.7512391209602356e-01" nType="-99"/>
          <Node pos="r" depth="2" NCoef="0" IVar="-1" Cut="0.0000000000000000e+00" cType="1" res="-3.5563401877880096e-02" rms="2.3351225256919861e-01" purity="1.4863304793834686e-01" nType="-99"/>
        </Node>
        <Node pos="r" depth="1" NCoef="0" IVar="16" Cut="3.2881575822830200e-01" cType="1" res="2.4367395788431168e-02" rms="2.6490899920463562e-01" purity="6.2195342779159546e-01" nType="0">
          <Node pos="l" depth="2" NCoef="0" IVar="-1" Cut="0.0000000000000000e+00" cType="1" res="-1.4455094002187252e-02" rms="2.9795667529106140e-01" purity="3.3723095059394836e-01" nType="-99"/>
          <Node pos="r" depth="2" NCoef="0" IVar="-1" Cut="0.0000000000000000e+00" cType="1" res="2.3385096341371536e-02" rms="2.4443259835243225e-01" purity="7.4371963739395142e-01" nType="-99"/>
        </Node>
      </Node>
    </BinaryTree>
    <BinaryTree type="DecisionTree" boostWeight="1.0000000000000000e+00" itree="37">
      <Node pos="s" depth="0" NCoef="0" IVar="3" Cut="1.9122861623764038e+00" cType="1" res="-1.0203391138929874e-04" rms="2.6429435610771179e-01" purity="4.9887350201606750e-01" nType="0">
        <Node pos="l" depth="1" NCoef="0" IVar="9" Cut="2.7199148178100586e+01" cType="1" res="3.6157745867967606e-02" rms="2.8596159815788269e-01" purity="7.1192681789398193e-01" nType="0">
          <Node pos="l" depth="2" NCoef="0" IVar="-1" Cut="0.0000000000000000e+00" cType="1" res="2.1706640720367432e-02" rms="2.8149861097335815e-01" purity="7.4730312824249268e-01" nType="-99"/>
          <Node pos="r" depth="2" NCoef="0" IVar="-1" Cut="0.0000000000000000e+00" cType="1" res="-3.1931824982166290e-02" rms="2.8371545672416687e-01" purity="4.7667840123176575e-01" nType="-99"/>
        </Node>
        <Node pos="r" depth="1" NCoef="0" IVar="18" Cut="-4.4270881652832031e+01" cType="1" res="-3.9845269173383713e-02" rms="2.3186841607093811e-01" purity="2.6535227894783020e-01" nType="0">
          <Node pos="l" depth="2" NCoef="0" IVar="-1" Cut="0.0000000000000000e+00" cType="1" res="3.2057248055934906e-02" rms="2.3644173145294189e-01" purity="7.5724375247955322e-01" nType="-99"/>
          <Node pos="r" depth="2" NCoef="0" IVar="-1" Cut="0.0000000000000000e+00" cType="1" res="-2.5576315820217133e-02" rms="2.2873276472091675e-01" purity="2.1926204860210419e-01" nType="-99"/>
        </Node>
      </Node>
    </BinaryTree>
    <BinaryTree type="DecisionTree" boostWeight="1.0000000000000000e+00" itree="38">
      <Node pos="s" depth="0" NCoef="0" IVar="34" Cut="3.1749055385589600e+00" cType="1" res="4.1341860196553171e-04" rms="2.6020032167434692e-01" purity="5.0199806690216064e-01" nType="0">
        <Node pos="l" depth="1" NCoef="0" IVar="11" Cut="7.4578084945678711e+00" cType="1" res="2.2428974509239197e-02" rms="2.6286289095878601e-01" purity="5.9755319356918335e-01" nType="0">
          <Node pos="l" depth="2" NCoef="0" IVar="-1" Cut="0.0000000000000000e+00" cType="1" res="2.0176570862531662e-02" rms="2.5972169637680054e-01" purity="6.5293902158737183e-01" nType="-99"/>
          <Node pos="r" depth="2" NCoef="0" IVar="-1" Cut="0.0000000000000000e+00" cType="1" res="-2.4644674733281136e-02" rms="2.5707095861434937e-01" purity="4.0654999017715454e-01" nType="-99"/>
        </Node>
        <Node pos="r" depth="1" NCoef="0" IVar="18" Cut="-3.0310209274291992e+01" cType="1" res="-6.2554039061069489e-02" rms="2.4159835278987885e-01" purity="2.2869740426540375e-01" nType="0">
          <Node pos="l" depth="2" NCoef="0" IVar="-1" Cut="0.0000000000000000e+00" cType="1" res="6.7005143500864506e-03" rms="2.5740268826484680e-01" purity="6.1138391494750977e-01" nType="-99"/>
          <Node pos="r" depth="2" NCoef="0" IVar="-1" Cut="0.0000000000000000e+00" cType="1" res="-3.8126807659864426e-02" rms="2.3567141592502594e-01" purity="1.5758836269378662e-01" nType="-99"/>
        </Node>
      </Node>
    </BinaryTree>
    <BinaryTree type="DecisionTree" boostWeight="1.0000000000000000e+00" itree="39">
      <Node pos="s" depth="0" NCoef="0" IVar="31" Cut="1.9042111933231354e-02" cType="1" res="-3.4041461185552180e-04" rms="2.5868099927902222e-01" purity="5.0224506855010986e-01" nType="0">
        <Node pos="l" depth="1" NCoef="0" IVar="23" Cut="3.3478748798370361e-01" cType="1" res="3.0933208763599396e-02" rms="2.5409758090972900e-01" purity="6.4279896020889282e-01" nType="0">
          <Node pos="l" depth="2" NCoef="0" IVar="-1" Cut="0.0000000000000000e+00" cType="1" res="-3.3794064074754715e-02" rms="2.4210692942142487e-01" purity="9.4771340489387512e-02" nType="-99"/>
          <Node pos="r" depth="2" NCoef="0" IVar="-1" Cut="0.0000000000000000e+00" cType="1" res="1.9952055066823959e-02" rms="2.5202116370201111e-01" purity="7.0622843503952026e-01" nType="-99"/>
        </Node>
        <Node pos="r" depth="1" NCoef="0" IVar="18" Cut="-4.0607315063476562e+01" cType="1" res="-4.3348293751478195e-02" rms="2.5875329971313477e-01" purity="3.0895355343818665e-01" nType="0">
          <Node pos="l" depth="2" NCoef="0" IVar="-1" Cut="0.0000000000000000e+00" cType="1" res="2.0376466214656830e-02" rms="2.5740769505500793e-01" purity="7.2955554723739624e-01" nType="-99"/>
          <Node pos="r" depth="2" NCoef="0" IVar="-1" Cut="0.0000000000000000e+00" cType="1" res="-2.4257879704236984e-02" rms="2.5689247250556946e-01" purity="2.6260173320770264e-01" nType="-99"/>
        </Node>
      </Node>
    </BinaryTree>
    <BinaryTree type="DecisionTree" boostWeight="1.0000000000000000e+00" itree="40">
      <Node pos="s" depth="0" NCoef="0" IVar="21" Cut="1.8078784942626953e+01" cType="1" res="-4.4304612674750388e-04" rms="2.5758293271064758e-01" purity="4.9850434064865112e-01" nType="0">
        <Node pos="l" depth="1" NCoef="0" IVar="16" Cut="3.6700451374053955e-01" cType="1" res="-2.7787759900093079e-02" rms="2.6686450839042664e-01" purity="3.6599576473236084e-01" nType="0">
          <Node pos="l" depth="2" NCoef="0" IVar="-1" Cut="0.0000000000000000e+00" cType="1" res="-2.8554938733577728e-02" rms="2.5825837254524231e-01" purity="1.8833945691585541e-01" nType="-99"/>
          <Node pos="r" depth="2" NCoef="0" IVar="-1" Cut="0.0000000000000000e+00" cType="1" res="1.2826314195990562e-03" rms="2.6963612437248230e-01" purity="5.0786918401718140e-01" nType="-99"/>
        </Node>
        <Node pos="r" depth="1" NCoef="0" IVar="7" Cut="2.1879405975341797e+00" cType="1" res="4.6897470951080322e-02" rms="2.3320835828781128e-01" purity="7.2790980339050293e-01" nType="0">
          <Node pos="l" depth="2" NCoef="0" IVar="-1" Cut="0.0000000000000000e+00" cType="1" res="3.2162774354219437e-02" rms="2.2955033183097839e-01" purity="8.5280132293701172e-01" nType="-99"/>
          <Node pos="r" depth="2" NCoef="0" IVar="-1" Cut="0.0000000000000000e+00" cType="1" res="-1.1554514989256859e-02" rms="2.3141250014305115e-01" purity="3.2194265723228455e-01" nType="-99"/>
        </Node>
      </Node>
    </BinaryTree>
    <BinaryTree type="DecisionTree" boostWeight="1.0000000000000000e+00" itree="41">
      <Node pos="s" depth="0" NCoef="0" IVar="33" Cut="1.9057130441069603e-02" cType="1" res="3.4658874938031659e-05" rms="2.5684058666229248e-01" purity="4.9827364087104797e-01" nType="0">
        <Node pos="l" depth="1" NCoef="0" IVar="3" Cut="2.8673672676086426e+00" cType="1" res="3.2652139663696289e-02" rms="2.4701873958110809e-01" purity="6.3582986593246460e-01" nType="0">
          <Node pos="l" depth="2" NCoef="0" IVar="-1" Cut="0.0000000000000000e+00" cType="1" res="2.1538378670811653e-02" rms="2.6305443048477173e-01" purity="7.6364243030548096e-01" nType="-99"/>
          <Node pos="r" depth="2" NCoef="0" IVar="-1" Cut="0.0000000000000000e+00" cType="1" res="-3.6640901118516922e-02" rms="1.2454768270254135e-01" purity="4.7874484211206436e-02" nType="-99"/>
        </Node>
        <Node pos="r" depth="1" NCoef="0" IVar="20" Cut="-3.8929088592529297e+01" cType="1" res="-3.6240763962268829e-02" rms="2.6262483000755310e-01" purity="3.4529086947441101e-01" nType="0">
          <Node pos="l" depth="2" NCoef="0" IVar="-1" Cut="0.0000000000000000e+00" cType="1" res="2.5517825037240982e-02" rms="2.4431726336479187e-01" purity="7.8166204690933228e-01" nType="-99"/>
          <Node pos="r" depth="2" NCoef="0" IVar="-1" Cut="0.0000000000000000e+00" cType="1" res="-2.1161999553442001e-02" rms="2.6250490546226501e-01" purity="2.9489576816558838e-01" nType="-99"/>
        </Node>
      </Node>
    </BinaryTree>
    <BinaryTree type="DecisionTree" boostWeight="1.0000000000000000e+00" itree="42">
      <Node pos="s" depth="0" NCoef="0" IVar="32" Cut="1.9047087058424950e-02" cType="1" res="-7.9802179243415594e-04" rms="2.5685718655586243e-01" purity="5.0023001432418823e-01" nType="0">
        <Node pos="l" depth="1" NCoef="0" IVar="16" Cut="3.6791664361953735e-01" cType="1" res="2.4806823581457138e-02" rms="2.5546142458915710e-01" purity="6.3657200336456299e-01" nType="0">
          <Node pos="l" depth="2" NCoef="0" IVar="-1" Cut="0.0000000000000000e+00" cType="1" res="-8.9033385738730431e-03" rms="2.9048377275466919e-01" purity="4.0206879377365112e-01" nType="-99"/>
          <Node pos="r" depth="2" NCoef="0" IVar="-1" Cut="0.0000000000000000e+00" cType="1" res="2.6763562113046646e-02" rms="2.2773078083992004e-01" purity="7.7459454536437988e-01" nType="-99"/>
        </Node>
        <Node pos="r" depth="1" NCoef="0" IVar="23" Cut="9.5236068964004517e-01" cType="1" res="-4.1803497821092606e-02" rms="2.5375071167945862e-01" purity="2.8188183903694153e-01" nType="0">
          <Node pos="l" depth="2" NCoef="0" IVar="-1" Cut="0.0000000000000000e+00" cType="1" res="-2.5527041405439377e-02" rms="2.5366833806037903e-01" purity="1.4898848533630371e-01" nType="-99"/>
          <Node pos="r" depth="2" NCoef="0" IVar="-1" Cut="0.0000000000000000e+00" cType="1" res="7.0396610535681248e-03" rms="2.4660731852054596e-01" purity="8.3068257570266724e-01" nType="-99"/>
        </Node>
      </Node>
    </BinaryTree>
    <BinaryTree type="DecisionTree" boostWeight="1.0000000000000000e+00" itree="43">
      <Node pos="s" depth="0" NCoef="0" IVar="23" Cut="5.7214474678039551e-01" cType="1" res="-6.9754925789311528e-04" rms="2.5552022457122803e-01" purity="4.9799895286560059e-01" nType="0">
        <Node pos="l" depth="1" NCoef="0" IVar="13" Cut="8.0201644897460938e+00" cType="1" res="-5.1480982452630997e-02" rms="2.3863206803798676e-01" purity="9.6708700060844421e-02" nType="0">
          <Node pos="l" depth="2" NCoef="0" IVar="-1" Cut="0.0000000000000000e+00" cType="1" res="-5.6466637179255486e-03" rms="2.5399777293205261e-01" purity="1.3003312051296234e-01" nType="-99"/>
          <Node pos="r" depth="2" NCoef="0" IVar="-1" Cut="0.0000000000000000e+00" cType="1" res="-3.5205181688070297e-02" rms="2.2395193576812744e-01" purity="7.4683070182800293e-02" nType="-99"/>
        </Node>
        <Node pos="r" depth="1" NCoef="0" IVar="34" Cut="4.3651380538940430e+00" cType="1" res="2.0818598568439484e-02" rms="2.5936606526374817e-01" purity="6.6801929473876953e-01" nType="0">
          <Node pos="l" depth="2" NCoef="0" IVar="-1" Cut="0.0000000000000000e+00" cType="1" res="1.6316248103976250e-02" rms="2.5392609834671021e-01" purity="7.2499543428421021e-01" nType="-99"/>
          <Node pos="r" depth="2" NCoef="0" IVar="-1" Cut="0.0000000000000000e+00" cType="1" res="-3.5743545740842819e-02" rms="2.7531102299690247e-01" purity="2.6895934343338013e-01" nType="-99"/>
        </Node>
      </Node>
    </BinaryTree>
    <BinaryTree type="DecisionTree" boostWeight="1.0000000000000000e+00" itree="44">
      <Node pos="s" depth="0" NCoef="0" IVar="34" Cut="2.3812522888183594e+00" cType="1" res="2.1601031767204404e-04" rms="2.5559154152870178e-01" purity="5.0008642673492432e-01" nType="0">
        <Node pos="l" depth="1" NCoef="0" IVar="13" Cut="8.0548086166381836e+00" cType="1" res="2.3199740797281265e-02" rms="2.5697368383407593e-01" purity="6.1674177646636963e-01" nType="0">
          <Node pos="l" depth="2" NCoef="0" IVar="-1" Cut="0.0000000000000000e+00" cType="1" res="3.4399509429931641e-02" rms="2.6580312848091125e-01" purity="6.7810994386672974e-01" nType="-99"/>
          <Node pos="r" depth="2" NCoef="0" IVar="-1" Cut="0.0000000000000000e+00" cType="1" res="-2.7505201287567616e-03" rms="2.4735665321350098e-01" purity="5.8511096239089966e-01" nType="-99"/>
        </Node>
        <Node pos="r" depth="1" NCoef="0" IVar="18" Cut="-3.9277385711669922e+01" cType="1" res="-4.1021790355443954e-02" rms="2.4780556559562683e-01" purity="2.9078146815299988e-01" nType="0">
          <Node pos="l" depth="2" NCoef="0" IVar="-1" Cut="0.0000000000000000e+00" cType="1" res="2.5080524384975433e-02" rms="2.3309727013111115e-01" purity="7.7706289291381836e-01" nType="-99"/>
          <Node pos="r" depth="2" NCoef="0" IVar="-1" Cut="0.0000000000000000e+00" cType="1" res="-2.6975458487868309e-02" rms="2.4704240262508392e-01" purity="2.3100998997688293e-01" nType="-99"/>
        </Node>
      </Node>
    </BinaryTree>
    <BinaryTree type="DecisionTree" boostWeight="1.0000000000000000e+00" itree="45">
      <Node pos="s" depth="0" NCoef="0" IVar="7" Cut="2.1495087146759033e+00" cType="1" res="5.3828099044039845e-04" rms="2.5315320491790771e-01" purity="5.0238430500030518e-01" nType="0">
        <Node pos="l" depth="1" NCoef="0" IVar="23" Cut="4.3019884824752808e-01" cType="1" res="2.4039072915911674e-02" rms="2.7176064252853394e-01" purity="6.8880677223205566e-01" nType="0">
          <Node pos="l" depth="2" NCoef="0" IVar="-1" Cut="0.0000000000000000e+00" cType="1" res="-2.3086357861757278e-02" rms="2.9061591625213623e-01" purity="1.4352662861347198e-01" nType="-99"/>
          <Node pos="r" depth="2" NCoef="0" IVar="-1" Cut="0.0000000000000000e+00" cType="1" res="1.7354175448417664e-02" rms="2.6567369699478149e-01" purity="7.7746242284774780e-01" nType="-99"/>
        </Node>
        <Node pos="r" depth="1" NCoef="0" IVar="15" Cut="5.9505047798156738e+00" cType="1" res="-3.8828030228614807e-02" rms="2.1272146701812744e-01" purity="1.9010713696479797e-01" nType="0">
          <Node pos="l" depth="2" NCoef="0" IVar="-1" Cut="0.0000000000000000e+00" cType="1" res="1.2638020562008023e-03" rms="2.2515407204627991e-01" purity="2.6986101269721985e-01" nType="-99"/>
          <Node pos="r" depth="2" NCoef="0" IVar="-1" Cut="0.0000000000000000e+00" cType="1" res="-3.1941056251525879e-02" rms="2.0593838393688202e-01" purity="1.6086968779563904e-01" nType="-99"/>
        </Node>
      </Node>
    </BinaryTree>
    <BinaryTree type="DecisionTree" boostWeight="1.0000000000000000e+00" itree="46">
      <Node pos="s" depth="0" NCoef="0" IVar="31" Cut="3.8078445941209793e-02" cType="1" res="2.5542853400111198e-03" rms="2.5303310155868530e-01" purity="5.0216627120971680e-01" nType="0">
        <Node pos="l" depth="1" NCoef="0" IVar="3" Cut="3.1027328968048096e+00" cType="1" res="2.3233903571963310e-02" rms="2.5261381268501282e-01" purity="6.0697990655899048e-01" nType="0">
          <Node pos="l" depth="2" NCoef="0" IVar="-1" Cut="0.0000000000000000e+00" cType="1" res="1.6107264906167984e-02" rms="2.7279204130172729e-01" purity="7.2089546918869019e-01" nType="-99"/>
          <Node pos="r" depth="2" NCoef="0" IVar="-1" Cut="0.0000000000000000e+00" cType="1" res="-5.3547423332929611e-02" rms="2.7879338711500168e-02" purity="0.0000000000000000e+00" nType="-99"/>
        </Node>
        <Node pos="r" depth="1" NCoef="0" IVar="21" Cut="2.8262285232543945e+01" cType="1" res="-4.5782707631587982e-02" rms="2.4735648930072784e-01" purity="2.5717261433601379e-01" nType="0">
          <Node pos="l" depth="2" NCoef="0" IVar="-1" Cut="0.0000000000000000e+00" cType="1" res="-2.7085026726126671e-02" rms="2.4449439346790314e-01" purity="2.1628248691558838e-01" nType="-99"/>
          <Node pos="r" depth="2" NCoef="0" IVar="-1" Cut="0.0000000000000000e+00" cType="1" res="1.5962706878781319e-02" rms="2.5834509730339050e-01" purity="6.1921197175979614e-01" nType="-99"/>
        </Node>
      </Node>
    </BinaryTree>
    <BinaryTree type="DecisionTree" boostWeight="1.0000000000000000e+00" itree="47">
      <Node pos="s" depth="0" NCoef="0" IVar="17" Cut="1.9027656555175781e+01" cType="1" res="1.3590246671810746e-03" rms="2.5194221735000610e-01" purity="5.0137609243392944e-01" nType="0">
        <Node pos="l" depth="1" NCoef="0" IVar="3" Cut="1.4358533620834351e+00" cType="1" res="-2.8540365397930145e-02" rms="2.5149342417716980e-01" purity="2.9762610793113708e-01" nType="0">
          <Node pos="l" depth="2" NCoef="0" IVar="-1" Cut="0.0000000000000000e+00" cType="1" res="6.4578778110444546e-03" rms="3.0324587225914001e-01" purity="5.8177816867828369e-01" nType="-99"/>
          <Node pos="r" depth="2" NCoef="0" IVar="-1" Cut="0.0000000000000000e+00" cType="1" res="-2.6404200121760368e-02" rms="2.2642552852630615e-01" purity="1.8981395661830902e-01" nType="-99"/>
        </Node>
        <Node pos="r" depth="1" NCoef="0" IVar="2" Cut="1.8698295593261719e+01" cType="1" res="2.9346019029617310e-02" rms="2.4913109838962555e-01" purity="6.9209408760070801e-01" nType="0">
          <Node pos="l" depth="2" NCoef="0" IVar="-1" Cut="0.0000000000000000e+00" cType="1" res="1.9019505009055138e-02" rms="2.4663388729095459e-01" purity="7.1860659122467041e-01" nType="-99"/>
          <Node pos="r" depth="2" NCoef="0" IVar="-1" Cut="0.0000000000000000e+00" cType="1" res="-4.2156275361776352e-02" rms="2.4561040103435516e-01" purity="3.2003971934318542e-01" nType="-99"/>
        </Node>
      </Node>
    </BinaryTree>
    <BinaryTree type="DecisionTree" boostWeight="1.0000000000000000e+00" itree="48">
      <Node pos="s" depth="0" NCoef="0" IVar="24" Cut="5.7226979732513428e-01" cType="1" res="9.0917799388989806e-04" rms="2.5120010972023010e-01" purity="5.0257956981658936e-01" nType="0">
        <Node pos="l" depth="1" NCoef="0" IVar="7" Cut="1.0096299648284912e+00" cType="1" res="-5.3301308304071426e-02" rms="2.2277279198169708e-01" purity="1.6973735392093658e-01" nType="0">
          <Node pos="l" depth="2" NCoef="0" IVar="-1" Cut="0.0000000000000000e+00" cType="1" res="-9.3959266087040305e-04" rms="3.1080186367034912e-01" purity="4.8373961448669434e-01" nType="-99"/>
          <Node pos="r" depth="2" NCoef="0" IVar="-1" Cut="0.0000000000000000e+00" cType="1" res="-3.9109535515308380e-02" rms="2.0098513364791870e-01" purity="1.1177062988281250e-01" nType="-99"/>
        </Node>
        <Node pos="r" depth="1" NCoef="0" IVar="9" Cut="3.5748153686523438e+01" cType="1" res="1.5973595902323723e-02" rms="2.5651922821998596e-01" purity="5.9507232904434204e-01" nType="0">
          <Node pos="l" depth="2" NCoef="0" IVar="-1" Cut="0.0000000000000000e+00" cType="1" res="1.1730682104825974e-02" rms="2.5526788830757141e-01" purity="6.1502414941787720e-01" nType="-99"/>
          <Node pos="r" depth="2" NCoef="0" IVar="-1" Cut="0.0000000000000000e+00" cType="1" res="-4.4796369969844818e-02" rms="2.4339316785335541e-01" purity="2.9880934953689575e-01" nType="-99"/>
        </Node>
      </Node>
    </BinaryTree>
    <BinaryTree type="DecisionTree" boostWeight="1.0000000000000000e+00" itree="49">
      <Node pos="s" depth="0" NCoef="0" IVar="21" Cut="2.3982583999633789e+01" cType="1" res="3.4600487560965121e-04" rms="2.5146511197090149e-01" purity="5.0037670135498047e-01" nType="0">
        <Node pos="l" depth="1" NCoef="0" IVar="11" Cut="7.4566903114318848e+00" cType="1" res="-1.5252022072672844e-02" rms="2.5981286168098450e-01" purity="4.0676653385162354e-01" nType="0">
          <Node pos="l" depth="2" NCoef="0" IVar="-1" Cut="0.0000000000000000e+00" cType="1" res="-1.1233056284254417e-04" rms="2.6049572229385376e-01" purity="4.4548699259757996e-01" nType="-99"/>
          <Node pos="r" depth="2" NCoef="0" IVar="-1" Cut="0.0000000000000000e+00" cType="1" res="-3.5735089331865311e-02" rms="2.4744634330272675e-01" purity="2.4645695090293884e-01" nType="-99"/>
        </Node>
        <Node pos="r" depth="1" NCoef="0" IVar="7" Cut="2.6913633346557617e+00" cType="1" res="4.8860915005207062e-02" rms="2.1644704043865204e-01" purity="7.9153460264205933e-01" nType="0">
          <Node pos="l" depth="2" NCoef="0" IVar="-1" Cut="0.0000000000000000e+00" cType="1" res="3.4174412488937378e-02" rms="2.1186748147010803e-01" purity="8.6768108606338501e-01" nType="-99"/>
          <Node pos="r" depth="2" NCoef="0" IVar="-1" Cut="0.0000000000000000e+00" cType="1" res="-2.5831900537014008e-02" rms="2.2571530938148499e-01" purity="2.4229054152965546e-01" nType="-99"/>
        </Node>
      </Node>
    </BinaryTree>
    <BinaryTree type="DecisionTree" boostWeight="1.0000000000000000e+00" itree="50">
      <Node pos="s" depth="0" NCoef="0" IVar="30" Cut="1.9074920564889908e-02" cType="1" res="6.6917673393618315e-05" rms="2.4875776469707489e-01" purity="4.9919518828392029e-01" nType="0">
        <Node pos="l" depth="1" NCoef="0" IVar="3" Cut="3.1032152175903320e+00" cType="1" res="2.6491956785321236e-02" rms="2.4228662252426147e-01" purity="6.4165192842483521e-01" nType="0">
          <Node pos="l" depth="2" NCoef="0" IVar="-1" Cut="0.0000000000000000e+00" cType="1" res="1.8194139003753662e-02" rms="2.5991857051849365e-01" purity="7.5113010406494141e-01" nType="-99"/>
          <Node pos="r" depth="2" NCoef="0" IVar="-1" Cut="0.0000000000000000e+00" cType="1" res="-5.3306318819522858e-02" rms="2.7475031092762947e-02" purity="0.0000000000000000e+00" nType="-99"/>
        </Node>
        <Node pos="r" depth="1" NCoef="0" IVar="17" Cut="3.6056205749511719e+01" cType="1" res="-2.9078623279929161e-02" rms="2.5251841545104980e-01" purity="3.4207239747047424e-01" nType="0">
          <Node pos="l" depth="2" NCoef="0" IVar="-1" Cut="0.0000000000000000e+00" cType="1" res="-1.9995281472802162e-02" rms="2.5065398216247559e-01" purity="2.7650669217109680e-01" nType="-99"/>
          <Node pos="r" depth="2" NCoef="0" IVar="-1" Cut="0.0000000000000000e+00" cType="1" res="1.8124608322978020e-02" rms="2.5260084867477417e-01" purity="7.3027354478836060e-01" nType="-99"/>
        </Node>
      </Node>
    </BinaryTree>
    <BinaryTree type="DecisionTree" boostWeight="1.0000000000000000e+00" itree="51">
      <Node pos="s" depth="0" NCoef="0" IVar="33" Cut="1.9072081893682480e-02" cType="1" res="8.5790338926017284e-04" rms="2.4842897057533264e-01" purity="5.0277483463287354e-01" nType="0">
        <Node pos="l" depth="1" NCoef="0" IVar="3" Cut="3.1027510166168213e+00" cType="1" res="2.7177132666110992e-02" rms="2.3989664018154144e-01" purity="6.3874292373657227e-01" nType="0">
          <Node pos="l" depth="2" NCoef="0" IVar="-1" Cut="0.0000000000000000e+00" cType="1" res="1.8420049920678139e-02" rms="2.5811746716499329e-01" purity="7.5105494260787964e-01" nType="-99"/>
          <Node pos="r" depth="2" NCoef="0" IVar="-1" Cut="0.0000000000000000e+00" cType="1" res="-5.2898328751325607e-02" rms="2.4143075570464134e-02" purity="0.0000000000000000e+00" nType="-99"/>
        </Node>
        <Node pos="r" depth="1" NCoef="0" IVar="16" Cut="3.9923247694969177e-01" cType="1" res="-2.8913781046867371e-02" rms="2.5448015332221985e-01" purity="3.4897091984748840e-01" nType="0">
          <Node pos="l" depth="2" NCoef="0" IVar="-1" Cut="0.0000000000000000e+00" cType="1" res="-2.7156651020050049e-02" rms="2.5260874629020691e-01" purity="2.1180607378482819e-01" nType="-99"/>
          <Node pos="r" depth="2" NCoef="0" IVar="-1" Cut="0.0000000000000000e+00" cType="1" res="9.5061270985752344e-04" rms="2.5303158164024353e-01" purity="5.0215870141983032e-01" nType="-99"/>
        </Node>
      </Node>
    </BinaryTree>
    <BinaryTree type="DecisionTree" boostWeight="1.0000000000000000e+00" itree="52">
      <Node pos="s" depth="0" NCoef="0" IVar="32" Cut="1.9048271700739861e-02" cType="1" res="1.0495101014385000e-04" rms="2.4859915673732758e-01" purity="5.0100934505462646e-01" nType="0">
        <Node pos="l" depth="1" NCoef="0" IVar="3" Cut="3.0977611541748047e+00" cType="1" res="2.1205173805356026e-02" rms="2.4853166937828064e-01" purity="6.3701552152633667e-01" nType="0">
          <Node pos="l" depth="2" NCoef="0" IVar="-1" Cut="0.0000000000000000e+00" cType="1" res="1.4892578125000000e-02" rms="2.6700931787490845e-01" purity="7.4569076299667358e-01" nType="-99"/>
          <Node pos="r" depth="2" NCoef="0" IVar="-1" Cut="0.0000000000000000e+00" cType="1" res="-5.3255807608366013e-02" rms="2.6627585291862488e-02" purity="0.0000000000000000e+00" nType="-99"/>
        </Node>
        <Node pos="r" depth="1" NCoef="0" IVar="9" Cut="2.2519905090332031e+01" cType="1" res="-3.3892948180437088e-02" rms="2.4491299688816071e-01" purity="2.8186833858489990e-01" nType="0">
          <Node pos="l" depth="2" NCoef="0" IVar="-1" Cut="0.0000000000000000e+00" cType="1" res="-1.1794395744800568e-02" rms="2.4792668223381042e-01" purity="2.9855859279632568e-01" nType="-99"/>
          <Node pos="r" depth="2" NCoef="0" IVar="-1" Cut="0.0000000000000000e+00" cType="1" res="-4.1773870587348938e-02" rms="2.2495798766613007e-01" purity="2.1197226643562317e-01" nType="-99"/>
        </Node>
      </Node>
    </BinaryTree>
    <BinaryTree type="DecisionTree" boostWeight="1.0000000000000000e+00" itree="53">
      <Node pos="s" depth="0" NCoef="0" IVar="20" Cut="-3.7170986175537109e+01" cType="1" res="-4.3325120350345969e-04" rms="2.4865470826625824e-01" purity="5.0018280744552612e-01" nType="0">
        <Node pos="l" depth="1" NCoef="0" IVar="13" Cut="8.1128845214843750e+00" cType="1" res="5.7307168841362000e-02" rms="2.0441243052482605e-01" purity="8.6271345615386963e-01" nType="0">
          <Node pos="l" depth="2" NCoef="0" IVar="-1" Cut="0.0000000000000000e+00" cType="1" res="5.2062537521123886e-02" rms="2.0414982736110687e-01" purity="9.0226972103118896e-01" nType="-99"/>
          <Node pos="r" depth="2" NCoef="0" IVar="-1" Cut="0.0000000000000000e+00" cType="1" res="2.4060023948550224e-02" rms="2.0206442475318909e-01" purity="8.4516119956970215e-01" nType="-99"/>
        </Node>
        <Node pos="r" depth="1" NCoef="0" IVar="16" Cut="4.0251189470291138e-01" cType="1" res="-1.2093031778931618e-02" rms="2.5508370995521545e-01" purity="4.2697530984878540e-01" nType="0">
          <Node pos="l" depth="2" NCoef="0" IVar="-1" Cut="0.0000000000000000e+00" cType="1" res="-1.8680812790989876e-02" rms="2.6231318712234497e-01" purity="2.6522606611251831e-01" nType="-99"/>
          <Node pos="r" depth="2" NCoef="0" IVar="-1" Cut="0.0000000000000000e+00" cType="1" res="8.1670815125107765e-03" rms="2.4452191591262817e-01" purity="5.9160196781158447e-01" nType="-99"/>
        </Node>
      </Node>
    </BinaryTree>
    <BinaryTree type="DecisionTree" boostWeight="1.0000000000000000e+00" itree="54">
      <Node pos="s" depth="0" NCoef="0" IVar="29" Cut="1.3971984386444092e-01" cType="1" res="-6.6530582262203097e-04" rms="2.4615348875522614e-01" purity="4.9847489595413208e-01" nType="0">
        <Node pos="l" depth="1" NCoef="0" IVar="7" Cut="2.1879405975341797e+00" cType="1" res="2.1519213914871216e-02" rms="2.3616129159927368e-01" purity="6.3569068908691406e-01" nType="0">
          <Node pos="l" depth="2" NCoef="0" IVar="-1" Cut="0.0000000000000000e+00" cType="1" res="1.9692346453666687e-02" rms="2.4103735387325287e-01" purity="7.9164367914199829e-01" nType="-99"/>
          <Node pos="r" depth="2" NCoef="0" IVar="-1" Cut="0.0000000000000000e+00" cType="1" res="-1.3437656685709953e-02" rms="2.1762840449810028e-01" purity="2.4577663838863373e-01" nType="-99"/>
        </Node>
        <Node pos="r" depth="1" NCoef="0" IVar="15" Cut="5.7403254508972168e+00" cType="1" res="-2.8762377798557281e-02" rms="2.5550460815429688e-01" purity="3.2468873262405396e-01" nType="0">
          <Node pos="l" depth="2" NCoef="0" IVar="-1" Cut="0.0000000000000000e+00" cType="1" res="1.2124918401241302e-02" rms="2.6480969786643982e-01" purity="4.9602866172790527e-01" nType="-99"/>
          <Node pos="r" depth="2" NCoef="0" IVar="-1" Cut="0.0000000000000000e+00" cType="1" res="-2.5121795013546944e-02" rms="2.4893520772457123e-01" purity="2.6098084449768066e-01" nType="-99"/>
        </Node>
      </Node>
    </BinaryTree>
    <BinaryTree type="DecisionTree" boostWeight="1.0000000000000000e+00" itree="55">
      <Node pos="s" depth="0" NCoef="0" IVar="34" Cut="4.3654184341430664e+00" cType="1" res="-1.6235701041296124e-03" rms="2.4626578390598297e-01" purity="4.9726542830467224e-01" nType="0">
        <Node pos="l" depth="1" NCoef="0" IVar="16" Cut="3.9820268750190735e-01" cType="1" res="8.6718350648880005e-03" rms="2.4987360835075378e-01" purity="5.6038427352905273e-01" nType="0">
          <Node pos="l" depth="2" NCoef="0" IVar="-1" Cut="0.0000000000000000e+00" cType="1" res="-9.6275229007005692e-03" rms="2.7168148756027222e-01" purity="3.7791183590888977e-01" nType="-99"/>
          <Node pos="r" depth="2" NCoef="0" IVar="-1" Cut="0.0000000000000000e+00" cType="1" res="2.1690975874662399e-02" rms="2.2305640578269958e-01" purity="7.3697555065155029e-01" nType="-99"/>
        </Node>
        <Node pos="r" depth="1" NCoef="0" IVar="3" Cut="2.8780446052551270e+00" cType="1" res="-5.6034523993730545e-02" rms="2.1832570433616638e-01" purity="1.6368404030799866e-01" nType="0">
          <Node pos="l" depth="2" NCoef="0" IVar="-1" Cut="0.0000000000000000e+00" cType="1" res="-3.1275510787963867e-02" rms="2.8672528266906738e-01" purity="2.9448392987251282e-01" nType="-99"/>
          <Node pos="r" depth="2" NCoef="0" IVar="-1" Cut="0.0000000000000000e+00" cType="1" res="-4.4888399541378021e-02" rms="7.3485933244228363e-02" purity="8.7220668792724609e-03" nType="-99"/>
        </Node>
      </Node>
    </BinaryTree>
    <BinaryTree type="DecisionTree" boostWeight="1.0000000000000000e+00" itree="56">
      <Node pos="s" depth="0" NCoef="0" IVar="24" Cut="5.2447015047073364e-01" cType="1" res="6.1993143754079938e-04" rms="2.4415977299213409e-01" purity="5.0352364778518677e-01" nType="0">
        <Node pos="l" depth="1" NCoef="0" IVar="3" Cut="3.0990719795227051e+00" cType="1" res="-4.8775367438793182e-02" rms="2.1553325653076172e-01" purity="1.5180857479572296e-01" nType="0">
          <Node pos="l" depth="2" NCoef="0" IVar="-1" Cut="0.0000000000000000e+00" cType="1" res="-2.6987252756953239e-02" rms="2.8021481633186340e-01" purity="2.5899562239646912e-01" nType="-99"/>
          <Node pos="r" depth="2" NCoef="0" IVar="-1" Cut="0.0000000000000000e+00" cType="1" res="-5.1952809095382690e-02" rms="1.6599314287304878e-02" purity="0.0000000000000000e+00" nType="-99"/>
        </Node>
        <Node pos="r" depth="1" NCoef="0" IVar="6" Cut="7.4087548255920410e+00" cType="1" res="1.2535623274743557e-02" rms="2.4911421537399292e-01" purity="5.8836835622787476e-01" nType="0">
          <Node pos="l" depth="2" NCoef="0" IVar="-1" Cut="0.0000000000000000e+00" cType="1" res="1.1025457642972469e-02" rms="2.4857923388481140e-01" purity="6.1178404092788696e-01" nType="-99"/>
          <Node pos="r" depth="2" NCoef="0" IVar="-1" Cut="0.0000000000000000e+00" cType="1" res="-3.7987083196640015e-02" rms="2.3506677150726318e-01" purity="3.3550587296485901e-01" nType="-99"/>
        </Node>
      </Node>
    </BinaryTree>
    <BinaryTree type="DecisionTree" boostWeight="1.0000000000000000e+00" itree="57">
      <Node pos="s" depth="0" NCoef="0" IVar="33" Cut="3.8111943751573563e-02" cType="1" res="-1.8379152752459049e-03" rms="2.4196135997772217e-01" purity="4.9749004840850830e-01" nType="0">
        <Node pos="l" depth="1" NCoef="0" IVar="2" Cut="1.7670375823974609e+01" cType="1" res="1.5535074286162853e-02" rms="2.3968300223350525e-01" purity="5.9773862361907959e-01" nType="0">
          <Node pos="l" depth="2" NCoef="0" IVar="-1" Cut="0.0000000000000000e+00" cType="1" res="1.2218180112540722e-02" rms="2.3886626958847046e-01" purity="6.1846274137496948e-01" nType="-99"/>
          <Node pos="r" depth="2" NCoef="0" IVar="-1" Cut="0.0000000000000000e+00" cType="1" res="-3.3265266567468643e-02" rms="2.3354220390319824e-01" purity="3.3986926078796387e-01" nType="-99"/>
        </Node>
        <Node pos="r" depth="1" NCoef="0" IVar="15" Cut="6.0969586372375488e+00" cType="1" res="-3.4627497196197510e-02" rms="2.4284075200557709e-01" purity="3.0828210711479187e-01" nType="0">
          <Node pos="l" depth="2" NCoef="0" IVar="-1" Cut="0.0000000000000000e+00" cType="1" res="-2.3747570812702179e-03" rms="2.5381225347518921e-01" purity="3.8150399923324585e-01" nType="-99"/>
          <Node pos="r" depth="2" NCoef="0" IVar="-1" Cut="0.0000000000000000e+00" cType="1" res="-2.8849547728896141e-02" rms="2.3344533145427704e-01" purity="2.6096329092979431e-01" nType="-99"/>
        </Node>
      </Node>
    </BinaryTree>
    <BinaryTree type="DecisionTree" boostWeight="1.0000000000000000e+00" itree="58">
      <Node pos="s" depth="0" NCoef="0" IVar="17" Cut="3.3295471191406250e+01" cType="1" res="-1.3776436680927873e-03" rms="2.4087795615196228e-01" purity="5.0062936544418335e-01" nType="0">
        <Node pos="l" depth="1" NCoef="0" IVar="16" Cut="3.2854610681533813e-01" cType="1" res="-1.4337751083076000e-02" rms="2.4624186754226685e-01" purity="4.0528273582458496e-01" nType="0">
          <Node pos="l" depth="2" NCoef="0" IVar="-1" Cut="0.0000000000000000e+00" cType="1" res="-2.7814777567982674e-02" rms="2.4153061211109161e-01" purity="1.6104520857334137e-01" nType="-99"/>
          <Node pos="r" depth="2" NCoef="0" IVar="-1" Cut="0.0000000000000000e+00" cType="1" res="1.1729908874258399e-03" rms="2.4648536741733551e-01" purity="5.1309764385223389e-01" nType="-99"/>
        </Node>
        <Node pos="r" depth="1" NCoef="0" IVar="9" Cut="2.4299915313720703e+01" cType="1" res="4.0940310806035995e-02" rms="2.1714349091053009e-01" purity="8.1195992231369019e-01" nType="0">
          <Node pos="l" depth="2" NCoef="0" IVar="-1" Cut="0.0000000000000000e+00" cType="1" res="3.0712952837347984e-02" rms="2.0882943272590637e-01" purity="8.4542447328567505e-01" nType="-99"/>
          <Node pos="r" depth="2" NCoef="0" IVar="-1" Cut="0.0000000000000000e+00" cType="1" res="-8.1735644489526749e-03" rms="2.4485594034194946e-01" purity="6.5352731943130493e-01" nType="-99"/>
        </Node>
      </Node>
    </BinaryTree>
    <BinaryTree type="DecisionTree" boostWeight="1.0000000000000000e+00" itree="59">
      <Node pos="s" depth="0" NCoef="0" IVar="34" Cut="4.7622528076171875e+00" cType="1" res="3.4623660030774772e-04" rms="2.4419961869716644e-01" purity="4.9883612990379333e-01" nType="0">
        <Node pos="l" depth="1" NCoef="0" IVar="2" Cut="1.0550500869750977e+01" cType="1" res="9.2506818473339081e-03" rms="2.4690437316894531e-01" purity="5.5455678701400757e-01" nType="0">
          <Node pos="l" depth="2" NCoef="0" IVar="-1" Cut="0.0000000000000000e+00" cType="1" res="1.3055171817541122e-02" rms="2.4587596952915192e-01" purity="6.0076498985290527e-01" nType="-99"/>
          <Node pos="r" depth="2" NCoef="0" IVar="-1" Cut="0.0000000000000000e+00" cType="1" res="-1.9317748025059700e-02" rms="2.4411472678184509e-01" purity="4.1001147031784058e-01" nType="-99"/>
        </Node>
        <Node pos="r" depth="1" NCoef="0" IVar="3" Cut="2.6418547630310059e+00" cType="1" res="-5.6333627551794052e-02" rms="2.1785537898540497e-01" purity="1.4415504038333893e-01" nType="0">
          <Node pos="l" depth="2" NCoef="0" IVar="-1" Cut="0.0000000000000000e+00" cType="1" res="-3.5386081784963608e-02" rms="2.8957414627075195e-01" purity="2.7263894677162170e-01" nType="-99"/>
          <Node pos="r" depth="2" NCoef="0" IVar="-1" Cut="0.0000000000000000e+00" cType="1" res="-3.5743176937103271e-02" rms="1.1494032293558121e-01" purity="2.9856503009796143e-02" nType="-99"/>
        </Node>
      </Node>
    </BinaryTree>
    <BinaryTree type="DecisionTree" boostWeight="1.0000000000000000e+00" itree="60">
      <Node pos="s" depth="0" NCoef="0" IVar="27" Cut="8.5715800523757935e-01" cType="1" res="-9.1270252596586943e-04" rms="2.4262171983718872e-01" purity="4.9697393178939819e-01" nType="0">
        <Node pos="l" depth="1" NCoef="0" IVar="34" Cut="1.1915949583053589e+00" cType="1" res="-3.4984473139047623e-02" rms="2.3726965487003326e-01" purity="2.2008731961250305e-01" nType="0">
          <Node pos="l" depth="2" NCoef="0" IVar="-1" Cut="0.0000000000000000e+00" cType="1" res="-2.3500982206314802e-03" rms="2.6124382019042969e-01" purity="3.5601648688316345e-01" nType="-99"/>
          <Node pos="r" depth="2" NCoef="0" IVar="-1" Cut="0.0000000000000000e+00" cType="1" res="-3.1123049557209015e-02" rms="2.2410498559474945e-01" purity="1.5801210701465607e-01" nType="-99"/>
        </Node>
        <Node pos="r" depth="1" NCoef="0" IVar="23" Cut="3.3478748798370361e-01" cType="1" res="1.4733538962900639e-02" rms="2.4344784021377563e-01" purity="6.2412416934967041e-01" nType="0">
          <Node pos="l" depth="2" NCoef="0" IVar="-1" Cut="0.0000000000000000e+00" cType="1" res="-3.0147321522235870e-02" rms="2.2741140425205231e-01" purity="9.0035490691661835e-02" nType="-99"/>
          <Node pos="r" depth="2" NCoef="0" IVar="-1" Cut="0.0000000000000000e+00" cType="1" res="1.2605320662260056e-02" rms="2.4363225698471069e-01" purity="6.8657106161117554e-01" nType="-99"/>
        </Node>
      </Node>
    </BinaryTree>
    <BinaryTree type="DecisionTree" boostWeight="1.0000000000000000e+00" itree="61">
      <Node pos="s" depth="0" NCoef="0" IVar="3" Cut="1.6784842014312744e+00" cType="1" res="1.0687124449759722e-03" rms="2.4113103747367859e-01" purity="5.0088250637054443e-01" nType="0">
        <Node pos="l" depth="1" NCoef="0" IVar="14" Cut="8.1140832901000977e+00" cType="1" res="2.5921154767274857e-02" rms="2.6003259420394897e-01" purity="7.2424310445785522e-01" nType="0">
          <Node pos="l" depth="2" NCoef="0" IVar="-1" Cut="0.0000000000000000e+00" cType="1" res="3.3174227923154831e-02" rms="2.7605375647544861e-01" purity="7.7444702386856079e-01" nType="-99"/>
          <Node pos="r" depth="2" NCoef="0" IVar="-1" Cut="0.0000000000000000e+00" cType="1" res="2.2277610842138529e-03" rms="2.4984182417392731e-01" purity="7.0290368795394897e-01" nType="-99"/>
        </Node>
        <Node pos="r" depth="1" NCoef="0" IVar="21" Cut="3.1803798675537109e+01" cType="1" res="-1.9174193963408470e-02" rms="2.2252081334590912e-01" purity="3.1894993782043457e-01" nType="0">
          <Node pos="l" depth="2" NCoef="0" IVar="-1" Cut="0.0000000000000000e+00" cType="1" res="-1.6159007325768471e-02" rms="2.2318774461746216e-01" purity="2.6933500170707703e-01" nType="-99"/>
          <Node pos="r" depth="2" NCoef="0" IVar="-1" Cut="0.0000000000000000e+00" cType="1" res="2.6594629511237144e-02" rms="2.0650480687618256e-01" purity="7.4972760677337646e-01" nType="-99"/>
        </Node>
      </Node>
    </BinaryTree>
    <BinaryTree type="DecisionTree" boostWeight="1.0000000000000000e+00" itree="62">
      <Node pos="s" depth="0" NCoef="0" IVar="28" Cut="7.6348096132278442e-01" cType="1" res="-1.4577339170500636e-03" rms="2.3942176997661591e-01" purity="4.9872940778732300e-01" nType="0">
        <Node pos="l" depth="1" NCoef="0" IVar="15" Cut="5.7219815254211426e+00" cType="1" res="-2.4134906008839607e-02" rms="2.4799317121505737e-01" purity="3.4265401959419250e-01" nType="0">
          <Node pos="l" depth="2" NCoef="0" IVar="-1" Cut="0.0000000000000000e+00" cType="1" res="1.0804964229464531e-02" rms="2.6324823498725891e-01" purity="5.0678330659866333e-01" nType="-99"/>
          <Node pos="r" depth="2" NCoef="0" IVar="-1" Cut="0.0000000000000000e+00" cType="1" res="-2.1126417443156242e-02" rms="2.4077521264553070e-01" purity="2.8807643055915833e-01" nType="-99"/>
        </Node>
        <Node pos="r" depth="1" NCoef="0" IVar="7" Cut="3.2296781539916992e+00" cType="1" res="2.2281728684902191e-02" rms="2.2770009934902191e-01" purity="6.6211599111557007e-01" nType="0">
          <Node pos="l" depth="2" NCoef="0" IVar="-1" Cut="0.0000000000000000e+00" cType="1" res="1.7499528825283051e-02" rms="2.2593171894550323e-01" purity="7.1839404106140137e-01" nType="-99"/>
          <Node pos="r" depth="2" NCoef="0" IVar="-1" Cut="0.0000000000000000e+00" cType="1" res="-3.0691320076584816e-02" rms="2.3038479685783386e-01" purity="1.8529215455055237e-01" nType="-99"/>
        </Node>
      </Node>
    </BinaryTree>
    <BinaryTree type="DecisionTree" boostWeight="1.0000000000000000e+00" itree="63">
      <Node pos="s" depth="0" NCoef="0" IVar="31" Cut="1.9039019942283630e-02" cType="1" res="-4.3765667942352593e-04" rms="2.3776964843273163e-01" purity="4.9785020947456360e-01" nType="0">
        <Node pos="l" depth="1" NCoef="0" IVar="2" Cut="1.7831783294677734e+01" cType="1" res="1.8287457525730133e-02" rms="2.3364365100860596e-01" purity="6.4132404327392578e-01" nType="0">
          <Node pos="l" depth="2" NCoef="0" IVar="-1" Cut="0.0000000000000000e+00" cType="1" res="1.3864948414266109e-02" rms="2.3242667317390442e-01" purity="6.6421812772750854e-01" nType="-99"/>
          <Node pos="r" depth="2" NCoef="0" IVar="-1" Cut="0.0000000000000000e+00" cType="1" res="-3.0603909865021706e-02" rms="2.3379145562648773e-01" purity="3.4829869866371155e-01" nType="-99"/>
        </Node>
        <Node pos="r" depth="1" NCoef="0" IVar="18" Cut="-3.2077838897705078e+01" cType="1" res="-2.6023617014288902e-02" rms="2.4095304310321808e-01" purity="3.0180782079696655e-01" nType="0">
          <Node pos="l" depth="2" NCoef="0" IVar="-1" Cut="0.0000000000000000e+00" cType="1" res="7.8355995938181877e-03" rms="2.5351825356483459e-01" purity="6.2523901462554932e-01" nType="-99"/>
          <Node pos="r" depth="2" NCoef="0" IVar="-1" Cut="0.0000000000000000e+00" cType="1" res="-1.9769018515944481e-02" rms="2.3757411539554596e-01" purity="2.3888836801052094e-01" nType="-99"/>
        </Node>
      </Node>
    </BinaryTree>
    <BinaryTree type="DecisionTree" boostWeight="1.0000000000000000e+00" itree="64">
      <Node pos="s" depth="0" NCoef="0" IVar="34" Cut="2.7780294418334961e+00" cType="1" res="-1.3666099403053522e-03" rms="2.3816935718059540e-01" purity="4.9911737442016602e-01" nType="0">
        <Node pos="l" depth="1" NCoef="0" IVar="13" Cut="8.0583438873291016e+00" cType="1" res="1.2253697961568832e-02" rms="2.3928847908973694e-01" purity="6.0299682617187500e-01" nType="0">
          <Node pos="l" depth="2" NCoef="0" IVar="-1" Cut="0.0000000000000000e+00" cType="1" res="2.6762483641505241e-02" rms="2.4672976136207581e-01" purity="6.6310268640518188e-01" nType="-99"/>
          <Node pos="r" depth="2" NCoef="0" IVar="-1" Cut="0.0000000000000000e+00" cType="1" res="-5.1199174486100674e-03" rms="2.3239798843860626e-01" purity="5.7098841667175293e-01" nType="-99"/>
        </Node>
        <Node pos="r" depth="1" NCoef="0" IVar="6" Cut="3.9489247798919678e+00" cType="1" res="-3.2874096184968948e-02" rms="2.3252250254154205e-01" purity="2.5881603360176086e-01" nType="0">
          <Node pos="l" depth="2" NCoef="0" IVar="-1" Cut="0.0000000000000000e+00" cType="1" res="-5.0006117671728134e-02" rms="2.1608534455299377e-01" purity="8.9169032871723175e-02" nType="-99"/>
          <Node pos="r" depth="2" NCoef="0" IVar="-1" Cut="0.0000000000000000e+00" cType="1" res="-1.2574483640491962e-02" rms="2.3554046452045441e-01" purity="3.0602297186851501e-01" nType="-99"/>
        </Node>
      </Node>
    </BinaryTree>
    <BinaryTree type="DecisionTree" boostWeight="1.0000000000000000e+00" itree="65">
      <Node pos="s" depth="0" NCoef="0" IVar="11" Cut="7.4577131271362305e+00" cType="1" res="-2.2215321223484352e-05" rms="2.3992793262004852e-01" purity="4.9720492959022522e-01" nType="0">
        <Node pos="l" depth="1" NCoef="0" IVar="34" Cut="1.9845370054244995e+00" cType="1" res="1.0597328655421734e-02" rms="2.3936969041824341e-01" purity="5.2861160039901733e-01" nType="0">
          <Node pos="l" depth="2" NCoef="0" IVar="-1" Cut="0.0000000000000000e+00" cType="1" res="1.9212836399674416e-02" rms="2.3900824785232544e-01" purity="6.8355226516723633e-01" nType="-99"/>
          <Node pos="r" depth="2" NCoef="0" IVar="-1" Cut="0.0000000000000000e+00" cType="1" res="-1.2158309109508991e-02" rms="2.3621873557567596e-01" purity="3.3442127704620361e-01" nType="-99"/>
        </Node>
        <Node pos="r" depth="1" NCoef="0" IVar="23" Cut="9.5247977972030640e-01" cType="1" res="-4.2100902646780014e-02" rms="2.3750402033329010e-01" purity="3.7275972962379456e-01" nType="0">
          <Node pos="l" depth="2" NCoef="0" IVar="-1" Cut="0.0000000000000000e+00" cType="1" res="-3.3866852521896362e-02" rms="2.5060960650444031e-01" purity="1.6873328387737274e-01" nType="-99"/>
          <Node pos="r" depth="2" NCoef="0" IVar="-1" Cut="0.0000000000000000e+00" cType="1" res="2.5194901973009109e-02" rms="1.7668740451335907e-01" purity="9.2328000068664551e-01" nType="-99"/>
        </Node>
      </Node>
    </BinaryTree>
    <BinaryTree type="DecisionTree" boostWeight="1.0000000000000000e+00" itree="66">
      <Node pos="s" depth="0" NCoef="0" IVar="3" Cut="2.1529746055603027e+00" cType="1" res="1.2123861815780401e-03" rms="2.3692294955253601e-01" purity="4.9852162599563599e-01" nType="0">
        <Node pos="l" depth="1" NCoef="0" IVar="9" Cut="3.8128154754638672e+01" cType="1" res="1.8499109894037247e-02" rms="2.5959688425064087e-01" purity="6.9924724102020264e-01" nType="0">
          <Node pos="l" depth="2" NCoef="0" IVar="-1" Cut="0.0000000000000000e+00" cType="1" res="1.1939428746700287e-02" rms="2.5967353582382202e-01" purity="7.1934169530868530e-01" nType="-99"/>
          <Node pos="r" depth="2" NCoef="0" IVar="-1" Cut="0.0000000000000000e+00" cType="1" res="-4.0706232190132141e-02" rms="2.3074196279048920e-01" purity="3.1682810187339783e-01" nType="-99"/>
        </Node>
        <Node pos="r" depth="1" NCoef="0" IVar="17" Cut="3.8719032287597656e+01" cType="1" res="-2.3946084082126617e-02" rms="1.9667243957519531e-01" purity="2.0639294385910034e-01" nType="0">
          <Node pos="l" depth="2" NCoef="0" IVar="-1" Cut="0.0000000000000000e+00" cType="1" res="-2.2268077358603477e-02" rms="1.9401158392429352e-01" purity="1.6222110390663147e-01" nType="-99"/>
          <Node pos="r" depth="2" NCoef="0" IVar="-1" Cut="0.0000000000000000e+00" cType="1" res="1.5983734279870987e-02" rms="2.1434789896011353e-01" purity="6.4404404163360596e-01" nType="-99"/>
        </Node>
      </Node>
    </BinaryTree>
    <BinaryTree type="DecisionTree" boostWeight="1.0000000000000000e+00" itree="67">
      <Node pos="s" depth="0" NCoef="0" IVar="21" Cut="1.7893562316894531e+01" cType="1" res="-7.9484895104542375e-04" rms="2.3684221506118774e-01" purity="4.9523425102233887e-01" nType="0">
        <Node pos="l" depth="1" NCoef="0" IVar="15" Cut="5.9346647262573242e+00" cType="1" res="-1.6091896221041679e-02" rms="2.4671268463134766e-01" purity="3.5994625091552734e-01" nType="0">
          <Node pos="l" depth="2" NCoef="0" IVar="-1" Cut="0.0000000000000000e+00" cType="1" res="8.3236712962388992e-03" rms="2.5460314750671387e-01" purity="4.8127028346061707e-01" nType="-99"/>
          <Node pos="r" depth="2" NCoef="0" IVar="-1" Cut="0.0000000000000000e+00" cType="1" res="-1.8139859661459923e-02" rms="2.4088656902313232e-01" purity="2.9739746451377869e-01" nType="-99"/>
        </Node>
        <Node pos="r" depth="1" NCoef="0" IVar="33" Cut="1.9056357443332672e-02" cType="1" res="2.5058029219508171e-02" rms="2.1671156585216522e-01" purity="7.2387862205505371e-01" nType="0">
          <Node pos="l" depth="2" NCoef="0" IVar="-1" Cut="0.0000000000000000e+00" cType="1" res="2.7480605989694595e-02" rms="1.9713552296161652e-01" purity="8.1974232196807861e-01" nType="-99"/>
          <Node pos="r" depth="2" NCoef="0" IVar="-1" Cut="0.0000000000000000e+00" cType="1" res="-3.3115411642938852e-03" rms="2.4777255952358246e-01" purity="5.3591299057006836e-01" nType="-99"/>
        </Node>
      </Node>
    </BinaryTree>
    <BinaryTree type="DecisionTree" boostWeight="1.0000000000000000e+00" itree="68">
      <Node pos="s" depth="0" NCoef="0" IVar="16" Cut="4.0256804227828979e-01" cType="1" res="-8.5603306069970131e-04" rms="2.3784227669239044e-01" purity="4.9679601192474365e-01" nType="0">
        <Node pos="l" depth="1" NCoef="0" IVar="9" Cut="1.4736528396606445e+01" cType="1" res="-2.1031817421317101e-02" rms="2.5396367907524109e-01" purity="3.3741942048072815e-01" nType="0">
          <Node pos="l" depth="2" NCoef="0" IVar="-1" Cut="0.0000000000000000e+00" cType="1" res="7.9997675493359566e-03" rms="2.5628507137298584e-01" purity="3.9914539456367493e-01" nType="-99"/>
          <Node pos="r" depth="2" NCoef="0" IVar="-1" Cut="0.0000000000000000e+00" cType="1" res="-2.8516937047243118e-02" rms="2.4623036384582520e-01" purity="2.7390024065971375e-01" nType="-99"/>
        </Node>
        <Node pos="r" depth="1" NCoef="0" IVar="6" Cut="3.8375313282012939e+00" cType="1" res="1.9136417657136917e-02" rms="2.1888200938701630e-01" purity="6.5472441911697388e-01" nType="0">
          <Node pos="l" depth="2" NCoef="0" IVar="-1" Cut="0.0000000000000000e+00" cType="1" res="-4.4006582349538803e-02" rms="2.2614882886409760e-01" purity="1.7984291911125183e-01" nType="-99"/>
          <Node pos="r" depth="2" NCoef="0" IVar="-1" Cut="0.0000000000000000e+00" cType="1" res="1.7891446128487587e-02" rms="2.1604356169700623e-01" purity="6.9891726970672607e-01" nType="-99"/>
        </Node>
      </Node>
    </BinaryTree>
    <BinaryTree type="DecisionTree" boostWeight="1.0000000000000000e+00" itree="69">
      <Node pos="s" depth="0" NCoef="0" IVar="20" Cut="-3.3554828643798828e+01" cType="1" res="5.8338185772299767e-04" rms="2.3604652285575867e-01" purity="4.9866297841072083e-01" nType="0">
        <Node pos="l" depth="1" NCoef="0" IVar="11" Cut="7.3057441711425781e+00" cType="1" res="3.8092348724603653e-02" rms="2.0090748369693756e-01" purity="8.3342945575714111e-01" nType="0">
          <Node pos="l" depth="2" NCoef="0" IVar="-1" Cut="0.0000000000000000e+00" cType="1" res="3.8499508053064346e-02" rms="1.7850698530673981e-01" purity="9.0041369199752808e-01" nType="-99"/>
          <Node pos="r" depth="2" NCoef="0" IVar="-1" Cut="0.0000000000000000e+00" cType="1" res="7.3436195962131023e-03" rms="2.2832505404949188e-01" purity="7.3256003856658936e-01" nType="-99"/>
        </Node>
        <Node pos="r" depth="1" NCoef="0" IVar="19" Cut="2.5718742370605469e+01" cType="1" res="-9.0401675552129745e-03" rms="2.4331818521022797e-01" purity="4.1277304291725159e-01" nType="0">
          <Node pos="l" depth="2" NCoef="0" IVar="-1" Cut="0.0000000000000000e+00" cType="1" res="-9.8977591842412949e-03" rms="2.4625401198863983e-01" purity="3.4732404351234436e-01" nType="-99"/>
          <Node pos="r" depth="2" NCoef="0" IVar="-1" Cut="0.0000000000000000e+00" cType="1" res="1.8456412479281425e-02" rms="2.2373959422111511e-01" purity="7.3311144113540649e-01" nType="-99"/>
        </Node>
      </Node>
    </BinaryTree>
    <BinaryTree type="DecisionTree" boostWeight="1.0000000000000000e+00" itree="70">
      <Node pos="s" depth="0" NCoef="0" IVar="30" Cut="1.9074920564889908e-02" cType="1" res="-1.4370908320415765e-04" rms="2.3431523144245148e-01" purity="4.9846941232681274e-01" nType="0">
        <Node pos="l" depth="1" NCoef="0" IVar="3" Cut="3.0978677272796631e+00" cType="1" res="1.7876535654067993e-02" rms="2.2683992981910706e-01" purity="6.4239174127578735e-01" nType="0">
          <Node pos="l" depth="2" NCoef="0" IVar="-1" Cut="0.0000000000000000e+00" cType="1" res="1.4274752698838711e-02" rms="2.4445334076881409e-01" purity="7.5329083204269409e-01" nType="-99"/>
          <Node pos="r" depth="2" NCoef="0" IVar="-1" Cut="0.0000000000000000e+00" cType="1" res="-5.2714224904775620e-02" rms="2.5324583053588867e-02" purity="0.0000000000000000e+00" nType="-99"/>
        </Node>
        <Node pos="r" depth="1" NCoef="0" IVar="16" Cut="3.6663019657135010e-01" cType="1" res="-1.9932759925723076e-02" rms="2.4070952832698822e-01" purity="3.4042003750801086e-01" nType="0">
          <Node pos="l" depth="2" NCoef="0" IVar="-1" Cut="0.0000000000000000e+00" cType="1" res="-2.1903825923800468e-02" rms="2.3334127664566040e-01" purity="1.8489366769790649e-01" nType="-99"/>
          <Node pos="r" depth="2" NCoef="0" IVar="-1" Cut="0.0000000000000000e+00" cType="1" res="-2.2915815934538841e-03" rms="2.4565781652927399e-01" purity="4.7205764055252075e-01" nType="-99"/>
        </Node>
      </Node>
    </BinaryTree>
    <BinaryTree type="DecisionTree" boostWeight="1.0000000000000000e+00" itree="71">
      <Node pos="s" depth="0" NCoef="0" IVar="21" Cut="9.9569149017333984e+00" cType="1" res="1.1873125331476331e-03" rms="2.3618635535240173e-01" purity="4.9989813566207886e-01" nType="0">
        <Node pos="l" depth="1" NCoef="0" IVar="13" Cut="7.9863562583923340e+00" cType="1" res="-2.2173386067152023e-02" rms="2.4370430409908295e-01" purity="3.1106555461883545e-01" nType="0">
          <Node pos="l" depth="2" NCoef="0" IVar="-1" Cut="0.0000000000000000e+00" cType="1" res="1.0823169723153114e-03" rms="2.4715596437454224e-01" purity="3.3356729149818420e-01" nType="-99"/>
          <Node pos="r" depth="2" NCoef="0" IVar="-1" Cut="0.0000000000000000e+00" cType="1" res="-2.1843919530510902e-02" rms="2.3963135480880737e-01" purity="2.9463413357734680e-01" nType="-99"/>
        </Node>
        <Node pos="r" depth="1" NCoef="0" IVar="23" Cut="2.4023886024951935e-01" cType="1" res="1.5589906834065914e-02" rms="2.3025158047676086e-01" purity="6.1631929874420166e-01" nType="0">
          <Node pos="l" depth="2" NCoef="0" IVar="-1" Cut="0.0000000000000000e+00" cType="1" res="-3.5341821610927582e-02" rms="1.8249148130416870e-01" purity="6.5573498606681824e-02" nType="-99"/>
          <Node pos="r" depth="2" NCoef="0" IVar="-1" Cut="0.0000000000000000e+00" cType="1" res="1.2565388344228268e-02" rms="2.3228672146797180e-01" purity="6.5449303388595581e-01" nType="-99"/>
        </Node>
      </Node>
    </BinaryTree>
    <BinaryTree type="DecisionTree" boostWeight="1.0000000000000000e+00" itree="72">
      <Node pos="s" depth="0" NCoef="0" IVar="3" Cut="1.4379068613052368e+00" cType="1" res="1.5987304504960775e-03" rms="2.3524715006351471e-01" purity="5.0065296888351440e-01" nType="0">
        <Node pos="l" depth="1" NCoef="0" IVar="14" Cut="7.9809699058532715e+00" cType="1" res="2.6940450072288513e-02" rms="2.5022488832473755e-01" purity="7.3813402652740479e-01" nType="0">
          <Node pos="l" depth="2" NCoef="0" IVar="-1" Cut="0.0000000000000000e+00" cType="1" res="3.5531725734472275e-02" rms="2.7022150158882141e-01" purity="7.9507690668106079e-01" nType="-99"/>
          <Node pos="r" depth="2" NCoef="0" IVar="-1" Cut="0.0000000000000000e+00" cType="1" res="5.8799264952540398e-03" rms="2.4153754115104675e-01" purity="7.2073215246200562e-01" nType="-99"/>
        </Node>
        <Node pos="r" depth="1" NCoef="0" IVar="23" Cut="9.5247256755828857e-01" cType="1" res="-1.3318848796188831e-02" rms="2.2463385760784149e-01" purity="3.6085805296897888e-01" nType="0">
          <Node pos="l" depth="2" NCoef="0" IVar="-1" Cut="0.0000000000000000e+00" cType="1" res="-1.4129723422229290e-02" rms="2.3405261337757111e-01" purity="1.8501317501068115e-01" nType="-99"/>
          <Node pos="r" depth="2" NCoef="0" IVar="-1" Cut="0.0000000000000000e+00" cType="1" res="1.3068193569779396e-02" rms="1.9134218990802765e-01" purity="8.7607717514038086e-01" nType="-99"/>
        </Node>
      </Node>
    </BinaryTree>
    <BinaryTree type="DecisionTree" boostWeight="1.0000000000000000e+00" itree="73">
      <Node pos="s" depth="0" NCoef="0" IVar="33" Cut="3.8103617727756500e-02" cType="1" res="6.9748866371810436e-04" rms="2.3431500792503357e-01" purity="4.9925079941749573e-01" nType="0">
        <Node pos="l" depth="1" NCoef="0" IVar="7" Cut="2.5197615623474121e+00" cType="1" res="1.4066403731703758e-02" rms="2.3164924979209900e-01" purity="6.0046654939651489e-01" nType="0">
          <Node pos="l" depth="2" NCoef="0" IVar="-1" Cut="0.0000000000000000e+00" cType="1" res="1.4161380939185619e-02" rms="2.4117933213710785e-01" purity="7.3095810413360596e-01" nType="-99"/>
          <Node pos="r" depth="2" NCoef="0" IVar="-1" Cut="0.0000000000000000e+00" cType="1" res="-1.8411315977573395e-02" rms="1.9340281188488007e-01" purity="1.8066328763961792e-01" nType="-99"/>
        </Node>
        <Node pos="r" depth="1" NCoef="0" IVar="11" Cut="7.3831071853637695e+00" cType="1" res="-2.3899685591459274e-02" rms="2.3718146979808807e-01" purity="3.1302624940872192e-01" nType="0">
          <Node pos="l" depth="2" NCoef="0" IVar="-1" Cut="0.0000000000000000e+00" cType="1" res="-7.9756248742341995e-03" rms="2.4023412168025970e-01" purity="3.5038456320762634e-01" nType="-99"/>
          <Node pos="r" depth="2" NCoef="0" IVar="-1" Cut="0.0000000000000000e+00" cType="1" res="-3.3750113099813461e-02" rms="2.2352716326713562e-01" purity="1.8950901925563812e-01" nType="-99"/>
        </Node>
      </Node>
    </BinaryTree>
    <BinaryTree type="DecisionTree" boostWeight="1.0000000000000000e+00" itree="74">
      <Node pos="s" depth="0" NCoef="0" IVar="31" Cut="1.9044082611799240e-02" cType="1" res="-5.2188930567353964e-04" rms="2.3390077054500580e-01" purity="5.0029653310775757e-01" nType="0">
        <Node pos="l" depth="1" NCoef="0" IVar="24" Cut="4.7707042098045349e-01" cType="1" res="1.5909640118479729e-02" rms="2.2802232205867767e-01" purity="6.4565235376358032e-01" nType="0">
          <Node pos="l" depth="2" NCoef="0" IVar="-1" Cut="0.0000000000000000e+00" cType="1" res="-2.3012159392237663e-02" rms="2.2617001831531525e-01" purity="2.2820891439914703e-01" nType="-99"/>
          <Node pos="r" depth="2" NCoef="0" IVar="-1" Cut="0.0000000000000000e+00" cType="1" res="1.3872275128960609e-02" rms="2.2727583348751068e-01" purity="7.0417106151580811e-01" nType="-99"/>
        </Node>
        <Node pos="r" depth="1" NCoef="0" IVar="18" Cut="-4.2442127227783203e+01" cType="1" res="-2.3239940404891968e-02" rms="2.3994675278663635e-01" purity="2.9932919144630432e-01" nType="0">
          <Node pos="l" depth="2" NCoef="0" IVar="-1" Cut="0.0000000000000000e+00" cType="1" res="1.4483977109193802e-02" rms="2.4135735630989075e-01" purity="7.4494284391403198e-01" nType="-99"/>
          <Node pos="r" depth="2" NCoef="0" IVar="-1" Cut="0.0000000000000000e+00" cType="1" res="-1.6711927950382233e-02" rms="2.3928603529930115e-01" purity="2.5700855255126953e-01" nType="-99"/>
        </Node>
      </Node>
    </BinaryTree>
    <BinaryTree type="DecisionTree" boostWeight="1.0000000000000000e+00" itree="75">
      <Node pos="s" depth="0" NCoef="0" IVar="27" Cut="9.0456056594848633e-01" cType="1" res="1.0652884520823136e-04" rms="2.3240080475807190e-01" purity="4.9878284335136414e-01" nType="0">
        <Node pos="l" depth="1" NCoef="0" IVar="34" Cut="1.5876064300537109e+00" cType="1" res="-2.1662963554263115e-02" rms="2.2949814796447754e-01" purity="2.4663703143596649e-01" nType="0">
          <Node pos="l" depth="2" NCoef="0" IVar="-1" Cut="0.0000000000000000e+00" cType="1" res="-2.1253305021673441e-03" rms="2.5230804085731506e-01" purity="3.7484526634216309e-01" nType="-99"/>
          <Node pos="r" depth="2" NCoef="0" IVar="-1" Cut="0.0000000000000000e+00" cType="1" res="-2.4828910827636719e-02" rms="2.1194186806678772e-01" purity="1.6039115190505981e-01" nType="-99"/>
        </Node>
        <Node pos="r" depth="1" NCoef="0" IVar="11" Cut="7.3983693122863770e+00" cType="1" res="1.3614134863018990e-02" rms="2.3316416144371033e-01" purity="6.5523505210876465e-01" nType="0">
          <Node pos="l" depth="2" NCoef="0" IVar="-1" Cut="0.0000000000000000e+00" cType="1" res="1.5531621873378754e-02" rms="2.2822675108909607e-01" purity="6.9546663761138916e-01" nType="-99"/>
          <Node pos="r" depth="2" NCoef="0" IVar="-1" Cut="0.0000000000000000e+00" cType="1" res="-1.6638023778796196e-02" rms="2.4471428990364075e-01" purity="5.1223325729370117e-01" nType="-99"/>
        </Node>
      </Node>
    </BinaryTree>
    <BinaryTree type="DecisionTree" boostWeight="1.0000000000000000e+00" itree="76">
      <Node pos="s" depth="0" NCoef="0" IVar="2" Cut="1.0849469184875488e+01" cType="1" res="1.4363453374244273e-04" rms="2.3330037295818329e-01" purity="4.9964684247970581e-01" nType="0">
        <Node pos="l" depth="1" NCoef="0" IVar="34" Cut="4.3650932312011719e+00" cType="1" res="9.2786122113466263e-03" rms="2.3465031385421753e-01" purity="5.3181439638137817e-01" nType="0">
          <Node pos="l" depth="2" NCoef="0" IVar="-1" Cut="0.0000000000000000e+00" cType="1" res="1.1502629145979881e-02" rms="2.3700726032257080e-01" purity="6.0976606607437134e-01" nType="-99"/>
          <Node pos="r" depth="2" NCoef="0" IVar="-1" Cut="0.0000000000000000e+00" cType="1" res="-2.6789216324687004e-02" rms="2.1716348826885223e-01" purity="1.6866463422775269e-01" nType="-99"/>
        </Node>
        <Node pos="r" depth="1" NCoef="0" IVar="23" Cut="9.5236313343048096e-01" cType="1" res="-3.2907407730817795e-02" rms="2.2527590394020081e-01" purity="3.8326209783554077e-01" nType="0">
          <Node pos="l" depth="2" NCoef="0" IVar="-1" Cut="0.0000000000000000e+00" cType="1" res="-2.9432170093059540e-02" rms="2.3709379136562347e-01" purity="1.7137795686721802e-01" nType="-99"/>
          <Node pos="r" depth="2" NCoef="0" IVar="-1" Cut="0.0000000000000000e+00" cType="1" res="2.0878531038761139e-02" rms="1.7939202487468719e-01" purity="9.1291236877441406e-01" nType="-99"/>
        </Node>
      </Node>
    </BinaryTree>
    <BinaryTree type="DecisionTree" boostWeight="1.0000000000000000e+00" itree="77">
      <Node pos="s" depth="0" NCoef="0" IVar="32" Cut="1.9047373905777931e-02" cType="1" res="9.4376306515187025e-04" rms="2.3357099294662476e-01" purity="5.0033825635910034e-01" nType="0">
        <Node pos="l" depth="1" NCoef="0" IVar="3" Cut="3.0977611541748047e+00" cType="1" res="1.4465587213635445e-02" rms="2.3053291440010071e-01" purity="6.3532090187072754e-01" nType="0">
          <Node pos="l" depth="2" NCoef="0" IVar="-1" Cut="0.0000000000000000e+00" cType="1" res="1.1873055249452591e-02" rms="2.4863022565841675e-01" purity="7.4557286500930786e-01" nType="-99"/>
          <Node pos="r" depth="2" NCoef="0" IVar="-1" Cut="0.0000000000000000e+00" cType="1" res="-5.2870128303766251e-02" rms="2.6825260370969772e-02" purity="0.0000000000000000e+00" nType="-99"/>
        </Node>
        <Node pos="r" depth="1" NCoef="0" IVar="17" Cut="3.8478965759277344e+01" cType="1" res="-2.1126652136445045e-02" rms="2.3679371178150177e-01" purity="2.8001880645751953e-01" nType="0">
          <Node pos="l" depth="2" NCoef="0" IVar="-1" Cut="0.0000000000000000e+00" cType="1" res="-1.6851153224706650e-02" rms="2.3463067412376404e-01" purity="2.3535226285457611e-01" nType="-99"/>
          <Node pos="r" depth="2" NCoef="0" IVar="-1" Cut="0.0000000000000000e+00" cType="1" res="1.4360888861119747e-02" rms="2.5032657384872437e-01" purity="6.8483340740203857e-01" nType="-99"/>
        </Node>
      </Node>
    </BinaryTree>
    <BinaryTree type="DecisionTree" boostWeight="1.0000000000000000e+00" itree="78">
      <Node pos="s" depth="0" NCoef="0" IVar="16" Cut="3.3051595091819763e-01" cType="1" res="1.2441013241186738e-03" rms="2.3273284733295441e-01" purity="4.9887427687644958e-01" nType="0">
        <Node pos="l" depth="1" NCoef="0" IVar="1" Cut="9.3629436492919922e+00" cType="1" res="-2.3228870704770088e-02" rms="2.4852685630321503e-01" purity="2.5606483221054077e-01" nType="0">
          <Node pos="l" depth="2" NCoef="0" IVar="-1" Cut="0.0000000000000000e+00" cType="1" res="3.9935288950800896e-03" rms="2.5068283081054688e-01" purity="3.0455839633941650e-01" nType="-99"/>
          <Node pos="r" depth="2" NCoef="0" IVar="-1" Cut="0.0000000000000000e+00" cType="1" res="-3.7134751677513123e-02" rms="2.3719620704650879e-01" purity="1.7818576097488403e-01" nType="-99"/>
        </Node>
        <Node pos="r" depth="1" NCoef="0" IVar="34" Cut="5.5556426048278809e+00" cType="1" res="1.2085957452654839e-02" rms="2.2453138232231140e-01" purity="6.0644209384918213e-01" nType="0">
          <Node pos="l" depth="2" NCoef="0" IVar="-1" Cut="0.0000000000000000e+00" cType="1" res="1.1830842122435570e-02" rms="2.2400982677936554e-01" purity="6.5354698896408081e-01" nType="-99"/>
          <Node pos="r" depth="2" NCoef="0" IVar="-1" Cut="0.0000000000000000e+00" cType="1" res="-3.8029421120882034e-02" rms="2.1882814168930054e-01" purity="1.3142162561416626e-01" nType="-99"/>
        </Node>
      </Node>
    </BinaryTree>
    <BinaryTree type="DecisionTree" boostWeight="1.0000000000000000e+00" itree="79">
      <Node pos="s" depth="0" NCoef="0" IVar="6" Cut="3.6883180141448975e+00" cType="1" res="1.2077315477654338e-03" rms="2.3249714076519012e-01" purity="5.0242310762405396e-01" nType="0">
        <Node pos="l" depth="1" NCoef="0" IVar="3" Cut="2.6475284099578857e+00" cType="1" res="-6.6083826124668121e-02" rms="2.1121092140674591e-01" purity="1.1355745792388916e-01" nType="0">
          <Node pos="l" depth="2" NCoef="0" IVar="-1" Cut="0.0000000000000000e+00" cType="1" res="-4.6465151011943817e-02" rms="2.7617692947387695e-01" purity="2.0945593714714050e-01" nType="-99"/>
          <Node pos="r" depth="2" NCoef="0" IVar="-1" Cut="0.0000000000000000e+00" cType="1" res="-4.0581498295068741e-02" rms="1.0124641656875610e-01" purity="1.9300391897559166e-02" nType="-99"/>
        </Node>
        <Node pos="r" depth="1" NCoef="0" IVar="14" Cut="8.1749420166015625e+00" cType="1" res="5.2911662496626377e-03" rms="2.3310214281082153e-01" purity="5.2602052688598633e-01" nType="0">
          <Node pos="l" depth="2" NCoef="0" IVar="-1" Cut="0.0000000000000000e+00" cType="1" res="1.8085859715938568e-02" rms="2.4107551574707031e-01" purity="5.3335344791412354e-01" nType="-99"/>
          <Node pos="r" depth="2" NCoef="0" IVar="-1" Cut="0.0000000000000000e+00" cType="1" res="-5.4545910097658634e-03" rms="2.2736355662345886e-01" purity="5.2197319269180298e-01" nType="-99"/>
        </Node>
      </Node>
    </BinaryTree>
    <BinaryTree type="DecisionTree" boostWeight="1.0000000000000000e+00" itree="80">
      <Node pos="s" depth="0" NCoef="0" IVar="20" Cut="-3.6324939727783203e+01" cType="1" res="-5.2082038018852472e-04" rms="2.3270684480667114e-01" purity="4.9763000011444092e-01" nType="0">
        <Node pos="l" depth="1" NCoef="0" IVar="9" Cut="1.8827894210815430e+01" cType="1" res="3.3067118376493454e-02" rms="1.9098635017871857e-01" purity="8.5156071186065674e-01" nType="0">
          <Node pos="l" depth="2" NCoef="0" IVar="-1" Cut="0.0000000000000000e+00" cType="1" res="3.2053999602794647e-02" rms="1.8705861270427704e-01" purity="8.8224732875823975e-01" nType="-99"/>
          <Node pos="r" depth="2" NCoef="0" IVar="-1" Cut="0.0000000000000000e+00" cType="1" res="5.4394486360251904e-03" rms="1.9822962582111359e-01" purity="7.7544826269149780e-01" nType="-99"/>
        </Node>
        <Node pos="r" depth="1" NCoef="0" IVar="16" Cut="3.6700451374053955e-01" cType="1" res="-7.7183442190289497e-03" rms="2.4009756743907928e-01" purity="4.2178654670715332e-01" nType="0">
          <Node pos="l" depth="2" NCoef="0" IVar="-1" Cut="0.0000000000000000e+00" cType="1" res="-1.5985054895281792e-02" rms="2.4291966855525970e-01" purity="2.1993365883827209e-01" nType="-99"/>
          <Node pos="r" depth="2" NCoef="0" IVar="-1" Cut="0.0000000000000000e+00" cType="1" res="4.0366924367845058e-03" rms="2.3703740537166595e-01" purity="5.6519567966461182e-01" nType="-99"/>
        </Node>
      </Node>
    </BinaryTree>
    <BinaryTree type="DecisionTree" boostWeight="1.0000000000000000e+00" itree="81">
      <Node pos="s" depth="0" NCoef="0" IVar="3" Cut="1.9123135805130005e+00" cType="1" res="-1.4692447148263454e-03" rms="2.3196905851364136e-01" purity="4.9567469954490662e-01" nType="0">
        <Node pos="l" depth="1" NCoef="0" IVar="23" Cut="3.3407139778137207e-01" cType="1" res="1.3056419789791107e-02" rms="2.5129795074462891e-01" purity="7.0839875936508179e-01" nType="0">
          <Node pos="l" depth="2" NCoef="0" IVar="-1" Cut="0.0000000000000000e+00" cType="1" res="-2.2780081257224083e-02" rms="2.6661899685859680e-01" purity="1.3631826639175415e-01" nType="-99"/>
          <Node pos="r" depth="2" NCoef="0" IVar="-1" Cut="0.0000000000000000e+00" cType="1" res="1.1156614869832993e-02" rms="2.4852034449577332e-01" purity="7.6882815361022949e-01" nType="-99"/>
        </Node>
        <Node pos="r" depth="1" NCoef="0" IVar="19" Cut="2.7738918304443359e+01" cType="1" res="-1.7591299489140511e-02" rms="2.0723880827426910e-01" purity="2.5957196950912476e-01" nType="0">
          <Node pos="l" depth="2" NCoef="0" IVar="-1" Cut="0.0000000000000000e+00" cType="1" res="-1.7840322107076645e-02" rms="2.0423556864261627e-01" purity="2.1003869175910950e-01" nType="-99"/>
          <Node pos="r" depth="2" NCoef="0" IVar="-1" Cut="0.0000000000000000e+00" cType="1" res="1.4442992396652699e-02" rms="2.2535118460655212e-01" purity="6.4698368310928345e-01" nType="-99"/>
        </Node>
      </Node>
    </BinaryTree>
    <BinaryTree type="DecisionTree" boostWeight="1.0000000000000000e+00" itree="82">
      <Node pos="s" depth="0" NCoef="0" IVar="31" Cut="3.8083378225564957e-02" cType="1" res="-1.2007597833871841e-03" rms="2.2836136817932129e-01" purity="4.9717366695404053e-01" nType="0">
        <Node pos="l" depth="1" NCoef="0" IVar="16" Cut="3.3212402462959290e-01" cType="1" res="9.1441962867975235e-03" rms="2.2693969309329987e-01" purity="6.0176265239715576e-01" nType="0">
          <Node pos="l" depth="2" NCoef="0" IVar="-1" Cut="0.0000000000000000e+00" cType="1" res="-9.0170931071043015e-03" rms="2.5742623209953308e-01" purity="3.3714306354522705e-01" nType="-99"/>
          <Node pos="r" depth="2" NCoef="0" IVar="-1" Cut="0.0000000000000000e+00" cType="1" res="1.3516960665583611e-02" rms="2.1222004294395447e-01" purity="7.1039557456970215e-01" nType="-99"/>
        </Node>
        <Node pos="r" depth="1" NCoef="0" IVar="21" Cut="2.0020263671875000e+01" cType="1" res="-2.5272144004702568e-02" rms="2.2984044253826141e-01" purity="2.5380849838256836e-01" nType="0">
          <Node pos="l" depth="2" NCoef="0" IVar="-1" Cut="0.0000000000000000e+00" cType="1" res="-2.1112220361828804e-02" rms="2.2441683709621429e-01" purity="1.9230508804321289e-01" nType="-99"/>
          <Node pos="r" depth="2" NCoef="0" IVar="-1" Cut="0.0000000000000000e+00" cType="1" res="1.3871403643861413e-04" rms="2.4749208986759186e-01" purity="4.8471736907958984e-01" nType="-99"/>
        </Node>
      </Node>
    </BinaryTree>
    <BinaryTree type="DecisionTree" boostWeight="1.0000000000000000e+00" itree="83">
      <Node pos="s" depth="0" NCoef="0" IVar="32" Cut="1.9048467278480530e-02" cType="1" res="7.3427287861704826e-04" rms="2.2852754592895508e-01" purity="5.0307589769363403e-01" nType="0">
        <Node pos="l" depth="1" NCoef="0" IVar="5" Cut="6.6827197074890137e+00" cType="1" res="1.3708340004086494e-02" rms="2.2682626545429230e-01" purity="6.3965106010437012e-01" nType="0">
          <Node pos="l" depth="2" NCoef="0" IVar="-1" Cut="0.0000000000000000e+00" cType="1" res="1.0734950192272663e-02" rms="2.2691419720649719e-01" purity="6.6103374958038330e-01" nType="-99"/>
          <Node pos="r" depth="2" NCoef="0" IVar="-1" Cut="0.0000000000000000e+00" cType="1" res="-4.6950478106737137e-02" rms="2.0845043659210205e-01" purity="1.6387747228145599e-01" nType="-99"/>
        </Node>
        <Node pos="r" depth="1" NCoef="0" IVar="21" Cut="2.8780920028686523e+01" cType="1" res="-2.0276403054594994e-02" rms="2.2970709204673767e-01" purity="2.8190112113952637e-01" nType="0">
          <Node pos="l" depth="2" NCoef="0" IVar="-1" Cut="0.0000000000000000e+00" cType="1" res="-1.6973191872239113e-02" rms="2.2927278280258179e-01" purity="2.3303328454494476e-01" nType="-99"/>
          <Node pos="r" depth="2" NCoef="0" IVar="-1" Cut="0.0000000000000000e+00" cType="1" res="1.4370530843734741e-02" rms="2.2851136326789856e-01" purity="6.8085181713104248e-01" nType="-99"/>
        </Node>
      </Node>
    </BinaryTree>
    <BinaryTree type="DecisionTree" boostWeight="1.0000000000000000e+00" itree="84">
      <Node pos="s" depth="0" NCoef="0" IVar="6" Cut="3.7717268466949463e+00" cType="1" res="5.2979588508605957e-04" rms="2.2865635156631470e-01" purity="5.0004446506500244e-01" nType="0">
        <Node pos="l" depth="1" NCoef="0" IVar="23" Cut="6.6866761445999146e-01" cType="1" res="-5.6697592139244080e-02" rms="2.0937581360340118e-01" purity="1.3068376481533051e-01" nType="0">
          <Node pos="l" depth="2" NCoef="0" IVar="-1" Cut="0.0000000000000000e+00" cType="1" res="-2.6444710791110992e-02" rms="1.7672453820705414e-01" purity="4.5498404651880264e-02" nType="-99"/>
          <Node pos="r" depth="2" NCoef="0" IVar="-1" Cut="0.0000000000000000e+00" cType="1" res="-5.1713388413190842e-02" rms="2.3945327103137970e-01" purity="2.3649647831916809e-01" nType="-99"/>
        </Node>
        <Node pos="r" depth="1" NCoef="0" IVar="14" Cut="7.9398899078369141e+00" cType="1" res="4.7385343350470066e-03" rms="2.2944776713848114e-01" purity="5.2720880508422852e-01" nType="0">
          <Node pos="l" depth="2" NCoef="0" IVar="-1" Cut="0.0000000000000000e+00" cType="1" res="2.3813372477889061e-02" rms="2.3771202564239502e-01" purity="5.3872102499008179e-01" nType="-99"/>
          <Node pos="r" depth="2" NCoef="0" IVar="-1" Cut="0.0000000000000000e+00" cType="1" res="-3.6760054063051939e-03" rms="2.2587685286998749e-01" purity="5.2380150556564331e-01" nType="-99"/>
        </Node>
      </Node>
    </BinaryTree>
    <BinaryTree type="DecisionTree" boostWeight="1.0000000000000000e+00" itree="85">
      <Node pos="s" depth="0" NCoef="0" IVar="33" Cut="5.7151984423398972e-02" cType="1" res="1.9682345446199179e-03" rms="2.2911322116851807e-01" purity="5.0035715103149414e-01" nType="0">
        <Node pos="l" depth="1" NCoef="0" IVar="3" Cut="3.0997436046600342e+00" cType="1" res="1.1008055880665779e-02" rms="2.2681085765361786e-01" purity="5.8231467008590698e-01" nType="0">
          <Node pos="l" depth="2" NCoef="0" IVar="-1" Cut="0.0000000000000000e+00" cType="1" res="1.0110146366059780e-02" rms="2.4891644716262817e-01" purity="7.0602369308471680e-01" nType="-99"/>
          <Node pos="r" depth="2" NCoef="0" IVar="-1" Cut="0.0000000000000000e+00" cType="1" res="-5.2310746163129807e-02" rms="2.2031281143426895e-02" purity="0.0000000000000000e+00" nType="-99"/>
        </Node>
        <Node pos="r" depth="1" NCoef="0" IVar="15" Cut="5.9537615776062012e+00" cType="1" res="-2.1672308444976807e-02" rms="2.3337829113006592e-01" purity="2.8602561354637146e-01" nType="0">
          <Node pos="l" depth="2" NCoef="0" IVar="-1" Cut="0.0000000000000000e+00" cType="1" res="1.8611451378092170e-03" rms="2.4983072280883789e-01" purity="3.7246152758598328e-01" nType="-99"/>
          <Node pos="r" depth="2" NCoef="0" IVar="-1" Cut="0.0000000000000000e+00" cType="1" res="-2.1489469334483147e-02" rms="2.2448876500129700e-01" purity="2.4628441035747528e-01" nType="-99"/>
        </Node>
      </Node>
    </BinaryTree>
    <BinaryTree type="DecisionTree" boostWeight="1.0000000000000000e+00" itree="86">
      <Node pos="s" depth="0" NCoef="0" IVar="17" Cut="4.8890254974365234e+01" cType="1" res="-8.0024201452033594e-06" rms="2.2744433581829071e-01" purity="4.9450767040252686e-01" nType="0">
        <Node pos="l" depth="1" NCoef="0" IVar="23" Cut="9.5236682891845703e-01" cType="1" res="-4.6890615485608578e-03" rms="2.3183616995811462e-01" purity="4.5253640413284302e-01" nType="0">
          <Node pos="l" depth="2" NCoef="0" IVar="-1" Cut="0.0000000000000000e+00" cType="1" res="-7.7753318473696709e-03" rms="2.5308081507682800e-01" purity="2.6372367143630981e-01" nType="-99"/>
          <Node pos="r" depth="2" NCoef="0" IVar="-1" Cut="0.0000000000000000e+00" cType="1" res="1.8006313592195511e-02" rms="1.6640995442867279e-01" purity="9.1603416204452515e-01" nType="-99"/>
        </Node>
        <Node pos="r" depth="1" NCoef="0" IVar="12" Cut="7.3852910995483398e+00" cType="1" res="4.6683605760335922e-02" rms="1.7091712355613708e-01" purity="9.1315305233001709e-01" nType="0">
          <Node pos="l" depth="2" NCoef="0" IVar="-1" Cut="0.0000000000000000e+00" cType="1" res="3.9679512381553650e-02" rms="2.0689281821250916e-01" purity="8.9234626293182373e-01" nType="-99"/>
          <Node pos="r" depth="2" NCoef="0" IVar="-1" Cut="0.0000000000000000e+00" cType="1" res="3.2663747668266296e-02" rms="1.3157619535923004e-01" purity="9.3067210912704468e-01" nType="-99"/>
        </Node>
      </Node>
    </BinaryTree>
    <BinaryTree type="DecisionTree" boostWeight="1.0000000000000000e+00" itree="87">
      <Node pos="s" depth="0" NCoef="0" IVar="24" Cut="5.2484136819839478e-01" cType="1" res="4.2349772411398590e-04" rms="2.2670665383338928e-01" purity="4.9969372153282166e-01" nType="0">
        <Node pos="l" depth="1" NCoef="0" IVar="20" Cut="-2.3948629379272461e+01" cType="1" res="-3.0195528641343117e-02" rms="2.0538602769374847e-01" purity="1.5885370969772339e-01" nType="0">
          <Node pos="l" depth="2" NCoef="0" IVar="-1" Cut="0.0000000000000000e+00" cType="1" res="-1.3291158247739077e-03" rms="2.4494886398315430e-01" purity="3.7789711356163025e-01" nType="-99"/>
          <Node pos="r" depth="2" NCoef="0" IVar="-1" Cut="0.0000000000000000e+00" cType="1" res="-3.0110871419310570e-02" rms="1.9580753147602081e-01" purity="1.1396706849336624e-01" nType="-99"/>
        </Node>
        <Node pos="r" depth="1" NCoef="0" IVar="9" Cut="2.5639909744262695e+01" cType="1" res="7.9701226204633713e-03" rms="2.3103781044483185e-01" purity="5.8370000123977661e-01" nType="0">
          <Node pos="l" depth="2" NCoef="0" IVar="-1" Cut="0.0000000000000000e+00" cType="1" res="9.1678975149989128e-03" rms="2.3220323026180267e-01" purity="6.1193251609802246e-01" nType="-99"/>
          <Node pos="r" depth="2" NCoef="0" IVar="-1" Cut="0.0000000000000000e+00" cType="1" res="-1.6348162665963173e-02" rms="2.2135668992996216e-01" purity="4.3359351158142090e-01" nType="-99"/>
        </Node>
      </Node>
    </BinaryTree>
    <BinaryTree type="DecisionTree" boostWeight="1.0000000000000000e+00" itree="88">
      <Node pos="s" depth="0" NCoef="0" IVar="21" Cut="7.7768411636352539e+00" cType="1" res="-3.2952153560472652e-05" rms="2.3021027445793152e-01" purity="5.0014787912368774e-01" nType="0">
        <Node pos="l" depth="1" NCoef="0" IVar="15" Cut="6.3244132995605469e+00" cType="1" res="-2.3873377591371536e-02" rms="2.3468910157680511e-01" purity="2.8573739528656006e-01" nType="0">
          <Node pos="l" depth="2" NCoef="0" IVar="-1" Cut="0.0000000000000000e+00" cType="1" res="-5.0016064196825027e-03" rms="2.4596558511257172e-01" purity="3.5746830701828003e-01" nType="-99"/>
          <Node pos="r" depth="2" NCoef="0" IVar="-1" Cut="0.0000000000000000e+00" cType="1" res="-3.5685803741216660e-02" rms="2.1057082712650299e-01" purity="1.5898598730564117e-01" nType="-99"/>
        </Node>
        <Node pos="r" depth="1" NCoef="0" IVar="7" Cut="3.2296781539916992e+00" cType="1" res="9.6889799460768700e-03" rms="2.2764307260513306e-01" purity="5.8758264780044556e-01" nType="0">
          <Node pos="l" depth="2" NCoef="0" IVar="-1" Cut="0.0000000000000000e+00" cType="1" res="9.8140984773635864e-03" rms="2.2884437441825867e-01" purity="6.4110541343688965e-01" nType="-99"/>
          <Node pos="r" depth="2" NCoef="0" IVar="-1" Cut="0.0000000000000000e+00" cType="1" res="-2.3960968479514122e-02" rms="2.1406821906566620e-01" purity="1.9216927886009216e-01" nType="-99"/>
        </Node>
      </Node>
    </BinaryTree>
    <BinaryTree type="DecisionTree" boostWeight="1.0000000000000000e+00" itree="89">
      <Node pos="s" depth="0" NCoef="0" IVar="30" Cut="1.9074920564889908e-02" cType="1" res="5.9080339269712567e-04" rms="2.2937645018100739e-01" purity="4.9943518638610840e-01" nType="0">
        <Node pos="l" depth="1" NCoef="0" IVar="27" Cut="6.6757076978683472e-01" cType="1" res="1.4137383550405502e-02" rms="2.2087430953979492e-01" purity="6.3930243253707886e-01" nType="0">
          <Node pos="l" depth="2" NCoef="0" IVar="-1" Cut="0.0000000000000000e+00" cType="1" res="-1.5306649729609489e-02" rms="2.4462415277957916e-01" purity="2.8334927558898926e-01" nType="-99"/>
          <Node pos="r" depth="2" NCoef="0" IVar="-1" Cut="0.0000000000000000e+00" cType="1" res="1.3503664173185825e-02" rms="2.1625274419784546e-01" purity="6.9607722759246826e-01" nType="-99"/>
        </Node>
        <Node pos="r" depth="1" NCoef="0" IVar="34" Cut="1.5877474546432495e+00" cType="1" res="-1.4082502573728561e-02" rms="2.3737306892871857e-01" purity="3.4793451428413391e-01" nType="0">
          <Node pos="l" depth="2" NCoef="0" IVar="-1" Cut="0.0000000000000000e+00" cType="1" res="9.2474656412377954e-04" rms="2.4341771006584167e-01" purity="4.9284172058105469e-01" nType="-99"/>
          <Node pos="r" depth="2" NCoef="0" IVar="-1" Cut="0.0000000000000000e+00" cType="1" res="-1.8274480476975441e-02" rms="2.3167379200458527e-01" purity="2.3231625556945801e-01" nType="-99"/>
        </Node>
      </Node>
    </BinaryTree>
    <BinaryTree type="DecisionTree" boostWeight="1.0000000000000000e+00" itree="90">
      <Node pos="s" depth="0" NCoef="0" IVar="9" Cut="4.3698177337646484e+01" cType="1" res="7.4816116830334067e-04" rms="2.2599500417709351e-01" purity="5.0065159797668457e-01" nType="0">
        <Node pos="l" depth="1" NCoef="0" IVar="24" Cut="7.6213783025741577e-01" cType="1" res="3.4953667782247066e-03" rms="2.2678774595260620e-01" purity="5.1210606098175049e-01" nType="0">
          <Node pos="l" depth="2" NCoef="0" IVar="-1" Cut="0.0000000000000000e+00" cType="1" res="-1.3349142856895924e-02" rms="2.1973337233066559e-01" purity="2.2494710981845856e-01" nType="-99"/>
          <Node pos="r" depth="2" NCoef="0" IVar="-1" Cut="0.0000000000000000e+00" cType="1" res="8.6976941674947739e-03" rms="2.2930793464183807e-01" purity="6.4789497852325439e-01" nType="-99"/>
        </Node>
        <Node pos="r" depth="1" NCoef="0" IVar="-1" Cut="0.0000000000000000e+00" cType="1" res="-4.6565905213356018e-02" rms="1.8845680356025696e-01" purity="1.8900568783283234e-01" nType="-99"/>
      </Node>
    </BinaryTree>
    <BinaryTree type="DecisionTree" boostWeight="1.0000000000000000e+00" itree="91">
      <Node pos="s" depth="0" NCoef="0" IVar="18" Cut="-5.1543308258056641e+01" cType="1" res="-4.1597930248826742e-04" rms="2.2724175453186035e-01" purity="4.9937158823013306e-01" nType="0">
        <Node pos="l" depth="1" NCoef="0" IVar="23" Cut="9.5278584957122803e-01" cType="1" res="4.0728520601987839e-02" rms="1.5573000907897949e-01" purity="9.1971600055694580e-01" nType="0">
          <Node pos="l" depth="2" NCoef="0" IVar="-1" Cut="0.0000000000000000e+00" cType="1" res="3.1725734472274780e-02" rms="2.4997366964817047e-01" purity="7.8332245349884033e-01" nType="-99"/>
          <Node pos="r" depth="2" NCoef="0" IVar="-1" Cut="0.0000000000000000e+00" cType="1" res="4.5649833977222443e-02" rms="5.3554486483335495e-02" purity="9.9312114715576172e-01" nType="-99"/>
        </Node>
        <Node pos="r" depth="1" NCoef="0" IVar="11" Cut="7.4577131271362305e+00" cType="1" res="-4.9307583831250668e-03" rms="2.3331919312477112e-01" purity="4.5324730873107910e-01" nType="0">
          <Node pos="l" depth="2" NCoef="0" IVar="-1" Cut="0.0000000000000000e+00" cType="1" res="1.2354642385616899e-03" rms="2.3407705128192902e-01" purity="4.9037656188011169e-01" nType="-99"/>
          <Node pos="r" depth="2" NCoef="0" IVar="-1" Cut="0.0000000000000000e+00" cType="1" res="-2.1213890984654427e-02" rms="2.2781328856945038e-01" purity="2.9612407088279724e-01" nType="-99"/>
        </Node>
      </Node>
    </BinaryTree>
    <BinaryTree type="DecisionTree" boostWeight="1.0000000000000000e+00" itree="92">
      <Node pos="s" depth="0" NCoef="0" IVar="33" Cut="3.8111627101898193e-02" cType="1" res="-5.3558760555461049e-04" rms="2.2683523595333099e-01" purity="4.9855342507362366e-01" nType="0">
        <Node pos="l" depth="1" NCoef="0" IVar="23" Cut="2.8771832585334778e-01" cType="1" res="9.5585938543081284e-03" rms="2.2429540753364563e-01" purity="5.9888017177581787e-01" nType="0">
          <Node pos="l" depth="2" NCoef="0" IVar="-1" Cut="0.0000000000000000e+00" cType="1" res="-2.4685526266694069e-02" rms="2.0081248879432678e-01" purity="8.0861926078796387e-02" nType="-99"/>
          <Node pos="r" depth="2" NCoef="0" IVar="-1" Cut="0.0000000000000000e+00" cType="1" res="9.5494939014315605e-03" rms="2.2598446905612946e-01" purity="6.5101939439773560e-01" nType="-99"/>
        </Node>
        <Node pos="r" depth="1" NCoef="0" IVar="9" Cut="1.5441833496093750e+01" cType="1" res="-1.9681803882122040e-02" rms="2.3036420345306396e-01" purity="3.0825796723365784e-01" nType="0">
          <Node pos="l" depth="2" NCoef="0" IVar="-1" Cut="0.0000000000000000e+00" cType="1" res="-5.0060339272022247e-03" rms="2.3444260656833649e-01" purity="3.2067531347274780e-01" nType="-99"/>
          <Node pos="r" depth="2" NCoef="0" IVar="-1" Cut="0.0000000000000000e+00" cType="1" res="-2.3598594591021538e-02" rms="2.2292280197143555e-01" purity="2.8971895575523376e-01" nType="-99"/>
        </Node>
      </Node>
    </BinaryTree>
    <BinaryTree type="DecisionTree" boostWeight="1.0000000000000000e+00" itree="93">
      <Node pos="s" depth="0" NCoef="0" IVar="28" Cut="5.7395690679550171e-01" cType="1" res="-2.4378852685913444e-04" rms="2.2578780353069305e-01" purity="5.0140804052352905e-01" nType="0">
        <Node pos="l" depth="1" NCoef="0" IVar="14" Cut="7.9317998886108398e+00" cType="1" res="-1.8898816779255867e-02" rms="2.3191133141517639e-01" purity="3.1234371662139893e-01" nType="0">
          <Node pos="l" depth="2" NCoef="0" IVar="-1" Cut="0.0000000000000000e+00" cType="1" res="5.1522585563361645e-03" rms="2.3850750923156738e-01" purity="3.3470818400382996e-01" nType="-99"/>
          <Node pos="r" depth="2" NCoef="0" IVar="-1" Cut="0.0000000000000000e+00" cType="1" res="-2.0698131993412971e-02" rms="2.2722782194614410e-01" purity="3.0086860060691833e-01" nType="-99"/>
        </Node>
        <Node pos="r" depth="1" NCoef="0" IVar="7" Cut="2.9026525020599365e+00" cType="1" res="1.0502209886908531e-02" rms="2.2147168219089508e-01" purity="6.1031621694564819e-01" nType="0">
          <Node pos="l" depth="2" NCoef="0" IVar="-1" Cut="0.0000000000000000e+00" cType="1" res="1.1235774494707584e-02" rms="2.2566750645637512e-01" purity="6.9762408733367920e-01" nType="-99"/>
          <Node pos="r" depth="2" NCoef="0" IVar="-1" Cut="0.0000000000000000e+00" cType="1" res="-2.0750282332301140e-02" rms="1.9532500207424164e-01" purity="1.6815553605556488e-01" nType="-99"/>
        </Node>
      </Node>
    </BinaryTree>
    <BinaryTree type="DecisionTree" boostWeight="1.0000000000000000e+00" itree="94">
      <Node pos="s" depth="0" NCoef="0" IVar="34" Cut="4.3651380538940430e+00" cType="1" res="3.6755288601852953e-04" rms="2.2703137993812561e-01" purity="5.0101882219314575e-01" nType="0">
        <Node pos="l" depth="1" NCoef="0" IVar="14" Cut="8.1749420166015625e+00" cType="1" res="6.4178374595940113e-03" rms="2.3015151917934418e-01" purity="5.6524169445037842e-01" nType="0">
          <Node pos="l" depth="2" NCoef="0" IVar="-1" Cut="0.0000000000000000e+00" cType="1" res="1.7553085461258888e-02" rms="2.4101433157920837e-01" purity="5.8683794736862183e-01" nType="-99"/>
          <Node pos="r" depth="2" NCoef="0" IVar="-1" Cut="0.0000000000000000e+00" cType="1" res="-3.8186949677765369e-03" rms="2.2323656082153320e-01" purity="5.5380266904830933e-01" nType="-99"/>
        </Node>
        <Node pos="r" depth="1" NCoef="0" IVar="11" Cut="6.4878602027893066e+00" cType="1" res="-3.1791422516107559e-02" rms="2.0671807229518890e-01" purity="1.5965595841407776e-01" nType="0">
          <Node pos="l" depth="2" NCoef="0" IVar="-1" Cut="0.0000000000000000e+00" cType="1" res="-3.9781432598829269e-02" rms="1.9688463211059570e-01" purity="1.1657896637916565e-01" nType="-99"/>
          <Node pos="r" depth="2" NCoef="0" IVar="-1" Cut="0.0000000000000000e+00" cType="1" res="-9.0597718954086304e-03" rms="2.1471722424030304e-01" purity="2.0520050823688507e-01" nType="-99"/>
        </Node>
      </Node>
    </BinaryTree>
    <BinaryTree type="DecisionTree" boostWeight="1.0000000000000000e+00" itree="95">
      <Node pos="s" depth="0" NCoef="0" IVar="17" Cut="2.7900030136108398e+01" cType="1" res="-8.4929034346714616e-04" rms="2.2439382970333099e-01" purity="5.0043922662734985e-01" nType="0">
        <Node pos="l" depth="1" NCoef="0" IVar="34" Cut="2.3813264369964600e+00" cType="1" res="-1.0195395909249783e-02" rms="2.2917607426643372e-01" purity="3.7211647629737854e-01" nType="0">
          <Node pos="l" depth="2" NCoef="0" IVar="-1" Cut="0.0000000000000000e+00" cType="1" res="5.3066812688484788e-04" rms="2.3723670840263367e-01" purity="4.9550405144691467e-01" nType="-99"/>
          <Node pos="r" depth="2" NCoef="0" IVar="-1" Cut="0.0000000000000000e+00" cType="1" res="-2.0124532282352448e-02" rms="2.1584837138652802e-01" purity="1.9191390275955200e-01" nType="-99"/>
        </Node>
        <Node pos="r" depth="1" NCoef="0" IVar="13" Cut="7.8058190345764160e+00" cType="1" res="1.8746674060821533e-02" rms="2.1269114315509796e-01" purity="7.6949322223663330e-01" nType="0">
          <Node pos="l" depth="2" NCoef="0" IVar="-1" Cut="0.0000000000000000e+00" cType="1" res="4.2348921298980713e-02" rms="2.1489652991294861e-01" purity="8.2530927658081055e-01" nType="-99"/>
          <Node pos="r" depth="2" NCoef="0" IVar="-1" Cut="0.0000000000000000e+00" cType="1" res="7.0490869693458080e-03" rms="2.1117250621318817e-01" purity="7.5861960649490356e-01" nType="-99"/>
        </Node>
      </Node>
    </BinaryTree>
    <BinaryTree type="DecisionTree" boostWeight="1.0000000000000000e+00" itree="96">
      <Node pos="s" depth="0" NCoef="0" IVar="30" Cut="1.9075052812695503e-02" cType="1" res="-1.8131933175027370e-03" rms="2.2461889684200287e-01" purity="4.9957668781280518e-01" nType="0">
        <Node pos="l" depth="1" NCoef="0" IVar="34" Cut="2.7777504920959473e+00" cType="1" res="1.1038432829082012e-02" rms="2.1751391887664795e-01" purity="6.3994598388671875e-01" nType="0">
          <Node pos="l" depth="2" NCoef="0" IVar="-1" Cut="0.0000000000000000e+00" cType="1" res="1.3315835036337376e-02" rms="2.1472810208797455e-01" purity="7.2474282979965210e-01" nType="-99"/>
          <Node pos="r" depth="2" NCoef="0" IVar="-1" Cut="0.0000000000000000e+00" cType="1" res="-8.9775025844573975e-03" rms="2.2414661943912506e-01" purity="3.7987321615219116e-01" nType="-99"/>
        </Node>
        <Node pos="r" depth="1" NCoef="0" IVar="15" Cut="5.5911669731140137e+00" cType="1" res="-1.5951491892337799e-02" rms="2.3136097192764282e-01" purity="3.4515386819839478e-01" nType="0">
          <Node pos="l" depth="2" NCoef="0" IVar="-1" Cut="0.0000000000000000e+00" cType="1" res="1.4178515411913395e-02" rms="2.5946107506752014e-01" purity="4.2879167199134827e-01" nType="-99"/>
          <Node pos="r" depth="2" NCoef="0" IVar="-1" Cut="0.0000000000000000e+00" cType="1" res="-1.3804010115563869e-02" rms="2.2734077274799347e-01" purity="3.3535474538803101e-01" nType="-99"/>
        </Node>
      </Node>
    </BinaryTree>
    <BinaryTree type="DecisionTree" boostWeight="1.0000000000000000e+00" itree="97">
      <Node pos="s" depth="0" NCoef="0" IVar="6" Cut="6.1302933692932129e+00" cType="1" res="1.8016423564404249e-03" rms="2.2696928679943085e-01" purity="5.0289380550384521e-01" nType="0">
        <Node pos="l" depth="1" NCoef="0" IVar="6" Cut="3.7716627120971680e+00" cType="1" res="9.9978670477867126e-03" rms="2.3138763010501862e-01" purity="5.2185976505279541e-01" nType="0">
          <Node pos="l" depth="2" NCoef="0" IVar="-1" Cut="0.0000000000000000e+00" cType="1" res="-3.3781029284000397e-02" rms="2.0801715552806854e-01" purity="1.3702937960624695e-01" nType="-99"/>
          <Node pos="r" depth="2" NCoef="0" IVar="-1" Cut="0.0000000000000000e+00" cType="1" res="1.0622410103678703e-02" rms="2.3306113481521606e-01" purity="5.6380176544189453e-01" nType="-99"/>
        </Node>
        <Node pos="r" depth="1" NCoef="0" IVar="16" Cut="3.9438688755035400e-01" cType="1" res="-1.6642229631543159e-02" rms="2.1556080877780914e-01" purity="4.6021473407745361e-01" nType="0">
          <Node pos="l" depth="2" NCoef="0" IVar="-1" Cut="0.0000000000000000e+00" cType="1" res="-2.9275232926011086e-02" rms="2.2115738689899445e-01" purity="2.3880378901958466e-01" nType="-99"/>
          <Node pos="r" depth="2" NCoef="0" IVar="-1" Cut="0.0000000000000000e+00" cType="1" res="1.8703008070588112e-02" rms="2.0095303654670715e-01" purity="7.3626786470413208e-01" nType="-99"/>
        </Node>
      </Node>
    </BinaryTree>
    <BinaryTree type="DecisionTree" boostWeight="1.0000000000000000e+00" itree="98">
      <Node pos="s" depth="0" NCoef="0" IVar="20" Cut="-2.9084621429443359e+01" cType="1" res="-8.8894600048661232e-04" rms="2.2338154911994934e-01" purity="4.9551689624786377e-01" nType="0">
        <Node pos="l" depth="1" NCoef="0" IVar="11" Cut="7.3527913093566895e+00" cType="1" res="2.1350886672735214e-02" rms="1.9715346395969391e-01" purity="7.9106873273849487e-01" nType="0">
          <Node pos="l" depth="2" NCoef="0" IVar="-1" Cut="0.0000000000000000e+00" cType="1" res="2.8309930115938187e-02" rms="1.8366459012031555e-01" purity="8.6016577482223511e-01" nType="-99"/>
          <Node pos="r" depth="2" NCoef="0" IVar="-1" Cut="0.0000000000000000e+00" cType="1" res="-4.2190556996501982e-04" rms="2.1669308841228485e-01" purity="6.7198228836059570e-01" nType="-99"/>
        </Node>
        <Node pos="r" depth="1" NCoef="0" IVar="21" Cut="3.7454269409179688e+01" cType="1" res="-8.3074709400534630e-03" rms="2.3099459707736969e-01" purity="3.9692986011505127e-01" nType="0">
          <Node pos="l" depth="2" NCoef="0" IVar="-1" Cut="0.0000000000000000e+00" cType="1" res="-7.7223740518093109e-03" rms="2.3260335624217987e-01" purity="3.6658635735511780e-01" nType="-99"/>
          <Node pos="r" depth="2" NCoef="0" IVar="-1" Cut="0.0000000000000000e+00" cType="1" res="3.3905703574419022e-02" rms="1.9880278408527374e-01" purity="8.4090232849121094e-01" nType="-99"/>
        </Node>
      </Node>
    </BinaryTree>
    <BinaryTree type="DecisionTree" boostWeight="1.0000000000000000e+00" itree="99">
      <Node pos="s" depth="0" NCoef="0" IVar="20" Cut="-4.6262229919433594e+01" cType="1" res="-1.8557499861344695e-03" rms="2.2709518671035767e-01" purity="4.9475139379501343e-01" nType="0">
        <Node pos="l" depth="1" NCoef="0" IVar="23" Cut="9.5297187566757202e-01" cType="1" res="3.3058386296033859e-02" rms="1.5710207819938660e-01" purity="9.1140979528427124e-01" nType="0">
          <Node pos="l" depth="2" NCoef="0" IVar="-1" Cut="0.0000000000000000e+00" cType="1" res="2.4100601673126221e-02" rms="2.5189116597175598e-01" purity="7.5812882184982300e-01" nType="-99"/>
          <Node pos="r" depth="2" NCoef="0" IVar="-1" Cut="0.0000000000000000e+00" cType="1" res="4.5482996851205826e-02" rms="6.2030252069234848e-02" purity="9.9270111322402954e-01" nType="-99"/>
        </Node>
        <Node pos="r" depth="1" NCoef="0" IVar="11" Cut="7.4577369689941406e+00" cType="1" res="-5.9551186859607697e-03" rms="2.3360149562358856e-01" purity="4.4583031535148621e-01" nType="0">
          <Node pos="l" depth="2" NCoef="0" IVar="-1" Cut="0.0000000000000000e+00" cType="1" res="-6.9362213253043592e-06" rms="2.3433062434196472e-01" purity="4.8391348123550415e-01" nType="-99"/>
          <Node pos="r" depth="2" NCoef="0" IVar="-1" Cut="0.0000000000000000e+00" cType="1" res="-1.9713824614882469e-02" rms="2.2880612313747406e-01" purity="2.8516420722007751e-01" nType="-99"/>
        </Node>
      </Node>
    </BinaryTree>
    <BinaryTree type="DecisionTree" boostWeight="1.0000000000000000e+00" itree="100">
      <Node pos="s" depth="0" NCoef="0" IVar="3" Cut="1.4372866153717041e+00" cType="1" res="-7.3424546280875802e-04" rms="2.2623018920421600e-01" purity="4.9998763203620911e-01" nType="0">
        <Node pos="l" depth="1" NCoef="0" IVar="11" Cut="7.3916740417480469e+00" cType="1" res="1.5583709813654423e-02" rms="2.4164980649948120e-01" purity="7.3416769504547119e-01" nType="0">
          <Node pos="l" depth="2" NCoef="0" IVar="-1" Cut="0.0000000000000000e+00" cType="1" res="1.6630589962005615e-02" rms="2.3427014052867889e-01" purity="7.9069590568542480e-01" nType="-99"/>
          <Node pos="r" depth="2" NCoef="0" IVar="-1" Cut="0.0000000000000000e+00" cType="1" res="-1.1146424338221550e-02" rms="2.6051634550094604e-01" purity="5.5357795953750610e-01" nType="-99"/>
        </Node>
        <Node pos="r" depth="1" NCoef="0" IVar="17" Cut="4.4518627166748047e+01" cType="1" res="-1.0147886350750923e-02" rms="2.1627736091613770e-01" purity="3.6489182710647583e-01" nType="0">
          <Node pos="l" depth="2" NCoef="0" IVar="-1" Cut="0.0000000000000000e+00" cType="1" res="-1.0450486093759537e-02" rms="2.1977549791336060e-01" purity="3.1760138273239136e-01" nType="-99"/>
          <Node pos="r" depth="2" NCoef="0" IVar="-1" Cut="0.0000000000000000e+00" cType="1" res="2.4016469717025757e-02" rms="1.7229859530925751e-01" purity="8.3834743499755859e-01" nType="-99"/>
        </Node>
      </Node>
    </BinaryTree>
    <BinaryTree type="DecisionTree" boostWeight="1.0000000000000000e+00" itree="101">
      <Node pos="s" depth="0" NCoef="0" IVar="9" Cut="3.5757266998291016e+01" cType="1" res="9.0495118638500571e-04" rms="2.2625955939292908e-01" purity="4.9804162979125977e-01" nType="0">
        <Node pos="l" depth="1" NCoef="0" IVar="3" Cut="3.0998809337615967e+00" cType="1" res="3.8874950259923935e-03" rms="2.2774255275726318e-01" purity="5.1441943645477295e-01" nType="0">
          <Node pos="l" depth="2" NCoef="0" IVar="-1" Cut="0.0000000000000000e+00" cType="1" res="5.9969006106257439e-03" rms="2.5549033284187317e-01" purity="6.5089100599288940e-01" nType="-99"/>
          <Node pos="r" depth="2" NCoef="0" IVar="-1" Cut="0.0000000000000000e+00" cType="1" res="-5.2443899214267731e-02" rms="2.3189967498183250e-02" purity="0.0000000000000000e+00" nType="-99"/>
        </Node>
        <Node pos="r" depth="1" NCoef="0" IVar="16" Cut="3.4837907552719116e-01" cType="1" res="-4.5094210654497147e-02" rms="1.9635760784149170e-01" purity="2.4545121192932129e-01" nType="0">
          <Node pos="l" depth="2" NCoef="0" IVar="-1" Cut="0.0000000000000000e+00" cType="1" res="-4.9639098346233368e-02" rms="1.6612084209918976e-01" purity="6.1378151178359985e-02" nType="-99"/>
          <Node pos="r" depth="2" NCoef="0" IVar="-1" Cut="0.0000000000000000e+00" cType="1" res="-1.6736840829253197e-02" rms="2.1605058014392853e-01" purity="3.9453610777854919e-01" nType="-99"/>
        </Node>
      </Node>
    </BinaryTree>
    <BinaryTree type="DecisionTree" boostWeight="1.0000000000000000e+00" itree="102">
      <Node pos="s" depth="0" NCoef="0" IVar="23" Cut="3.3520203828811646e-01" cType="1" res="-3.8753228727728128e-04" rms="2.2350680828094482e-01" purity="5.0046068429946899e-01" nType="0">
        <Node pos="l" depth="1" NCoef="0" IVar="3" Cut="1.9153114557266235e+00" cType="1" res="-3.1659819185733795e-02" rms="1.8273757398128510e-01" purity="6.0638096183538437e-02" nType="0">
          <Node pos="l" depth="2" NCoef="0" IVar="-1" Cut="0.0000000000000000e+00" cType="1" res="-2.3694254457950592e-02" rms="2.4891270697116852e-01" purity="1.2271824479103088e-01" nType="-99"/>
          <Node pos="r" depth="2" NCoef="0" IVar="-1" Cut="0.0000000000000000e+00" cType="1" res="-2.8416160494089127e-02" rms="1.3083083927631378e-01" purity="2.6007549837231636e-02" nType="-99"/>
        </Node>
        <Node pos="r" depth="1" NCoef="0" IVar="27" Cut="7.6237905025482178e-01" cType="1" res="4.6023107133805752e-03" rms="2.2894769906997681e-01" purity="5.7063931226730347e-01" nType="0">
          <Node pos="l" depth="2" NCoef="0" IVar="-1" Cut="0.0000000000000000e+00" cType="1" res="-1.5063868835568428e-02" rms="2.3154854774475098e-01" purity="2.4408721923828125e-01" nType="-99"/>
          <Node pos="r" depth="2" NCoef="0" IVar="-1" Cut="0.0000000000000000e+00" cType="1" res="7.5359316542744637e-03" rms="2.2778533399105072e-01" purity="6.5515393018722534e-01" nType="-99"/>
        </Node>
      </Node>
    </BinaryTree>
    <BinaryTree type="DecisionTree" boostWeight="1.0000000000000000e+00" itree="103">
      <Node pos="s" depth="0" NCoef="0" IVar="23" Cut="4.7732141613960266e-01" cType="1" res="-1.4968091854825616e-03" rms="2.2303248941898346e-01" purity="4.9705365300178528e-01" nType="0">
        <Node pos="l" depth="1" NCoef="0" IVar="27" Cut="9.5208191871643066e-01" cType="1" res="-2.3276401683688164e-02" rms="1.9776186347007751e-01" purity="8.2062005996704102e-02" nType="0">
          <Node pos="l" depth="2" NCoef="0" IVar="-1" Cut="0.0000000000000000e+00" cType="1" res="-1.4292030595242977e-02" rms="1.7082872986793518e-01" purity="4.6474296599626541e-02" nType="-99"/>
          <Node pos="r" depth="2" NCoef="0" IVar="-1" Cut="0.0000000000000000e+00" cType="1" res="-2.1076306700706482e-02" rms="2.4752913415431976e-01" purity="1.6421140730381012e-01" nType="-99"/>
        </Node>
        <Node pos="r" depth="1" NCoef="0" IVar="6" Cut="3.7391808032989502e+00" cType="1" res="4.8896502703428268e-03" rms="2.2952505946159363e-01" purity="6.1874222755432129e-01" nType="0">
          <Node pos="l" depth="2" NCoef="0" IVar="-1" Cut="0.0000000000000000e+00" cType="1" res="-3.5715211182832718e-02" rms="2.2248601913452148e-01" purity="1.8276838958263397e-01" nType="-99"/>
          <Node pos="r" depth="2" NCoef="0" IVar="-1" Cut="0.0000000000000000e+00" cType="1" res="5.4647629149258137e-03" rms="2.2951093316078186e-01" purity="6.4422279596328735e-01" nType="-99"/>
        </Node>
      </Node>
    </BinaryTree>
    <BinaryTree type="DecisionTree" boostWeight="1.0000000000000000e+00" itree="104">
      <Node pos="s" depth="0" NCoef="0" IVar="17" Cut="4.6437183380126953e+01" cType="1" res="4.4552687904797494e-04" rms="2.2487580776214600e-01" purity="5.0002479553222656e-01" nType="0">
        <Node pos="l" depth="1" NCoef="0" IVar="10" Cut="7.3820095062255859e+00" cType="1" res="-3.4596610348671675e-03" rms="2.3071843385696411e-01" purity="4.5031166076660156e-01" nType="0">
          <Node pos="l" depth="2" NCoef="0" IVar="-1" Cut="0.0000000000000000e+00" cType="1" res="2.8875048737972975e-03" rms="2.2629484534263611e-01" purity="4.8472261428833008e-01" nType="-99"/>
          <Node pos="r" depth="2" NCoef="0" IVar="-1" Cut="0.0000000000000000e+00" cType="1" res="-1.3520941138267517e-02" rms="2.3968763649463654e-01" purity="3.7104448676109314e-01" nType="-99"/>
        </Node>
        <Node pos="r" depth="1" NCoef="0" IVar="23" Cut="9.0529876947402954e-01" cType="1" res="3.2012306153774261e-02" rms="1.6713087260723114e-01" purity="9.0187042951583862e-01" nType="0">
          <Node pos="l" depth="2" NCoef="0" IVar="-1" Cut="0.0000000000000000e+00" cType="1" res="2.0825928077101707e-02" rms="2.9340258240699768e-01" purity="6.6364979743957520e-01" nType="-99"/>
          <Node pos="r" depth="2" NCoef="0" IVar="-1" Cut="0.0000000000000000e+00" cType="1" res="4.0911071002483368e-02" rms="8.0985791981220245e-02" purity="9.8822587728500366e-01" nType="-99"/>
        </Node>
      </Node>
    </BinaryTree>
    <BinaryTree type="DecisionTree" boostWeight="1.0000000000000000e+00" itree="105">
      <Node pos="s" depth="0" NCoef="0" IVar="33" Cut="1.1428893357515335e-01" cType="1" res="1.8707553390413523e-03" rms="2.2423027455806732e-01" purity="4.9969887733459473e-01" nType="0">
        <Node pos="l" depth="1" NCoef="0" IVar="3" Cut="2.8656260967254639e+00" cType="1" res="7.0003364235162735e-03" rms="2.2423252463340759e-01" purity="5.4535043239593506e-01" nType="0">
          <Node pos="l" depth="2" NCoef="0" IVar="-1" Cut="0.0000000000000000e+00" cType="1" res="8.1440480425953865e-03" rms="2.4830323457717896e-01" purity="6.9205057621002197e-01" nType="-99"/>
          <Node pos="r" depth="2" NCoef="0" IVar="-1" Cut="0.0000000000000000e+00" cType="1" res="-2.9143987223505974e-02" rms="1.0069207102060318e-01" purity="3.6822661757469177e-02" nType="-99"/>
        </Node>
        <Node pos="r" depth="1" NCoef="0" IVar="10" Cut="7.3034548759460449e+00" cType="1" res="-2.5275086984038353e-02" rms="2.2225606441497803e-01" purity="2.5811016559600830e-01" nType="0">
          <Node pos="l" depth="2" NCoef="0" IVar="-1" Cut="0.0000000000000000e+00" cType="1" res="-1.1847943998873234e-02" rms="2.2328799962997437e-01" purity="2.8371983766555786e-01" nType="-99"/>
          <Node pos="r" depth="2" NCoef="0" IVar="-1" Cut="0.0000000000000000e+00" cType="1" res="-2.9445672407746315e-02" rms="2.1911142766475677e-01" purity="2.0687197148799896e-01" nType="-99"/>
        </Node>
      </Node>
    </BinaryTree>
    <BinaryTree type="DecisionTree" boostWeight="1.0000000000000000e+00" itree="106">
      <Node pos="s" depth="0" NCoef="0" IVar="3" Cut="1.9092152118682861e+00" cType="1" res="1.7622561426833272e-03" rms="2.2361287474632263e-01" purity="5.0155937671661377e-01" nType="0">
        <Node pos="l" depth="1" NCoef="0" IVar="9" Cut="2.7168443679809570e+01" cType="1" res="1.2625000439584255e-02" rms="2.4171699583530426e-01" purity="7.1855574846267700e-01" nType="0">
          <Node pos="l" depth="2" NCoef="0" IVar="-1" Cut="0.0000000000000000e+00" cType="1" res="1.1756310239434242e-02" rms="2.4380183219909668e-01" purity="7.5393426418304443e-01" nType="-99"/>
          <Node pos="r" depth="2" NCoef="0" IVar="-1" Cut="0.0000000000000000e+00" cType="1" res="-1.7348015680909157e-02" rms="2.2340956330299377e-01" purity="4.9594926834106445e-01" nType="-99"/>
        </Node>
        <Node pos="r" depth="1" NCoef="0" IVar="17" Cut="3.9440769195556641e+01" cType="1" res="-1.0414279997348785e-02" rms="2.0069606602191925e-01" purity="2.5831842422485352e-01" nType="0">
          <Node pos="l" depth="2" NCoef="0" IVar="-1" Cut="0.0000000000000000e+00" cType="1" res="-1.2087604962289333e-02" rms="2.0053336024284363e-01" purity="2.0609909296035767e-01" nType="-99"/>
          <Node pos="r" depth="2" NCoef="0" IVar="-1" Cut="0.0000000000000000e+00" cType="1" res="1.3811951503157616e-02" rms="1.9970741868019104e-01" purity="7.2036033868789673e-01" nType="-99"/>
        </Node>
      </Node>
    </BinaryTree>
    <BinaryTree type="DecisionTree" boostWeight="1.0000000000000000e+00" itree="107">
      <Node pos="s" depth="0" NCoef="0" IVar="24" Cut="2.8680244088172913e-01" cType="1" res="1.0262628784403205e-03" rms="2.2700357437133789e-01" purity="5.0250846147537231e-01" nType="0">
        <Node pos="l" depth="1" NCoef="0" IVar="3" Cut="3.1040854454040527e+00" cType="1" res="-3.5428330302238464e-02" rms="1.9281356036663055e-01" purity="1.1890842765569687e-01" nType="0">
          <Node pos="l" depth="2" NCoef="0" IVar="-1" Cut="0.0000000000000000e+00" cType="1" res="-3.1383711844682693e-02" rms="2.5445884466171265e-01" purity="2.1010091900825500e-01" nType="-99"/>
          <Node pos="r" depth="2" NCoef="0" IVar="-1" Cut="0.0000000000000000e+00" cType="1" res="-5.1110230386257172e-02" rms="1.0851207189261913e-02" purity="0.0000000000000000e+00" nType="-99"/>
        </Node>
        <Node pos="r" depth="1" NCoef="0" IVar="16" Cut="3.2800287008285522e-01" cType="1" res="4.7920281067490578e-03" rms="2.2991712391376495e-01" purity="5.4213434457778931e-01" nType="0">
          <Node pos="l" depth="2" NCoef="0" IVar="-1" Cut="0.0000000000000000e+00" cType="1" res="-1.0144883766770363e-02" rms="2.5160613656044006e-01" purity="2.7848011255264282e-01" nType="-99"/>
          <Node pos="r" depth="2" NCoef="0" IVar="-1" Cut="0.0000000000000000e+00" cType="1" res="1.0011726990342140e-02" rms="2.1966023743152618e-01" purity="6.5154910087585449e-01" nType="-99"/>
        </Node>
      </Node>
    </BinaryTree>
    <BinaryTree type="DecisionTree" boostWeight="1.0000000000000000e+00" itree="108">
      <Node pos="s" depth="0" NCoef="0" IVar="33" Cut="1.9055699929594994e-02" cType="1" res="-6.8115699104964733e-04" rms="2.2140602767467499e-01" purity="5.0105172395706177e-01" nType="0">
        <Node pos="l" depth="1" NCoef="0" IVar="33" Cut="8.1723602488636971e-03" cType="1" res="9.6548665314912796e-03" rms="2.1474009752273560e-01" purity="6.3417071104049683e-01" nType="0">
          <Node pos="l" depth="2" NCoef="0" IVar="-1" Cut="0.0000000000000000e+00" cType="1" res="1.3190151192247868e-02" rms="2.0879012346267700e-01" purity="6.6916638612747192e-01" nType="-99"/>
          <Node pos="r" depth="2" NCoef="0" IVar="-1" Cut="0.0000000000000000e+00" cType="1" res="-7.6599358581006527e-03" rms="2.2844868898391724e-01" purity="5.4153782129287720e-01" nType="-99"/>
        </Node>
        <Node pos="r" depth="1" NCoef="0" IVar="15" Cut="6.1542139053344727e+00" cType="1" res="-1.2201283127069473e-02" rms="2.2805531322956085e-01" purity="3.5268256068229675e-01" nType="0">
          <Node pos="l" depth="2" NCoef="0" IVar="-1" Cut="0.0000000000000000e+00" cType="1" res="4.5518479309976101e-03" rms="2.3756632208824158e-01" purity="4.1387555003166199e-01" nType="-99"/>
          <Node pos="r" depth="2" NCoef="0" IVar="-1" Cut="0.0000000000000000e+00" cType="1" res="-1.7889404669404030e-02" rms="2.2044798731803894e-01" purity="3.1132945418357849e-01" nType="-99"/>
        </Node>
      </Node>
    </BinaryTree>
    <BinaryTree type="DecisionTree" boostWeight="1.0000000000000000e+00" itree="109">
      <Node pos="s" depth="0" NCoef="0" IVar="34" Cut="1.9845370054244995e+00" cType="1" res="1.5515798004344106e-03" rms="2.2295516729354858e-01" purity="5.0254368782043457e-01" nType="0">
        <Node pos="l" depth="1" NCoef="0" IVar="14" Cut="8.0928153991699219e+00" cType="1" res="1.1040485464036465e-02" rms="2.2059318423271179e-01" purity="6.2750458717346191e-01" nType="0">
          <Node pos="l" depth="2" NCoef="0" IVar="-1" Cut="0.0000000000000000e+00" cType="1" res="2.8623195365071297e-02" rms="2.2865357995033264e-01" purity="7.1533495187759399e-01" nType="-99"/>
          <Node pos="r" depth="2" NCoef="0" IVar="-1" Cut="0.0000000000000000e+00" cType="1" res="-1.3558922801166773e-03" rms="2.1608628332614899e-01" purity="5.9483528137207031e-01" nType="-99"/>
        </Node>
        <Node pos="r" depth="1" NCoef="0" IVar="11" Cut="6.4039926528930664e+00" cType="1" res="-1.1483733542263508e-02" rms="2.2550964355468750e-01" purity="3.3087950944900513e-01" nType="0">
          <Node pos="l" depth="2" NCoef="0" IVar="-1" Cut="0.0000000000000000e+00" cType="1" res="-2.4303944781422615e-02" rms="2.2286130487918854e-01" purity="2.5968536734580994e-01" nType="-99"/>
          <Node pos="r" depth="2" NCoef="0" IVar="-1" Cut="0.0000000000000000e+00" cType="1" res="1.0923504596576095e-03" rms="2.2618243098258972e-01" purity="3.7533453106880188e-01" nType="-99"/>
        </Node>
      </Node>
    </BinaryTree>
    <BinaryTree type="DecisionTree" boostWeight="1.0000000000000000e+00" itree="110">
      <Node pos="s" depth="0" NCoef="0" IVar="32" Cut="3.8089707493782043e-02" cType="1" res="-1.5576535370200872e-03" rms="2.2132064402103424e-01" purity="4.9589842557907104e-01" nType="0">
        <Node pos="l" depth="1" NCoef="0" IVar="16" Cut="3.2929581403732300e-01" cType="1" res="5.2978601306676865e-03" rms="2.2252933681011200e-01" purity="5.9662020206451416e-01" nType="0">
          <Node pos="l" depth="2" NCoef="0" IVar="-1" Cut="0.0000000000000000e+00" cType="1" res="-9.8835239186882973e-03" rms="2.5526139140129089e-01" purity="3.1848368048667908e-01" nType="-99"/>
          <Node pos="r" depth="2" NCoef="0" IVar="-1" Cut="0.0000000000000000e+00" cType="1" res="1.0757526382803917e-02" rms="2.0777219533920288e-01" purity="7.0465910434722900e-01" nType="-99"/>
        </Node>
        <Node pos="r" depth="1" NCoef="0" IVar="11" Cut="6.2379941940307617e+00" cType="1" res="-1.9463723525404930e-02" rms="2.1711339056491852e-01" purity="2.3282121121883392e-01" nType="0">
          <Node pos="l" depth="2" NCoef="0" IVar="-1" Cut="0.0000000000000000e+00" cType="1" res="-2.7121758088469505e-02" rms="2.1744160354137421e-01" purity="1.9805765151977539e-01" nType="-99"/>
          <Node pos="r" depth="2" NCoef="0" IVar="-1" Cut="0.0000000000000000e+00" cType="1" res="-9.1887516900897026e-03" rms="2.1656875312328339e-01" purity="2.4844981729984283e-01" nType="-99"/>
        </Node>
      </Node>
    </BinaryTree>
    <BinaryTree type="DecisionTree" boostWeight="1.0000000000000000e+00" itree="111">
      <Node pos="s" depth="0" NCoef="0" IVar="24" Cut="5.7200366258621216e-01" cType="1" res="1.1261156760156155e-03" rms="2.2222074866294861e-01" purity="4.9983125925064087e-01" nType="0">
        <Node pos="l" depth="1" NCoef="0" IVar="23" Cut="7.6263815164566040e-01" cType="1" res="-2.0782874897122383e-02" rms="2.0459918677806854e-01" purity="1.6951976716518402e-01" nType="0">
          <Node pos="l" depth="2" NCoef="0" IVar="-1" Cut="0.0000000000000000e+00" cType="1" res="-1.6793834045529366e-02" rms="1.5732900798320770e-01" purity="4.3608043342828751e-02" nType="-99"/>
          <Node pos="r" depth="2" NCoef="0" IVar="-1" Cut="0.0000000000000000e+00" cType="1" res="-1.8773717805743217e-02" rms="2.7577745914459229e-01" purity="4.2342016100883484e-01" nType="-99"/>
        </Node>
        <Node pos="r" depth="1" NCoef="0" IVar="11" Cut="7.3311705589294434e+00" cType="1" res="7.2420928627252579e-03" rms="2.2651763260364532e-01" purity="5.9203892946243286e-01" nType="0">
          <Node pos="l" depth="2" NCoef="0" IVar="-1" Cut="0.0000000000000000e+00" cType="1" res="1.0352940298616886e-02" rms="2.2679017484188080e-01" purity="6.3357871770858765e-01" nType="-99"/>
          <Node pos="r" depth="2" NCoef="0" IVar="-1" Cut="0.0000000000000000e+00" cType="1" res="-9.5619000494480133e-03" rms="2.2427994012832642e-01" purity="4.7291371226310730e-01" nType="-99"/>
        </Node>
      </Node>
    </BinaryTree>
    <BinaryTree type="DecisionTree" boostWeight="1.0000000000000000e+00" itree="112">
      <Node pos="s" depth="0" NCoef="0" IVar="31" Cut="1.9039155915379524e-02" cType="1" res="9.7152538364753127e-04" rms="2.2255176305770874e-01" purity="4.9834477901458740e-01" nType="0">
        <Node pos="l" depth="1" NCoef="0" IVar="31" Cut="7.2560035623610020e-03" cType="1" res="1.1229713447391987e-02" rms="2.1729478240013123e-01" purity="6.4208412170410156e-01" nType="0">
          <Node pos="l" depth="2" NCoef="0" IVar="-1" Cut="0.0000000000000000e+00" cType="1" res="1.4401420950889587e-02" rms="2.0995211601257324e-01" purity="6.8948495388031006e-01" nType="-99"/>
          <Node pos="r" depth="2" NCoef="0" IVar="-1" Cut="0.0000000000000000e+00" cType="1" res="-5.4683345369994640e-03" rms="2.3215104639530182e-01" purity="5.3304338455200195e-01" nType="-99"/>
        </Node>
        <Node pos="r" depth="1" NCoef="0" IVar="6" Cut="6.3599157333374023e+00" cType="1" res="-1.3086305931210518e-02" rms="2.2881475090980530e-01" purity="3.0136415362358093e-01" nType="0">
          <Node pos="l" depth="2" NCoef="0" IVar="-1" Cut="0.0000000000000000e+00" cType="1" res="-5.1378905773162842e-03" rms="2.3605701327323914e-01" purity="3.1697261333465576e-01" nType="-99"/>
          <Node pos="r" depth="2" NCoef="0" IVar="-1" Cut="0.0000000000000000e+00" cType="1" res="-2.2979278117418289e-02" rms="2.0374332368373871e-01" purity="2.5313937664031982e-01" nType="-99"/>
        </Node>
      </Node>
    </BinaryTree>
    <BinaryTree type="DecisionTree" boostWeight="1.0000000000000000e+00" itree="113">
      <Node pos="s" depth="0" NCoef="0" IVar="16" Cut="3.6648896336555481e-01" cType="1" res="-1.4367828844115138e-03" rms="2.2231227159500122e-01" purity="4.9786123633384705e-01" nType="0">
        <Node pos="l" depth="1" NCoef="0" IVar="1" Cut="1.0809340476989746e+01" cType="1" res="-1.3322653248906136e-02" rms="2.3689508438110352e-01" purity="2.9617375135421753e-01" nType="0">
          <Node pos="l" depth="2" NCoef="0" IVar="-1" Cut="0.0000000000000000e+00" cType="1" res="3.6415921058505774e-03" rms="2.4216949939727783e-01" purity="3.4035432338714600e-01" nType="-99"/>
          <Node pos="r" depth="2" NCoef="0" IVar="-1" Cut="0.0000000000000000e+00" cType="1" res="-3.2289054244756699e-02" rms="2.2047829627990723e-01" purity="2.0440426468849182e-01" nType="-99"/>
        </Node>
        <Node pos="r" depth="1" NCoef="0" IVar="34" Cut="1.1911808252334595e+00" cType="1" res="6.7866770550608635e-03" rms="2.1124453842639923e-01" purity="6.3740253448486328e-01" nType="0">
          <Node pos="l" depth="2" NCoef="0" IVar="-1" Cut="0.0000000000000000e+00" cType="1" res="2.2688332945108414e-02" rms="1.9230683147907257e-01" purity="8.2562452554702759e-01" nType="-99"/>
          <Node pos="r" depth="2" NCoef="0" IVar="-1" Cut="0.0000000000000000e+00" cType="1" res="-5.2596190944314003e-03" rms="2.2163657844066620e-01" purity="5.1478242874145508e-01" nType="-99"/>
        </Node>
      </Node>
    </BinaryTree>
    <BinaryTree type="DecisionTree" boostWeight="1.0000000000000000e+00" itree="114">
      <Node pos="s" depth="0" NCoef="0" IVar="31" Cut="3.8090150803327560e-02" cType="1" res="-1.6091060824692249e-03" rms="2.2029012441635132e-01" purity="4.9811416864395142e-01" nType="0">
        <Node pos="l" depth="1" NCoef="0" IVar="10" Cut="7.3223118782043457e+00" cType="1" res="5.4610720835626125e-03" rms="2.1848332881927490e-01" purity="6.0062366724014282e-01" nType="0">
          <Node pos="l" depth="2" NCoef="0" IVar="-1" Cut="0.0000000000000000e+00" cType="1" res="1.1153630912303925e-02" rms="2.1426770091056824e-01" purity="6.3654476404190063e-01" nType="-99"/>
          <Node pos="r" depth="2" NCoef="0" IVar="-1" Cut="0.0000000000000000e+00" cType="1" res="-7.1418886072933674e-03" rms="2.2435389459133148e-01" purity="5.4153674840927124e-01" nType="-99"/>
        </Node>
        <Node pos="r" depth="1" NCoef="0" IVar="34" Cut="1.1917607784271240e+00" cType="1" res="-1.8136989325284958e-02" rms="2.2358661890029907e-01" purity="2.5847867131233215e-01" nType="0">
          <Node pos="l" depth="2" NCoef="0" IVar="-1" Cut="0.0000000000000000e+00" cType="1" res="-1.2999288737773895e-03" rms="2.4280086159706116e-01" purity="4.1432270407676697e-01" nType="-99"/>
          <Node pos="r" depth="2" NCoef="0" IVar="-1" Cut="0.0000000000000000e+00" cType="1" res="-2.0932499319314957e-02" rms="2.1387864649295807e-01" purity="1.8758103251457214e-01" nType="-99"/>
        </Node>
      </Node>
    </BinaryTree>
    <BinaryTree type="DecisionTree" boostWeight="1.0000000000000000e+00" itree="115">
      <Node pos="s" depth="0" NCoef="0" IVar="20" Cut="-2.9836662292480469e+01" cType="1" res="-3.2184825977310538e-04" rms="2.1916800737380981e-01" purity="4.9889647960662842e-01" nType="0">
        <Node pos="l" depth="1" NCoef="0" IVar="2" Cut="1.0850648880004883e+01" cType="1" res="1.8714850768446922e-02" rms="1.9010376930236816e-01" purity="8.0150794982910156e-01" nType="0">
          <Node pos="l" depth="2" NCoef="0" IVar="-1" Cut="0.0000000000000000e+00" cType="1" res="2.1621588617563248e-02" rms="1.8600456416606903e-01" purity="8.3844214677810669e-01" nType="-99"/>
          <Node pos="r" depth="2" NCoef="0" IVar="-1" Cut="0.0000000000000000e+00" cType="1" res="-3.1697512604296207e-03" rms="2.0393218100070953e-01" purity="6.5489304065704346e-01" nType="-99"/>
        </Node>
        <Node pos="r" depth="1" NCoef="0" IVar="21" Cut="2.0727394104003906e+01" cType="1" res="-6.2940786592662334e-03" rms="2.2719381749629974e-01" purity="4.0396067500114441e-01" nType="0">
          <Node pos="l" depth="2" NCoef="0" IVar="-1" Cut="0.0000000000000000e+00" cType="1" res="-8.5648754611611366e-03" rms="2.2985216975212097e-01" purity="3.1526541709899902e-01" nType="-99"/>
          <Node pos="r" depth="2" NCoef="0" IVar="-1" Cut="0.0000000000000000e+00" cType="1" res="8.8021717965602875e-03" rms="2.1812602877616882e-01" purity="6.6648387908935547e-01" nType="-99"/>
        </Node>
      </Node>
    </BinaryTree>
    <BinaryTree type="DecisionTree" boostWeight="1.0000000000000000e+00" itree="116">
      <Node pos="s" depth="0" NCoef="0" IVar="30" Cut="1.9083717837929726e-02" cType="1" res="2.3523841809947044e-04" rms="2.2117544710636139e-01" purity="5.0377875566482544e-01" nType="0">
        <Node pos="l" depth="1" NCoef="0" IVar="3" Cut="1.9195523262023926e+00" cType="1" res="9.8953358829021454e-03" rms="2.1378654241561890e-01" purity="6.4655929803848267e-01" nType="0">
          <Node pos="l" depth="2" NCoef="0" IVar="-1" Cut="0.0000000000000000e+00" cType="1" res="1.3834510929882526e-02" rms="2.1637588739395142e-01" purity="8.1539958715438843e-01" nType="-99"/>
          <Node pos="r" depth="2" NCoef="0" IVar="-1" Cut="0.0000000000000000e+00" cType="1" res="-3.6578117869794369e-03" rms="2.0896552503108978e-01" purity="3.8921049237251282e-01" nType="-99"/>
        </Node>
        <Node pos="r" depth="1" NCoef="0" IVar="2" Cut="1.7669910430908203e+01" cType="1" res="-1.0328778065741062e-02" rms="2.2851598262786865e-01" purity="3.4763798117637634e-01" nType="0">
          <Node pos="l" depth="2" NCoef="0" IVar="-1" Cut="0.0000000000000000e+00" cType="1" res="-4.8049916513264179e-03" rms="2.3144167661666870e-01" purity="3.6578255891799927e-01" nType="-99"/>
          <Node pos="r" depth="2" NCoef="0" IVar="-1" Cut="0.0000000000000000e+00" cType="1" res="-3.6679737269878387e-02" rms="1.9010721147060394e-01" purity="1.5077415108680725e-01" nType="-99"/>
        </Node>
      </Node>
    </BinaryTree>
    <BinaryTree type="DecisionTree" boostWeight="1.0000000000000000e+00" itree="117">
      <Node pos="s" depth="0" NCoef="0" IVar="24" Cut="9.0472549200057983e-01" cType="1" res="-4.1517132194712758e-04" rms="2.2323431074619293e-01" purity="4.9821594357490540e-01" nType="0">
        <Node pos="l" depth="1" NCoef="0" IVar="34" Cut="1.1917268037796021e+00" cType="1" res="-1.2207927182316780e-02" rms="2.2198966145515442e-01" purity="3.0231574177742004e-01" nType="0">
          <Node pos="l" depth="2" NCoef="0" IVar="-1" Cut="0.0000000000000000e+00" cType="1" res="3.7267208099365234e-03" rms="2.3839087784290314e-01" purity="4.7013363242149353e-01" nType="-99"/>
          <Node pos="r" depth="2" NCoef="0" IVar="-1" Cut="0.0000000000000000e+00" cType="1" res="-1.7078466713428497e-02" rms="2.1297225356101990e-01" purity="2.2041735053062439e-01" nType="-99"/>
        </Node>
        <Node pos="r" depth="1" NCoef="0" IVar="13" Cut="7.8602471351623535e+00" cType="1" res="1.0060733184218407e-02" rms="2.2381362318992615e-01" purity="6.7224061489105225e-01" nType="0">
          <Node pos="l" depth="2" NCoef="0" IVar="-1" Cut="0.0000000000000000e+00" cType="1" res="2.8399279341101646e-02" rms="2.2638198733329773e-01" purity="7.2976595163345337e-01" nType="-99"/>
          <Node pos="r" depth="2" NCoef="0" IVar="-1" Cut="0.0000000000000000e+00" cType="1" res="1.3976566260680556e-03" rms="2.2242654860019684e-01" purity="6.5741592645645142e-01" nType="-99"/>
        </Node>
      </Node>
    </BinaryTree>
    <BinaryTree type="DecisionTree" boostWeight="1.0000000000000000e+00" itree="118">
      <Node pos="s" depth="0" NCoef="0" IVar="28" Cut="9.5241540670394897e-01" cType="1" res="9.1020185209345073e-05" rms="2.2100375592708588e-01" purity="4.9557226896286011e-01" nType="0">
        <Node pos="l" depth="1" NCoef="0" IVar="15" Cut="5.7085843086242676e+00" cType="1" res="-5.7814982719719410e-03" rms="2.2934088110923767e-01" purity="4.0639016032218933e-01" nType="0">
          <Node pos="l" depth="2" NCoef="0" IVar="-1" Cut="0.0000000000000000e+00" cType="1" res="1.2691697105765343e-02" rms="2.3801796138286591e-01" purity="5.4672992229461670e-01" nType="-99"/>
          <Node pos="r" depth="2" NCoef="0" IVar="-1" Cut="0.0000000000000000e+00" cType="1" res="-8.2497382536530495e-03" rms="2.2689272463321686e-01" purity="3.7395933270454407e-01" nType="-99"/>
        </Node>
        <Node pos="r" depth="1" NCoef="0" IVar="7" Cut="2.1807801723480225e+00" cType="1" res="1.8797680735588074e-02" rms="1.9084759056568146e-01" purity="7.7965784072875977e-01" nType="0">
          <Node pos="l" depth="2" NCoef="0" IVar="-1" Cut="0.0000000000000000e+00" cType="1" res="2.4165773764252663e-02" rms="1.8220639228820801e-01" purity="8.9568144083023071e-01" nType="-99"/>
          <Node pos="r" depth="2" NCoef="0" IVar="-1" Cut="0.0000000000000000e+00" cType="1" res="-8.7164128199219704e-03" rms="2.1751855313777924e-01" purity="3.4760761260986328e-01" nType="-99"/>
        </Node>
      </Node>
    </BinaryTree>
    <BinaryTree type="DecisionTree" boostWeight="1.0000000000000000e+00" itree="119">
      <Node pos="s" depth="0" NCoef="0" IVar="28" Cut="4.3274441361427307e-01" cType="1" res="-1.1344302911311388e-03" rms="2.2073125839233398e-01" purity="4.9556294083595276e-01" nType="0">
        <Node pos="l" depth="1" NCoef="0" IVar="15" Cut="6.3505506515502930e+00" cType="1" res="-1.7964370548725128e-02" rms="2.2287499904632568e-01" purity="2.9018381237983704e-01" nType="0">
          <Node pos="l" depth="2" NCoef="0" IVar="-1" Cut="0.0000000000000000e+00" cType="1" res="-6.5605985000729561e-03" rms="2.3128040134906769e-01" purity="3.4658342599868774e-01" nType="-99"/>
          <Node pos="r" depth="2" NCoef="0" IVar="-1" Cut="0.0000000000000000e+00" cType="1" res="-2.7679696679115295e-02" rms="2.0352096855640411e-01" purity="1.7451868951320648e-01" nType="-99"/>
        </Node>
        <Node pos="r" depth="1" NCoef="0" IVar="2" Cut="1.0943121910095215e+01" cType="1" res="5.1066586747765541e-03" rms="2.1960338950157166e-01" purity="5.7172423601150513e-01" nType="0">
          <Node pos="l" depth="2" NCoef="0" IVar="-1" Cut="0.0000000000000000e+00" cType="1" res="8.0262040719389915e-03" rms="2.1976736187934875e-01" purity="6.0647213459014893e-01" nType="-99"/>
          <Node pos="r" depth="2" NCoef="0" IVar="-1" Cut="0.0000000000000000e+00" cType="1" res="-1.0832105763256550e-02" rms="2.1776181459426880e-01" purity="4.4270566105842590e-01" nType="-99"/>
        </Node>
      </Node>
    </BinaryTree>
    <BinaryTree type="DecisionTree" boostWeight="1.0000000000000000e+00" itree="120">
      <Node pos="s" depth="0" NCoef="0" IVar="16" Cut="3.9858025312423706e-01" cType="1" res="-1.8796091899275780e-03" rms="2.1839590370655060e-01" purity="4.9806070327758789e-01" nType="0">
        <Node pos="l" depth="1" NCoef="0" IVar="9" Cut="1.4802186965942383e+01" cType="1" res="-1.2516942806541920e-02" rms="2.3250074684619904e-01" purity="3.3347535133361816e-01" nType="0">
          <Node pos="l" depth="2" NCoef="0" IVar="-1" Cut="0.0000000000000000e+00" cType="1" res="5.9459311887621880e-03" rms="2.3725473880767822e-01" purity="3.9522862434387207e-01" nType="-99"/>
          <Node pos="r" depth="2" NCoef="0" IVar="-1" Cut="0.0000000000000000e+00" cType="1" res="-2.1865811198949814e-02" rms="2.2531193494796753e-01" purity="2.6895812153816223e-01" nType="-99"/>
        </Node>
        <Node pos="r" depth="1" NCoef="0" IVar="11" Cut="6.1020622253417969e+00" cType="1" res="8.1588774919509888e-03" rms="2.0368461310863495e-01" purity="6.5338039398193359e-01" nType="0">
          <Node pos="l" depth="2" NCoef="0" IVar="-1" Cut="0.0000000000000000e+00" cType="1" res="-1.8481768667697906e-02" rms="2.1622478961944580e-01" purity="4.7426959872245789e-01" nType="-99"/>
          <Node pos="r" depth="2" NCoef="0" IVar="-1" Cut="0.0000000000000000e+00" cType="1" res="1.5181378461420536e-02" rms="1.9864457845687866e-01" purity="7.0849484205245972e-01" nType="-99"/>
        </Node>
      </Node>
    </BinaryTree>
    <BinaryTree type="DecisionTree" boostWeight="1.0000000000000000e+00" itree="121">
      <Node pos="s" depth="0" NCoef="0" IVar="6" Cut="3.7750828266143799e+00" cType="1" res="1.4207261847332120e-03" rms="2.2092245519161224e-01" purity="5.0335252285003662e-01" nType="0">
        <Node pos="l" depth="1" NCoef="0" IVar="3" Cut="2.4125545024871826e+00" cType="1" res="-3.8794133812189102e-02" rms="1.9456250965595245e-01" purity="1.3114233314990997e-01" nType="0">
          <Node pos="l" depth="2" NCoef="0" IVar="-1" Cut="0.0000000000000000e+00" cType="1" res="-3.4597426652908325e-02" rms="2.5910025835037231e-01" purity="2.6846200227737427e-01" nType="-99"/>
          <Node pos="r" depth="2" NCoef="0" IVar="-1" Cut="0.0000000000000000e+00" cType="1" res="-3.2611962407827377e-02" rms="1.2366218119859695e-01" purity="3.0283648520708084e-02" nType="-99"/>
        </Node>
        <Node pos="r" depth="1" NCoef="0" IVar="3" Cut="3.0979743003845215e+00" cType="1" res="4.3711503967642784e-03" rms="2.2244751453399658e-01" purity="5.3066021203994751e-01" nType="0">
          <Node pos="l" depth="2" NCoef="0" IVar="-1" Cut="0.0000000000000000e+00" cType="1" res="5.9947711415588856e-03" rms="2.4745233356952667e-01" purity="6.5954178571701050e-01" nType="-99"/>
          <Node pos="r" depth="2" NCoef="0" IVar="-1" Cut="0.0000000000000000e+00" cType="1" res="-5.2445691078901291e-02" rms="2.2578399628400803e-02" purity="0.0000000000000000e+00" nType="-99"/>
        </Node>
      </Node>
    </BinaryTree>
    <BinaryTree type="DecisionTree" boostWeight="1.0000000000000000e+00" itree="122">
      <Node pos="s" depth="0" NCoef="0" IVar="23" Cut="4.7676005959510803e-01" cType="1" res="-1.4022485993336886e-04" rms="2.2118268907070160e-01" purity="4.9681955575942993e-01" nType="0">
        <Node pos="l" depth="1" NCoef="0" IVar="13" Cut="8.0546283721923828e+00" cType="1" res="-1.7597587779164314e-02" rms="1.9672240316867828e-01" purity="8.5825398564338684e-02" nType="0">
          <Node pos="l" depth="2" NCoef="0" IVar="-1" Cut="0.0000000000000000e+00" cType="1" res="9.6123846014961600e-04" rms="2.1018546819686890e-01" purity="1.2234017252922058e-01" nType="-99"/>
          <Node pos="r" depth="2" NCoef="0" IVar="-1" Cut="0.0000000000000000e+00" cType="1" res="-2.5557955726981163e-02" rms="1.8574008345603943e-01" purity="6.0581468045711517e-02" nType="-99"/>
        </Node>
        <Node pos="r" depth="1" NCoef="0" IVar="6" Cut="3.6157162189483643e+00" cType="1" res="5.0199232064187527e-03" rms="2.2765450179576874e-01" purity="6.1830353736877441e-01" nType="0">
          <Node pos="l" depth="2" NCoef="0" IVar="-1" Cut="0.0000000000000000e+00" cType="1" res="-3.9801709353923798e-02" rms="2.1730948984622955e-01" purity="1.2736973166465759e-01" nType="-99"/>
          <Node pos="r" depth="2" NCoef="0" IVar="-1" Cut="0.0000000000000000e+00" cType="1" res="5.3077423945069313e-03" rms="2.2776730358600616e-01" purity="6.3887244462966919e-01" nType="-99"/>
        </Node>
      </Node>
    </BinaryTree>
    <BinaryTree type="DecisionTree" boostWeight="1.0000000000000000e+00" itree="123">
      <Node pos="s" depth="0" NCoef="0" IVar="5" Cut="9.0842313766479492e+00" cType="1" res="8.7119580712169409e-04" rms="2.1832700073719025e-01" purity="5.0273662805557251e-01" nType="0">
        <Node pos="l" depth="1" NCoef="0" IVar="28" Cut="4.7934687137603760e-01" cType="1" res="2.9836515896022320e-03" rms="2.1844767034053802e-01" purity="5.1864540576934814e-01" nType="0">
          <Node pos="l" depth="2" NCoef="0" IVar="-1" Cut="0.0000000000000000e+00" cType="1" res="-8.2767270505428314e-03" rms="2.2766914963722229e-01" purity="3.1861588358879089e-01" nType="-99"/>
          <Node pos="r" depth="2" NCoef="0" IVar="-1" Cut="0.0000000000000000e+00" cType="1" res="7.1929995901882648e-03" rms="2.1401351690292358e-01" purity="6.0529595613479614e-01" nType="-99"/>
        </Node>
        <Node pos="r" depth="1" NCoef="0" IVar="-1" Cut="0.0000000000000000e+00" cType="1" res="-4.8469495028257370e-02" rms="2.0890712738037109e-01" purity="1.1613962799310684e-01" nType="-99"/>
      </Node>
    </BinaryTree>
    <BinaryTree type="DecisionTree" boostWeight="1.0000000000000000e+00" itree="124">
      <Node pos="s" depth="0" NCoef="0" IVar="24" Cut="9.0474116802215576e-01" cType="1" res="8.9671381283551455e-04" rms="2.2122138738632202e-01" purity="5.0205969810485840e-01" nType="0">
        <Node pos="l" depth="1" NCoef="0" IVar="15" Cut="5.6983275413513184e+00" cType="1" res="-9.2020314186811447e-03" rms="2.2059585154056549e-01" purity="3.0016019940376282e-01" nType="0">
          <Node pos="l" depth="2" NCoef="0" IVar="-1" Cut="0.0000000000000000e+00" cType="1" res="1.0376860387623310e-02" rms="2.4515467882156372e-01" purity="3.7816539406776428e-01" nType="-99"/>
          <Node pos="r" depth="2" NCoef="0" IVar="-1" Cut="0.0000000000000000e+00" cType="1" res="-1.0475871153175831e-02" rms="2.1612261235713959e-01" purity="2.8762564063072205e-01" nType="-99"/>
        </Node>
        <Node pos="r" depth="1" NCoef="0" IVar="14" Cut="7.9643130302429199e+00" cType="1" res="9.7695402801036835e-03" rms="2.2138969600200653e-01" purity="6.7945009469985962e-01" nType="0">
          <Node pos="l" depth="2" NCoef="0" IVar="-1" Cut="0.0000000000000000e+00" cType="1" res="2.6751838624477386e-02" rms="2.2248710691928864e-01" purity="7.4642181396484375e-01" nType="-99"/>
          <Node pos="r" depth="2" NCoef="0" IVar="-1" Cut="0.0000000000000000e+00" cType="1" res="2.3680056910961866e-03" rms="2.2061786055564880e-01" purity="6.6413933038711548e-01" nType="-99"/>
        </Node>
      </Node>
    </BinaryTree>
    <BinaryTree type="DecisionTree" boostWeight="1.0000000000000000e+00" itree="125">
      <Node pos="s" depth="0" NCoef="0" IVar="18" Cut="-4.8231758117675781e+01" cType="1" res="-1.6945042880252004e-03" rms="2.1714781224727631e-01" purity="5.0011551380157471e-01" nType="0">
        <Node pos="l" depth="1" NCoef="0" IVar="23" Cut="9.0680819749832153e-01" cType="1" res="2.5365287438035011e-02" rms="1.6513749957084656e-01" purity="9.0552341938018799e-01" nType="0">
          <Node pos="l" depth="2" NCoef="0" IVar="-1" Cut="0.0000000000000000e+00" cType="1" res="2.0383685827255249e-02" rms="2.9303717613220215e-01" purity="6.7344194650650024e-01" nType="-99"/>
          <Node pos="r" depth="2" NCoef="0" IVar="-1" Cut="0.0000000000000000e+00" cType="1" res="3.7647519260644913e-02" rms="7.8968934714794159e-02" purity="9.8774105310440063e-01" nType="-99"/>
        </Node>
        <Node pos="r" depth="1" NCoef="0" IVar="23" Cut="9.5246410369873047e-01" cType="1" res="-5.3900913335382938e-03" rms="2.2305811941623688e-01" purity="4.4474849104881287e-01" nType="0">
          <Node pos="l" depth="2" NCoef="0" IVar="-1" Cut="0.0000000000000000e+00" cType="1" res="-7.7964719384908676e-03" rms="2.4151228368282318e-01" purity="2.5109961628913879e-01" nType="-99"/>
          <Node pos="r" depth="2" NCoef="0" IVar="-1" Cut="0.0000000000000000e+00" cType="1" res="1.2235924601554871e-02" rms="1.6963382065296173e-01" purity="9.0995514392852783e-01" nType="-99"/>
        </Node>
      </Node>
    </BinaryTree>
    <BinaryTree type="DecisionTree" boostWeight="1.0000000000000000e+00" itree="126">
      <Node pos="s" depth="0" NCoef="0" IVar="17" Cut="5.1007198333740234e+01" cType="1" res="-3.3081145375035703e-04" rms="2.1866555511951447e-01" purity="4.9976843595504761e-01" nType="0">
        <Node pos="l" depth="1" NCoef="0" IVar="16" Cut="4.0191581845283508e-01" cType="1" res="-2.9266290366649628e-03" rms="2.2365312278270721e-01" purity="4.6226063370704651e-01" nType="0">
          <Node pos="l" depth="2" NCoef="0" IVar="-1" Cut="0.0000000000000000e+00" cType="1" res="-7.8671686351299286e-03" rms="2.3674471676349640e-01" purity="2.9521250724792480e-01" nType="-99"/>
          <Node pos="r" depth="2" NCoef="0" IVar="-1" Cut="0.0000000000000000e+00" cType="1" res="4.5936806127429008e-03" rms="2.0968152582645416e-01" purity="6.2598967552185059e-01" nType="-99"/>
        </Node>
        <Node pos="r" depth="1" NCoef="0" IVar="16" Cut="3.8238635659217834e-01" cType="1" res="2.9099192470312119e-02" rms="1.4785316586494446e-01" purity="9.2501199245452881e-01" nType="0">
          <Node pos="l" depth="2" NCoef="0" IVar="-1" Cut="0.0000000000000000e+00" cType="1" res="2.7546288445591927e-02" rms="1.9993160665035248e-01" purity="8.5278677940368652e-01" nType="-99"/>
          <Node pos="r" depth="2" NCoef="0" IVar="-1" Cut="0.0000000000000000e+00" cType="1" res="4.1373871266841888e-02" rms="8.3534620702266693e-02" purity="9.8355692625045776e-01" nType="-99"/>
        </Node>
      </Node>
    </BinaryTree>
    <BinaryTree type="DecisionTree" boostWeight="1.0000000000000000e+00" itree="127">
      <Node pos="s" depth="0" NCoef="0" IVar="28" Cut="6.6894346475601196e-01" cType="1" res="1.6984501853585243e-03" rms="2.2062583267688751e-01" purity="5.0352984666824341e-01" nType="0">
        <Node pos="l" depth="1" NCoef="0" IVar="14" Cut="8.3072280883789062e+00" cType="1" res="-8.8052460923790932e-03" rms="2.2998246550559998e-01" purity="3.2873791456222534e-01" nType="0">
          <Node pos="l" depth="2" NCoef="0" IVar="-1" Cut="0.0000000000000000e+00" cType="1" res="1.4826543629169464e-03" rms="2.3778513073921204e-01" purity="3.7160691618919373e-01" nType="-99"/>
          <Node pos="r" depth="2" NCoef="0" IVar="-1" Cut="0.0000000000000000e+00" cType="1" res="-1.7564048990607262e-02" rms="2.1845884621143341e-01" purity="2.7232989668846130e-01" nType="-99"/>
        </Node>
        <Node pos="r" depth="1" NCoef="0" IVar="7" Cut="2.5475707054138184e+00" cType="1" res="9.6748145297169685e-03" rms="2.1290056407451630e-01" purity="6.3626444339752197e-01" nType="0">
          <Node pos="l" depth="2" NCoef="0" IVar="-1" Cut="0.0000000000000000e+00" cType="1" res="1.2088751420378685e-02" rms="2.1967099606990814e-01" purity="7.5844627618789673e-01" nType="-99"/>
          <Node pos="r" depth="2" NCoef="0" IVar="-1" Cut="0.0000000000000000e+00" cType="1" res="-1.7306189984083176e-02" rms="1.8290336430072784e-01" purity="1.7625737190246582e-01" nType="-99"/>
        </Node>
      </Node>
    </BinaryTree>
    <BinaryTree type="DecisionTree" boostWeight="1.0000000000000000e+00" itree="128">
      <Node pos="s" depth="0" NCoef="0" IVar="30" Cut="5.7180628180503845e-02" cType="1" res="9.5766066806390882e-04" rms="2.1938556432723999e-01" purity="5.0005567073822021e-01" nType="0">
        <Node pos="l" depth="1" NCoef="0" IVar="3" Cut="3.0990698337554932e+00" cType="1" res="6.6346367821097374e-03" rms="2.1873249113559723e-01" purity="5.8364880084991455e-01" nType="0">
          <Node pos="l" depth="2" NCoef="0" IVar="-1" Cut="0.0000000000000000e+00" cType="1" res="7.3562418110668659e-03" rms="2.3994792997837067e-01" purity="7.0483475923538208e-01" nType="-99"/>
          <Node pos="r" depth="2" NCoef="0" IVar="-1" Cut="0.0000000000000000e+00" cType="1" res="-5.2225492894649506e-02" rms="2.0342521369457245e-02" purity="0.0000000000000000e+00" nType="-99"/>
        </Node>
        <Node pos="r" depth="1" NCoef="0" IVar="10" Cut="7.3715381622314453e+00" cType="1" res="-1.5083005651831627e-02" rms="2.2043167054653168e-01" purity="2.6385799050331116e-01" nType="0">
          <Node pos="l" depth="2" NCoef="0" IVar="-1" Cut="0.0000000000000000e+00" cType="1" res="-4.8080906271934509e-03" rms="2.2252291440963745e-01" purity="2.8566613793373108e-01" nType="-99"/>
          <Node pos="r" depth="2" NCoef="0" IVar="-1" Cut="0.0000000000000000e+00" cType="1" res="-2.4827241897583008e-02" rms="2.1454675495624542e-01" purity="2.1591186523437500e-01" nType="-99"/>
        </Node>
      </Node>
    </BinaryTree>
    <BinaryTree type="DecisionTree" boostWeight="1.0000000000000000e+00" itree="129">
      <Node pos="s" depth="0" NCoef="0" IVar="27" Cut="3.8112351298332214e-01" cType="1" res="2.1467246115207672e-03" rms="2.2032381594181061e-01" purity="5.0231999158859253e-01" nType="0">
        <Node pos="l" depth="1" NCoef="0" IVar="23" Cut="7.6252138614654541e-01" cType="1" res="-2.7628572657704353e-02" rms="2.1258755028247833e-01" purity="1.6746811568737030e-01" nType="0">
          <Node pos="l" depth="2" NCoef="0" IVar="-1" Cut="0.0000000000000000e+00" cType="1" res="-1.1694134213030338e-02" rms="1.7849318683147430e-01" purity="5.2013475447893143e-02" nType="-99"/>
          <Node pos="r" depth="2" NCoef="0" IVar="-1" Cut="0.0000000000000000e+00" cType="1" res="-3.8394406437873840e-02" rms="2.6746088266372681e-01" purity="4.1315034031867981e-01" nType="-99"/>
        </Node>
        <Node pos="r" depth="1" NCoef="0" IVar="3" Cut="3.0996837615966797e+00" cType="1" res="4.9816993996500969e-03" rms="2.2083707153797150e-01" purity="5.3420192003250122e-01" nType="0">
          <Node pos="l" depth="2" NCoef="0" IVar="-1" Cut="0.0000000000000000e+00" cType="1" res="6.0222251340746880e-03" rms="2.4530221521854401e-01" purity="6.6119128465652466e-01" nType="-99"/>
          <Node pos="r" depth="2" NCoef="0" IVar="-1" Cut="0.0000000000000000e+00" cType="1" res="-5.2026752382516861e-02" rms="1.8692450597882271e-02" purity="0.0000000000000000e+00" nType="-99"/>
        </Node>
      </Node>
    </BinaryTree>
    <BinaryTree type="DecisionTree" boostWeight="1.0000000000000000e+00" itree="130">
      <Node pos="s" depth="0" NCoef="0" IVar="21" Cut="3.3192871093750000e+01" cType="1" res="1.3277719262987375e-03" rms="2.1836631000041962e-01" purity="4.9933725595474243e-01" nType="0">
        <Node pos="l" depth="1" NCoef="0" IVar="14" Cut="8.3072280883789062e+00" cType="1" res="-2.0445827394723892e-03" rms="2.2535535693168640e-01" purity="4.4202744960784912e-01" nType="0">
          <Node pos="l" depth="2" NCoef="0" IVar="-1" Cut="0.0000000000000000e+00" cType="1" res="5.5124154314398766e-03" rms="2.2760082781314850e-01" purity="4.5253530144691467e-01" nType="-99"/>
          <Node pos="r" depth="2" NCoef="0" IVar="-1" Cut="0.0000000000000000e+00" cType="1" res="-8.8551342487335205e-03" rms="2.2260200977325439e-01" purity="4.3126672506332397e-01" nType="-99"/>
        </Node>
        <Node pos="r" depth="1" NCoef="0" IVar="23" Cut="8.5868632793426514e-01" cType="1" res="2.3732187226414680e-02" rms="1.6279865801334381e-01" purity="8.8007807731628418e-01" nType="0">
          <Node pos="l" depth="2" NCoef="0" IVar="-1" Cut="0.0000000000000000e+00" cType="1" res="2.0987072959542274e-02" rms="2.8802925348281860e-01" purity="5.3468501567840576e-01" nType="-99"/>
          <Node pos="r" depth="2" NCoef="0" IVar="-1" Cut="0.0000000000000000e+00" cType="1" res="3.1861811876296997e-02" rms="1.0506950318813324e-01" purity="9.7352796792984009e-01" nType="-99"/>
        </Node>
      </Node>
    </BinaryTree>
    <BinaryTree type="DecisionTree" boostWeight="1.0000000000000000e+00" itree="131">
      <Node pos="s" depth="0" NCoef="0" IVar="34" Cut="4.7620635032653809e+00" cType="1" res="-4.5270446571521461e-04" rms="2.1794526278972626e-01" purity="4.9761760234832764e-01" nType="0">
        <Node pos="l" depth="1" NCoef="0" IVar="16" Cut="3.6772468686103821e-01" cType="1" res="3.3906458411365747e-03" rms="2.2072984278202057e-01" purity="5.5332231521606445e-01" nType="0">
          <Node pos="l" depth="2" NCoef="0" IVar="-1" Cut="0.0000000000000000e+00" cType="1" res="-6.4963111653923988e-03" rms="2.4086864292621613e-01" purity="3.2459160685539246e-01" nType="-99"/>
          <Node pos="r" depth="2" NCoef="0" IVar="-1" Cut="0.0000000000000000e+00" cType="1" res="1.0840510018169880e-02" rms="2.0463384687900543e-01" purity="7.1637135744094849e-01" nType="-99"/>
        </Node>
        <Node pos="r" depth="1" NCoef="0" IVar="3" Cut="2.6422729492187500e+00" cType="1" res="-2.4930853396654129e-02" rms="1.9755254685878754e-01" purity="1.4283654093742371e-01" nType="0">
          <Node pos="l" depth="2" NCoef="0" IVar="-1" Cut="0.0000000000000000e+00" cType="1" res="-2.6253974065184593e-02" rms="2.6229283213615417e-01" purity="2.6943388581275940e-01" nType="-99"/>
          <Node pos="r" depth="2" NCoef="0" IVar="-1" Cut="0.0000000000000000e+00" cType="1" res="-9.7075784578919411e-03" rms="1.0637376457452774e-01" purity="2.9129588976502419e-02" nType="-99"/>
        </Node>
      </Node>
    </BinaryTree>
    <BinaryTree type="DecisionTree" boostWeight="1.0000000000000000e+00" itree="132">
      <Node pos="s" depth="0" NCoef="0" IVar="6" Cut="3.7323226928710938e+00" cType="1" res="-9.2516141012310982e-04" rms="2.1852482855319977e-01" purity="4.9839201569557190e-01" nType="0">
        <Node pos="l" depth="1" NCoef="0" IVar="16" Cut="4.0071952342987061e-01" cType="1" res="-3.3672012388706207e-02" rms="2.1590061485767365e-01" purity="1.2667667865753174e-01" nType="0">
          <Node pos="l" depth="2" NCoef="0" IVar="-1" Cut="0.0000000000000000e+00" cType="1" res="-4.1122101247310638e-03" rms="2.0601794123649597e-01" purity="1.0476148873567581e-01" nType="-99"/>
          <Node pos="r" depth="2" NCoef="0" IVar="-1" Cut="0.0000000000000000e+00" cType="1" res="-4.6592589467763901e-02" rms="2.2080552577972412e-01" purity="1.4519287645816803e-01" nType="-99"/>
        </Node>
        <Node pos="r" depth="1" NCoef="0" IVar="13" Cut="7.8941440582275391e+00" cType="1" res="1.2916428968310356e-03" rms="2.1852406859397888e-01" purity="5.2355533838272095e-01" nType="0">
          <Node pos="l" depth="2" NCoef="0" IVar="-1" Cut="0.0000000000000000e+00" cType="1" res="1.4647751115262508e-02" rms="2.2505894303321838e-01" purity="5.2625590562820435e-01" nType="-99"/>
          <Node pos="r" depth="2" NCoef="0" IVar="-1" Cut="0.0000000000000000e+00" cType="1" res="-4.6435408294200897e-03" rms="2.1550019085407257e-01" purity="5.2250796556472778e-01" nType="-99"/>
        </Node>
      </Node>
    </BinaryTree>
    <BinaryTree type="DecisionTree" boostWeight="1.0000000000000000e+00" itree="133">
      <Node pos="s" depth="0" NCoef="0" IVar="19" Cut="-1.3563270568847656e+01" cType="1" res="-1.5099333541002125e-04" rms="2.1916502714157104e-01" purity="4.9651902914047241e-01" nType="0">
        <Node pos="l" depth="1" NCoef="0" IVar="-1" Cut="0.0000000000000000e+00" cType="1" res="3.3550392836332321e-02" rms="2.2429881989955902e-01" purity="5.5932557582855225e-01" nType="-99"/>
        <Node pos="r" depth="1" NCoef="0" IVar="9" Cut="4.3639354705810547e+01" cType="1" res="-2.1544469054788351e-03" rms="2.1871647238731384e-01" purity="4.9356767535209656e-01" nType="0">
          <Node pos="l" depth="2" NCoef="0" IVar="-1" Cut="0.0000000000000000e+00" cType="1" res="-4.3935756548307836e-04" rms="2.2000153362751007e-01" purity="5.0419330596923828e-01" nType="-99"/>
          <Node pos="r" depth="2" NCoef="0" IVar="-1" Cut="0.0000000000000000e+00" cType="1" res="-3.9681013673543930e-02" rms="1.7138014733791351e-01" purity="1.8658071756362915e-01" nType="-99"/>
        </Node>
      </Node>
    </BinaryTree>
    <BinaryTree type="DecisionTree" boostWeight="1.0000000000000000e+00" itree="134">
      <Node pos="s" depth="0" NCoef="0" IVar="23" Cut="9.5241785049438477e-01" cType="1" res="-1.2370368931442499e-03" rms="2.1794994175434113e-01" purity="4.9632313847541809e-01" nType="0">
        <Node pos="l" depth="1" NCoef="0" IVar="13" Cut="7.8609218597412109e+00" cType="1" res="-7.0803887210786343e-03" rms="2.4335640668869019e-01" purity="2.8635537624359131e-01" nType="0">
          <Node pos="l" depth="2" NCoef="0" IVar="-1" Cut="0.0000000000000000e+00" cType="1" res="7.5923022814095020e-03" rms="2.3520456254482269e-01" purity="3.2536667585372925e-01" nType="-99"/>
          <Node pos="r" depth="2" NCoef="0" IVar="-1" Cut="0.0000000000000000e+00" cType="1" res="-1.0517270304262638e-02" rms="2.4708920717239380e-01" purity="2.6530900597572327e-01" nType="-99"/>
        </Node>
        <Node pos="r" depth="1" NCoef="0" IVar="23" Cut="9.6825802326202393e-01" cType="1" res="1.0758895426988602e-02" rms="1.5240612626075745e-01" purity="9.2737001180648804e-01" nType="0">
          <Node pos="l" depth="2" NCoef="0" IVar="-1" Cut="0.0000000000000000e+00" cType="1" res="-2.5345182046294212e-02" rms="2.2951637208461761e-01" purity="8.0704271793365479e-01" nType="-99"/>
          <Node pos="r" depth="2" NCoef="0" IVar="-1" Cut="0.0000000000000000e+00" cType="1" res="2.1725306287407875e-02" rms="1.3865482807159424e-01" purity="9.4290548563003540e-01" nType="-99"/>
        </Node>
      </Node>
    </BinaryTree>
    <BinaryTree type="DecisionTree" boostWeight="1.0000000000000000e+00" itree="135">
      <Node pos="s" depth="0" NCoef="0" IVar="6" Cut="3.7717268466949463e+00" cType="1" res="-3.7845582119189203e-04" rms="2.1787440776824951e-01" purity="4.9871298670768738e-01" nType="0">
        <Node pos="l" depth="1" NCoef="0" IVar="23" Cut="6.6866761445999146e-01" cType="1" res="-3.4367449581623077e-02" rms="1.9808343052864075e-01" purity="1.3028137385845184e-01" nType="0">
          <Node pos="l" depth="2" NCoef="0" IVar="-1" Cut="0.0000000000000000e+00" cType="1" res="-1.9679894670844078e-02" rms="1.5786439180374146e-01" purity="3.7741772830486298e-02" nType="-99"/>
          <Node pos="r" depth="2" NCoef="0" IVar="-1" Cut="0.0000000000000000e+00" cType="1" res="-3.9180912077426910e-02" rms="2.3841515183448792e-01" purity="2.5124984979629517e-01" nType="-99"/>
        </Node>
        <Node pos="r" depth="1" NCoef="0" IVar="14" Cut="7.8602957725524902e+00" cType="1" res="2.0627633202821016e-03" rms="2.1902419626712799e-01" purity="5.2517515420913696e-01" nType="0">
          <Node pos="l" depth="2" NCoef="0" IVar="-1" Cut="0.0000000000000000e+00" cType="1" res="1.5356591902673244e-02" rms="2.2081506252288818e-01" purity="5.2849972248077393e-01" nType="-99"/>
          <Node pos="r" depth="2" NCoef="0" IVar="-1" Cut="0.0000000000000000e+00" cType="1" res="-1.9526882097125053e-03" rms="2.1834176778793335e-01" purity="5.2437108755111694e-01" nType="-99"/>
        </Node>
      </Node>
    </BinaryTree>
    <BinaryTree type="DecisionTree" boostWeight="1.0000000000000000e+00" itree="136">
      <Node pos="s" depth="0" NCoef="0" IVar="11" Cut="6.2959895133972168e+00" cType="1" res="2.3308199888560921e-04" rms="2.1678808331489563e-01" purity="4.9834737181663513e-01" nType="0">
        <Node pos="l" depth="1" NCoef="0" IVar="1" Cut="5.8147182464599609e+00" cType="1" res="-1.3755558989942074e-02" rms="2.2009292244911194e-01" purity="4.4478332996368408e-01" nType="0">
          <Node pos="l" depth="2" NCoef="0" IVar="-1" Cut="0.0000000000000000e+00" cType="1" res="-2.1023990586400032e-02" rms="2.2083681821823120e-01" purity="3.4733349084854126e-01" nType="-99"/>
          <Node pos="r" depth="2" NCoef="0" IVar="-1" Cut="0.0000000000000000e+00" cType="1" res="6.0506514273583889e-03" rms="2.1714866161346436e-01" purity="6.1375045776367188e-01" nType="-99"/>
        </Node>
        <Node pos="r" depth="1" NCoef="0" IVar="6" Cut="5.2258186340332031e+00" cType="1" res="5.2607511170208454e-03" rms="2.1536606550216675e-01" purity="5.1759880781173706e-01" nType="0">
          <Node pos="l" depth="2" NCoef="0" IVar="-1" Cut="0.0000000000000000e+00" cType="1" res="1.6376558691263199e-02" rms="2.2094149887561798e-01" purity="5.4120302200317383e-01" nType="-99"/>
          <Node pos="r" depth="2" NCoef="0" IVar="-1" Cut="0.0000000000000000e+00" cType="1" res="-2.8001179452985525e-03" rms="2.1160832047462463e-01" purity="5.0414985418319702e-01" nType="-99"/>
        </Node>
      </Node>
    </BinaryTree>
    <BinaryTree type="DecisionTree" boostWeight="1.0000000000000000e+00" itree="137">
      <Node pos="s" depth="0" NCoef="0" IVar="34" Cut="3.5716950893402100e+00" cType="1" res="1.1196124833077192e-03" rms="2.1797610819339752e-01" purity="5.0146907567977905e-01" nType="0">
        <Node pos="l" depth="1" NCoef="0" IVar="6" Cut="6.1553611755371094e+00" cType="1" res="6.0294354334473610e-03" rms="2.2063738107681274e-01" purity="5.8553165197372437e-01" nType="0">
          <Node pos="l" depth="2" NCoef="0" IVar="-1" Cut="0.0000000000000000e+00" cType="1" res="1.0217861272394657e-02" rms="2.2316546738147736e-01" purity="6.3087695837020874e-01" nType="-99"/>
          <Node pos="r" depth="2" NCoef="0" IVar="-1" Cut="0.0000000000000000e+00" cType="1" res="-6.9195325486361980e-03" rms="2.1463212370872498e-01" purity="4.9413740634918213e-01" nType="-99"/>
        </Node>
        <Node pos="r" depth="1" NCoef="0" IVar="1" Cut="7.9965977668762207e+00" cType="1" res="-1.5881670638918877e-02" rms="2.0760333538055420e-01" purity="2.1038468182086945e-01" nType="0">
          <Node pos="l" depth="2" NCoef="0" IVar="-1" Cut="0.0000000000000000e+00" cType="1" res="-2.2830024361610413e-02" rms="2.0624940097332001e-01" purity="1.7073513567447662e-01" nType="-99"/>
          <Node pos="r" depth="2" NCoef="0" IVar="-1" Cut="0.0000000000000000e+00" cType="1" res="5.1746852695941925e-03" rms="2.0945416390895844e-01" purity="3.1327843666076660e-01" nType="-99"/>
        </Node>
      </Node>
    </BinaryTree>
    <BinaryTree type="DecisionTree" boostWeight="1.0000000000000000e+00" itree="138">
      <Node pos="s" depth="0" NCoef="0" IVar="27" Cut="2.4044024944305420e-01" cType="1" res="2.1368875168263912e-03" rms="2.1901801228523254e-01" purity="5.0358545780181885e-01" nType="0">
        <Node pos="l" depth="1" NCoef="0" IVar="23" Cut="6.2050044536590576e-01" cType="1" res="-3.5893328487873077e-02" rms="2.0627626776695251e-01" purity="1.5020900964736938e-01" nType="0">
          <Node pos="l" depth="2" NCoef="0" IVar="-1" Cut="0.0000000000000000e+00" cType="1" res="-1.3253003358840942e-02" rms="1.6892890632152557e-01" purity="3.7801951169967651e-02" nType="-99"/>
          <Node pos="r" depth="2" NCoef="0" IVar="-1" Cut="0.0000000000000000e+00" cType="1" res="-4.4642511755228043e-02" rms="2.3791123926639557e-01" purity="2.7602005004882812e-01" nType="-99"/>
        </Node>
        <Node pos="r" depth="1" NCoef="0" IVar="3" Cut="2.1497962474822998e+00" cType="1" res="4.3793614022433758e-03" rms="2.1954068541526794e-01" purity="5.2442252635955811e-01" nType="0">
          <Node pos="l" depth="2" NCoef="0" IVar="-1" Cut="0.0000000000000000e+00" cType="1" res="7.6200040057301521e-03" rms="2.3802308738231659e-01" purity="7.1590429544448853e-01" nType="-99"/>
          <Node pos="r" depth="2" NCoef="0" IVar="-1" Cut="0.0000000000000000e+00" cType="1" res="-7.3474706150591373e-03" rms="1.8660221993923187e-01" purity="2.2626979649066925e-01" nType="-99"/>
        </Node>
      </Node>
    </BinaryTree>
    <BinaryTree type="DecisionTree" boostWeight="1.0000000000000000e+00" itree="139">
      <Node pos="s" depth="0" NCoef="0" IVar="24" Cut="3.3433175086975098e-01" cType="1" res="-4.1821356717264280e-05" rms="2.1680964529514313e-01" purity="4.9630036950111389e-01" nType="0">
        <Node pos="l" depth="1" NCoef="0" IVar="3" Cut="2.8626534938812256e+00" cType="1" res="-2.3468080908060074e-02" rms="1.8998254835605621e-01" purity="1.3039706647396088e-01" nType="0">
          <Node pos="l" depth="2" NCoef="0" IVar="-1" Cut="0.0000000000000000e+00" cType="1" res="-2.2638870403170586e-02" rms="2.5678399205207825e-01" purity="2.4426876008510590e-01" nType="-99"/>
          <Node pos="r" depth="2" NCoef="0" IVar="-1" Cut="0.0000000000000000e+00" cType="1" res="-3.5606671124696732e-02" rms="5.6746412068605423e-02" purity="6.7051984369754791e-03" nType="-99"/>
        </Node>
        <Node pos="r" depth="1" NCoef="0" IVar="23" Cut="2.3895373940467834e-01" cType="1" res="3.0174716375768185e-03" rms="2.1988761425018311e-01" purity="5.4408454895019531e-01" nType="0">
          <Node pos="l" depth="2" NCoef="0" IVar="-1" Cut="0.0000000000000000e+00" cType="1" res="-2.6400838047266006e-02" rms="1.7232525348663330e-01" purity="5.9439625591039658e-02" nType="-99"/>
          <Node pos="r" depth="2" NCoef="0" IVar="-1" Cut="0.0000000000000000e+00" cType="1" res="4.3882718309760094e-03" rms="2.2332900762557983e-01" purity="5.8634048700332642e-01" nType="-99"/>
        </Node>
      </Node>
    </BinaryTree>
    <BinaryTree type="DecisionTree" boostWeight="1.0000000000000000e+00" itree="140">
      <Node pos="s" depth="0" NCoef="0" IVar="19" Cut="-8.4824647903442383e+00" cType="1" res="7.4835558189079165e-04" rms="2.1622483432292938e-01" purity="4.9911355972290039e-01" nType="0">
        <Node pos="l" depth="1" NCoef="0" IVar="11" Cut="6.7885470390319824e+00" cType="1" res="3.2450813800096512e-02" rms="2.1868695318698883e-01" purity="4.8975628614425659e-01" nType="0">
          <Node pos="l" depth="2" NCoef="0" IVar="-1" Cut="0.0000000000000000e+00" cType="1" res="8.0165639519691467e-03" rms="2.0944280922412872e-01" purity="4.5345303416252136e-01" nType="-99"/>
          <Node pos="r" depth="2" NCoef="0" IVar="-1" Cut="0.0000000000000000e+00" cType="1" res="4.4059801846742630e-02" rms="2.2437590360641479e-01" purity="5.2059137821197510e-01" nType="-99"/>
        </Node>
        <Node pos="r" depth="1" NCoef="0" IVar="10" Cut="7.3001184463500977e+00" cType="1" res="-1.6445011133328080e-03" rms="2.1584895253181458e-01" purity="4.9981981515884399e-01" nType="0">
          <Node pos="l" depth="2" NCoef="0" IVar="-1" Cut="0.0000000000000000e+00" cType="1" res="4.1301376186311245e-03" rms="2.1301862597465515e-01" purity="5.2080458402633667e-01" nType="-99"/>
          <Node pos="r" depth="2" NCoef="0" IVar="-1" Cut="0.0000000000000000e+00" cType="1" res="-1.1550024151802063e-02" rms="2.2087122499942780e-01" purity="4.5697087049484253e-01" nType="-99"/>
        </Node>
      </Node>
    </BinaryTree>
    <BinaryTree type="DecisionTree" boostWeight="1.0000000000000000e+00" itree="141">
      <Node pos="s" depth="0" NCoef="0" IVar="16" Cut="3.6630570888519287e-01" cType="1" res="-1.9022672204300761e-03" rms="2.1700249612331390e-01" purity="4.9641367793083191e-01" nType="0">
        <Node pos="l" depth="1" NCoef="0" IVar="6" Cut="5.2035508155822754e+00" cType="1" res="-1.2227441184222698e-02" rms="2.3024137318134308e-01" purity="2.9334020614624023e-01" nType="0">
          <Node pos="l" depth="2" NCoef="0" IVar="-1" Cut="0.0000000000000000e+00" cType="1" res="1.0791216976940632e-02" rms="2.2847938537597656e-01" purity="3.5480213165283203e-01" nType="-99"/>
          <Node pos="r" depth="2" NCoef="0" IVar="-1" Cut="0.0000000000000000e+00" cType="1" res="-1.8010687083005905e-02" rms="2.2992761433124542e-01" purity="2.5969204306602478e-01" nType="-99"/>
        </Node>
        <Node pos="r" depth="1" NCoef="0" IVar="6" Cut="4.3709783554077148e+00" cType="1" res="5.2916398271918297e-03" rms="2.0697508752346039e-01" purity="6.3790196180343628e-01" nType="0">
          <Node pos="l" depth="2" NCoef="0" IVar="-1" Cut="0.0000000000000000e+00" cType="1" res="-1.7948875203728676e-02" rms="2.2066664695739746e-01" purity="3.5759606957435608e-01" nType="-99"/>
          <Node pos="r" depth="2" NCoef="0" IVar="-1" Cut="0.0000000000000000e+00" cType="1" res="1.0699950158596039e-02" rms="2.0276455581188202e-01" purity="7.0920562744140625e-01" nType="-99"/>
        </Node>
      </Node>
    </BinaryTree>
    <BinaryTree type="DecisionTree" boostWeight="1.0000000000000000e+00" itree="142">
      <Node pos="s" depth="0" NCoef="0" IVar="20" Cut="-4.2431991577148438e+01" cType="1" res="-3.3479044213891029e-04" rms="2.1771849691867828e-01" purity="4.9873337149620056e-01" nType="0">
        <Node pos="l" depth="1" NCoef="0" IVar="23" Cut="9.0563350915908813e-01" cType="1" res="2.0789882168173790e-02" rms="1.5490929782390594e-01" purity="8.9572161436080933e-01" nType="0">
          <Node pos="l" depth="2" NCoef="0" IVar="-1" Cut="0.0000000000000000e+00" cType="1" res="1.6176698729395866e-02" rms="2.6843520998954773e-01" purity="6.5018540620803833e-01" nType="-99"/>
          <Node pos="r" depth="2" NCoef="0" IVar="-1" Cut="0.0000000000000000e+00" cType="1" res="3.7397973239421844e-02" rms="7.5928702950477600e-02" purity="9.8834049701690674e-01" nType="-99"/>
        </Node>
        <Node pos="r" depth="1" NCoef="0" IVar="19" Cut="-1.1477258682250977e+01" cType="1" res="-3.4775838721543550e-03" rms="2.2540417313575745e-01" purity="4.3967196345329285e-01" nType="0">
          <Node pos="l" depth="2" NCoef="0" IVar="-1" Cut="0.0000000000000000e+00" cType="1" res="2.7802312746644020e-02" rms="2.4802228808403015e-01" purity="4.6004644036293030e-01" nType="-99"/>
          <Node pos="r" depth="2" NCoef="0" IVar="-1" Cut="0.0000000000000000e+00" cType="1" res="-4.2658005841076374e-03" rms="2.2392173111438751e-01" purity="4.3857291340827942e-01" nType="-99"/>
        </Node>
      </Node>
    </BinaryTree>
    <BinaryTree type="DecisionTree" boostWeight="1.0000000000000000e+00" itree="143">
      <Node pos="s" depth="0" NCoef="0" IVar="11" Cut="6.2955803871154785e+00" cType="1" res="-1.2461807345971465e-03" rms="2.1666711568832397e-01" purity="4.9544143676757812e-01" nType="0">
        <Node pos="l" depth="1" NCoef="0" IVar="34" Cut="1.1928611993789673e+00" cType="1" res="-1.5865342691540718e-02" rms="2.1755869686603546e-01" purity="4.2701795697212219e-01" nType="0">
          <Node pos="l" depth="2" NCoef="0" IVar="-1" Cut="0.0000000000000000e+00" cType="1" res="5.6564803235232830e-03" rms="2.1046350896358490e-01" purity="6.9828182458877563e-01" nType="-99"/>
          <Node pos="r" depth="2" NCoef="0" IVar="-1" Cut="0.0000000000000000e+00" cType="1" res="-2.1638412028551102e-02" rms="2.1993884444236755e-01" purity="3.0228811502456665e-01" nType="-99"/>
        </Node>
        <Node pos="r" depth="1" NCoef="0" IVar="11" Cut="7.3922014236450195e+00" cType="1" res="3.8148416206240654e-03" rms="2.1612730622291565e-01" purity="5.1912903785705566e-01" nType="0">
          <Node pos="l" depth="2" NCoef="0" IVar="-1" Cut="0.0000000000000000e+00" cType="1" res="8.5604628548026085e-03" rms="2.1400366723537445e-01" purity="5.7753795385360718e-01" nType="-99"/>
          <Node pos="r" depth="2" NCoef="0" IVar="-1" Cut="0.0000000000000000e+00" cType="1" res="-8.9344130828976631e-03" rms="2.2004665434360504e-01" purity="3.8713538646697998e-01" nType="-99"/>
        </Node>
      </Node>
    </BinaryTree>
    <BinaryTree type="DecisionTree" boostWeight="1.0000000000000000e+00" itree="144">
      <Node pos="s" depth="0" NCoef="0" IVar="29" Cut="4.6018704771995544e-02" cType="1" res="7.6411518966779113e-04" rms="2.1606761217117310e-01" purity="4.9953472614288330e-01" nType="0">
        <Node pos="l" depth="1" NCoef="0" IVar="7" Cut="3.2022862434387207e+00" cType="1" res="1.0514162480831146e-02" rms="1.9986426830291748e-01" purity="7.0660430192947388e-01" nType="0">
          <Node pos="l" depth="2" NCoef="0" IVar="-1" Cut="0.0000000000000000e+00" cType="1" res="1.2729869224131107e-02" rms="1.9756022095680237e-01" purity="7.6084923744201660e-01" nType="-99"/>
          <Node pos="r" depth="2" NCoef="0" IVar="-1" Cut="0.0000000000000000e+00" cType="1" res="-2.4365279823541641e-02" rms="2.1640598773956299e-01" purity="2.0401348173618317e-01" nType="-99"/>
        </Node>
        <Node pos="r" depth="1" NCoef="0" IVar="15" Cut="6.1305494308471680e+00" cType="1" res="-6.0496432706713676e-03" rms="2.2645571827888489e-01" purity="3.5482546687126160e-01" nType="0">
          <Node pos="l" depth="2" NCoef="0" IVar="-1" Cut="0.0000000000000000e+00" cType="1" res="5.4751518182456493e-03" rms="2.3506760597229004e-01" purity="4.5286053419113159e-01" nType="-99"/>
          <Node pos="r" depth="2" NCoef="0" IVar="-1" Cut="0.0000000000000000e+00" cType="1" res="-1.4891516417264938e-02" rms="2.1744191646575928e-01" purity="2.6454049348831177e-01" nType="-99"/>
        </Node>
      </Node>
    </BinaryTree>
    <BinaryTree type="DecisionTree" boostWeight="1.0000000000000000e+00" itree="145">
      <Node pos="s" depth="0" NCoef="0" IVar="19" Cut="2.4938129425048828e+01" cType="1" res="-1.6912650607991964e-04" rms="2.1396481990814209e-01" purity="5.0177246332168579e-01" nType="0">
        <Node pos="l" depth="1" NCoef="0" IVar="14" Cut="8.8841705322265625e+00" cType="1" res="-4.3358644470572472e-03" rms="2.2045002877712250e-01" purity="4.1858333349227905e-01" nType="0">
          <Node pos="l" depth="2" NCoef="0" IVar="-1" Cut="0.0000000000000000e+00" cType="1" res="-6.1896792612969875e-03" rms="2.2326719760894775e-01" purity="4.0004011988639832e-01" nType="-99"/>
          <Node pos="r" depth="2" NCoef="0" IVar="-1" Cut="0.0000000000000000e+00" cType="1" res="1.2643947266042233e-02" rms="2.0522490143775940e-01" purity="5.0840878486633301e-01" nType="-99"/>
        </Node>
        <Node pos="r" depth="1" NCoef="0" IVar="11" Cut="7.4774136543273926e+00" cType="1" res="1.4489551074802876e-02" rms="1.8866315484046936e-01" purity="7.9443371295928955e-01" nType="0">
          <Node pos="l" depth="2" NCoef="0" IVar="-1" Cut="0.0000000000000000e+00" cType="1" res="1.9352158531546593e-02" rms="1.8161210417747498e-01" purity="8.3079642057418823e-01" nType="-99"/>
          <Node pos="r" depth="2" NCoef="0" IVar="-1" Cut="0.0000000000000000e+00" cType="1" res="-9.7623923793435097e-03" rms="2.1783921122550964e-01" purity="6.1620140075683594e-01" nType="-99"/>
        </Node>
      </Node>
    </BinaryTree>
    <BinaryTree type="DecisionTree" boostWeight="1.0000000000000000e+00" itree="146">
      <Node pos="s" depth="0" NCoef="0" IVar="3" Cut="1.1959598064422607e+00" cType="1" res="4.8854574561119080e-04" rms="2.1600833535194397e-01" purity="4.9737384915351868e-01" nType="0">
        <Node pos="l" depth="1" NCoef="0" IVar="16" Cut="3.9935407042503357e-01" cType="1" res="1.4441682957112789e-02" rms="2.2033987939357758e-01" purity="7.4298644065856934e-01" nType="0">
          <Node pos="l" depth="2" NCoef="0" IVar="-1" Cut="0.0000000000000000e+00" cType="1" res="-1.2897206470370293e-03" rms="2.6479628682136536e-01" purity="5.4039406776428223e-01" nType="-99"/>
          <Node pos="r" depth="2" NCoef="0" IVar="-1" Cut="0.0000000000000000e+00" cType="1" res="2.6426857337355614e-02" rms="1.7533293366432190e-01" purity="9.0634691715240479e-01" nType="-99"/>
        </Node>
        <Node pos="r" depth="1" NCoef="0" IVar="5" Cut="6.4964766502380371e+00" cType="1" res="-4.8959772102534771e-03" rms="2.1407033503055573e-01" purity="4.0259179472923279e-01" nType="0">
          <Node pos="l" depth="2" NCoef="0" IVar="-1" Cut="0.0000000000000000e+00" cType="1" res="-2.0106430165469646e-03" rms="2.1596668660640717e-01" purity="4.2800748348236084e-01" nType="-99"/>
          <Node pos="r" depth="2" NCoef="0" IVar="-1" Cut="0.0000000000000000e+00" cType="1" res="-4.3532419949769974e-02" rms="1.8484033644199371e-01" purity="7.3821201920509338e-02" nType="-99"/>
        </Node>
      </Node>
    </BinaryTree>
    <BinaryTree type="DecisionTree" boostWeight="1.0000000000000000e+00" itree="147">
      <Node pos="s" depth="0" NCoef="0" IVar="24" Cut="3.3450633287429810e-01" cType="1" res="1.7864182591438293e-03" rms="2.1593390405178070e-01" purity="5.0013464689254761e-01" nType="0">
        <Node pos="l" depth="1" NCoef="0" IVar="3" Cut="2.8792991638183594e+00" cType="1" res="-2.2022154182195663e-02" rms="1.8637329339981079e-01" purity="1.2717688083648682e-01" nType="0">
          <Node pos="l" depth="2" NCoef="0" IVar="-1" Cut="0.0000000000000000e+00" cType="1" res="-2.1629618480801582e-02" rms="2.5324851274490356e-01" purity="2.4139551818370819e-01" nType="-99"/>
          <Node pos="r" depth="2" NCoef="0" IVar="-1" Cut="0.0000000000000000e+00" cType="1" res="-4.0511824190616608e-02" rms="5.0959959626197815e-02" purity="3.8403782527893782e-03" nType="-99"/>
        </Node>
        <Node pos="r" depth="1" NCoef="0" IVar="19" Cut="-5.3637318611145020e+00" cType="1" res="4.8706145025789738e-03" rms="2.1928308904170990e-01" purity="5.4844814538955688e-01" nType="0">
          <Node pos="l" depth="2" NCoef="0" IVar="-1" Cut="0.0000000000000000e+00" cType="1" res="2.9066719114780426e-02" rms="2.2544613480567932e-01" purity="5.7210963964462280e-01" nType="-99"/>
          <Node pos="r" depth="2" NCoef="0" IVar="-1" Cut="0.0000000000000000e+00" cType="1" res="1.6528116539120674e-03" rms="2.1853314340114594e-01" purity="5.4645293951034546e-01" nType="-99"/>
        </Node>
      </Node>
    </BinaryTree>
    <BinaryTree type="DecisionTree" boostWeight="1.0000000000000000e+00" itree="148">
      <Node pos="s" depth="0" NCoef="0" IVar="34" Cut="6.3490848541259766e+00" cType="1" res="-3.2815631129778922e-05" rms="2.1497535705566406e-01" purity="5.0211679935455322e-01" nType="0">
        <Node pos="l" depth="1" NCoef="0" IVar="23" Cut="2.8651031851768494e-01" cType="1" res="2.0608671475201845e-03" rms="2.1711809933185577e-01" purity="5.2470588684082031e-01" nType="0">
          <Node pos="l" depth="2" NCoef="0" IVar="-1" Cut="0.0000000000000000e+00" cType="1" res="-2.0213454961776733e-02" rms="1.7641937732696533e-01" purity="5.7260245084762573e-02" nType="-99"/>
          <Node pos="r" depth="2" NCoef="0" IVar="-1" Cut="0.0000000000000000e+00" cType="1" res="3.6736293695867062e-03" rms="2.2135104238986969e-01" purity="5.8084207773208618e-01" nType="-99"/>
        </Node>
        <Node pos="r" depth="1" NCoef="0" IVar="3" Cut="2.8821837902069092e+00" cType="1" res="-3.8851171731948853e-02" rms="1.6571079194545746e-01" purity="8.3299219608306885e-02" nType="0">
          <Node pos="l" depth="2" NCoef="0" IVar="-1" Cut="0.0000000000000000e+00" cType="1" res="-4.1438572108745575e-02" rms="2.2343905270099640e-01" purity="1.5966570377349854e-01" nType="-99"/>
          <Node pos="r" depth="2" NCoef="0" IVar="-1" Cut="0.0000000000000000e+00" cType="1" res="-4.1380926966667175e-02" rms="4.7750353813171387e-02" purity="4.2128022760152817e-03" nType="-99"/>
        </Node>
      </Node>
    </BinaryTree>
    <BinaryTree type="DecisionTree" boostWeight="1.0000000000000000e+00" itree="149">
      <Node pos="s" depth="0" NCoef="0" IVar="25" Cut="3.2287952303886414e-01" cType="1" res="-5.3613731870427728e-04" rms="2.1437668800354004e-01" purity="4.9825868010520935e-01" nType="0">
        <Node pos="l" depth="1" NCoef="0" IVar="10" Cut="7.4471840858459473e+00" cType="1" res="2.8797385748475790e-03" rms="2.1598359942436218e-01" purity="5.6188720464706421e-01" nType="0">
          <Node pos="l" depth="2" NCoef="0" IVar="-1" Cut="0.0000000000000000e+00" cType="1" res="6.8782456219196320e-03" rms="2.1384219825267792e-01" purity="5.9002989530563354e-01" nType="-99"/>
          <Node pos="r" depth="2" NCoef="0" IVar="-1" Cut="0.0000000000000000e+00" cType="1" res="-7.9417638480663300e-03" rms="2.2036142647266388e-01" purity="4.9561753869056702e-01" nType="-99"/>
        </Node>
        <Node pos="r" depth="1" NCoef="0" IVar="3" Cut="2.8700909614562988e+00" cType="1" res="-1.7993802204728127e-02" rms="2.0508204400539398e-01" purity="1.7306958138942719e-01" nType="0">
          <Node pos="l" depth="2" NCoef="0" IVar="-1" Cut="0.0000000000000000e+00" cType="1" res="-1.5434883534908295e-02" rms="2.6765054464340210e-01" purity="3.0317416787147522e-01" nType="-99"/>
          <Node pos="r" depth="2" NCoef="0" IVar="-1" Cut="0.0000000000000000e+00" cType="1" res="-3.1547069549560547e-02" rms="6.5895058214664459e-02" purity="8.0712456256151199e-03" nType="-99"/>
        </Node>
      </Node>
    </BinaryTree>
    <BinaryTree type="DecisionTree" boostWeight="1.0000000000000000e+00" itree="150">
      <Node pos="s" depth="0" NCoef="0" IVar="9" Cut="3.0880947113037109e+01" cType="1" res="8.0954126315191388e-04" rms="2.1479420363903046e-01" purity="4.9877858161926270e-01" nType="0">
        <Node pos="l" depth="1" NCoef="0" IVar="3" Cut="3.0997283458709717e+00" cType="1" res="3.1148092821240425e-03" rms="2.1728651225566864e-01" purity="5.1642102003097534e-01" nType="0">
          <Node pos="l" depth="2" NCoef="0" IVar="-1" Cut="0.0000000000000000e+00" cType="1" res="4.8626633360981941e-03" rms="2.4462981522083282e-01" purity="6.5654271841049194e-01" nType="-99"/>
          <Node pos="r" depth="2" NCoef="0" IVar="-1" Cut="0.0000000000000000e+00" cType="1" res="-5.2151307463645935e-02" rms="1.8917761743068695e-02" purity="0.0000000000000000e+00" nType="-99"/>
        </Node>
        <Node pos="r" depth="1" NCoef="0" IVar="16" Cut="3.7944051623344421e-01" cType="1" res="-2.2320499643683434e-02" rms="1.8639545142650604e-01" purity="3.2176211476325989e-01" nType="0">
          <Node pos="l" depth="2" NCoef="0" IVar="-1" Cut="0.0000000000000000e+00" cType="1" res="-4.0415488183498383e-02" rms="1.7849551141262054e-01" purity="9.2323280870914459e-02" nType="-99"/>
          <Node pos="r" depth="2" NCoef="0" IVar="-1" Cut="0.0000000000000000e+00" cType="1" res="1.6849622130393982e-02" rms="1.9000378251075745e-01" purity="6.5974527597427368e-01" nType="-99"/>
        </Node>
      </Node>
    </BinaryTree>
    <BinaryTree type="DecisionTree" boostWeight="1.0000000000000000e+00" itree="151">
      <Node pos="s" depth="0" NCoef="0" IVar="19" Cut="2.8152639389038086e+01" cType="1" res="-1.3941584620624781e-03" rms="2.1363748610019684e-01" purity="4.9907860159873962e-01" nType="0">
        <Node pos="l" depth="1" NCoef="0" IVar="21" Cut="3.5121601104736328e+01" cType="1" res="-4.7058206982910633e-03" rms="2.1939879655838013e-01" purity="4.3697220087051392e-01" nType="0">
          <Node pos="l" depth="2" NCoef="0" IVar="-1" Cut="0.0000000000000000e+00" cType="1" res="-5.6166821159422398e-03" rms="2.2420632839202881e-01" purity="3.9039948582649231e-01" nType="-99"/>
          <Node pos="r" depth="2" NCoef="0" IVar="-1" Cut="0.0000000000000000e+00" cType="1" res="2.2810276597738266e-02" rms="1.6712433099746704e-01" purity="8.6385285854339600e-01" nType="-99"/>
        </Node>
        <Node pos="r" depth="1" NCoef="0" IVar="15" Cut="5.9270863533020020e+00" cType="1" res="1.6033831983804703e-02" rms="1.7930443584918976e-01" purity="8.2592040300369263e-01" nType="0">
          <Node pos="l" depth="2" NCoef="0" IVar="-1" Cut="0.0000000000000000e+00" cType="1" res="2.8756380081176758e-02" rms="1.9808185100555420e-01" purity="8.3640056848526001e-01" nType="-99"/>
          <Node pos="r" depth="2" NCoef="0" IVar="-1" Cut="0.0000000000000000e+00" cType="1" res="1.0412017814815044e-02" rms="1.7189253866672516e-01" purity="8.2230103015899658e-01" nType="-99"/>
        </Node>
      </Node>
    </BinaryTree>
    <BinaryTree type="DecisionTree" boostWeight="1.0000000000000000e+00" itree="152">
      <Node pos="s" depth="0" NCoef="0" IVar="23" Cut="5.7188773155212402e-01" cType="1" res="-8.1197918916586787e-05" rms="2.1228256821632385e-01" purity="4.9989339709281921e-01" nType="0">
        <Node pos="l" depth="1" NCoef="0" IVar="13" Cut="7.8672437667846680e+00" cType="1" res="-1.1309314519166946e-02" rms="1.9932317733764648e-01" purity="9.8976589739322662e-02" nType="0">
          <Node pos="l" depth="2" NCoef="0" IVar="-1" Cut="0.0000000000000000e+00" cType="1" res="4.9304659478366375e-03" rms="2.1041457355022430e-01" purity="1.3690516352653503e-01" nType="-99"/>
          <Node pos="r" depth="2" NCoef="0" IVar="-1" Cut="0.0000000000000000e+00" cType="1" res="-1.7193075269460678e-02" rms="1.9306963682174683e-01" purity="8.0283194780349731e-02" nType="-99"/>
        </Node>
        <Node pos="r" depth="1" NCoef="0" IVar="27" Cut="7.1423238515853882e-01" cType="1" res="4.7014104202389717e-03" rms="2.1739226579666138e-01" purity="6.7066365480422974e-01" nType="0">
          <Node pos="l" depth="2" NCoef="0" IVar="-1" Cut="0.0000000000000000e+00" cType="1" res="-1.0983815416693687e-02" rms="2.4403727054595947e-01" purity="3.3254542946815491e-01" nType="-99"/>
          <Node pos="r" depth="2" NCoef="0" IVar="-1" Cut="0.0000000000000000e+00" cType="1" res="7.0183910429477692e-03" rms="2.1184295415878296e-01" purity="7.3364710807800293e-01" nType="-99"/>
        </Node>
      </Node>
    </BinaryTree>
    <BinaryTree type="DecisionTree" boostWeight="1.0000000000000000e+00" itree="153">
      <Node pos="s" depth="0" NCoef="0" IVar="15" Cut="5.7403254508972168e+00" cType="1" res="1.3689614133909345e-03" rms="2.1651159226894379e-01" purity="5.0007110834121704e-01" nType="0">
        <Node pos="l" depth="1" NCoef="0" IVar="3" Cut="2.8653886318206787e+00" cType="1" res="2.0638700574636459e-02" rms="2.3084466159343719e-01" purity="5.4159277677536011e-01" nType="0">
          <Node pos="l" depth="2" NCoef="0" IVar="-1" Cut="0.0000000000000000e+00" cType="1" res="1.8339354544878006e-02" rms="2.5602933764457703e-01" purity="6.9328969717025757e-01" nType="-99"/>
          <Node pos="r" depth="2" NCoef="0" IVar="-1" Cut="0.0000000000000000e+00" cType="1" res="-2.3887885734438896e-02" rms="1.0633673518896103e-01" purity="4.0555059909820557e-02" nType="-99"/>
        </Node>
        <Node pos="r" depth="1" NCoef="0" IVar="21" Cut="3.0110668182373047e+01" cType="1" res="-2.0767229143530130e-03" rms="2.1366433799266815e-01" purity="4.9264645576477051e-01" nType="0">
          <Node pos="l" depth="2" NCoef="0" IVar="-1" Cut="0.0000000000000000e+00" cType="1" res="-4.7527411952614784e-03" rms="2.2190539538860321e-01" purity="4.0860927104949951e-01" nType="-99"/>
          <Node pos="r" depth="2" NCoef="0" IVar="-1" Cut="0.0000000000000000e+00" cType="1" res="1.7103236168622971e-02" rms="1.7295227944850922e-01" purity="8.5273128747940063e-01" nType="-99"/>
        </Node>
      </Node>
    </BinaryTree>
    <BinaryTree type="DecisionTree" boostWeight="1.0000000000000000e+00" itree="154">
      <Node pos="s" depth="0" NCoef="0" IVar="32" Cut="3.8082528859376907e-02" cType="1" res="2.3952922492753714e-04" rms="2.1382141113281250e-01" purity="4.9513268470764160e-01" nType="0">
        <Node pos="l" depth="1" NCoef="0" IVar="32" Cut="5.4454957135021687e-03" cType="1" res="4.7066337428987026e-03" rms="2.1331542730331421e-01" purity="5.9335517883300781e-01" nType="0">
          <Node pos="l" depth="2" NCoef="0" IVar="-1" Cut="0.0000000000000000e+00" cType="1" res="1.1563990265130997e-02" rms="2.0224620401859283e-01" purity="6.9627249240875244e-01" nType="-99"/>
          <Node pos="r" depth="2" NCoef="0" IVar="-1" Cut="0.0000000000000000e+00" cType="1" res="-4.9023474566638470e-03" rms="2.2602896392345428e-01" purity="4.6338900923728943e-01" nType="-99"/>
        </Node>
        <Node pos="r" depth="1" NCoef="0" IVar="19" Cut="-1.7253786325454712e+00" cType="1" res="-1.1388831771910191e-02" rms="2.1469753980636597e-01" purity="2.3944871127605438e-01" nType="0">
          <Node pos="l" depth="2" NCoef="0" IVar="-1" Cut="0.0000000000000000e+00" cType="1" res="1.6770793125033379e-02" rms="2.0394369959831238e-01" purity="2.0865230262279510e-01" nType="-99"/>
          <Node pos="r" depth="2" NCoef="0" IVar="-1" Cut="0.0000000000000000e+00" cType="1" res="-1.3790580444037914e-02" rms="2.1623314917087555e-01" purity="2.4504898488521576e-01" nType="-99"/>
        </Node>
      </Node>
    </BinaryTree>
    <BinaryTree type="DecisionTree" boostWeight="1.0000000000000000e+00" itree="155">
      <Node pos="s" depth="0" NCoef="0" IVar="31" Cut="7.6165363192558289e-02" cType="1" res="8.5808685980737209e-04" rms="2.1621659398078918e-01" purity="4.9972450733184814e-01" nType="0">
        <Node pos="l" depth="1" NCoef="0" IVar="9" Cut="3.3685073852539062e+01" cType="1" res="4.3577440083026886e-03" rms="2.1686801314353943e-01" purity="5.6489276885986328e-01" nType="0">
          <Node pos="l" depth="2" NCoef="0" IVar="-1" Cut="0.0000000000000000e+00" cType="1" res="5.3491299040615559e-03" rms="2.1899856626987457e-01" purity="5.8495467901229858e-01" nType="-99"/>
          <Node pos="r" depth="2" NCoef="0" IVar="-1" Cut="0.0000000000000000e+00" cType="1" res="-2.1100038662552834e-02" rms="1.8543194234371185e-01" purity="3.1161463260650635e-01" nType="-99"/>
        </Node>
        <Node pos="r" depth="1" NCoef="0" IVar="15" Cut="6.3685741424560547e+00" cType="1" res="-1.4415938407182693e-02" rms="2.1267722547054291e-01" purity="2.1530213952064514e-01" nType="0">
          <Node pos="l" depth="2" NCoef="0" IVar="-1" Cut="0.0000000000000000e+00" cType="1" res="-1.6004920471459627e-03" rms="2.2349822521209717e-01" purity="2.2388193011283875e-01" nType="-99"/>
          <Node pos="r" depth="2" NCoef="0" IVar="-1" Cut="0.0000000000000000e+00" cType="1" res="-2.4769295006990433e-02" rms="2.0030596852302551e-01" purity="2.0659318566322327e-01" nType="-99"/>
        </Node>
      </Node>
    </BinaryTree>
    <BinaryTree type="DecisionTree" boostWeight="1.0000000000000000e+00" itree="156">
      <Node pos="s" depth="0" NCoef="0" IVar="34" Cut="5.5549864768981934e+00" cType="1" res="8.6789019405841827e-04" rms="2.1595676243305206e-01" purity="4.9920177459716797e-01" nType="0">
        <Node pos="l" depth="1" NCoef="0" IVar="3" Cut="1.9091877937316895e+00" cType="1" res="3.1048457603901625e-03" rms="2.1851694583892822e-01" purity="5.3616511821746826e-01" nType="0">
          <Node pos="l" depth="2" NCoef="0" IVar="-1" Cut="0.0000000000000000e+00" cType="1" res="7.0872674696147442e-03" rms="2.3316185176372528e-01" purity="7.3589956760406494e-01" nType="-99"/>
          <Node pos="r" depth="2" NCoef="0" IVar="-1" Cut="0.0000000000000000e+00" cType="1" res="-5.3175110369920731e-03" rms="1.9890649616718292e-01" purity="2.9300442337989807e-01" nType="-99"/>
        </Node>
        <Node pos="r" depth="1" NCoef="0" IVar="3" Cut="2.6406152248382568e+00" cType="1" res="-2.2218033671379089e-02" rms="1.8593864142894745e-01" purity="1.1773093789815903e-01" nType="0">
          <Node pos="l" depth="2" NCoef="0" IVar="-1" Cut="0.0000000000000000e+00" cType="1" res="-2.3431995883584023e-02" rms="2.5642690062522888e-01" purity="2.3016797006130219e-01" nType="-99"/>
          <Node pos="r" depth="2" NCoef="0" IVar="-1" Cut="0.0000000000000000e+00" cType="1" res="-2.0326586440205574e-02" rms="8.5112988948822021e-02" purity="2.1259106695652008e-02" nType="-99"/>
        </Node>
      </Node>
    </BinaryTree>
    <BinaryTree type="DecisionTree" boostWeight="1.0000000000000000e+00" itree="157">
      <Node pos="s" depth="0" NCoef="0" IVar="24" Cut="4.7693657875061035e-01" cType="1" res="-1.3379094889387488e-03" rms="2.1365922689437866e-01" purity="4.9925851821899414e-01" nType="0">
        <Node pos="l" depth="1" NCoef="0" IVar="3" Cut="2.8627519607543945e+00" cType="1" res="-1.7934707924723625e-02" rms="1.8935596942901611e-01" purity="1.4362783730030060e-01" nType="0">
          <Node pos="l" depth="2" NCoef="0" IVar="-1" Cut="0.0000000000000000e+00" cType="1" res="-1.7978295683860779e-02" rms="2.5373351573944092e-01" purity="2.6356881856918335e-01" nType="-99"/>
          <Node pos="r" depth="2" NCoef="0" IVar="-1" Cut="0.0000000000000000e+00" cType="1" res="-2.4157702922821045e-02" rms="5.9671103954315186e-02" purity="9.2015080153942108e-03" nType="-99"/>
        </Node>
        <Node pos="r" depth="1" NCoef="0" IVar="16" Cut="3.3092206716537476e-01" cType="1" res="2.2196325007826090e-03" rms="2.1835301816463470e-01" purity="5.7548832893371582e-01" nType="0">
          <Node pos="l" depth="2" NCoef="0" IVar="-1" Cut="0.0000000000000000e+00" cType="1" res="-6.1176535673439503e-03" rms="2.4840193986892700e-01" purity="3.1008538603782654e-01" nType="-99"/>
          <Node pos="r" depth="2" NCoef="0" IVar="-1" Cut="0.0000000000000000e+00" cType="1" res="6.3301217742264271e-03" rms="2.0385280251502991e-01" purity="6.8975162506103516e-01" nType="-99"/>
        </Node>
      </Node>
    </BinaryTree>
    <BinaryTree type="DecisionTree" boostWeight="1.0000000000000000e+00" itree="158">
      <Node pos="s" depth="0" NCoef="0" IVar="31" Cut="1.7135222256183624e-01" cType="1" res="1.6961646906565875e-04" rms="2.1499563753604889e-01" purity="4.9915400147438049e-01" nType="0">
        <Node pos="l" depth="1" NCoef="0" IVar="31" Cut="8.1698000431060791e-03" cType="1" res="2.1435886155813932e-03" rms="2.1668057143688202e-01" purity="5.2637457847595215e-01" nType="0">
          <Node pos="l" depth="2" NCoef="0" IVar="-1" Cut="0.0000000000000000e+00" cType="1" res="8.1808557733893394e-03" rms="2.0136420428752899e-01" purity="6.8021363019943237e-01" nType="-99"/>
          <Node pos="r" depth="2" NCoef="0" IVar="-1" Cut="0.0000000000000000e+00" cType="1" res="-3.1756341923028231e-03" rms="2.2849838435649872e-01" purity="3.9795085787773132e-01" nType="-99"/>
        </Node>
        <Node pos="r" depth="1" NCoef="0" IVar="3" Cut="3.1026895046234131e+00" cType="1" res="-2.2583438083529472e-02" rms="1.9307166337966919e-01" purity="1.8539445102214813e-01" nType="0">
          <Node pos="l" depth="2" NCoef="0" IVar="-1" Cut="0.0000000000000000e+00" cType="1" res="-1.8980545923113823e-02" rms="2.4540756642818451e-01" purity="3.0104714632034302e-01" nType="-99"/>
          <Node pos="r" depth="2" NCoef="0" IVar="-1" Cut="0.0000000000000000e+00" cType="1" res="-5.1469720900058746e-02" rms="1.3088093139231205e-02" purity="0.0000000000000000e+00" nType="-99"/>
        </Node>
      </Node>
    </BinaryTree>
    <BinaryTree type="DecisionTree" boostWeight="1.0000000000000000e+00" itree="159">
      <Node pos="s" depth="0" NCoef="0" IVar="34" Cut="1.1911396980285645e+00" cType="1" res="6.2866129155736417e-05" rms="2.1623444557189941e-01" purity="4.9999824166297913e-01" nType="0">
        <Node pos="l" depth="1" NCoef="0" IVar="13" Cut="7.8627672195434570e+00" cType="1" res="8.8017340749502182e-03" rms="2.1208423376083374e-01" purity="6.3981616497039795e-01" nType="0">
          <Node pos="l" depth="2" NCoef="0" IVar="-1" Cut="0.0000000000000000e+00" cType="1" res="2.7461430057883263e-02" rms="2.1383585035800934e-01" purity="7.4953728914260864e-01" nType="-99"/>
          <Node pos="r" depth="2" NCoef="0" IVar="-1" Cut="0.0000000000000000e+00" cType="1" res="6.7547464277595282e-04" rms="2.1090298891067505e-01" purity="6.0883069038391113e-01" nType="-99"/>
        </Node>
        <Node pos="r" depth="1" NCoef="0" IVar="11" Cut="6.4890990257263184e+00" cType="1" res="-5.6741368025541306e-03" rms="2.1872648596763611e-01" purity="4.0820881724357605e-01" nType="0">
          <Node pos="l" depth="2" NCoef="0" IVar="-1" Cut="0.0000000000000000e+00" cType="1" res="-1.4264074154198170e-02" rms="2.1935050189495087e-01" purity="3.4825569391250610e-01" nType="-99"/>
          <Node pos="r" depth="2" NCoef="0" IVar="-1" Cut="0.0000000000000000e+00" cType="1" res="1.2068997602909803e-03" rms="2.1802477538585663e-01" purity="4.4729578495025635e-01" nType="-99"/>
        </Node>
      </Node>
    </BinaryTree>
    <BinaryTree type="DecisionTree" boostWeight="1.0000000000000000e+00" itree="160">
      <Node pos="s" depth="0" NCoef="0" IVar="16" Cut="3.6859777569770813e-01" cType="1" res="2.0850452710874379e-04" rms="2.1248430013656616e-01" purity="4.9974438548088074e-01" nType="0">
        <Node pos="l" depth="1" NCoef="0" IVar="6" Cut="5.2633166313171387e+00" cType="1" res="-8.8104791939258575e-03" rms="2.2741141915321350e-01" purity="3.0079323053359985e-01" nType="0">
          <Node pos="l" depth="2" NCoef="0" IVar="-1" Cut="0.0000000000000000e+00" cType="1" res="1.3641037978231907e-02" rms="2.3353262245655060e-01" purity="3.6148405075073242e-01" nType="-99"/>
          <Node pos="r" depth="2" NCoef="0" IVar="-1" Cut="0.0000000000000000e+00" cType="1" res="-1.7232997342944145e-02" rms="2.2225318849086761e-01" purity="2.6521766185760498e-01" nType="-99"/>
        </Node>
        <Node pos="r" depth="1" NCoef="0" IVar="34" Cut="2.3815088272094727e+00" cType="1" res="6.6758017055690289e-03" rms="2.0085027813911438e-01" purity="6.4240753650665283e-01" nType="0">
          <Node pos="l" depth="2" NCoef="0" IVar="-1" Cut="0.0000000000000000e+00" cType="1" res="1.6283610835671425e-02" rms="1.8878819048404694e-01" purity="7.9984843730926514e-01" nType="-99"/>
          <Node pos="r" depth="2" NCoef="0" IVar="-1" Cut="0.0000000000000000e+00" cType="1" res="-9.2147216200828552e-03" rms="2.1902996301651001e-01" purity="3.7048256397247314e-01" nType="-99"/>
        </Node>
      </Node>
    </BinaryTree>
    <BinaryTree type="DecisionTree" boostWeight="1.0000000000000000e+00" itree="161">
      <Node pos="s" depth="0" NCoef="0" IVar="17" Cut="4.2151336669921875e+01" cType="1" res="-3.9098126580938697e-04" rms="2.1235279738903046e-01" purity="5.0098627805709839e-01" nType="0">
        <Node pos="l" depth="1" NCoef="0" IVar="10" Cut="7.3144497871398926e+00" cType="1" res="-3.2545377034693956e-03" rms="2.1850486099720001e-01" purity="4.4000664353370667e-01" nType="0">
          <Node pos="l" depth="2" NCoef="0" IVar="-1" Cut="0.0000000000000000e+00" cType="1" res="1.8741884268820286e-03" rms="2.1650084853172302e-01" purity="4.8128724098205566e-01" nType="-99"/>
          <Node pos="r" depth="2" NCoef="0" IVar="-1" Cut="0.0000000000000000e+00" cType="1" res="-1.1622638441622257e-02" rms="2.2217105329036713e-01" purity="3.5416573286056519e-01" nType="-99"/>
        </Node>
        <Node pos="r" depth="1" NCoef="0" IVar="27" Cut="9.5215094089508057e-01" cType="1" res="1.7137477174401283e-02" rms="1.6885189712047577e-01" purity="8.7425613403320312e-01" nType="0">
          <Node pos="l" depth="2" NCoef="0" IVar="-1" Cut="0.0000000000000000e+00" cType="1" res="2.5580523535609245e-02" rms="2.0559835433959961e-01" purity="7.5904810428619385e-01" nType="-99"/>
          <Node pos="r" depth="2" NCoef="0" IVar="-1" Cut="0.0000000000000000e+00" cType="1" res="1.3092449866235256e-02" rms="1.5193973481655121e-01" purity="9.1824501752853394e-01" nType="-99"/>
        </Node>
      </Node>
    </BinaryTree>
    <BinaryTree type="DecisionTree" boostWeight="1.0000000000000000e+00" itree="162">
      <Node pos="s" depth="0" NCoef="0" IVar="24" Cut="9.5228415727615356e-01" cType="1" res="-4.5362976379692554e-04" rms="2.1479600667953491e-01" purity="4.9683704972267151e-01" nType="0">
        <Node pos="l" depth="1" NCoef="0" IVar="34" Cut="7.9561430215835571e-01" cType="1" res="-6.4090713858604431e-03" rms="2.1710796654224396e-01" purity="3.4656140208244324e-01" nType="0">
          <Node pos="l" depth="2" NCoef="0" IVar="-1" Cut="0.0000000000000000e+00" cType="1" res="6.1809089966118336e-03" rms="2.2133910655975342e-01" purity="5.2306652069091797e-01" nType="-99"/>
          <Node pos="r" depth="2" NCoef="0" IVar="-1" Cut="0.0000000000000000e+00" cType="1" res="-9.5163388177752495e-03" rms="2.1560783684253693e-01" purity="2.9285889863967896e-01" nType="-99"/>
        </Node>
        <Node pos="r" depth="1" NCoef="0" IVar="10" Cut="7.3700199127197266e+00" cType="1" res="7.7157774940133095e-03" rms="2.1131061017513275e-01" purity="7.0297849178314209e-01" nType="0">
          <Node pos="l" depth="2" NCoef="0" IVar="-1" Cut="0.0000000000000000e+00" cType="1" res="1.6098486259579659e-02" rms="1.9922283291816711e-01" purity="7.8659248352050781e-01" nType="-99"/>
          <Node pos="r" depth="2" NCoef="0" IVar="-1" Cut="0.0000000000000000e+00" cType="1" res="-2.5375334080308676e-03" rms="2.2340849041938782e-01" purity="6.1043250560760498e-01" nType="-99"/>
        </Node>
      </Node>
    </BinaryTree>
    <BinaryTree type="DecisionTree" boostWeight="1.0000000000000000e+00" itree="163">
      <Node pos="s" depth="0" NCoef="0" IVar="33" Cut="1.9060084596276283e-02" cType="1" res="-1.2507381616160274e-03" rms="2.1178336441516876e-01" purity="5.0041085481643677e-01" nType="0">
        <Node pos="l" depth="1" NCoef="0" IVar="30" Cut="3.8119573146104813e-02" cType="1" res="5.2889394573867321e-03" rms="2.0331592857837677e-01" purity="6.3534957170486450e-01" nType="0">
          <Node pos="l" depth="2" NCoef="0" IVar="-1" Cut="0.0000000000000000e+00" cType="1" res="1.0139380581676960e-02" rms="1.9602359831333160e-01" purity="7.2094291448593140e-01" nType="-99"/>
          <Node pos="r" depth="2" NCoef="0" IVar="-1" Cut="0.0000000000000000e+00" cType="1" res="-7.1358187124133110e-03" rms="2.2050955891609192e-01" purity="4.1240739822387695e-01" nType="-99"/>
        </Node>
        <Node pos="r" depth="1" NCoef="0" IVar="9" Cut="3.0880947113037109e+01" cType="1" res="-8.5263960063457489e-03" rms="2.2059477865695953e-01" purity="3.5028603672981262e-01" nType="0">
          <Node pos="l" depth="2" NCoef="0" IVar="-1" Cut="0.0000000000000000e+00" cType="1" res="-4.9302843399345875e-03" rms="2.2476720809936523e-01" purity="3.6801621317863464e-01" nType="-99"/>
          <Node pos="r" depth="2" NCoef="0" IVar="-1" Cut="0.0000000000000000e+00" cType="1" res="-2.8576327487826347e-02" rms="1.7496767640113831e-01" purity="1.8307244777679443e-01" nType="-99"/>
        </Node>
      </Node>
    </BinaryTree>
    <BinaryTree type="DecisionTree" boostWeight="1.0000000000000000e+00" itree="164">
      <Node pos="s" depth="0" NCoef="0" IVar="27" Cut="1.9082996249198914e-01" cType="1" res="6.2926631653681397e-04" rms="2.1541850268840790e-01" purity="4.9776035547256470e-01" nType="0">
        <Node pos="l" depth="1" NCoef="0" IVar="-1" Cut="0.0000000000000000e+00" cType="1" res="-3.1076570972800255e-02" rms="1.9439430534839630e-01" purity="1.4530380070209503e-01" nType="-99"/>
        <Node pos="r" depth="1" NCoef="0" IVar="11" Cut="6.2960267066955566e+00" cType="1" res="2.1582234185189009e-03" rms="2.1627476811408997e-01" purity="5.1493918895721436e-01" nType="0">
          <Node pos="l" depth="2" NCoef="0" IVar="-1" Cut="0.0000000000000000e+00" cType="1" res="-8.4882816299796104e-03" rms="2.1568126976490021e-01" purity="4.4370916485786438e-01" nType="-99"/>
          <Node pos="r" depth="2" NCoef="0" IVar="-1" Cut="0.0000000000000000e+00" cType="1" res="5.2186609245836735e-03" rms="2.1632099151611328e-01" purity="5.3987777233123779e-01" nType="-99"/>
        </Node>
      </Node>
    </BinaryTree>
    <BinaryTree type="DecisionTree" boostWeight="1.0000000000000000e+00" itree="165">
      <Node pos="s" depth="0" NCoef="0" IVar="33" Cut="5.7152461260557175e-02" cType="1" res="4.9560039769858122e-04" rms="2.1302914619445801e-01" purity="4.9952909350395203e-01" nType="0">
        <Node pos="l" depth="1" NCoef="0" IVar="28" Cut="5.2667665481567383e-01" cType="1" res="5.0080413930118084e-03" rms="2.1128676831722260e-01" purity="5.8097696304321289e-01" nType="0">
          <Node pos="l" depth="2" NCoef="0" IVar="-1" Cut="0.0000000000000000e+00" cType="1" res="-4.6776691451668739e-03" rms="2.2030578553676605e-01" purity="3.6261549592018127e-01" nType="-99"/>
          <Node pos="r" depth="2" NCoef="0" IVar="-1" Cut="0.0000000000000000e+00" cType="1" res="8.3907386288046837e-03" rms="2.0741318166255951e-01" purity="6.6808062791824341e-01" nType="-99"/>
        </Node>
        <Node pos="r" depth="1" NCoef="0" IVar="20" Cut="-3.1911182403564453e+01" cType="1" res="-1.1233898811042309e-02" rms="2.1705451607704163e-01" purity="2.8781613707542419e-01" nType="0">
          <Node pos="l" depth="2" NCoef="0" IVar="-1" Cut="0.0000000000000000e+00" cType="1" res="8.8017629459500313e-03" rms="2.2333368659019470e-01" purity="6.4429926872253418e-01" nType="-99"/>
          <Node pos="r" depth="2" NCoef="0" IVar="-1" Cut="0.0000000000000000e+00" cType="1" res="-1.2882788665592670e-02" rms="2.1577502787113190e-01" purity="2.2940503060817719e-01" nType="-99"/>
        </Node>
      </Node>
    </BinaryTree>
    <BinaryTree type="DecisionTree" boostWeight="1.0000000000000000e+00" itree="166">
      <Node pos="s" depth="0" NCoef="0" IVar="5" Cut="9.6688699722290039e+00" cType="1" res="-4.3559458572417498e-04" rms="2.1282944083213806e-01" purity="4.9940288066864014e-01" nType="0">
        <Node pos="l" depth="1" NCoef="0" IVar="5" Cut="4.6026000976562500e+00" cType="1" res="9.0340239694342017e-04" rms="2.1351216733455658e-01" purity="5.1370996236801147e-01" nType="0">
          <Node pos="l" depth="2" NCoef="0" IVar="-1" Cut="0.0000000000000000e+00" cType="1" res="1.9810353405773640e-03" rms="2.1388666331768036e-01" purity="5.3163129091262817e-01" nType="-99"/>
          <Node pos="r" depth="2" NCoef="0" IVar="-1" Cut="0.0000000000000000e+00" cType="1" res="-2.6570538058876991e-02" rms="2.0425555109977722e-01" purity="1.7359504103660583e-01" nType="-99"/>
        </Node>
        <Node pos="r" depth="1" NCoef="0" IVar="-1" Cut="0.0000000000000000e+00" cType="1" res="-4.1512276977300644e-02" rms="1.8993818759918213e-01" purity="1.1290915310382843e-01" nType="-99"/>
      </Node>
    </BinaryTree>
    <BinaryTree type="DecisionTree" boostWeight="1.0000000000000000e+00" itree="167">
      <Node pos="s" depth="0" NCoef="0" IVar="15" Cut="5.5208659172058105e+00" cType="1" res="3.9819192920731439e-07" rms="2.1276360750198364e-01" purity="4.9899178743362427e-01" nType="0">
        <Node pos="l" depth="1" NCoef="0" IVar="22" Cut="5.9659671783447266e+00" cType="1" res="2.2904740646481514e-02" rms="2.2026953101158142e-01" purity="5.8824932575225830e-01" nType="0">
          <Node pos="l" depth="2" NCoef="0" IVar="-1" Cut="0.0000000000000000e+00" cType="1" res="1.3991001760587096e-03" rms="2.1954523026943207e-01" purity="4.7070035338401794e-01" nType="-99"/>
          <Node pos="r" depth="2" NCoef="0" IVar="-1" Cut="0.0000000000000000e+00" cType="1" res="2.8529539704322815e-02" rms="2.1950562298297882e-01" purity="6.7653316259384155e-01" nType="-99"/>
        </Node>
        <Node pos="r" depth="1" NCoef="0" IVar="31" Cut="7.6158173382282257e-02" cType="1" res="-2.0650483202189207e-03" rms="2.1195206046104431e-01" purity="4.9094280600547791e-01" nType="0">
          <Node pos="l" depth="2" NCoef="0" IVar="-1" Cut="0.0000000000000000e+00" cType="1" res="8.3294679643586278e-04" rms="2.1298110485076904e-01" purity="5.5667251348495483e-01" nType="-99"/>
          <Node pos="r" depth="2" NCoef="0" IVar="-1" Cut="0.0000000000000000e+00" cType="1" res="-1.4690293930470943e-02" rms="2.0683988928794861e-01" purity="2.0217783749103546e-01" nType="-99"/>
        </Node>
      </Node>
    </BinaryTree>
    <BinaryTree type="DecisionTree" boostWeight="1.0000000000000000e+00" itree="168">
      <Node pos="s" depth="0" NCoef="0" IVar="33" Cut="9.5240175724029541e-02" cType="1" res="1.6005438519641757e-03" rms="2.1446038782596588e-01" purity="4.9949425458908081e-01" nType="0">
        <Node pos="l" depth="1" NCoef="0" IVar="15" Cut="5.5129919052124023e+00" cType="1" res="4.8622833564877510e-03" rms="2.1412721276283264e-01" purity="5.5278062820434570e-01" nType="0">
          <Node pos="l" depth="2" NCoef="0" IVar="-1" Cut="0.0000000000000000e+00" cType="1" res="2.6750240474939346e-02" rms="2.2674953937530518e-01" purity="6.3560611009597778e-01" nType="-99"/>
          <Node pos="r" depth="2" NCoef="0" IVar="-1" Cut="0.0000000000000000e+00" cType="1" res="2.1307400893419981e-03" rms="2.1294710040092468e-01" purity="5.4646873474121094e-01" nType="-99"/>
        </Node>
        <Node pos="r" depth="1" NCoef="0" IVar="28" Cut="3.8422843813896179e-01" cType="1" res="-1.2200261466205120e-02" rms="2.1531826257705688e-01" purity="2.7403312921524048e-01" nType="0">
          <Node pos="l" depth="2" NCoef="0" IVar="-1" Cut="0.0000000000000000e+00" cType="1" res="-2.2668946534395218e-02" rms="1.9861692190170288e-01" purity="1.7996442317962646e-01" nType="-99"/>
          <Node pos="r" depth="2" NCoef="0" IVar="-1" Cut="0.0000000000000000e+00" cType="1" res="-4.8482399433851242e-03" rms="2.2292537987232208e-01" purity="3.2102671265602112e-01" nType="-99"/>
        </Node>
      </Node>
    </BinaryTree>
    <BinaryTree type="DecisionTree" boostWeight="1.0000000000000000e+00" itree="169">
      <Node pos="s" depth="0" NCoef="0" IVar="34" Cut="6.3490238189697266e+00" cType="1" res="-6.7330687306821346e-04" rms="2.1251644194126129e-01" purity="5.0063890218734741e-01" nType="0">
        <Node pos="l" depth="1" NCoef="0" IVar="9" Cut="2.7119817733764648e+01" cType="1" res="1.0196712100878358e-03" rms="2.1394224464893341e-01" purity="5.2318996191024780e-01" nType="0">
          <Node pos="l" depth="2" NCoef="0" IVar="-1" Cut="0.0000000000000000e+00" cType="1" res="3.0502292793244123e-03" rms="2.1766118705272675e-01" purity="5.4750490188598633e-01" nType="-99"/>
          <Node pos="r" depth="2" NCoef="0" IVar="-1" Cut="0.0000000000000000e+00" cType="1" res="-1.3824189081788063e-02" rms="1.8742054700851440e-01" purity="3.6697909235954285e-01" nType="-99"/>
        </Node>
        <Node pos="r" depth="1" NCoef="0" IVar="24" Cut="7.1543228626251221e-01" cType="1" res="-3.1875338405370712e-02" rms="1.8146719038486481e-01" purity="8.5017494857311249e-02" nType="0">
          <Node pos="l" depth="2" NCoef="0" IVar="-1" Cut="0.0000000000000000e+00" cType="1" res="-3.7509843707084656e-02" rms="1.3251598179340363e-01" purity="2.3166766390204430e-02" nType="-99"/>
          <Node pos="r" depth="2" NCoef="0" IVar="-1" Cut="0.0000000000000000e+00" cType="1" res="-3.7671562284231186e-02" rms="2.2079363465309143e-01" purity="1.4979287981987000e-01" nType="-99"/>
        </Node>
      </Node>
    </BinaryTree>
    <BinaryTree type="DecisionTree" boostWeight="1.0000000000000000e+00" itree="170">
      <Node pos="s" depth="0" NCoef="0" IVar="15" Cut="5.6983275413513184e+00" cType="1" res="3.0528934439644217e-04" rms="2.1311502158641815e-01" purity="5.0159251689910889e-01" nType="0">
        <Node pos="l" depth="1" NCoef="0" IVar="3" Cut="3.1029386520385742e+00" cType="1" res="1.5899833291769028e-02" rms="2.2676715254783630e-01" purity="5.6555229425430298e-01" nType="0">
          <Node pos="l" depth="2" NCoef="0" IVar="-1" Cut="0.0000000000000000e+00" cType="1" res="1.4535873197019100e-02" rms="2.5040262937545776e-01" purity="6.9354295730590820e-01" nType="-99"/>
          <Node pos="r" depth="2" NCoef="0" IVar="-1" Cut="0.0000000000000000e+00" cType="1" res="-5.2388414740562439e-02" rms="2.1251846104860306e-02" purity="0.0000000000000000e+00" nType="-99"/>
        </Node>
        <Node pos="r" depth="1" NCoef="0" IVar="21" Cut="3.3007598876953125e+01" cType="1" res="-2.2222241386771202e-03" rms="2.1071042120456696e-01" purity="4.9122610688209534e-01" nType="0">
          <Node pos="l" depth="2" NCoef="0" IVar="-1" Cut="0.0000000000000000e+00" cType="1" res="-4.4689965434372425e-03" rms="2.1902440488338470e-01" purity="4.1830131411552429e-01" nType="-99"/>
          <Node pos="r" depth="2" NCoef="0" IVar="-1" Cut="0.0000000000000000e+00" cType="1" res="1.9305981695652008e-02" rms="1.5841946005821228e-01" purity="8.7829893827438354e-01" nType="-99"/>
        </Node>
      </Node>
    </BinaryTree>
    <BinaryTree type="DecisionTree" boostWeight="1.0000000000000000e+00" itree="171">
      <Node pos="s" depth="0" NCoef="0" IVar="11" Cut="6.1020622253417969e+00" cType="1" res="-3.3546067425049841e-04" rms="2.1018412709236145e-01" purity="5.0032728910446167e-01" nType="0">
        <Node pos="l" depth="1" NCoef="0" IVar="1" Cut="7.1737942695617676e+00" cType="1" res="-1.3913034461438656e-02" rms="2.0820687711238861e-01" purity="4.0199148654937744e-01" nType="0">
          <Node pos="l" depth="2" NCoef="0" IVar="-1" Cut="0.0000000000000000e+00" cType="1" res="-1.8260600045323372e-02" rms="2.0542831718921661e-01" purity="3.5235589742660522e-01" nType="-99"/>
          <Node pos="r" depth="2" NCoef="0" IVar="-1" Cut="0.0000000000000000e+00" cType="1" res="7.2713666595518589e-03" rms="2.1626020967960358e-01" purity="5.7762056589126587e-01" nType="-99"/>
        </Node>
        <Node pos="r" depth="1" NCoef="0" IVar="9" Cut="1.4775361061096191e+01" cType="1" res="2.5905373040586710e-03" rms="2.1049311757087708e-01" purity="5.2151888608932495e-01" nType="0">
          <Node pos="l" depth="2" NCoef="0" IVar="-1" Cut="0.0000000000000000e+00" cType="1" res="8.7807569652795792e-03" rms="2.1469062566757202e-01" purity="5.5065876245498657e-01" nType="-99"/>
          <Node pos="r" depth="2" NCoef="0" IVar="-1" Cut="0.0000000000000000e+00" cType="1" res="-4.7347010113298893e-03" rms="2.0550443232059479e-01" purity="4.8971825838088989e-01" nType="-99"/>
        </Node>
      </Node>
    </BinaryTree>
    <BinaryTree type="DecisionTree" boostWeight="1.0000000000000000e+00" itree="172">
      <Node pos="s" depth="0" NCoef="0" IVar="25" Cut="4.6125587821006775e-01" cType="1" res="-4.2474563815630972e-04" rms="2.1147879958152771e-01" purity="4.9909403920173645e-01" nType="0">
        <Node pos="l" depth="1" NCoef="0" IVar="16" Cut="4.0191581845283508e-01" cType="1" res="1.6874942230060697e-03" rms="2.1433940529823303e-01" purity="5.4094636440277100e-01" nType="0">
          <Node pos="l" depth="2" NCoef="0" IVar="-1" Cut="0.0000000000000000e+00" cType="1" res="-3.7698857486248016e-03" rms="2.3187729716300964e-01" purity="3.7668585777282715e-01" nType="-99"/>
          <Node pos="r" depth="2" NCoef="0" IVar="-1" Cut="0.0000000000000000e+00" cType="1" res="8.3747059106826782e-03" rms="1.9553220272064209e-01" purity="7.0079249143600464e-01" nType="-99"/>
        </Node>
        <Node pos="r" depth="1" NCoef="0" IVar="3" Cut="3.1032140254974365e+00" cType="1" res="-1.8253426998853683e-02" rms="1.8462456762790680e-01" purity="1.4583343267440796e-01" nType="0">
          <Node pos="l" depth="2" NCoef="0" IVar="-1" Cut="0.0000000000000000e+00" cType="1" res="-1.8179245293140411e-02" rms="2.4031838774681091e-01" purity="2.4814313650131226e-01" nType="-99"/>
          <Node pos="r" depth="2" NCoef="0" IVar="-1" Cut="0.0000000000000000e+00" cType="1" res="-5.0816241651773453e-02" rms="7.4656251817941666e-03" purity="0.0000000000000000e+00" nType="-99"/>
        </Node>
      </Node>
    </BinaryTree>
    <BinaryTree type="DecisionTree" boostWeight="1.0000000000000000e+00" itree="173">
      <Node pos="s" depth="0" NCoef="0" IVar="17" Cut="5.1565784454345703e+01" cType="1" res="-4.5203505578683689e-06" rms="2.1342967450618744e-01" purity="4.9970170855522156e-01" nType="0">
        <Node pos="l" depth="1" NCoef="0" IVar="33" Cut="5.7149946689605713e-02" cType="1" res="-2.0094506908208132e-03" rms="2.1753793954849243e-01" purity="4.6302148699760437e-01" nType="0">
          <Node pos="l" depth="2" NCoef="0" IVar="-1" Cut="0.0000000000000000e+00" cType="1" res="1.7338172765448689e-03" rms="2.1748533844947815e-01" purity="5.4069519042968750e-01" nType="-99"/>
          <Node pos="r" depth="2" NCoef="0" IVar="-1" Cut="0.0000000000000000e+00" cType="1" res="-1.0185875929892063e-02" rms="2.1733950078487396e-01" purity="2.7419123053550720e-01" nType="-99"/>
        </Node>
        <Node pos="r" depth="1" NCoef="0" IVar="-1" Cut="0.0000000000000000e+00" cType="1" res="2.8933491557836533e-02" rms="1.5574298799037933e-01" purity="9.2854249477386475e-01" nType="-99"/>
      </Node>
    </BinaryTree>
    <BinaryTree type="DecisionTree" boostWeight="1.0000000000000000e+00" itree="174">
      <Node pos="s" depth="0" NCoef="0" IVar="3" Cut="1.4337116479873657e+00" cType="1" res="1.8749547889456153e-03" rms="2.1501743793487549e-01" purity="5.0103473663330078e-01" nType="0">
        <Node pos="l" depth="1" NCoef="0" IVar="14" Cut="7.9809699058532715e+00" cType="1" res="1.1829567141830921e-02" rms="2.2596351802349091e-01" purity="7.3858523368835449e-01" nType="0">
          <Node pos="l" depth="2" NCoef="0" IVar="-1" Cut="0.0000000000000000e+00" cType="1" res="2.3867722600698471e-02" rms="2.3706355690956116e-01" purity="7.9695808887481689e-01" nType="-99"/>
          <Node pos="r" depth="2" NCoef="0" IVar="-1" Cut="0.0000000000000000e+00" cType="1" res="3.5331575199961662e-03" rms="2.2186389565467834e-01" purity="7.2016191482543945e-01" nType="-99"/>
        </Node>
        <Node pos="r" depth="1" NCoef="0" IVar="11" Cut="6.4412741661071777e+00" cType="1" res="-3.8926412817090750e-03" rms="2.0819486677646637e-01" purity="3.6340048909187317e-01" nType="0">
          <Node pos="l" depth="2" NCoef="0" IVar="-1" Cut="0.0000000000000000e+00" cType="1" res="-1.4563593082129955e-02" rms="2.0825220644474030e-01" purity="3.1187501549720764e-01" nType="-99"/>
          <Node pos="r" depth="2" NCoef="0" IVar="-1" Cut="0.0000000000000000e+00" cType="1" res="2.0864878315478563e-03" rms="2.0790487527847290e-01" purity="3.9119249582290649e-01" nType="-99"/>
        </Node>
      </Node>
    </BinaryTree>
    <BinaryTree type="DecisionTree" boostWeight="1.0000000000000000e+00" itree="175">
      <Node pos="s" depth="0" NCoef="0" IVar="4" Cut="7.2085094451904297e+00" cType="1" res="-7.9698284389451146e-04" rms="2.1285018324851990e-01" purity="4.9789431691169739e-01" nType="0">
        <Node pos="l" depth="1" NCoef="0" IVar="5" Cut="6.8086185455322266e+00" cType="1" res="-2.0173962693661451e-03" rms="2.1232971549034119e-01" purity="5.0308585166931152e-01" nType="0">
          <Node pos="l" depth="2" NCoef="0" IVar="-1" Cut="0.0000000000000000e+00" cType="1" res="-1.7938070232048631e-04" rms="2.1314284205436707e-01" purity="5.2104008197784424e-01" nType="-99"/>
          <Node pos="r" depth="2" NCoef="0" IVar="-1" Cut="0.0000000000000000e+00" cType="1" res="-5.1407836377620697e-02" rms="1.8762187659740448e-01" purity="8.5721023380756378e-02" nType="-99"/>
        </Node>
        <Node pos="r" depth="1" NCoef="0" IVar="-1" Cut="0.0000000000000000e+00" cType="1" res="3.2899320125579834e-02" rms="2.2507238388061523e-01" purity="3.3818501234054565e-01" nType="-99"/>
      </Node>
    </BinaryTree>
    <BinaryTree type="DecisionTree" boostWeight="1.0000000000000000e+00" itree="176">
      <Node pos="s" depth="0" NCoef="0" IVar="23" Cut="5.7260036468505859e-01" cType="1" res="3.0916737159714103e-04" rms="2.1192820370197296e-01" purity="5.0356620550155640e-01" nType="0">
        <Node pos="l" depth="1" NCoef="0" IVar="13" Cut="7.8672437667846680e+00" cType="1" res="-1.0777533985674381e-02" rms="1.9521647691726685e-01" purity="9.9697306752204895e-02" nType="0">
          <Node pos="l" depth="2" NCoef="0" IVar="-1" Cut="0.0000000000000000e+00" cType="1" res="3.0305471736937761e-03" rms="2.0117482542991638e-01" purity="1.4147150516510010e-01" nType="-99"/>
          <Node pos="r" depth="2" NCoef="0" IVar="-1" Cut="0.0000000000000000e+00" cType="1" res="-1.6302708536386490e-02" rms="1.9184453785419464e-01" purity="7.9215422272682190e-02" nType="-99"/>
        </Node>
        <Node pos="r" depth="1" NCoef="0" IVar="5" Cut="7.9491801261901855e+00" cType="1" res="4.9493191763758659e-03" rms="2.1837657690048218e-01" purity="6.7259877920150757e-01" nType="0">
          <Node pos="l" depth="2" NCoef="0" IVar="-1" Cut="0.0000000000000000e+00" cType="1" res="5.5615054443478584e-03" rms="2.1719403564929962e-01" purity="6.9004321098327637e-01" nType="-99"/>
          <Node pos="r" depth="2" NCoef="0" IVar="-1" Cut="0.0000000000000000e+00" cType="1" res="-3.3583406358957291e-02" rms="2.4358664453029633e-01" purity="2.0339541137218475e-01" nType="-99"/>
        </Node>
      </Node>
    </BinaryTree>
    <BinaryTree type="DecisionTree" boostWeight="1.0000000000000000e+00" itree="177">
      <Node pos="s" depth="0" NCoef="0" IVar="30" Cut="1.9075052812695503e-02" cType="1" res="4.4064912799512967e-05" rms="2.1342073380947113e-01" purity="5.0000095367431641e-01" nType="0">
        <Node pos="l" depth="1" NCoef="0" IVar="30" Cut="3.6576888523995876e-03" cType="1" res="5.8820759877562523e-03" rms="2.0895028114318848e-01" purity="6.3963013887405396e-01" nType="0">
          <Node pos="l" depth="2" NCoef="0" IVar="-1" Cut="0.0000000000000000e+00" cType="1" res="1.3416694477200508e-02" rms="2.0556144416332245e-01" purity="6.9316875934600830e-01" nType="-99"/>
          <Node pos="r" depth="2" NCoef="0" IVar="-1" Cut="0.0000000000000000e+00" cType="1" res="-2.2327443002723157e-04" rms="2.1108067035675049e-01" purity="6.0204619169235229e-01" nType="-99"/>
        </Node>
        <Node pos="r" depth="1" NCoef="0" IVar="18" Cut="-4.7060314178466797e+01" cType="1" res="-6.4207781106233597e-03" rms="2.1808210015296936e-01" purity="3.4537965059280396e-01" nType="0">
          <Node pos="l" depth="2" NCoef="0" IVar="-1" Cut="0.0000000000000000e+00" cType="1" res="1.7043335363268852e-02" rms="1.8825934827327728e-01" purity="8.1805682182312012e-01" nType="-99"/>
          <Node pos="r" depth="2" NCoef="0" IVar="-1" Cut="0.0000000000000000e+00" cType="1" res="-6.9047273136675358e-03" rms="2.2020760178565979e-01" purity="3.0682164430618286e-01" nType="-99"/>
        </Node>
      </Node>
    </BinaryTree>
    <BinaryTree type="DecisionTree" boostWeight="1.0000000000000000e+00" itree="178">
      <Node pos="s" depth="0" NCoef="0" IVar="28" Cut="4.7831007838249207e-01" cType="1" res="-2.2404483752325177e-04" rms="2.1315930783748627e-01" purity="4.9759101867675781e-01" nType="0">
        <Node pos="l" depth="1" NCoef="0" IVar="10" Cut="7.3004751205444336e+00" cType="1" res="-1.0147821158170700e-02" rms="2.1665513515472412e-01" purity="3.0206450819969177e-01" nType="0">
          <Node pos="l" depth="2" NCoef="0" IVar="-1" Cut="0.0000000000000000e+00" cType="1" res="-3.8789415266364813e-03" rms="2.1799370646476746e-01" purity="3.4420382976531982e-01" nType="-99"/>
          <Node pos="r" depth="2" NCoef="0" IVar="-1" Cut="0.0000000000000000e+00" cType="1" res="-1.8099140375852585e-02" rms="2.1357789635658264e-01" purity="2.1867050230503082e-01" nType="-99"/>
        </Node>
        <Node pos="r" depth="1" NCoef="0" IVar="3" Cut="3.0979297161102295e+00" cType="1" res="4.0720291435718536e-03" rms="2.1148364245891571e-01" purity="5.8223587274551392e-01" nType="0">
          <Node pos="l" depth="2" NCoef="0" IVar="-1" Cut="0.0000000000000000e+00" cType="1" res="5.3146779537200928e-03" rms="2.3268319666385651e-01" purity="7.0647406578063965e-01" nType="-99"/>
          <Node pos="r" depth="2" NCoef="0" IVar="-1" Cut="0.0000000000000000e+00" cType="1" res="-5.2288725972175598e-02" rms="1.8586054444313049e-02" purity="0.0000000000000000e+00" nType="-99"/>
        </Node>
      </Node>
    </BinaryTree>
    <BinaryTree type="DecisionTree" boostWeight="1.0000000000000000e+00" itree="179">
      <Node pos="s" depth="0" NCoef="0" IVar="11" Cut="7.4567146301269531e+00" cType="1" res="1.6802732134237885e-03" rms="2.1253599226474762e-01" purity="5.0122374296188354e-01" nType="0">
        <Node pos="l" depth="1" NCoef="0" IVar="3" Cut="3.0979743003845215e+00" cType="1" res="4.8287599347531796e-03" rms="2.1201774477958679e-01" purity="5.3158998489379883e-01" nType="0">
          <Node pos="l" depth="2" NCoef="0" IVar="-1" Cut="0.0000000000000000e+00" cType="1" res="6.3742026686668396e-03" rms="2.3879644274711609e-01" purity="6.7631393671035767e-01" nType="-99"/>
          <Node pos="r" depth="2" NCoef="0" IVar="-1" Cut="0.0000000000000000e+00" cType="1" res="-5.2150551229715347e-02" rms="1.7839442938566208e-02" purity="0.0000000000000000e+00" nType="-99"/>
        </Node>
        <Node pos="r" depth="1" NCoef="0" IVar="14" Cut="8.6133632659912109e+00" cType="1" res="-1.0628899559378624e-02" rms="2.1410626173019409e-01" purity="3.8250529766082764e-01" nType="0">
          <Node pos="l" depth="2" NCoef="0" IVar="-1" Cut="0.0000000000000000e+00" cType="1" res="-3.2200459390878677e-02" rms="2.1831363439559937e-01" purity="2.4052050709724426e-01" nType="-99"/>
          <Node pos="r" depth="2" NCoef="0" IVar="-1" Cut="0.0000000000000000e+00" cType="1" res="3.0134289991110563e-03" rms="2.1075198054313660e-01" purity="4.4063362479209900e-01" nType="-99"/>
        </Node>
      </Node>
    </BinaryTree>
    <BinaryTree type="DecisionTree" boostWeight="1.0000000000000000e+00" itree="180">
      <Node pos="s" depth="0" NCoef="0" IVar="31" Cut="1.7132624983787537e-01" cType="1" res="-1.9528169650584459e-04" rms="2.1113747358322144e-01" purity="5.0078737735748291e-01" nType="0">
        <Node pos="l" depth="1" NCoef="0" IVar="31" Cut="8.1696743145585060e-03" cType="1" res="1.7369056586176157e-03" rms="2.1265856921672821e-01" purity="5.2918809652328491e-01" nType="0">
          <Node pos="l" depth="2" NCoef="0" IVar="-1" Cut="0.0000000000000000e+00" cType="1" res="7.5058401562273502e-03" rms="2.0113772153854370e-01" purity="6.8224543333053589e-01" nType="-99"/>
          <Node pos="r" depth="2" NCoef="0" IVar="-1" Cut="0.0000000000000000e+00" cType="1" res="-3.1897258013486862e-03" rms="2.2189900279045105e-01" purity="3.9808678627014160e-01" nType="-99"/>
        </Node>
        <Node pos="r" depth="1" NCoef="0" IVar="3" Cut="3.1263208389282227e+00" cType="1" res="-2.2224351763725281e-02" rms="1.9157671928405762e-01" purity="1.7698727548122406e-01" nType="0">
          <Node pos="l" depth="2" NCoef="0" IVar="-1" Cut="0.0000000000000000e+00" cType="1" res="-2.0892875269055367e-02" rms="2.4070478975772858e-01" purity="2.8093904256820679e-01" nType="-99"/>
          <Node pos="r" depth="2" NCoef="0" IVar="-1" Cut="0.0000000000000000e+00" cType="1" res="-5.1450997591018677e-02" rms="1.1689942330121994e-02" purity="0.0000000000000000e+00" nType="-99"/>
        </Node>
      </Node>
    </BinaryTree>
    <BinaryTree type="DecisionTree" boostWeight="1.0000000000000000e+00" itree="181">
      <Node pos="s" depth="0" NCoef="0" IVar="33" Cut="1.1425601691007614e-01" cType="1" res="6.0786947142332792e-04" rms="2.1360757946968079e-01" purity="5.0084275007247925e-01" nType="0">
        <Node pos="l" depth="1" NCoef="0" IVar="23" Cut="3.8268366456031799e-01" cType="1" res="3.4449312370270491e-03" rms="2.1352021396160126e-01" purity="5.4742985963821411e-01" nType="0">
          <Node pos="l" depth="2" NCoef="0" IVar="-1" Cut="0.0000000000000000e+00" cType="1" res="-1.2870630249381065e-02" rms="1.8720592558383942e-01" purity="8.2128860056400299e-02" nType="-99"/>
          <Node pos="r" depth="2" NCoef="0" IVar="-1" Cut="0.0000000000000000e+00" cType="1" res="5.4959147237241268e-03" rms="2.1777330338954926e-01" purity="6.3103944063186646e-01" nType="-99"/>
        </Node>
        <Node pos="r" depth="1" NCoef="0" IVar="33" Cut="2.0946428179740906e-01" cType="1" res="-1.4169943518936634e-02" rms="2.1345318853855133e-01" purity="2.5817802548408508e-01" nType="0">
          <Node pos="l" depth="2" NCoef="0" IVar="-1" Cut="0.0000000000000000e+00" cType="1" res="-2.0175326615571976e-02" rms="2.1115002036094666e-01" purity="2.5793969631195068e-01" nType="-99"/>
          <Node pos="r" depth="2" NCoef="0" IVar="-1" Cut="0.0000000000000000e+00" cType="1" res="-3.5881504882127047e-03" rms="2.1572312712669373e-01" purity="2.5846108794212341e-01" nType="-99"/>
        </Node>
      </Node>
    </BinaryTree>
    <BinaryTree type="DecisionTree" boostWeight="1.0000000000000000e+00" itree="182">
      <Node pos="s" depth="0" NCoef="0" IVar="34" Cut="5.1588077545166016e+00" cType="1" res="1.4517630916088820e-04" rms="2.0976886153221130e-01" purity="5.0245881080627441e-01" nType="0">
        <Node pos="l" depth="1" NCoef="0" IVar="14" Cut="7.9385328292846680e+00" cType="1" res="2.1099809091538191e-03" rms="2.1263432502746582e-01" purity="5.4809975624084473e-01" nType="0">
          <Node pos="l" depth="2" NCoef="0" IVar="-1" Cut="0.0000000000000000e+00" cType="1" res="1.1792543344199657e-02" rms="2.1786785125732422e-01" purity="5.3435486555099487e-01" nType="-99"/>
          <Node pos="r" depth="2" NCoef="0" IVar="-1" Cut="0.0000000000000000e+00" cType="1" res="-1.5278490027412772e-03" rms="2.1083529293537140e-01" purity="5.5235689878463745e-01" nType="-99"/>
        </Node>
        <Node pos="r" depth="1" NCoef="0" IVar="3" Cut="2.6468129158020020e+00" cType="1" res="-1.6008239239454269e-02" rms="1.8373709917068481e-01" purity="1.2722697854042053e-01" nType="0">
          <Node pos="l" depth="2" NCoef="0" IVar="-1" Cut="0.0000000000000000e+00" cType="1" res="-1.9630160182714462e-02" rms="2.5054782629013062e-01" purity="2.4870856106281281e-01" nType="-99"/>
          <Node pos="r" depth="2" NCoef="0" IVar="-1" Cut="0.0000000000000000e+00" cType="1" res="-1.0714161209762096e-02" rms="9.0197913348674774e-02" purity="2.1544611081480980e-02" nType="-99"/>
        </Node>
      </Node>
    </BinaryTree>
    <BinaryTree type="DecisionTree" boostWeight="1.0000000000000000e+00" itree="183">
      <Node pos="s" depth="0" NCoef="0" IVar="27" Cut="7.1499300003051758e-01" cType="1" res="-6.9958361564204097e-04" rms="2.1336401998996735e-01" purity="4.9780732393264771e-01" nType="0">
        <Node pos="l" depth="1" NCoef="0" IVar="20" Cut="-2.7974674701690674e+00" cType="1" res="-1.2326298281550407e-02" rms="2.0214188098907471e-01" purity="1.9677725434303284e-01" nType="0">
          <Node pos="l" depth="2" NCoef="0" IVar="-1" Cut="0.0000000000000000e+00" cType="1" res="-3.7874426692724228e-02" rms="1.9036409258842468e-01" purity="1.2414500117301941e-01" nType="-99"/>
          <Node pos="r" depth="2" NCoef="0" IVar="-1" Cut="0.0000000000000000e+00" cType="1" res="-5.1560699939727783e-03" rms="2.0515474677085876e-01" purity="2.1922805905342102e-01" nType="-99"/>
        </Node>
        <Node pos="r" depth="1" NCoef="0" IVar="27" Cut="9.8617017269134521e-01" cType="1" res="2.2441255860030651e-03" rms="2.1601361036300659e-01" purity="5.7402354478836060e-01" nType="0">
          <Node pos="l" depth="2" NCoef="0" IVar="-1" Cut="0.0000000000000000e+00" cType="1" res="-2.5287377648055553e-03" rms="2.3043738305568695e-01" purity="4.1996347904205322e-01" nType="-99"/>
          <Node pos="r" depth="2" NCoef="0" IVar="-1" Cut="0.0000000000000000e+00" cType="1" res="9.7694974392652512e-03" rms="1.9254913926124573e-01" purity="8.0078881978988647e-01" nType="-99"/>
        </Node>
      </Node>
    </BinaryTree>
    <BinaryTree type="DecisionTree" boostWeight="1.0000000000000000e+00" itree="184">
      <Node pos="s" depth="0" NCoef="0" IVar="19" Cut="-1.1004629135131836e+01" cType="1" res="3.1148843845585361e-05" rms="2.1329338848590851e-01" purity="5.0107187032699585e-01" nType="0">
        <Node pos="l" depth="1" NCoef="0" IVar="14" Cut="8.8083200454711914e+00" cType="1" res="2.9019227251410484e-02" rms="2.1653714776039124e-01" purity="5.2850514650344849e-01" nType="0">
          <Node pos="l" depth="2" NCoef="0" IVar="-1" Cut="0.0000000000000000e+00" cType="1" res="1.3149023987352848e-02" rms="2.3152218759059906e-01" purity="4.4825932383537292e-01" nType="-99"/>
          <Node pos="r" depth="2" NCoef="0" IVar="-1" Cut="0.0000000000000000e+00" cType="1" res="4.3583158403635025e-02" rms="2.0019789040088654e-01" purity="6.0543888807296753e-01" nType="-99"/>
        </Node>
        <Node pos="r" depth="1" NCoef="0" IVar="15" Cut="6.1573290824890137e+00" cType="1" res="-1.6692170174792409e-03" rms="2.1297910809516907e-01" purity="4.9946275353431702e-01" nType="0">
          <Node pos="l" depth="2" NCoef="0" IVar="-1" Cut="0.0000000000000000e+00" cType="1" res="5.2889990620315075e-03" rms="2.2450071573257446e-01" purity="4.9542543292045593e-01" nType="-99"/>
          <Node pos="r" depth="2" NCoef="0" IVar="-1" Cut="0.0000000000000000e+00" cType="1" res="-5.7536740787327290e-03" rms="2.0622119307518005e-01" purity="5.0168436765670776e-01" nType="-99"/>
        </Node>
      </Node>
    </BinaryTree>
    <BinaryTree type="DecisionTree" boostWeight="1.0000000000000000e+00" itree="185">
      <Node pos="s" depth="0" NCoef="0" IVar="12" Cut="7.9020452499389648e+00" cType="1" res="1.0332297533750534e-03" rms="2.1233499050140381e-01" purity="5.0193411111831665e-01" nType="0">
        <Node pos="l" depth="1" NCoef="0" IVar="11" Cut="7.4491691589355469e+00" cType="1" res="-1.5923149185255170e-03" rms="2.1562598645687103e-01" purity="4.6487209200859070e-01" nType="0">
          <Node pos="l" depth="2" NCoef="0" IVar="-1" Cut="0.0000000000000000e+00" cType="1" res="1.6683746362105012e-03" rms="2.1429206430912018e-01" purity="5.0112396478652954e-01" nType="-99"/>
          <Node pos="r" depth="2" NCoef="0" IVar="-1" Cut="0.0000000000000000e+00" cType="1" res="-1.3533807359635830e-02" rms="2.2073428332805634e-01" purity="3.0517297983169556e-01" nType="-99"/>
        </Node>
        <Node pos="r" depth="1" NCoef="0" IVar="23" Cut="8.5802292823791504e-01" cType="1" res="1.6618942841887474e-02" rms="1.9089707732200623e-01" purity="7.2194105386734009e-01" nType="0">
          <Node pos="l" depth="2" NCoef="0" IVar="-1" Cut="0.0000000000000000e+00" cType="1" res="2.4842508137226105e-02" rms="2.5869378447532654e-01" purity="2.4331282079219818e-01" nType="-99"/>
          <Node pos="r" depth="2" NCoef="0" IVar="-1" Cut="0.0000000000000000e+00" cType="1" res="1.2985170818865299e-02" rms="1.5441749989986420e-01" purity="9.1652268171310425e-01" nType="-99"/>
        </Node>
      </Node>
    </BinaryTree>
    <BinaryTree type="DecisionTree" boostWeight="1.0000000000000000e+00" itree="186">
      <Node pos="s" depth="0" NCoef="0" IVar="27" Cut="3.8115811347961426e-01" cType="1" res="1.3067947002127767e-03" rms="2.1156002581119537e-01" purity="5.0085866451263428e-01" nType="0">
        <Node pos="l" depth="1" NCoef="0" IVar="3" Cut="3.0998342037200928e+00" cType="1" res="-1.9519623368978500e-02" rms="1.9640399515628815e-01" purity="1.6785711050033569e-01" nType="0">
          <Node pos="l" depth="2" NCoef="0" IVar="-1" Cut="0.0000000000000000e+00" cType="1" res="-1.8411571159958839e-02" rms="2.5083073973655701e-01" purity="2.7485838532447815e-01" nType="-99"/>
          <Node pos="r" depth="2" NCoef="0" IVar="-1" Cut="0.0000000000000000e+00" cType="1" res="-5.1234256476163864e-02" rms="1.0739990510046482e-02" purity="0.0000000000000000e+00" nType="-99"/>
        </Node>
        <Node pos="r" depth="1" NCoef="0" IVar="3" Cut="1.1994680166244507e+00" cType="1" res="3.3143109176307917e-03" rms="2.1285632252693176e-01" purity="5.3295755386352539e-01" nType="0">
          <Node pos="l" depth="2" NCoef="0" IVar="-1" Cut="0.0000000000000000e+00" cType="1" res="1.0206659324467182e-02" rms="2.2036223113536835e-01" purity="7.6550781726837158e-01" nType="-99"/>
          <Node pos="r" depth="2" NCoef="0" IVar="-1" Cut="0.0000000000000000e+00" cType="1" res="-7.1297807153314352e-04" rms="2.0954588055610657e-01" purity="4.3706631660461426e-01" nType="-99"/>
        </Node>
      </Node>
    </BinaryTree>
    <BinaryTree type="DecisionTree" boostWeight="1.0000000000000000e+00" itree="187">
      <Node pos="s" depth="0" NCoef="0" IVar="30" Cut="7.6208993792533875e-02" cType="1" res="-5.1058427197858691e-04" rms="2.1342027187347412e-01" purity="4.9698910117149353e-01" nType="0">
        <Node pos="l" depth="1" NCoef="0" IVar="15" Cut="5.9726643562316895e+00" cType="1" res="2.5754927191883326e-03" rms="2.1357691287994385e-01" purity="5.6266778707504272e-01" nType="0">
          <Node pos="l" depth="2" NCoef="0" IVar="-1" Cut="0.0000000000000000e+00" cType="1" res="1.0467990301549435e-02" rms="2.2617498040199280e-01" purity="5.8294266462326050e-01" nType="-99"/>
          <Node pos="r" depth="2" NCoef="0" IVar="-1" Cut="0.0000000000000000e+00" cType="1" res="-9.2770654009655118e-04" rms="2.0899583399295807e-01" purity="5.5576795339584351e-01" nType="-99"/>
        </Node>
        <Node pos="r" depth="1" NCoef="0" IVar="11" Cut="6.5798211097717285e+00" cType="1" res="-1.2156476266682148e-02" rms="2.1242466568946838e-01" purity="2.4913805723190308e-01" nType="0">
          <Node pos="l" depth="2" NCoef="0" IVar="-1" Cut="0.0000000000000000e+00" cType="1" res="-2.1839452907443047e-02" rms="2.0430941879749298e-01" purity="2.2018876671791077e-01" nType="-99"/>
          <Node pos="r" depth="2" NCoef="0" IVar="-1" Cut="0.0000000000000000e+00" cType="1" res="-2.4744903203099966e-03" rms="2.1806056797504425e-01" purity="2.7157640457153320e-01" nType="-99"/>
        </Node>
      </Node>
    </BinaryTree>
    <BinaryTree type="DecisionTree" boostWeight="1.0000000000000000e+00" itree="188">
      <Node pos="s" depth="0" NCoef="0" IVar="16" Cut="4.0256804227828979e-01" cType="1" res="3.5956388455815613e-04" rms="2.1238498389720917e-01" purity="5.0052034854888916e-01" nType="0">
        <Node pos="l" depth="1" NCoef="0" IVar="1" Cut="1.0741870880126953e+01" cType="1" res="-6.0901120305061340e-03" rms="2.2824797034263611e-01" purity="3.4303772449493408e-01" nType="0">
          <Node pos="l" depth="2" NCoef="0" IVar="-1" Cut="0.0000000000000000e+00" cType="1" res="2.7378886006772518e-03" rms="2.3050667345523834e-01" purity="3.8437151908874512e-01" nType="-99"/>
          <Node pos="r" depth="2" NCoef="0" IVar="-1" Cut="0.0000000000000000e+00" cType="1" res="-1.9962839782238007e-02" rms="2.2187837958335876e-01" purity="2.5362285971641541e-01" nType="-99"/>
        </Node>
        <Node pos="r" depth="1" NCoef="0" IVar="34" Cut="1.9852203130722046e+00" cType="1" res="6.7912586964666843e-03" rms="1.9507502019405365e-01" purity="6.5756398439407349e-01" nType="0">
          <Node pos="l" depth="2" NCoef="0" IVar="-1" Cut="0.0000000000000000e+00" cType="1" res="1.7124604433774948e-02" rms="1.7837813496589661e-01" purity="8.2860660552978516e-01" nType="-99"/>
          <Node pos="r" depth="2" NCoef="0" IVar="-1" Cut="0.0000000000000000e+00" cType="1" res="-4.5320778153836727e-03" rms="2.1505521237850189e-01" purity="4.2621284723281860e-01" nType="-99"/>
        </Node>
      </Node>
    </BinaryTree>
    <BinaryTree type="DecisionTree" boostWeight="1.0000000000000000e+00" itree="189">
      <Node pos="s" depth="0" NCoef="0" IVar="24" Cut="9.0480107069015503e-01" cType="1" res="-1.2183391954749823e-03" rms="2.0930296182632446e-01" purity="4.9776759743690491e-01" nType="0">
        <Node pos="l" depth="1" NCoef="0" IVar="3" Cut="7.2473597526550293e-01" cType="1" res="-8.0606099218130112e-03" rms="2.1006329357624054e-01" purity="2.9378309845924377e-01" nType="0">
          <Node pos="l" depth="2" NCoef="0" IVar="-1" Cut="0.0000000000000000e+00" cType="1" res="9.6505396068096161e-03" rms="2.6470398902893066e-01" purity="6.1850768327713013e-01" nType="-99"/>
          <Node pos="r" depth="2" NCoef="0" IVar="-1" Cut="0.0000000000000000e+00" cType="1" res="-9.8541062325239182e-03" rms="2.0405642688274384e-01" purity="2.6334983110427856e-01" nType="-99"/>
        </Node>
        <Node pos="r" depth="1" NCoef="0" IVar="19" Cut="-4.5537567138671875e-01" cType="1" res="4.8419511877000332e-03" rms="2.0843972265720367e-01" purity="6.7843943834304810e-01" nType="0">
          <Node pos="l" depth="2" NCoef="0" IVar="-1" Cut="0.0000000000000000e+00" cType="1" res="2.1353552117943764e-02" rms="2.1441182494163513e-01" purity="6.4914190769195557e-01" nType="-99"/>
          <Node pos="r" depth="2" NCoef="0" IVar="-1" Cut="0.0000000000000000e+00" cType="1" res="1.5878287376835942e-03" rms="2.0738303661346436e-01" purity="6.8270123004913330e-01" nType="-99"/>
        </Node>
      </Node>
    </BinaryTree>
    <BinaryTree type="DecisionTree" boostWeight="1.0000000000000000e+00" itree="190">
      <Node pos="s" depth="0" NCoef="0" IVar="27" Cut="1.9228981435298920e-01" cType="1" res="-3.1571378349326551e-04" rms="2.1088705956935883e-01" purity="5.0345265865325928e-01" nType="0">
        <Node pos="l" depth="1" NCoef="0" IVar="-1" Cut="0.0000000000000000e+00" cType="1" res="-3.3633280545473099e-02" rms="1.7911598086357117e-01" purity="1.5579707920551300e-01" nType="-99"/>
        <Node pos="r" depth="1" NCoef="0" IVar="6" Cut="6.3167829513549805e+00" cType="1" res="1.1070290347561240e-03" rms="2.1216066181659698e-01" purity="5.1983213424682617e-01" nType="0">
          <Node pos="l" depth="2" NCoef="0" IVar="-1" Cut="0.0000000000000000e+00" cType="1" res="4.3440754525363445e-03" rms="2.1576070785522461e-01" purity="5.4207116365432739e-01" nType="-99"/>
          <Node pos="r" depth="2" NCoef="0" IVar="-1" Cut="0.0000000000000000e+00" cType="1" res="-8.5999136790633202e-03" rms="2.0122781395912170e-01" purity="4.5692798495292664e-01" nType="-99"/>
        </Node>
      </Node>
    </BinaryTree>
    <BinaryTree type="DecisionTree" boostWeight="1.0000000000000000e+00" itree="191">
      <Node pos="s" depth="0" NCoef="0" IVar="18" Cut="-5.2724021911621094e+01" cType="1" res="-1.1446708231233060e-04" rms="2.1142123639583588e-01" purity="5.0022321939468384e-01" nType="0">
        <Node pos="l" depth="1" NCoef="0" IVar="1" Cut="7.2433085441589355e+00" cType="1" res="1.9623637199401855e-02" rms="1.5055117011070251e-01" purity="9.2033064365386963e-01" nType="0">
          <Node pos="l" depth="2" NCoef="0" IVar="-1" Cut="0.0000000000000000e+00" cType="1" res="5.1147859543561935e-02" rms="1.3614094257354736e-01" purity="9.6220427751541138e-01" nType="-99"/>
          <Node pos="r" depth="2" NCoef="0" IVar="-1" Cut="0.0000000000000000e+00" cType="1" res="1.1514646001160145e-02" rms="1.6072884202003479e-01" purity="8.8562315702438354e-01" nType="-99"/>
        </Node>
        <Node pos="r" depth="1" NCoef="0" IVar="19" Cut="-4.9700365066528320e+00" cType="1" res="-2.1136696450412273e-03" rms="2.1653442084789276e-01" purity="4.5767194032669067e-01" nType="0">
          <Node pos="l" depth="2" NCoef="0" IVar="-1" Cut="0.0000000000000000e+00" cType="1" res="1.6141448169946671e-02" rms="2.1167124807834625e-01" purity="3.9940950274467468e-01" nType="-99"/>
          <Node pos="r" depth="2" NCoef="0" IVar="-1" Cut="0.0000000000000000e+00" cType="1" res="-3.5692143719643354e-03" rms="2.1693581342697144e-01" purity="4.6381968259811401e-01" nType="-99"/>
        </Node>
      </Node>
    </BinaryTree>
    <BinaryTree type="DecisionTree" boostWeight="1.0000000000000000e+00" itree="192">
      <Node pos="s" depth="0" NCoef="0" IVar="10" Cut="8.2491712570190430e+00" cType="1" res="4.4693096424452960e-04" rms="2.1369852125644684e-01" purity="5.0062882900238037e-01" nType="0">
        <Node pos="l" depth="1" NCoef="0" IVar="9" Cut="1.8087589263916016e+01" cType="1" res="-7.4624421540647745e-04" rms="2.1328292787075043e-01" purity="5.0242185592651367e-01" nType="0">
          <Node pos="l" depth="2" NCoef="0" IVar="-1" Cut="0.0000000000000000e+00" cType="1" res="2.5229621678590775e-03" rms="2.1610470116138458e-01" purity="5.1854944229125977e-01" nType="-99"/>
          <Node pos="r" depth="2" NCoef="0" IVar="-1" Cut="0.0000000000000000e+00" cType="1" res="-7.5372103601694107e-03" rms="2.0653228461742401e-01" purity="4.6595749258995056e-01" nType="-99"/>
        </Node>
        <Node pos="r" depth="1" NCoef="0" IVar="-1" Cut="0.0000000000000000e+00" cType="1" res="2.7275795117020607e-02" rms="2.2169832885265350e-01" purity="4.5627829432487488e-01" nType="-99"/>
      </Node>
    </BinaryTree>
    <BinaryTree type="DecisionTree" boostWeight="1.0000000000000000e+00" itree="193">
      <Node pos="s" depth="0" NCoef="0" IVar="6" Cut="3.5661530494689941e+00" cType="1" res="-3.4615772892720997e-04" rms="2.1270395815372467e-01" purity="5.0231879949569702e-01" nType="0">
        <Node pos="l" depth="1" NCoef="0" IVar="-1" Cut="0.0000000000000000e+00" cType="1" res="-3.1361281871795654e-02" rms="1.8210773169994354e-01" purity="8.8680811226367950e-02" nType="-99"/>
        <Node pos="r" depth="1" NCoef="0" IVar="13" Cut="7.7298331260681152e+00" cType="1" res="8.7183562573045492e-04" rms="2.1381804347038269e-01" purity="5.1984006166458130e-01" nType="0">
          <Node pos="l" depth="2" NCoef="0" IVar="-1" Cut="0.0000000000000000e+00" cType="1" res="1.2727293185889721e-02" rms="2.1307963132858276e-01" purity="4.8946133255958557e-01" nType="-99"/>
          <Node pos="r" depth="2" NCoef="0" IVar="-1" Cut="0.0000000000000000e+00" cType="1" res="-2.6154832448810339e-03" rms="2.1386823058128357e-01" purity="5.2841615676879883e-01" nType="-99"/>
        </Node>
      </Node>
    </BinaryTree>
    <BinaryTree type="DecisionTree" boostWeight="1.0000000000000000e+00" itree="194">
      <Node pos="s" depth="0" NCoef="0" IVar="24" Cut="2.3926548659801483e-01" cType="1" res="7.4769515777006745e-04" rms="2.1270316839218140e-01" purity="4.9851799011230469e-01" nType="0">
        <Node pos="l" depth="1" NCoef="0" IVar="3" Cut="3.1145503520965576e+00" cType="1" res="-2.0563395693898201e-02" rms="1.7872415482997894e-01" purity="9.9213294684886932e-02" nType="0">
          <Node pos="l" depth="2" NCoef="0" IVar="-1" Cut="0.0000000000000000e+00" cType="1" res="-2.5296587496995926e-02" rms="2.3887731134891510e-01" purity="1.7866976559162140e-01" nType="-99"/>
          <Node pos="r" depth="2" NCoef="0" IVar="-1" Cut="0.0000000000000000e+00" cType="1" res="-5.0531540066003799e-02" rms="4.7645522281527519e-03" purity="0.0000000000000000e+00" nType="-99"/>
        </Node>
        <Node pos="r" depth="1" NCoef="0" IVar="3" Cut="3.0979743003845215e+00" cType="1" res="2.3521231487393379e-03" rms="2.1495859324932098e-01" purity="5.2858006954193115e-01" nType="0">
          <Node pos="l" depth="2" NCoef="0" IVar="-1" Cut="0.0000000000000000e+00" cType="1" res="3.6590727977454662e-03" rms="2.3898024857044220e-01" purity="6.5452271699905396e-01" nType="-99"/>
          <Node pos="r" depth="2" NCoef="0" IVar="-1" Cut="0.0000000000000000e+00" cType="1" res="-5.2072428166866302e-02" rms="1.6713518649339676e-02" purity="0.0000000000000000e+00" nType="-99"/>
        </Node>
      </Node>
    </BinaryTree>
    <BinaryTree type="DecisionTree" boostWeight="1.0000000000000000e+00" itree="195">
      <Node pos="s" depth="0" NCoef="0" IVar="24" Cut="3.3433175086975098e-01" cType="1" res="1.8488775822333992e-04" rms="2.1144339442253113e-01" purity="5.0514268875122070e-01" nType="0">
        <Node pos="l" depth="1" NCoef="0" IVar="23" Cut="7.6305341720581055e-01" cType="1" res="-1.5979947522282600e-02" rms="1.8596629798412323e-01" purity="1.2660263478755951e-01" nType="0">
          <Node pos="l" depth="2" NCoef="0" IVar="-1" Cut="0.0000000000000000e+00" cType="1" res="-1.5308541245758533e-02" rms="1.3635523617267609e-01" purity="2.9969304800033569e-02" nType="-99"/>
          <Node pos="r" depth="2" NCoef="0" IVar="-1" Cut="0.0000000000000000e+00" cType="1" res="-2.1969329565763474e-02" rms="2.6724737882614136e-01" purity="3.5222539305686951e-01" nType="-99"/>
        </Node>
        <Node pos="r" depth="1" NCoef="0" IVar="19" Cut="-1.1693752288818359e+01" cType="1" res="2.2113560698926449e-03" rms="2.1433787047863007e-01" purity="5.5259752273559570e-01" nType="0">
          <Node pos="l" depth="2" NCoef="0" IVar="-1" Cut="0.0000000000000000e+00" cType="1" res="3.0836131423711777e-02" rms="2.2301292419433594e-01" purity="6.5450638532638550e-01" nType="-99"/>
          <Node pos="r" depth="2" NCoef="0" IVar="-1" Cut="0.0000000000000000e+00" cType="1" res="5.3633045172318816e-04" rms="2.1378973126411438e-01" purity="5.4779815673828125e-01" nType="-99"/>
        </Node>
      </Node>
    </BinaryTree>
    <BinaryTree type="DecisionTree" boostWeight="1.0000000000000000e+00" itree="196">
      <Node pos="s" depth="0" NCoef="0" IVar="16" Cut="3.3051595091819763e-01" cType="1" res="-1.9843271002173424e-03" rms="2.1050535142421722e-01" purity="4.9709868431091309e-01" nType="0">
        <Node pos="l" depth="1" NCoef="0" IVar="6" Cut="5.2448534965515137e+00" cType="1" res="-1.2632504105567932e-02" rms="2.2736831009387970e-01" purity="2.5232177972793579e-01" nType="0">
          <Node pos="l" depth="2" NCoef="0" IVar="-1" Cut="0.0000000000000000e+00" cType="1" res="8.0199716612696648e-03" rms="2.2763672471046448e-01" purity="3.1419613957405090e-01" nType="-99"/>
          <Node pos="r" depth="2" NCoef="0" IVar="-1" Cut="0.0000000000000000e+00" cType="1" res="-1.9180074334144592e-02" rms="2.2625356912612915e-01" purity="2.1712088584899902e-01" nType="-99"/>
        </Node>
        <Node pos="r" depth="1" NCoef="0" IVar="34" Cut="1.9847314357757568e+00" cType="1" res="2.7068606577813625e-03" rms="2.0245368778705597e-01" purity="6.0493820905685425e-01" nType="0">
          <Node pos="l" depth="2" NCoef="0" IVar="-1" Cut="0.0000000000000000e+00" cType="1" res="9.7955279052257538e-03" rms="1.9302792847156525e-01" purity="7.6296114921569824e-01" nType="-99"/>
          <Node pos="r" depth="2" NCoef="0" IVar="-1" Cut="0.0000000000000000e+00" cType="1" res="-6.1634369194507599e-03" rms="2.1401692926883698e-01" purity="3.9401307702064514e-01" nType="-99"/>
        </Node>
      </Node>
    </BinaryTree>
    <BinaryTree type="DecisionTree" boostWeight="1.0000000000000000e+00" itree="197">
      <Node pos="s" depth="0" NCoef="0" IVar="17" Cut="5.4161102294921875e+01" cType="1" res="-3.7035840796306729e-04" rms="2.1053014695644379e-01" purity="4.9809122085571289e-01" nType="0">
        <Node pos="l" depth="1" NCoef="0" IVar="23" Cut="9.5237636566162109e-01" cType="1" res="-1.9094207091256976e-03" rms="2.1469204127788544e-01" purity="4.6707981824874878e-01" nType="0">
          <Node pos="l" depth="2" NCoef="0" IVar="-1" Cut="0.0000000000000000e+00" cType="1" res="-4.3153883889317513e-03" rms="2.3535154759883881e-01" purity="2.7120757102966309e-01" nType="-99"/>
          <Node pos="r" depth="2" NCoef="0" IVar="-1" Cut="0.0000000000000000e+00" cType="1" res="1.0282400064170361e-02" rms="1.5646155178546906e-01" purity="9.1994392871856689e-01" nType="-99"/>
        </Node>
        <Node pos="r" depth="1" NCoef="0" IVar="-1" Cut="0.0000000000000000e+00" cType="1" res="2.9012089595198631e-02" rms="1.3766336441040039e-01" purity="9.3390554189682007e-01" nType="-99"/>
      </Node>
    </BinaryTree>
    <BinaryTree type="DecisionTree" boostWeight="1.0000000000000000e+00" itree="198">
      <Node pos="s" depth="0" NCoef="0" IVar="11" Cut="7.4577131271362305e+00" cType="1" res="1.9059276673942804e-03" rms="2.1060286462306976e-01" purity="5.0135791301727295e-01" nType="0">
        <Node pos="l" depth="1" NCoef="0" IVar="10" Cut="7.3212242126464844e+00" cType="1" res="4.4293040409684181e-03" rms="2.1238458156585693e-01" purity="5.3335493803024292e-01" nType="0">
          <Node pos="l" depth="2" NCoef="0" IVar="-1" Cut="0.0000000000000000e+00" cType="1" res="9.1472910717129707e-03" rms="2.0723009109497070e-01" purity="5.5442124605178833e-01" nType="-99"/>
          <Node pos="r" depth="2" NCoef="0" IVar="-1" Cut="0.0000000000000000e+00" cType="1" res="-5.5625680834054947e-03" rms="2.2225646674633026e-01" purity="4.8982805013656616e-01" nType="-99"/>
        </Node>
        <Node pos="r" depth="1" NCoef="0" IVar="16" Cut="3.3611732721328735e-01" cType="1" res="-8.0453259870409966e-03" rms="2.0311905443668365e-01" purity="3.7517359852790833e-01" nType="0">
          <Node pos="l" depth="2" NCoef="0" IVar="-1" Cut="0.0000000000000000e+00" cType="1" res="-1.9383866339921951e-02" rms="2.0928472280502319e-01" purity="2.0788204669952393e-01" nType="-99"/>
          <Node pos="r" depth="2" NCoef="0" IVar="-1" Cut="0.0000000000000000e+00" cType="1" res="1.3223281130194664e-02" rms="1.9231502711772919e-01" purity="6.0340708494186401e-01" nType="-99"/>
        </Node>
      </Node>
    </BinaryTree>
    <BinaryTree type="DecisionTree" boostWeight="1.0000000000000000e+00" itree="199">
      <Node pos="s" depth="0" NCoef="0" IVar="3" Cut="1.9092152118682861e+00" cType="1" res="-1.2499534932430834e-04" rms="2.1139085292816162e-01" purity="4.9855521321296692e-01" nType="0">
        <Node pos="l" depth="1" NCoef="0" IVar="16" Cut="3.3071720600128174e-01" cType="1" res="5.3642205893993378e-03" rms="2.2789838910102844e-01" purity="7.1383881568908691e-01" nType="0">
          <Node pos="l" depth="2" NCoef="0" IVar="-1" Cut="0.0000000000000000e+00" cType="1" res="-3.8645812310278416e-03" rms="2.8108131885528564e-01" purity="4.2512965202331543e-01" nType="-99"/>
          <Node pos="r" depth="2" NCoef="0" IVar="-1" Cut="0.0000000000000000e+00" cType="1" res="9.0775527060031891e-03" rms="2.0445024967193604e-01" purity="8.2108104228973389e-01" nType="-99"/>
        </Node>
        <Node pos="r" depth="1" NCoef="0" IVar="29" Cut="3.6845263838768005e-01" cType="1" res="-6.2290448695421219e-03" rms="1.9118450582027435e-01" purity="2.5915816426277161e-01" nType="0">
          <Node pos="l" depth="2" NCoef="0" IVar="-1" Cut="0.0000000000000000e+00" cType="1" res="-1.3150470331311226e-03" rms="1.9713139533996582e-01" purity="3.1588789820671082e-01" nType="-99"/>
          <Node pos="r" depth="2" NCoef="0" IVar="-1" Cut="0.0000000000000000e+00" cType="1" res="-2.2712463513016701e-02" rms="1.7615908384323120e-01" purity="1.2827450037002563e-01" nType="-99"/>
        </Node>
      </Node>
    </BinaryTree>
    <BinaryTree type="DecisionTree" boostWeight="1.0000000000000000e+00" itree="200">
      <Node pos="s" depth="0" NCoef="0" IVar="19" Cut="-1.1360452651977539e+01" cType="1" res="3.1377017148770392e-04" rms="2.0906376838684082e-01" purity="5.0303351879119873e-01" nType="0">
        <Node pos="l" depth="1" NCoef="0" IVar="11" Cut="6.7931051254272461e+00" cType="1" res="2.5037070736289024e-02" rms="2.0560140907764435e-01" purity="5.4366451501846313e-01" nType="0">
          <Node pos="l" depth="2" NCoef="0" IVar="-1" Cut="0.0000000000000000e+00" cType="1" res="1.3919751159846783e-02" rms="1.9208908081054688e-01" purity="5.3873431682586670e-01" nType="-99"/>
          <Node pos="r" depth="2" NCoef="0" IVar="-1" Cut="0.0000000000000000e+00" cType="1" res="3.3850263804197311e-02" rms="2.1650679409503937e-01" purity="5.4808479547500610e-01" nType="-99"/>
        </Node>
        <Node pos="r" depth="1" NCoef="0" IVar="17" Cut="3.3701957702636719e+01" cType="1" res="-1.1320937192067504e-03" rms="2.0917405188083649e-01" purity="5.0065732002258301e-01" nType="0">
          <Node pos="l" depth="2" NCoef="0" IVar="-1" Cut="0.0000000000000000e+00" cType="1" res="-3.8959269877523184e-03" rms="2.1477289497852325e-01" purity="4.0834715962409973e-01" nType="-99"/>
          <Node pos="r" depth="2" NCoef="0" IVar="-1" Cut="0.0000000000000000e+00" cType="1" res="9.9129825830459595e-03" rms="1.8872769176959991e-01" purity="8.1084203720092773e-01" nType="-99"/>
        </Node>
      </Node>
    </BinaryTree>
    <BinaryTree type="DecisionTree" boostWeight="1.0000000000000000e+00" itree="201">
      <Node pos="s" depth="0" NCoef="0" IVar="4" Cut="6.9389891624450684e+00" cType="1" res="1.2800171680282801e-04" rms="2.1060603857040405e-01" purity="4.9992048740386963e-01" nType="0">
        <Node pos="l" depth="1" NCoef="0" IVar="5" Cut="3.9890124797821045e+00" cType="1" res="-9.6307828789576888e-04" rms="2.1049298346042633e-01" purity="5.0594067573547363e-01" nType="0">
          <Node pos="l" depth="2" NCoef="0" IVar="-1" Cut="0.0000000000000000e+00" cType="1" res="1.3413459528237581e-03" rms="2.1106420457363129e-01" purity="5.3836095333099365e-01" nType="-99"/>
          <Node pos="r" depth="2" NCoef="0" IVar="-1" Cut="0.0000000000000000e+00" cType="1" res="-2.8790852054953575e-02" rms="2.0256079733371735e-01" purity="1.6453345119953156e-01" nType="-99"/>
        </Node>
        <Node pos="r" depth="1" NCoef="0" IVar="-1" Cut="0.0000000000000000e+00" cType="1" res="2.9932597652077675e-02" rms="2.1142420172691345e-01" purity="3.2544279098510742e-01" nType="-99"/>
      </Node>
    </BinaryTree>
    <BinaryTree type="DecisionTree" boostWeight="1.0000000000000000e+00" itree="202">
      <Node pos="s" depth="0" NCoef="0" IVar="17" Cut="2.4439611434936523e+01" cType="1" res="-1.0855488944798708e-03" rms="2.1051226556301117e-01" purity="4.9960154294967651e-01" nType="0">
        <Node pos="l" depth="1" NCoef="0" IVar="6" Cut="3.7323226928710938e+00" cType="1" res="-5.3075482137501240e-03" rms="2.1408775448799133e-01" purity="3.4687116742134094e-01" nType="0">
          <Node pos="l" depth="2" NCoef="0" IVar="-1" Cut="0.0000000000000000e+00" cType="1" res="-3.2973725348711014e-02" rms="1.7211590707302094e-01" purity="7.0344954729080200e-02" nType="-99"/>
          <Node pos="r" depth="2" NCoef="0" IVar="-1" Cut="0.0000000000000000e+00" cType="1" res="-2.8586355037987232e-03" rms="2.1759682893753052e-01" purity="3.7349790334701538e-01" nType="-99"/>
        </Node>
        <Node pos="r" depth="1" NCoef="0" IVar="1" Cut="1.5360233306884766e+01" cType="1" res="5.4638339206576347e-03" rms="2.0467002689838409e-01" purity="7.3652493953704834e-01" nType="0">
          <Node pos="l" depth="2" NCoef="0" IVar="-1" Cut="0.0000000000000000e+00" cType="1" res="9.0198582038283348e-03" rms="2.0733961462974548e-01" purity="7.6366049051284790e-01" nType="-99"/>
          <Node pos="r" depth="2" NCoef="0" IVar="-1" Cut="0.0000000000000000e+00" cType="1" res="-1.2477438896894455e-02" rms="1.9055724143981934e-01" purity="6.1030966043472290e-01" nType="-99"/>
        </Node>
      </Node>
    </BinaryTree>
    <BinaryTree type="DecisionTree" boostWeight="1.0000000000000000e+00" itree="203">
      <Node pos="s" depth="0" NCoef="0" IVar="11" Cut="6.2955803871154785e+00" cType="1" res="4.9879174912348390e-04" rms="2.1114574372768402e-01" purity="4.9915194511413574e-01" nType="0">
        <Node pos="l" depth="1" NCoef="0" IVar="1" Cut="6.3405947685241699e+00" cType="1" res="-1.0829343460500240e-02" rms="2.1052384376525879e-01" purity="4.3856748938560486e-01" nType="0">
          <Node pos="l" depth="2" NCoef="0" IVar="-1" Cut="0.0000000000000000e+00" cType="1" res="-1.6961878165602684e-02" rms="2.1125005185604095e-01" purity="3.5905262827873230e-01" nType="-99"/>
          <Node pos="r" depth="2" NCoef="0" IVar="-1" Cut="0.0000000000000000e+00" cType="1" res="3.7551387213170528e-03" rms="2.0819759368896484e-01" purity="6.0608029365539551e-01" nType="-99"/>
        </Node>
        <Node pos="r" depth="1" NCoef="0" IVar="9" Cut="3.0923385620117188e+01" cType="1" res="4.4634500518441200e-03" rms="2.1121947467327118e-01" purity="5.2035552263259888e-01" nType="0">
          <Node pos="l" depth="2" NCoef="0" IVar="-1" Cut="0.0000000000000000e+00" cType="1" res="6.6680777817964554e-03" rms="2.1469140052795410e-01" purity="5.4733258485794067e-01" nType="-99"/>
          <Node pos="r" depth="2" NCoef="0" IVar="-1" Cut="0.0000000000000000e+00" cType="1" res="-2.0899672061204910e-02" rms="1.7688792943954468e-01" purity="2.9097384214401245e-01" nType="-99"/>
        </Node>
      </Node>
    </BinaryTree>
    <BinaryTree type="DecisionTree" boostWeight="1.0000000000000000e+00" itree="204">
      <Node pos="s" depth="0" NCoef="0" IVar="11" Cut="6.4896101951599121e+00" cType="1" res="1.5419707779074088e-05" rms="2.1254777908325195e-01" purity="5.0104624032974243e-01" nType="0">
        <Node pos="l" depth="1" NCoef="0" IVar="20" Cut="-1.1435387134552002e+00" cType="1" res="-7.6229656115174294e-03" rms="2.1049942076206207e-01" purity="4.6529060602188110e-01" nType="0">
          <Node pos="l" depth="2" NCoef="0" IVar="-1" Cut="0.0000000000000000e+00" cType="1" res="-1.3873931951820850e-02" rms="2.0522518455982208e-01" purity="5.2145123481750488e-01" nType="-99"/>
          <Node pos="r" depth="2" NCoef="0" IVar="-1" Cut="0.0000000000000000e+00" cType="1" res="3.4545292146503925e-03" rms="2.1868628263473511e-01" purity="3.6990725994110107e-01" nType="-99"/>
        </Node>
        <Node pos="r" depth="1" NCoef="0" IVar="16" Cut="2.8419467806816101e-01" cType="1" res="4.1845333762466908e-03" rms="2.1354226768016815e-01" purity="5.2056211233139038e-01" nType="0">
          <Node pos="l" depth="2" NCoef="0" IVar="-1" Cut="0.0000000000000000e+00" cType="1" res="-1.1652663350105286e-02" rms="2.2321745753288269e-01" purity="2.2013567388057709e-01" nType="-99"/>
          <Node pos="r" depth="2" NCoef="0" IVar="-1" Cut="0.0000000000000000e+00" cType="1" res="8.3553474396467209e-03" rms="2.1045564115047455e-01" purity="6.0531109571456909e-01" nType="-99"/>
        </Node>
      </Node>
    </BinaryTree>
    <BinaryTree type="DecisionTree" boostWeight="1.0000000000000000e+00" itree="205">
      <Node pos="s" depth="0" NCoef="0" IVar="29" Cut="3.7357202172279358e-01" cType="1" res="2.1487339108716697e-04" rms="2.1093745529651642e-01" purity="4.9966678023338318e-01" nType="0">
        <Node pos="l" depth="1" NCoef="0" IVar="15" Cut="5.7854576110839844e+00" cType="1" res="3.4947819076478481e-03" rms="2.0854300260543823e-01" purity="5.6391739845275879e-01" nType="0">
          <Node pos="l" depth="2" NCoef="0" IVar="-1" Cut="0.0000000000000000e+00" cType="1" res="1.6654975712299347e-02" rms="2.1280883252620697e-01" purity="6.1663717031478882e-01" nType="-99"/>
          <Node pos="r" depth="2" NCoef="0" IVar="-1" Cut="0.0000000000000000e+00" cType="1" res="1.1395030887797475e-03" rms="2.0784598588943481e-01" purity="5.5667048692703247e-01" nType="-99"/>
        </Node>
        <Node pos="r" depth="1" NCoef="0" IVar="10" Cut="7.3968105316162109e+00" cType="1" res="-9.5637496560811996e-03" rms="2.1762692928314209e-01" purity="3.0811187624931335e-01" nType="0">
          <Node pos="l" depth="2" NCoef="0" IVar="-1" Cut="0.0000000000000000e+00" cType="1" res="-3.4563424997031689e-03" rms="2.1866521239280701e-01" purity="3.5360530018806458e-01" nType="-99"/>
          <Node pos="r" depth="2" NCoef="0" IVar="-1" Cut="0.0000000000000000e+00" cType="1" res="-2.0095035433769226e-02" rms="2.1462441980838776e-01" purity="2.0149615406990051e-01" nType="-99"/>
        </Node>
      </Node>
    </BinaryTree>
    <BinaryTree type="DecisionTree" boostWeight="1.0000000000000000e+00" itree="206">
      <Node pos="s" depth="0" NCoef="0" IVar="20" Cut="-5.5353469848632812e+01" cType="1" res="4.6296851360239089e-04" rms="2.1146856248378754e-01" purity="4.9866855144500732e-01" nType="0">
        <Node pos="l" depth="1" NCoef="0" IVar="-1" Cut="0.0000000000000000e+00" cType="1" res="3.5595353692770004e-02" rms="1.2624810636043549e-01" purity="9.4247794151306152e-01" nType="-99"/>
        <Node pos="r" depth="1" NCoef="0" IVar="30" Cut="7.6186634600162506e-02" cType="1" res="-8.6117157479748130e-04" rms="2.1585011482238770e-01" purity="4.6935984492301941e-01" nType="0">
          <Node pos="l" depth="2" NCoef="0" IVar="-1" Cut="0.0000000000000000e+00" cType="1" res="1.5773500781506300e-03" rms="2.1740537881851196e-01" purity="5.3338414430618286e-01" nType="-99"/>
          <Node pos="r" depth="2" NCoef="0" IVar="-1" Cut="0.0000000000000000e+00" cType="1" res="-9.2980479821562767e-03" rms="2.0989067852497101e-01" purity="2.3935696482658386e-01" nType="-99"/>
        </Node>
      </Node>
    </BinaryTree>
    <BinaryTree type="DecisionTree" boostWeight="1.0000000000000000e+00" itree="207">
      <Node pos="s" depth="0" NCoef="0" IVar="21" Cut="8.6929368972778320e+00" cType="1" res="1.4562937431037426e-03" rms="2.1282790601253510e-01" purity="5.0105440616607666e-01" nType="0">
        <Node pos="l" depth="1" NCoef="0" IVar="11" Cut="7.3313012123107910e+00" cType="1" res="-5.9643648564815521e-03" rms="2.1821911633014679e-01" purity="2.9905599355697632e-01" nType="0">
          <Node pos="l" depth="2" NCoef="0" IVar="-1" Cut="0.0000000000000000e+00" cType="1" res="-1.9437769660726190e-03" rms="2.2279393672943115e-01" purity="3.4232467412948608e-01" nType="-99"/>
          <Node pos="r" depth="2" NCoef="0" IVar="-1" Cut="0.0000000000000000e+00" cType="1" res="-1.6749780625104904e-02" rms="2.0265784859657288e-01" purity="1.6238889098167419e-01" nType="-99"/>
        </Node>
        <Node pos="r" depth="1" NCoef="0" IVar="7" Cut="2.6914746761322021e+00" cType="1" res="5.1075201481580734e-03" rms="2.1002824604511261e-01" purity="6.0044479370117188e-01" nType="0">
          <Node pos="l" depth="2" NCoef="0" IVar="-1" Cut="0.0000000000000000e+00" cType="1" res="7.0153027772903442e-03" rms="2.1771019697189331e-01" purity="7.0914584398269653e-01" nType="-99"/>
          <Node pos="r" depth="2" NCoef="0" IVar="-1" Cut="0.0000000000000000e+00" cType="1" res="-9.0371631085872650e-03" rms="1.7617303133010864e-01" purity="1.7385280132293701e-01" nType="-99"/>
        </Node>
      </Node>
    </BinaryTree>
    <BinaryTree type="DecisionTree" boostWeight="1.0000000000000000e+00" itree="208">
      <Node pos="s" depth="0" NCoef="0" IVar="25" Cut="5.0738131999969482e-01" cType="1" res="8.3012203685939312e-04" rms="2.0863759517669678e-01" purity="5.0159627199172974e-01" nType="0">
        <Node pos="l" depth="1" NCoef="0" IVar="16" Cut="3.6833703517913818e-01" cType="1" res="2.5911480188369751e-03" rms="2.1032319962978363e-01" purity="5.3732466697692871e-01" nType="0">
          <Node pos="l" depth="2" NCoef="0" IVar="-1" Cut="0.0000000000000000e+00" cType="1" res="-3.7213093601167202e-03" rms="2.3133863508701324e-01" purity="3.2097509503364563e-01" nType="-99"/>
          <Node pos="r" depth="2" NCoef="0" IVar="-1" Cut="0.0000000000000000e+00" cType="1" res="8.1037078052759171e-03" rms="1.9416336715221405e-01" purity="6.8814396858215332e-01" nType="-99"/>
        </Node>
        <Node pos="r" depth="1" NCoef="0" IVar="16" Cut="3.6351612210273743e-01" cType="1" res="-1.6671113669872284e-02" rms="1.9019518792629242e-01" purity="1.4652389287948608e-01" nType="0">
          <Node pos="l" depth="2" NCoef="0" IVar="-1" Cut="0.0000000000000000e+00" cType="1" res="-4.9748448655009270e-03" rms="1.6423636674880981e-01" purity="8.5518665611743927e-02" nType="-99"/>
          <Node pos="r" depth="2" NCoef="0" IVar="-1" Cut="0.0000000000000000e+00" cType="1" res="-2.5911746546626091e-02" rms="2.0856794714927673e-01" purity="1.9686959683895111e-01" nType="-99"/>
        </Node>
      </Node>
    </BinaryTree>
    <BinaryTree type="DecisionTree" boostWeight="1.0000000000000000e+00" itree="209">
      <Node pos="s" depth="0" NCoef="0" IVar="27" Cut="7.6167571544647217e-01" cType="1" res="4.5619142474606633e-04" rms="2.1369071304798126e-01" purity="5.0221240520477295e-01" nType="0">
        <Node pos="l" depth="1" NCoef="0" IVar="23" Cut="7.6227825880050659e-01" cType="1" res="-9.2241838574409485e-03" rms="2.0776543021202087e-01" purity="1.9996613264083862e-01" nType="0">
          <Node pos="l" depth="2" NCoef="0" IVar="-1" Cut="0.0000000000000000e+00" cType="1" res="-1.7156626563519239e-04" rms="1.7804470658302307e-01" purity="5.7061158120632172e-02" nType="-99"/>
          <Node pos="r" depth="2" NCoef="0" IVar="-1" Cut="0.0000000000000000e+00" cType="1" res="-1.8281454220414162e-02" rms="2.5400283932685852e-01" purity="4.7175741195678711e-01" nType="-99"/>
        </Node>
        <Node pos="r" depth="1" NCoef="0" IVar="15" Cut="6.1361589431762695e+00" cType="1" res="3.2660239376127720e-03" rms="2.1529857814311981e-01" purity="5.8994269371032715e-01" nType="0">
          <Node pos="l" depth="2" NCoef="0" IVar="-1" Cut="0.0000000000000000e+00" cType="1" res="9.6318395808339119e-03" rms="2.2801260650157928e-01" purity="5.8939665555953979e-01" nType="-99"/>
          <Node pos="r" depth="2" NCoef="0" IVar="-1" Cut="0.0000000000000000e+00" cType="1" res="-1.1117514222860336e-03" rms="2.0853134989738464e-01" purity="5.9021472930908203e-01" nType="-99"/>
        </Node>
      </Node>
    </BinaryTree>
    <BinaryTree type="DecisionTree" boostWeight="1.0000000000000000e+00" itree="210">
      <Node pos="s" depth="0" NCoef="0" IVar="23" Cut="1.9139173626899719e-01" cType="1" res="3.3699843334034085e-04" rms="2.0981264114379883e-01" purity="5.0132530927658081e-01" nType="0">
        <Node pos="l" depth="1" NCoef="0" IVar="27" Cut="9.0463143587112427e-01" cType="1" res="-2.0936714485287666e-02" rms="1.5324012935161591e-01" purity="4.1217837482690811e-02" nType="0">
          <Node pos="l" depth="2" NCoef="0" IVar="-1" Cut="0.0000000000000000e+00" cType="1" res="-1.3131725601851940e-02" rms="1.3658125698566437e-01" purity="2.9084125533699989e-02" nType="-99"/>
          <Node pos="r" depth="2" NCoef="0" IVar="-1" Cut="0.0000000000000000e+00" cType="1" res="-3.4939900040626526e-02" rms="1.7171205580234528e-01" purity="5.7867426425218582e-02" nType="-99"/>
        </Node>
        <Node pos="r" depth="1" NCoef="0" IVar="24" Cut="9.0471374988555908e-01" cType="1" res="1.7712342087179422e-03" rms="2.1301047503948212e-01" purity="5.3234499692916870e-01" nType="0">
          <Node pos="l" depth="2" NCoef="0" IVar="-1" Cut="0.0000000000000000e+00" cType="1" res="-3.6886115558445454e-03" rms="2.1606269478797913e-01" purity="3.3097377419471741e-01" nType="-99"/>
          <Node pos="r" depth="2" NCoef="0" IVar="-1" Cut="0.0000000000000000e+00" cType="1" res="6.1347139999270439e-03" rms="2.1022130548954010e-01" purity="7.0541203022003174e-01" nType="-99"/>
        </Node>
      </Node>
    </BinaryTree>
    <BinaryTree type="DecisionTree" boostWeight="1.0000000000000000e+00" itree="211">
      <Node pos="s" depth="0" NCoef="0" IVar="23" Cut="9.5238322019577026e-01" cType="1" res="-1.0419361060485244e-03" rms="2.0875850319862366e-01" purity="4.9922269582748413e-01" nType="0">
        <Node pos="l" depth="1" NCoef="0" IVar="13" Cut="8.0197935104370117e+00" cType="1" res="-5.0527467392385006e-03" rms="2.3404610157012939e-01" purity="2.8584989905357361e-01" nType="0">
          <Node pos="l" depth="2" NCoef="0" IVar="-1" Cut="0.0000000000000000e+00" cType="1" res="3.5347454249858856e-03" rms="2.2863133251667023e-01" purity="3.2685816287994385e-01" nType="-99"/>
          <Node pos="r" depth="2" NCoef="0" IVar="-1" Cut="0.0000000000000000e+00" cType="1" res="-9.0300710871815681e-03" rms="2.3787932097911835e-01" purity="2.5421091914176941e-01" nType="-99"/>
        </Node>
        <Node pos="r" depth="1" NCoef="0" IVar="16" Cut="3.6891320347785950e-01" cType="1" res="7.0525961928069592e-03" rms="1.4451174437999725e-01" purity="9.2984706163406372e-01" nType="0">
          <Node pos="l" depth="2" NCoef="0" IVar="-1" Cut="0.0000000000000000e+00" cType="1" res="3.0129257589578629e-02" rms="1.7342908680438995e-01" purity="9.1256165504455566e-01" nType="-99"/>
          <Node pos="r" depth="2" NCoef="0" IVar="-1" Cut="0.0000000000000000e+00" cType="1" res="1.2011784128844738e-03" rms="1.3544538617134094e-01" purity="9.3422847986221313e-01" nType="-99"/>
        </Node>
      </Node>
    </BinaryTree>
    <BinaryTree type="DecisionTree" boostWeight="1.0000000000000000e+00" itree="212">
      <Node pos="s" depth="0" NCoef="0" IVar="3" Cut="1.4358533620834351e+00" cType="1" res="-8.5851486073806882e-04" rms="2.0945219695568085e-01" purity="4.9625188112258911e-01" nType="0">
        <Node pos="l" depth="1" NCoef="0" IVar="13" Cut="8.0272941589355469e+00" cType="1" res="7.6749147847294807e-03" rms="2.2402125597000122e-01" purity="7.3777103424072266e-01" nType="0">
          <Node pos="l" depth="2" NCoef="0" IVar="-1" Cut="0.0000000000000000e+00" cType="1" res="1.6140753403306007e-02" rms="2.3135867714881897e-01" purity="7.8894567489624023e-01" nType="-99"/>
          <Node pos="r" depth="2" NCoef="0" IVar="-1" Cut="0.0000000000000000e+00" cType="1" res="6.4949534134939313e-04" rms="2.2003331780433655e-01" purity="7.1286207437515259e-01" nType="-99"/>
        </Node>
        <Node pos="r" depth="1" NCoef="0" IVar="28" Cut="9.5229518413543701e-01" cType="1" res="-5.8163865469396114e-03" rms="2.0033517479896545e-01" purity="3.5593071579933167e-01" nType="0">
          <Node pos="l" depth="2" NCoef="0" IVar="-1" Cut="0.0000000000000000e+00" cType="1" res="-9.5498999580740929e-03" rms="1.9998627901077271e-01" purity="2.7737694978713989e-01" nType="-99"/>
          <Node pos="r" depth="2" NCoef="0" IVar="-1" Cut="0.0000000000000000e+00" cType="1" res="8.8700195774435997e-03" rms="2.0103864371776581e-01" purity="6.6658836603164673e-01" nType="-99"/>
        </Node>
      </Node>
    </BinaryTree>
    <BinaryTree type="DecisionTree" boostWeight="1.0000000000000000e+00" itree="213">
      <Node pos="s" depth="0" NCoef="0" IVar="11" Cut="6.1023688316345215e+00" cType="1" res="-1.3385545462369919e-03" rms="2.0830602943897247e-01" purity="4.9711036682128906e-01" nType="0">
        <Node pos="l" depth="1" NCoef="0" IVar="26" Cut="9.3321584165096283e-02" cType="1" res="-1.4030680060386658e-02" rms="2.1110977232456207e-01" purity="4.0434998273849487e-01" nType="0">
          <Node pos="l" depth="2" NCoef="0" IVar="-1" Cut="0.0000000000000000e+00" cType="1" res="-2.1339690312743187e-02" rms="2.1185928583145142e-01" purity="4.4426012039184570e-01" nType="-99"/>
          <Node pos="r" depth="2" NCoef="0" IVar="-1" Cut="0.0000000000000000e+00" cType="1" res="9.3557760119438171e-03" rms="2.0708221197128296e-01" purity="2.9175177216529846e-01" nType="-99"/>
        </Node>
        <Node pos="r" depth="1" NCoef="0" IVar="9" Cut="1.8048755645751953e+01" cType="1" res="1.3982970267534256e-03" rms="2.0759481191635132e-01" purity="5.1711255311965942e-01" nType="0">
          <Node pos="l" depth="2" NCoef="0" IVar="-1" Cut="0.0000000000000000e+00" cType="1" res="5.4249251261353493e-03" rms="2.1325421333312988e-01" purity="5.5163270235061646e-01" nType="-99"/>
          <Node pos="r" depth="2" NCoef="0" IVar="-1" Cut="0.0000000000000000e+00" cType="1" res="-6.6888267174363136e-03" rms="1.9579978287220001e-01" purity="4.4975784420967102e-01" nType="-99"/>
        </Node>
      </Node>
    </BinaryTree>
    <BinaryTree type="DecisionTree" boostWeight="1.0000000000000000e+00" itree="214">
      <Node pos="s" depth="0" NCoef="0" IVar="5" Cut="8.4846048355102539e+00" cType="1" res="-6.1937396822031587e-05" rms="2.0912206172943115e-01" purity="5.0055712461471558e-01" nType="0">
        <Node pos="l" depth="1" NCoef="0" IVar="12" Cut="7.9131841659545898e+00" cType="1" res="1.0219282703474164e-03" rms="2.1037898957729340e-01" purity="5.1767122745513916e-01" nType="0">
          <Node pos="l" depth="2" NCoef="0" IVar="-1" Cut="0.0000000000000000e+00" cType="1" res="-1.0247987229377031e-03" rms="2.1477112174034119e-01" purity="4.7885164618492126e-01" nType="-99"/>
          <Node pos="r" depth="2" NCoef="0" IVar="-1" Cut="0.0000000000000000e+00" cType="1" res="1.7157651484012604e-02" rms="1.8067106604576111e-01" purity="7.5484228134155273e-01" nType="-99"/>
        </Node>
        <Node pos="r" depth="1" NCoef="0" IVar="-1" Cut="0.0000000000000000e+00" cType="1" res="-3.2329700887203217e-02" rms="1.7622609436511993e-01" purity="1.0985822975635529e-01" nType="-99"/>
      </Node>
    </BinaryTree>
    <BinaryTree type="DecisionTree" boostWeight="1.0000000000000000e+00" itree="215">
      <Node pos="s" depth="0" NCoef="0" IVar="17" Cut="3.8725769042968750e+01" cType="1" res="-1.0085896356031299e-03" rms="2.0785291492938995e-01" purity="4.9840465188026428e-01" nType="0">
        <Node pos="l" depth="1" NCoef="0" IVar="16" Cut="4.0228804945945740e-01" cType="1" res="-3.3893866930156946e-03" rms="2.1405521035194397e-01" purity="4.2445695400238037e-01" nType="0">
          <Node pos="l" depth="2" NCoef="0" IVar="-1" Cut="0.0000000000000000e+00" cType="1" res="-7.2639789432287216e-03" rms="2.2433084249496460e-01" purity="2.5089871883392334e-01" nType="-99"/>
          <Node pos="r" depth="2" NCoef="0" IVar="-1" Cut="0.0000000000000000e+00" cType="1" res="1.9136520568281412e-03" rms="2.0322875678539276e-01" purity="5.9629660844802856e-01" nType="-99"/>
        </Node>
        <Node pos="r" depth="1" NCoef="0" IVar="18" Cut="-6.0872192382812500e+00" cType="1" res="1.0385736823081970e-02" rms="1.7470563948154449e-01" purity="8.5231328010559082e-01" nType="0">
          <Node pos="l" depth="2" NCoef="0" IVar="-1" Cut="0.0000000000000000e+00" cType="1" res="7.4945245869457722e-03" rms="1.6134126484394073e-01" purity="8.7737441062927246e-01" nType="-99"/>
          <Node pos="r" depth="2" NCoef="0" IVar="-1" Cut="0.0000000000000000e+00" cType="1" res="2.2223971784114838e-02" rms="2.1950489282608032e-01" purity="7.5138854980468750e-01" nType="-99"/>
        </Node>
      </Node>
    </BinaryTree>
    <BinaryTree type="DecisionTree" boostWeight="1.0000000000000000e+00" itree="216">
      <Node pos="s" depth="0" NCoef="0" IVar="14" Cut="9.0178985595703125e+00" cType="1" res="-1.7318429891020060e-03" rms="2.0834480226039886e-01" purity="4.9423727393150330e-01" nType="0">
        <Node pos="l" depth="1" NCoef="0" IVar="10" Cut="7.3111991882324219e+00" cType="1" res="-3.7743740249425173e-03" rms="2.0987848937511444e-01" purity="4.8652848601341248e-01" nType="0">
          <Node pos="l" depth="2" NCoef="0" IVar="-1" Cut="0.0000000000000000e+00" cType="1" res="3.6366155836731195e-04" rms="2.0537829399108887e-01" purity="5.0853633880615234e-01" nType="-99"/>
          <Node pos="r" depth="2" NCoef="0" IVar="-1" Cut="0.0000000000000000e+00" cType="1" res="-1.1326327919960022e-02" rms="2.1957398951053619e-01" purity="4.3595048785209656e-01" nType="-99"/>
        </Node>
        <Node pos="r" depth="1" NCoef="0" IVar="7" Cut="2.5149600505828857e+00" cType="1" res="1.5003035776317120e-02" rms="1.9451993703842163e-01" purity="5.5739641189575195e-01" nType="0">
          <Node pos="l" depth="2" NCoef="0" IVar="-1" Cut="0.0000000000000000e+00" cType="1" res="2.4456836283206940e-02" rms="2.0069256424903870e-01" purity="7.1104586124420166e-01" nType="-99"/>
          <Node pos="r" depth="2" NCoef="0" IVar="-1" Cut="0.0000000000000000e+00" cType="1" res="-2.2436708211898804e-02" rms="1.7241385579109192e-01" purity="1.1729871481657028e-01" nType="-99"/>
        </Node>
      </Node>
    </BinaryTree>
    <BinaryTree type="DecisionTree" boostWeight="1.0000000000000000e+00" itree="217">
      <Node pos="s" depth="0" NCoef="0" IVar="23" Cut="1.4382717013359070e-01" cType="1" res="-3.3461535349488258e-04" rms="2.1042972803115845e-01" purity="4.9750068783760071e-01" nType="0">
        <Node pos="l" depth="1" NCoef="0" IVar="-1" Cut="0.0000000000000000e+00" cType="1" res="-3.1581852585077286e-02" rms="1.4556893706321716e-01" purity="3.4616775810718536e-02" nType="-99"/>
        <Node pos="r" depth="1" NCoef="0" IVar="24" Cut="2.3973901569843292e-01" cType="1" res="7.4819230940192938e-04" rms="2.1275697648525238e-01" purity="5.1780319213867188e-01" nType="0">
          <Node pos="l" depth="2" NCoef="0" IVar="-1" Cut="0.0000000000000000e+00" cType="1" res="-2.3166356608271599e-02" rms="1.8431319296360016e-01" purity="1.0905244946479797e-01" nType="-99"/>
          <Node pos="r" depth="2" NCoef="0" IVar="-1" Cut="0.0000000000000000e+00" cType="1" res="1.9576691556721926e-03" rms="2.1464161574840546e-01" purity="5.4802882671356201e-01" nType="-99"/>
        </Node>
      </Node>
    </BinaryTree>
    <BinaryTree type="DecisionTree" boostWeight="1.0000000000000000e+00" itree="218">
      <Node pos="s" depth="0" NCoef="0" IVar="6" Cut="3.9259374141693115e+00" cType="1" res="1.1602407321333885e-03" rms="2.1009594202041626e-01" purity="5.0531554222106934e-01" nType="0">
        <Node pos="l" depth="1" NCoef="0" IVar="11" Cut="6.6490306854248047e+00" cType="1" res="-1.7982978373765945e-02" rms="1.9655744731426239e-01" purity="1.8526500463485718e-01" nType="0">
          <Node pos="l" depth="2" NCoef="0" IVar="-1" Cut="0.0000000000000000e+00" cType="1" res="-3.5035829991102219e-02" rms="1.8831218779087067e-01" purity="1.3888184726238251e-01" nType="-99"/>
          <Node pos="r" depth="2" NCoef="0" IVar="-1" Cut="0.0000000000000000e+00" cType="1" res="2.0715584978461266e-02" rms="2.1143500506877899e-01" purity="3.0150327086448669e-01" nType="-99"/>
        </Node>
        <Node pos="r" depth="1" NCoef="0" IVar="13" Cut="7.7295665740966797e+00" cType="1" res="3.0880828853696585e-03" rms="2.1131521463394165e-01" purity="5.3754669427871704e-01" nType="0">
          <Node pos="l" depth="2" NCoef="0" IVar="-1" Cut="0.0000000000000000e+00" cType="1" res="1.6627453267574310e-02" rms="2.1301165223121643e-01" purity="5.4155176877975464e-01" nType="-99"/>
          <Node pos="r" depth="2" NCoef="0" IVar="-1" Cut="0.0000000000000000e+00" cType="1" res="-5.5449455976486206e-04" rms="2.1074093878269196e-01" purity="5.3659194707870483e-01" nType="-99"/>
        </Node>
      </Node>
    </BinaryTree>
    <BinaryTree type="DecisionTree" boostWeight="1.0000000000000000e+00" itree="219">
      <Node pos="s" depth="0" NCoef="0" IVar="18" Cut="-4.8315746307373047e+01" cType="1" res="-7.4210501043125987e-04" rms="2.0878961682319641e-01" purity="4.9931466579437256e-01" nType="0">
        <Node pos="l" depth="1" NCoef="0" IVar="23" Cut="9.0638363361358643e-01" cType="1" res="1.4166890643537045e-02" rms="1.5697093307971954e-01" purity="8.9890146255493164e-01" nType="0">
          <Node pos="l" depth="2" NCoef="0" IVar="-1" Cut="0.0000000000000000e+00" cType="1" res="1.7525514587759972e-02" rms="2.7363771200180054e-01" purity="6.6860365867614746e-01" nType="-99"/>
          <Node pos="r" depth="2" NCoef="0" IVar="-1" Cut="0.0000000000000000e+00" cType="1" res="2.6872532442212105e-02" rms="6.9482527673244476e-02" purity="9.8876142501831055e-01" nType="-99"/>
        </Node>
        <Node pos="r" depth="1" NCoef="0" IVar="17" Cut="5.2505313873291016e+01" cType="1" res="-2.6566917076706886e-03" rms="2.1446406841278076e-01" purity="4.4800043106079102e-01" nType="0">
          <Node pos="l" depth="2" NCoef="0" IVar="-1" Cut="0.0000000000000000e+00" cType="1" res="-3.6053792573511600e-03" rms="2.1742880344390869e-01" purity="4.1868457198143005e-01" nType="-99"/>
          <Node pos="r" depth="2" NCoef="0" IVar="-1" Cut="0.0000000000000000e+00" cType="1" res="2.4915657937526703e-02" rms="1.5804561972618103e-01" purity="9.1582024097442627e-01" nType="-99"/>
        </Node>
      </Node>
    </BinaryTree>
    <BinaryTree type="DecisionTree" boostWeight="1.0000000000000000e+00" itree="220">
      <Node pos="s" depth="0" NCoef="0" IVar="11" Cut="7.4566903114318848e+00" cType="1" res="1.4055481879040599e-03" rms="2.0940519869327545e-01" purity="5.0189423561096191e-01" nType="0">
        <Node pos="l" depth="1" NCoef="0" IVar="4" Cut="6.9293179512023926e+00" cType="1" res="4.0105595253407955e-03" rms="2.1066744625568390e-01" purity="5.3314530849456787e-01" nType="0">
          <Node pos="l" depth="2" NCoef="0" IVar="-1" Cut="0.0000000000000000e+00" cType="1" res="2.5184454862028360e-03" rms="2.0988531410694122e-01" purity="5.3919976949691772e-01" nType="-99"/>
          <Node pos="r" depth="2" NCoef="0" IVar="-1" Cut="0.0000000000000000e+00" cType="1" res="3.7330213934183121e-02" rms="2.2819885611534119e-01" purity="3.6619982123374939e-01" nType="-99"/>
        </Node>
        <Node pos="r" depth="1" NCoef="0" IVar="6" Cut="5.1977686882019043e+00" cType="1" res="-8.5672317072749138e-03" rms="2.0419399440288544e-01" purity="3.8225531578063965e-01" nType="0">
          <Node pos="l" depth="2" NCoef="0" IVar="-1" Cut="0.0000000000000000e+00" cType="1" res="2.0868789404630661e-02" rms="2.2621566057205200e-01" purity="4.8805347084999084e-01" nType="-99"/>
          <Node pos="r" depth="2" NCoef="0" IVar="-1" Cut="0.0000000000000000e+00" cType="1" res="-1.7230559140443802e-02" rms="1.9570606946945190e-01" purity="3.4895941615104675e-01" nType="-99"/>
        </Node>
      </Node>
    </BinaryTree>
    <BinaryTree type="DecisionTree" boostWeight="1.0000000000000000e+00" itree="221">
      <Node pos="s" depth="0" NCoef="0" IVar="28" Cut="9.5256811380386353e-01" cType="1" res="-7.9225626541301608e-04" rms="2.0675736665725708e-01" purity="4.9966800212860107e-01" nType="0">
        <Node pos="l" depth="1" NCoef="0" IVar="4" Cut="5.7436084747314453e+00" cType="1" res="-3.7040577735751867e-03" rms="2.1515977382659912e-01" purity="4.1149571537971497e-01" nType="0">
          <Node pos="l" depth="2" NCoef="0" IVar="-1" Cut="0.0000000000000000e+00" cType="1" res="-4.5813196338713169e-03" rms="2.1562483906745911e-01" purity="4.1803771257400513e-01" nType="-99"/>
          <Node pos="r" depth="2" NCoef="0" IVar="-1" Cut="0.0000000000000000e+00" cType="1" res="2.7251901105046272e-02" rms="2.0463612675666809e-01" purity="2.9515206813812256e-01" nType="-99"/>
        </Node>
        <Node pos="r" depth="1" NCoef="0" IVar="10" Cut="7.7876429557800293e+00" cType="1" res="8.3833830431103706e-03" rms="1.7738758027553558e-01" purity="7.7751564979553223e-01" nType="0">
          <Node pos="l" depth="2" NCoef="0" IVar="-1" Cut="0.0000000000000000e+00" cType="1" res="4.1501307860016823e-03" rms="1.7526213824748993e-01" purity="7.7773779630661011e-01" nType="-99"/>
          <Node pos="r" depth="2" NCoef="0" IVar="-1" Cut="0.0000000000000000e+00" cType="1" res="3.0398748815059662e-02" rms="1.8464615941047668e-01" purity="7.7657818794250488e-01" nType="-99"/>
        </Node>
      </Node>
    </BinaryTree>
    <BinaryTree type="DecisionTree" boostWeight="1.0000000000000000e+00" itree="222">
      <Node pos="s" depth="0" NCoef="0" IVar="15" Cut="5.7197618484497070e+00" cType="1" res="2.7208996471017599e-04" rms="2.0882935822010040e-01" purity="4.9823394417762756e-01" nType="0">
        <Node pos="l" depth="1" NCoef="0" IVar="0" Cut="7.4405703544616699e+00" cType="1" res="1.1690344661474228e-02" rms="2.1906106173992157e-01" purity="5.4563701152801514e-01" nType="0">
          <Node pos="l" depth="2" NCoef="0" IVar="-1" Cut="0.0000000000000000e+00" cType="1" res="1.6801884397864342e-02" rms="2.2760058939456940e-01" purity="5.4912662506103516e-01" nType="-99"/>
          <Node pos="r" depth="2" NCoef="0" IVar="-1" Cut="0.0000000000000000e+00" cType="1" res="-1.1649497319012880e-03" rms="2.0542721450328827e-01" purity="5.4060900211334229e-01" nType="-99"/>
        </Node>
        <Node pos="r" depth="1" NCoef="0" IVar="7" Cut="1.9969429075717926e-01" cType="1" res="-1.6887453384697437e-03" rms="2.0695804059505463e-01" purity="4.9009346961975098e-01" nType="0">
          <Node pos="l" depth="2" NCoef="0" IVar="-1" Cut="0.0000000000000000e+00" cType="1" res="1.0957836173474789e-02" rms="2.0490732789039612e-01" purity="7.9282951354980469e-01" nType="-99"/>
          <Node pos="r" depth="2" NCoef="0" IVar="-1" Cut="0.0000000000000000e+00" cType="1" res="-3.5611072089523077e-03" rms="2.0719158649444580e-01" purity="4.4406461715698242e-01" nType="-99"/>
        </Node>
      </Node>
    </BinaryTree>
    <BinaryTree type="DecisionTree" boostWeight="1.0000000000000000e+00" itree="223">
      <Node pos="s" depth="0" NCoef="0" IVar="3" Cut="3.0991165637969971e+00" cType="1" res="2.1452235523611307e-03" rms="2.0924246311187744e-01" purity="5.0268465280532837e-01" nType="0">
        <Node pos="l" depth="1" NCoef="0" IVar="14" Cut="7.8827366828918457e+00" cType="1" res="4.5336624607443810e-03" rms="2.3479132354259491e-01" purity="6.3386768102645874e-01" nType="0">
          <Node pos="l" depth="2" NCoef="0" IVar="-1" Cut="0.0000000000000000e+00" cType="1" res="1.1978126130998135e-02" rms="2.5042271614074707e-01" purity="6.3349741697311401e-01" nType="-99"/>
          <Node pos="r" depth="2" NCoef="0" IVar="-1" Cut="0.0000000000000000e+00" cType="1" res="7.3790829628705978e-04" rms="2.3022457957267761e-01" purity="6.3396847248077393e-01" nType="-99"/>
        </Node>
        <Node pos="r" depth="1" NCoef="0" IVar="16" Cut="3.6699822545051575e-01" cType="1" res="-7.0071080699563026e-03" rms="1.4324898831546307e-02" purity="0.0000000000000000e+00" nType="0">
          <Node pos="l" depth="2" NCoef="0" IVar="-1" Cut="0.0000000000000000e+00" cType="1" res="-5.0798907876014709e-02" rms="6.5925330854952335e-03" purity="0.0000000000000000e+00" nType="-99"/>
          <Node pos="r" depth="2" NCoef="0" IVar="-1" Cut="0.0000000000000000e+00" cType="1" res="-5.2264016121625900e-02" rms="1.8515851348638535e-02" purity="0.0000000000000000e+00" nType="-99"/>
        </Node>
      </Node>
    </BinaryTree>
    <BinaryTree type="DecisionTree" boostWeight="1.0000000000000000e+00" itree="224">
      <Node pos="s" depth="0" NCoef="0" IVar="32" Cut="9.5217652618885040e-02" cType="1" res="6.2193797202780843e-04" rms="2.0820116996765137e-01" purity="4.9848306179046631e-01" nType="0">
        <Node pos="l" depth="1" NCoef="0" IVar="5" Cut="8.9111070632934570e+00" cType="1" res="3.1389393843710423e-03" rms="2.0965871214866638e-01" purity="5.5108070373535156e-01" nType="0">
          <Node pos="l" depth="2" NCoef="0" IVar="-1" Cut="0.0000000000000000e+00" cType="1" res="3.9224568754434586e-03" rms="2.1015703678131104e-01" purity="5.6792694330215454e-01" nType="-99"/>
          <Node pos="r" depth="2" NCoef="0" IVar="-1" Cut="0.0000000000000000e+00" cType="1" res="-3.1232787296175957e-02" rms="1.9462142884731293e-01" purity="1.3149113953113556e-01" nType="-99"/>
        </Node>
        <Node pos="r" depth="1" NCoef="0" IVar="11" Cut="6.4170880317687988e+00" cType="1" res="-1.3655773364007473e-02" rms="1.9913087785243988e-01" purity="2.0012256503105164e-01" nType="0">
          <Node pos="l" depth="2" NCoef="0" IVar="-1" Cut="0.0000000000000000e+00" cType="1" res="-2.8562882915139198e-02" rms="1.9228519499301910e-01" purity="1.7056785523891449e-01" nType="-99"/>
          <Node pos="r" depth="2" NCoef="0" IVar="-1" Cut="0.0000000000000000e+00" cType="1" res="-3.7415314000099897e-03" rms="2.0369385182857513e-01" purity="2.2296650707721710e-01" nType="-99"/>
        </Node>
      </Node>
    </BinaryTree>
    <BinaryTree type="DecisionTree" boostWeight="1.0000000000000000e+00" itree="225">
      <Node pos="s" depth="0" NCoef="0" IVar="20" Cut="-2.8079742431640625e+01" cType="1" res="2.4798014783300459e-04" rms="2.0928424596786499e-01" purity="4.9950656294822693e-01" nType="0">
        <Node pos="l" depth="1" NCoef="0" IVar="6" Cut="5.1632523536682129e+00" cType="1" res="8.3613432943820953e-03" rms="1.8777333199977875e-01" purity="7.8231489658355713e-01" nType="0">
          <Node pos="l" depth="2" NCoef="0" IVar="-1" Cut="0.0000000000000000e+00" cType="1" res="2.3689806461334229e-02" rms="1.8967592716217041e-01" purity="8.3720237016677856e-01" nType="-99"/>
          <Node pos="r" depth="2" NCoef="0" IVar="-1" Cut="0.0000000000000000e+00" cType="1" res="1.8611998530104756e-03" rms="1.8643876910209656e-01" purity="7.5387340784072876e-01" nType="-99"/>
        </Node>
        <Node pos="r" depth="1" NCoef="0" IVar="20" Cut="-3.7294778227806091e-01" cType="1" res="-2.6496525388211012e-03" rms="2.1637552976608276e-01" purity="3.9850348234176636e-01" nType="0">
          <Node pos="l" depth="2" NCoef="0" IVar="-1" Cut="0.0000000000000000e+00" cType="1" res="-5.8002606965601444e-03" rms="2.1553669869899750e-01" purity="4.3251231312751770e-01" nType="-99"/>
          <Node pos="r" depth="2" NCoef="0" IVar="-1" Cut="0.0000000000000000e+00" cType="1" res="4.8706359229981899e-03" rms="2.1782137453556061e-01" purity="3.3083105087280273e-01" nType="-99"/>
        </Node>
      </Node>
    </BinaryTree>
    <BinaryTree type="DecisionTree" boostWeight="1.0000000000000000e+00" itree="226">
      <Node pos="s" depth="0" NCoef="0" IVar="6" Cut="3.6767325401306152e+00" cType="1" res="-4.0816716500557959e-04" rms="2.0731411874294281e-01" purity="5.0229549407958984e-01" nType="0">
        <Node pos="l" depth="1" NCoef="0" IVar="3" Cut="2.6475284099578857e+00" cType="1" res="-2.2503755986690521e-02" rms="1.8392252922058105e-01" purity="1.0900343954563141e-01" nType="0">
          <Node pos="l" depth="2" NCoef="0" IVar="-1" Cut="0.0000000000000000e+00" cType="1" res="-3.0121767893433571e-02" rms="2.4235685169696808e-01" purity="2.0063817501068115e-01" nType="-99"/>
          <Node pos="r" depth="2" NCoef="0" IVar="-1" Cut="0.0000000000000000e+00" cType="1" res="-4.0082288905978203e-03" rms="9.0807504951953888e-02" purity="1.8314469605684280e-02" nType="-99"/>
        </Node>
        <Node pos="r" depth="1" NCoef="0" IVar="10" Cut="8.3104810714721680e+00" cType="1" res="8.7330170208588243e-04" rms="2.0851846039295197e-01" purity="5.2510511875152588e-01" nType="0">
          <Node pos="l" depth="2" NCoef="0" IVar="-1" Cut="0.0000000000000000e+00" cType="1" res="-7.4045317887794226e-05" rms="2.0806629955768585e-01" purity="5.2759218215942383e-01" nType="-99"/>
          <Node pos="r" depth="2" NCoef="0" IVar="-1" Cut="0.0000000000000000e+00" cType="1" res="2.8352847322821617e-02" rms="2.1963787078857422e-01" purity="4.5134755969047546e-01" nType="-99"/>
        </Node>
      </Node>
    </BinaryTree>
    <BinaryTree type="DecisionTree" boostWeight="1.0000000000000000e+00" itree="227">
      <Node pos="s" depth="0" NCoef="0" IVar="28" Cut="5.7240343093872070e-01" cType="1" res="-6.4082053722813725e-04" rms="2.0769667625427246e-01" purity="5.0161629915237427e-01" nType="0">
        <Node pos="l" depth="1" NCoef="0" IVar="7" Cut="4.2548685073852539e+00" cType="1" res="-6.9160624407231808e-03" rms="2.1345837414264679e-01" purity="3.1684201955795288e-01" nType="0">
          <Node pos="l" depth="2" NCoef="0" IVar="-1" Cut="0.0000000000000000e+00" cType="1" res="-7.7779209241271019e-03" rms="2.1512550115585327e-01" purity="3.2768225669860840e-01" nType="-99"/>
          <Node pos="r" depth="2" NCoef="0" IVar="-1" Cut="0.0000000000000000e+00" cType="1" res="1.4484476298093796e-02" rms="1.9599822163581848e-01" purity="2.1491818130016327e-01" nType="-99"/>
        </Node>
        <Node pos="r" depth="1" NCoef="0" IVar="22" Cut="-2.0987592637538910e-01" cType="1" res="2.9827426187694073e-03" rms="2.0420786738395691e-01" purity="6.0831201076507568e-01" nType="0">
          <Node pos="l" depth="2" NCoef="0" IVar="-1" Cut="0.0000000000000000e+00" cType="1" res="3.2988891005516052e-02" rms="2.1721182763576508e-01" purity="6.1156284809112549e-01" nType="-99"/>
          <Node pos="r" depth="2" NCoef="0" IVar="-1" Cut="0.0000000000000000e+00" cType="1" res="1.2606483651325107e-03" rms="2.0336252450942993e-01" purity="6.0814088582992554e-01" nType="-99"/>
        </Node>
      </Node>
    </BinaryTree>
    <BinaryTree type="DecisionTree" boostWeight="1.0000000000000000e+00" itree="228">
      <Node pos="s" depth="0" NCoef="0" IVar="16" Cut="4.3752592802047729e-01" cType="1" res="-8.1310450332239270e-04" rms="2.0914599299430847e-01" purity="4.9695751070976257e-01" nType="0">
        <Node pos="l" depth="1" NCoef="0" IVar="23" Cut="9.5246654748916626e-01" cType="1" res="-4.5440662652254105e-03" rms="2.1954974532127380e-01" purity="3.7881654500961304e-01" nType="0">
          <Node pos="l" depth="2" NCoef="0" IVar="-1" Cut="0.0000000000000000e+00" cType="1" res="-8.0178137868642807e-03" rms="2.3361775279045105e-01" purity="2.2604843974113464e-01" nType="-99"/>
          <Node pos="r" depth="2" NCoef="0" IVar="-1" Cut="0.0000000000000000e+00" cType="1" res="2.0864507183432579e-02" rms="1.5771804749965668e-01" purity="9.2499482631683350e-01" nType="-99"/>
        </Node>
        <Node pos="r" depth="1" NCoef="0" IVar="6" Cut="4.4235172271728516e+00" cType="1" res="4.2717750184237957e-03" rms="1.9395534694194794e-01" purity="6.5797024965286255e-01" nType="0">
          <Node pos="l" depth="2" NCoef="0" IVar="-1" Cut="0.0000000000000000e+00" cType="1" res="-1.6259144991636276e-02" rms="2.1081396937370300e-01" purity="3.6609390377998352e-01" nType="-99"/>
          <Node pos="r" depth="2" NCoef="0" IVar="-1" Cut="0.0000000000000000e+00" cType="1" res="1.1182749643921852e-02" rms="1.8862026929855347e-01" purity="7.3891079425811768e-01" nType="-99"/>
        </Node>
      </Node>
    </BinaryTree>
    <BinaryTree type="DecisionTree" boostWeight="1.0000000000000000e+00" itree="229">
      <Node pos="s" depth="0" NCoef="0" IVar="23" Cut="1.4434437453746796e-01" cType="1" res="-7.4074370786547661e-05" rms="2.0998546481132507e-01" purity="4.9762552976608276e-01" nType="0">
        <Node pos="l" depth="1" NCoef="0" IVar="-1" Cut="0.0000000000000000e+00" cType="1" res="-3.1357817351818085e-02" rms="1.4494806528091431e-01" purity="3.1318601220846176e-02" nType="-99"/>
        <Node pos="r" depth="1" NCoef="0" IVar="27" Cut="1.9228981435298920e-01" cType="1" res="9.1106066247448325e-04" rms="2.1221433579921722e-01" purity="5.1712322235107422e-01" nType="0">
          <Node pos="l" depth="2" NCoef="0" IVar="-1" Cut="0.0000000000000000e+00" cType="1" res="-2.3707941174507141e-02" rms="1.8867847323417664e-01" purity="1.6337859630584717e-01" nType="-99"/>
          <Node pos="r" depth="2" NCoef="0" IVar="-1" Cut="0.0000000000000000e+00" cType="1" res="1.7682062461972237e-03" rms="2.1319347620010376e-01" purity="5.3360199928283691e-01" nType="-99"/>
        </Node>
      </Node>
    </BinaryTree>
    <BinaryTree type="DecisionTree" boostWeight="1.0000000000000000e+00" itree="230">
      <Node pos="s" depth="0" NCoef="0" IVar="19" Cut="-1.2550798416137695e+01" cType="1" res="4.8984028398990631e-04" rms="2.0998223125934601e-01" purity="5.0081890821456909e-01" nType="0">
        <Node pos="l" depth="1" NCoef="0" IVar="-1" Cut="0.0000000000000000e+00" cType="1" res="2.6924863457679749e-02" rms="2.1693803369998932e-01" purity="5.5484765768051147e-01" nType="-99"/>
        <Node pos="r" depth="1" NCoef="0" IVar="22" Cut="2.9735942840576172e+01" cType="1" res="-8.5340574150905013e-04" rms="2.0953136682510376e-01" purity="4.9805128574371338e-01" nType="0">
          <Node pos="l" depth="2" NCoef="0" IVar="-1" Cut="0.0000000000000000e+00" cType="1" res="-2.1096956916153431e-03" rms="2.1332949399948120e-01" purity="4.6168550848960876e-01" nType="-99"/>
          <Node pos="r" depth="2" NCoef="0" IVar="-1" Cut="0.0000000000000000e+00" cType="1" res="1.9690554589033127e-02" rms="1.6667965054512024e-01" purity="8.5771793127059937e-01" nType="-99"/>
        </Node>
      </Node>
    </BinaryTree>
    <BinaryTree type="DecisionTree" boostWeight="1.0000000000000000e+00" itree="231">
      <Node pos="s" depth="0" NCoef="0" IVar="11" Cut="6.4877748489379883e+00" cType="1" res="-1.9515139865688980e-04" rms="2.0870301127433777e-01" purity="4.9669775366783142e-01" nType="0">
        <Node pos="l" depth="1" NCoef="0" IVar="1" Cut="7.4141225814819336e+00" cType="1" res="-7.0967525243759155e-03" rms="2.0797377824783325e-01" purity="4.6330618858337402e-01" nType="0">
          <Node pos="l" depth="2" NCoef="0" IVar="-1" Cut="0.0000000000000000e+00" cType="1" res="-1.3259842060506344e-02" rms="2.0574991405010223e-01" purity="3.9476203918457031e-01" nType="-99"/>
          <Node pos="r" depth="2" NCoef="0" IVar="-1" Cut="0.0000000000000000e+00" cType="1" res="7.5761084444820881e-03" rms="2.1246285736560822e-01" purity="6.2968522310256958e-01" nType="-99"/>
        </Node>
        <Node pos="r" depth="1" NCoef="0" IVar="16" Cut="2.8461861610412598e-01" cType="1" res="3.5624511074274778e-03" rms="2.0900316536426544e-01" purity="5.1487797498703003e-01" nType="0">
          <Node pos="l" depth="2" NCoef="0" IVar="-1" Cut="0.0000000000000000e+00" cType="1" res="-1.1434653773903847e-02" rms="2.2268368303775787e-01" purity="2.0547930896282196e-01" nType="-99"/>
          <Node pos="r" depth="2" NCoef="0" IVar="-1" Cut="0.0000000000000000e+00" cType="1" res="7.7277780510485172e-03" rms="2.0479717850685120e-01" purity="6.0115343332290649e-01" nType="-99"/>
        </Node>
      </Node>
    </BinaryTree>
    <BinaryTree type="DecisionTree" boostWeight="1.0000000000000000e+00" itree="232">
      <Node pos="s" depth="0" NCoef="0" IVar="11" Cut="7.2640924453735352e+00" cType="1" res="8.4018567577004433e-04" rms="2.0883983373641968e-01" purity="4.9623376131057739e-01" nType="0">
        <Node pos="l" depth="1" NCoef="0" IVar="34" Cut="5.1588530540466309e+00" cType="1" res="3.9383908733725548e-03" rms="2.0980064570903778e-01" purity="5.2920573949813843e-01" nType="0">
          <Node pos="l" depth="2" NCoef="0" IVar="-1" Cut="0.0000000000000000e+00" cType="1" res="6.1313603073358536e-03" rms="2.1228420734405518e-01" purity="5.8920276165008545e-01" nType="-99"/>
          <Node pos="r" depth="2" NCoef="0" IVar="-1" Cut="0.0000000000000000e+00" cType="1" res="-1.6787158325314522e-02" rms="1.9140627980232239e-01" purity="1.2770657241344452e-01" nType="-99"/>
        </Node>
        <Node pos="r" depth="1" NCoef="0" IVar="6" Cut="5.0001058578491211e+00" cType="1" res="-7.3312427848577499e-03" rms="2.0606091618537903e-01" purity="4.0927082300186157e-01" nType="0">
          <Node pos="l" depth="2" NCoef="0" IVar="-1" Cut="0.0000000000000000e+00" cType="1" res="1.9957883283495903e-02" rms="2.2817353904247284e-01" purity="5.2268505096435547e-01" nType="-99"/>
          <Node pos="r" depth="2" NCoef="0" IVar="-1" Cut="0.0000000000000000e+00" cType="1" res="-1.3645023107528687e-02" rms="1.9971910119056702e-01" purity="3.8200312852859497e-01" nType="-99"/>
        </Node>
      </Node>
    </BinaryTree>
    <BinaryTree type="DecisionTree" boostWeight="1.0000000000000000e+00" itree="233">
      <Node pos="s" depth="0" NCoef="0" IVar="13" Cut="9.0375909805297852e+00" cType="1" res="9.1432640329003334e-04" rms="2.0854437351226807e-01" purity="5.0104796886444092e-01" nType="0">
        <Node pos="l" depth="1" NCoef="0" IVar="13" Cut="7.9219851493835449e+00" cType="1" res="-2.4958344874903560e-04" rms="2.0942308008670807e-01" purity="4.9745920300483704e-01" nType="0">
          <Node pos="l" depth="2" NCoef="0" IVar="-1" Cut="0.0000000000000000e+00" cType="1" res="6.1108311638236046e-03" rms="2.0949856936931610e-01" purity="4.6217206120491028e-01" nType="-99"/>
          <Node pos="r" depth="2" NCoef="0" IVar="-1" Cut="0.0000000000000000e+00" cType="1" res="-3.6473174113780260e-03" rms="2.0929381251335144e-01" purity="5.1642781496047974e-01" nType="-99"/>
        </Node>
        <Node pos="r" depth="1" NCoef="0" IVar="-1" Cut="0.0000000000000000e+00" cType="1" res="2.3365356028079987e-02" rms="1.9133323431015015e-01" purity="5.6399369239807129e-01" nType="-99"/>
      </Node>
    </BinaryTree>
    <BinaryTree type="DecisionTree" boostWeight="1.0000000000000000e+00" itree="234">
      <Node pos="s" depth="0" NCoef="0" IVar="20" Cut="-5.8316085815429688e+01" cType="1" res="2.1021396969445050e-04" rms="2.0941638946533203e-01" purity="5.0248044729232788e-01" nType="0">
        <Node pos="l" depth="1" NCoef="0" IVar="-1" Cut="0.0000000000000000e+00" cType="1" res="4.2317926883697510e-02" rms="1.2050208449363708e-01" purity="9.6056789159774780e-01" nType="-99"/>
        <Node pos="r" depth="1" NCoef="0" IVar="4" Cut="7.2058582305908203e+00" cType="1" res="-9.9891994614154100e-04" rms="2.1325334906578064e-01" purity="4.7672599554061890e-01" nType="0">
          <Node pos="l" depth="2" NCoef="0" IVar="-1" Cut="0.0000000000000000e+00" cType="1" res="-1.7026938730850816e-03" rms="2.1314275264739990e-01" purity="4.8211684823036194e-01" nType="-99"/>
          <Node pos="r" depth="2" NCoef="0" IVar="-1" Cut="0.0000000000000000e+00" cType="1" res="2.1887479349970818e-02" rms="2.1490870416164398e-01" purity="3.2447230815887451e-01" nType="-99"/>
        </Node>
      </Node>
    </BinaryTree>
    <BinaryTree type="DecisionTree" boostWeight="1.0000000000000000e+00" itree="235">
      <Node pos="s" depth="0" NCoef="0" IVar="24" Cut="2.3973861336708069e-01" cType="1" res="1.2040123110637069e-03" rms="2.0872808992862701e-01" purity="4.9788898229598999e-01" nType="0">
        <Node pos="l" depth="1" NCoef="0" IVar="3" Cut="2.9030160903930664e+00" cType="1" res="-1.7414983361959457e-02" rms="1.7690908908843994e-01" purity="1.0166009515523911e-01" nType="0">
          <Node pos="l" depth="2" NCoef="0" IVar="-1" Cut="0.0000000000000000e+00" cType="1" res="-2.3065287619829178e-02" rms="2.4389339983463287e-01" purity="1.9868804514408112e-01" nType="-99"/>
          <Node pos="r" depth="2" NCoef="0" IVar="-1" Cut="0.0000000000000000e+00" cType="1" res="-3.4419421106576920e-02" rms="4.4998858124017715e-02" purity="2.3204011376947165e-03" nType="-99"/>
        </Node>
        <Node pos="r" depth="1" NCoef="0" IVar="19" Cut="-5.0139570236206055e+00" cType="1" res="2.5986596010625362e-03" rms="2.1085214614868164e-01" purity="5.2756834030151367e-01" nType="0">
          <Node pos="l" depth="2" NCoef="0" IVar="-1" Cut="0.0000000000000000e+00" cType="1" res="2.2863905876874924e-02" rms="2.1479500830173492e-01" purity="5.2330273389816284e-01" nType="-99"/>
          <Node pos="r" depth="2" NCoef="0" IVar="-1" Cut="0.0000000000000000e+00" cType="1" res="6.4524722984060645e-04" rms="2.1039478480815887e-01" purity="5.2794575691223145e-01" nType="-99"/>
        </Node>
      </Node>
    </BinaryTree>
    <BinaryTree type="DecisionTree" boostWeight="1.0000000000000000e+00" itree="236">
      <Node pos="s" depth="0" NCoef="0" IVar="9" Cut="4.5888893127441406e+01" cType="1" res="1.4999341510701925e-04" rms="2.0719893276691437e-01" purity="4.9696978926658630e-01" nType="0">
        <Node pos="l" depth="1" NCoef="0" IVar="3" Cut="2.6238985061645508e+00" cType="1" res="1.1195648694410920e-03" rms="2.0872434973716736e-01" purity="5.0691002607345581e-01" nType="0">
          <Node pos="l" depth="2" NCoef="0" IVar="-1" Cut="0.0000000000000000e+00" cType="1" res="3.5409308038651943e-03" rms="2.3367801308631897e-01" purity="6.8135225772857666e-01" nType="-99"/>
          <Node pos="r" depth="2" NCoef="0" IVar="-1" Cut="0.0000000000000000e+00" cType="1" res="-1.4769802801311016e-02" rms="1.3086546957492828e-01" purity="9.0644955635070801e-02" nType="-99"/>
        </Node>
        <Node pos="r" depth="1" NCoef="0" IVar="-1" Cut="0.0000000000000000e+00" cType="1" res="-3.6884583532810211e-02" rms="1.4385759830474854e-01" purity="1.6545708477497101e-01" nType="-99"/>
      </Node>
    </BinaryTree>
    <BinaryTree type="DecisionTree" boostWeight="1.0000000000000000e+00" itree="237">
      <Node pos="s" depth="0" NCoef="0" IVar="33" Cut="1.1429217457771301e-01" cType="1" res="-3.8754721754230559e-04" rms="2.0939810574054718e-01" purity="4.9998924136161804e-01" nType="0">
        <Node pos="l" depth="1" NCoef="0" IVar="33" Cut="5.4571856744587421e-03" cType="1" res="1.7348743276670575e-03" rms="2.1003991365432739e-01" purity="5.4641717672348022e-01" nType="0">
          <Node pos="l" depth="2" NCoef="0" IVar="-1" Cut="0.0000000000000000e+00" cType="1" res="1.0010716505348682e-02" rms="1.9303517043590546e-01" purity="6.8563699722290039e-01" nType="-99"/>
          <Node pos="r" depth="2" NCoef="0" IVar="-1" Cut="0.0000000000000000e+00" cType="1" res="-2.6186807081103325e-03" rms="2.1934682130813599e-01" purity="4.6407699584960938e-01" nType="-99"/>
        </Node>
        <Node pos="r" depth="1" NCoef="0" IVar="20" Cut="-2.8154895782470703e+01" cType="1" res="-1.1402776464819908e-02" rms="2.0568357408046722e-01" purity="2.5903150439262390e-01" nType="0">
          <Node pos="l" depth="2" NCoef="0" IVar="-1" Cut="0.0000000000000000e+00" cType="1" res="5.2560204640030861e-03" rms="2.2776699066162109e-01" purity="5.8099424839019775e-01" nType="-99"/>
          <Node pos="r" depth="2" NCoef="0" IVar="-1" Cut="0.0000000000000000e+00" cType="1" res="-1.5361439436674118e-02" rms="2.0063462853431702e-01" purity="1.9281354546546936e-01" nType="-99"/>
        </Node>
      </Node>
    </BinaryTree>
    <BinaryTree type="DecisionTree" boostWeight="1.0000000000000000e+00" itree="238">
      <Node pos="s" depth="0" NCoef="0" IVar="26" Cut="9.5122739672660828e-02" cType="1" res="-1.7182932933792472e-03" rms="2.0872236788272858e-01" purity="5.0020515918731689e-01" nType="0">
        <Node pos="l" depth="1" NCoef="0" IVar="23" Cut="9.5239520072937012e-01" cType="1" res="-3.5476291086524725e-03" rms="2.0801448822021484e-01" purity="5.4978823661804199e-01" nType="0">
          <Node pos="l" depth="2" NCoef="0" IVar="-1" Cut="0.0000000000000000e+00" cType="1" res="-5.3211990743875504e-03" rms="2.3864749073982239e-01" purity="3.2485470175743103e-01" nType="-99"/>
          <Node pos="r" depth="2" NCoef="0" IVar="-1" Cut="0.0000000000000000e+00" cType="1" res="5.8841132558882236e-03" rms="1.3905553519725800e-01" purity="9.4214159250259399e-01" nType="-99"/>
        </Node>
        <Node pos="r" depth="1" NCoef="0" IVar="3" Cut="1.6748000383377075e+00" cType="1" res="7.2194114327430725e-03" rms="2.1192002296447754e-01" purity="2.5795361399650574e-01" nType="0">
          <Node pos="l" depth="2" NCoef="0" IVar="-1" Cut="0.0000000000000000e+00" cType="1" res="1.5683246776461601e-02" rms="2.6276350021362305e-01" purity="5.1808106899261475e-01" nType="-99"/>
          <Node pos="r" depth="2" NCoef="0" IVar="-1" Cut="0.0000000000000000e+00" cType="1" res="-1.7097612144425511e-03" rms="1.8307210505008698e-01" purity="1.3753423094749451e-01" nType="-99"/>
        </Node>
      </Node>
    </BinaryTree>
    <BinaryTree type="DecisionTree" boostWeight="1.0000000000000000e+00" itree="239">
      <Node pos="s" depth="0" NCoef="0" IVar="10" Cut="7.3820095062255859e+00" cType="1" res="-2.2604181140195578e-04" rms="2.0736961066722870e-01" purity="4.9937242269515991e-01" nType="0">
        <Node pos="l" depth="1" NCoef="0" IVar="11" Cut="7.4662680625915527e+00" cType="1" res="3.0928577762097120e-03" rms="2.0496468245983124e-01" purity="5.2151221036911011e-01" nType="0">
          <Node pos="l" depth="2" NCoef="0" IVar="-1" Cut="0.0000000000000000e+00" cType="1" res="6.5650576725602150e-03" rms="2.0504637062549591e-01" purity="5.5422019958496094e-01" nType="-99"/>
          <Node pos="r" depth="2" NCoef="0" IVar="-1" Cut="0.0000000000000000e+00" cType="1" res="-1.3854774646461010e-02" rms="2.0357675850391388e-01" purity="3.5282206535339355e-01" nType="-99"/>
        </Node>
        <Node pos="r" depth="1" NCoef="0" IVar="14" Cut="8.5342721939086914e+00" cType="1" res="-7.0344205014407635e-03" rms="2.1205528080463409e-01" purity="4.5395508408546448e-01" nType="0">
          <Node pos="l" depth="2" NCoef="0" IVar="-1" Cut="0.0000000000000000e+00" cType="1" res="-2.2734386846423149e-02" rms="2.2975198924541473e-01" purity="3.4765702486038208e-01" nType="-99"/>
          <Node pos="r" depth="2" NCoef="0" IVar="-1" Cut="0.0000000000000000e+00" cType="1" res="2.1200980991125107e-03" rms="2.0361419022083282e-01" purity="4.9777534604072571e-01" nType="-99"/>
        </Node>
      </Node>
    </BinaryTree>
    <BinaryTree type="DecisionTree" boostWeight="1.0000000000000000e+00" itree="240">
      <Node pos="s" depth="0" NCoef="0" IVar="23" Cut="3.8271638751029968e-01" cType="1" res="8.3757046377286315e-04" rms="2.0699301362037659e-01" purity="4.9798953533172607e-01" nType="0">
        <Node pos="l" depth="1" NCoef="0" IVar="27" Cut="9.5197433233261108e-01" cType="1" res="-9.5198638737201691e-03" rms="1.7446747422218323e-01" purity="6.8160019814968109e-02" nType="0">
          <Node pos="l" depth="2" NCoef="0" IVar="-1" Cut="0.0000000000000000e+00" cType="1" res="-7.7986111864447594e-03" rms="1.4823991060256958e-01" purity="3.5975243896245956e-02" nType="-99"/>
          <Node pos="r" depth="2" NCoef="0" IVar="-1" Cut="0.0000000000000000e+00" cType="1" res="-1.4574629254639149e-02" rms="2.2534427046775818e-01" purity="1.4631649851799011e-01" nType="-99"/>
        </Node>
        <Node pos="r" depth="1" NCoef="0" IVar="16" Cut="3.2723623514175415e-01" cType="1" res="2.9507128056138754e-03" rms="2.1295796334743500e-01" purity="5.8568412065505981e-01" nType="0">
          <Node pos="l" depth="2" NCoef="0" IVar="-1" Cut="0.0000000000000000e+00" cType="1" res="-4.0368880145251751e-03" rms="2.4459841847419739e-01" purity="3.1491798162460327e-01" nType="-99"/>
          <Node pos="r" depth="2" NCoef="0" IVar="-1" Cut="0.0000000000000000e+00" cType="1" res="6.2691993080079556e-03" rms="1.9980871677398682e-01" purity="6.8650662899017334e-01" nType="-99"/>
        </Node>
      </Node>
    </BinaryTree>
    <BinaryTree type="DecisionTree" boostWeight="1.0000000000000000e+00" itree="241">
      <Node pos="s" depth="0" NCoef="0" IVar="27" Cut="1.9082996249198914e-01" cType="1" res="-6.8371748784556985e-04" rms="2.1083344519138336e-01" purity="4.9750933051109314e-01" nType="0">
        <Node pos="l" depth="1" NCoef="0" IVar="-1" Cut="0.0000000000000000e+00" cType="1" res="-2.5196965783834457e-02" rms="1.9917516410350800e-01" purity="1.4207051694393158e-01" nType="-99"/>
        <Node pos="r" depth="1" NCoef="0" IVar="17" Cut="5.9880996704101562e+01" cType="1" res="3.5334567655809224e-04" rms="2.1132457256317139e-01" purity="5.1466357707977295e-01" nType="0">
          <Node pos="l" depth="2" NCoef="0" IVar="-1" Cut="0.0000000000000000e+00" cType="1" res="-5.8021844597533345e-04" rms="2.1509093046188354e-01" purity="4.9176812171936035e-01" nType="-99"/>
          <Node pos="r" depth="2" NCoef="0" IVar="-1" Cut="0.0000000000000000e+00" cType="1" res="3.6329984664916992e-02" rms="1.1277607083320618e-01" purity="9.6436929702758789e-01" nType="-99"/>
        </Node>
      </Node>
    </BinaryTree>
    <BinaryTree type="DecisionTree" boostWeight="1.0000000000000000e+00" itree="242">
      <Node pos="s" depth="0" NCoef="0" IVar="34" Cut="3.5715837478637695e+00" cType="1" res="-1.9417621660977602e-03" rms="2.0727278292179108e-01" purity="4.9902611970901489e-01" nType="0">
        <Node pos="l" depth="1" NCoef="0" IVar="13" Cut="7.8628869056701660e+00" cType="1" res="4.3641211232170463e-04" rms="2.0962326228618622e-01" purity="5.8206164836883545e-01" nType="0">
          <Node pos="l" depth="2" NCoef="0" IVar="-1" Cut="0.0000000000000000e+00" cType="1" res="9.9160000681877136e-03" rms="2.1194843947887421e-01" purity="6.1336791515350342e-01" nType="-99"/>
          <Node pos="r" depth="2" NCoef="0" IVar="-1" Cut="0.0000000000000000e+00" cType="1" res="-2.9198648408055305e-03" rms="2.0873594284057617e-01" purity="5.7185542583465576e-01" nType="-99"/>
        </Node>
        <Node pos="r" depth="1" NCoef="0" IVar="3" Cut="1.4634152650833130e+00" cType="1" res="-1.0292627848684788e-02" rms="1.9857369363307953e-01" purity="2.0745038986206055e-01" nType="0">
          <Node pos="l" depth="2" NCoef="0" IVar="-1" Cut="0.0000000000000000e+00" cType="1" res="-1.8643684685230255e-02" rms="2.6337084174156189e-01" purity="4.3430098891258240e-01" nType="-99"/>
          <Node pos="r" depth="2" NCoef="0" IVar="-1" Cut="0.0000000000000000e+00" cType="1" res="-6.7280717194080353e-03" rms="1.7639741301536560e-01" purity="1.4548607170581818e-01" nType="-99"/>
        </Node>
      </Node>
    </BinaryTree>
    <BinaryTree type="DecisionTree" boostWeight="1.0000000000000000e+00" itree="243">
      <Node pos="s" depth="0" NCoef="0" IVar="12" Cut="6.3196511268615723e+00" cType="1" res="1.3453954597935081e-03" rms="2.0801591873168945e-01" purity="5.0267761945724487e-01" nType="0">
        <Node pos="l" depth="1" NCoef="0" IVar="-1" Cut="0.0000000000000000e+00" cType="1" res="2.1603042259812355e-02" rms="2.2128970921039581e-01" purity="3.0240181088447571e-01" nType="-99"/>
        <Node pos="r" depth="1" NCoef="0" IVar="27" Cut="1.9081711769104004e-01" cType="1" res="2.0456966012716293e-04" rms="2.0729000866413116e-01" purity="5.1227229833602905e-01" nType="0">
          <Node pos="l" depth="2" NCoef="0" IVar="-1" Cut="0.0000000000000000e+00" cType="1" res="-2.3961441591382027e-02" rms="1.9300052523612976e-01" purity="1.4532528817653656e-01" nType="-99"/>
          <Node pos="r" depth="2" NCoef="0" IVar="-1" Cut="0.0000000000000000e+00" cType="1" res="1.1437751818448305e-03" rms="2.0787620544433594e-01" purity="5.2928400039672852e-01" nType="-99"/>
        </Node>
      </Node>
    </BinaryTree>
    <BinaryTree type="DecisionTree" boostWeight="1.0000000000000000e+00" itree="244">
      <Node pos="s" depth="0" NCoef="0" IVar="9" Cut="4.3639354705810547e+01" cType="1" res="9.3422963982447982e-04" rms="2.0841759443283081e-01" purity="5.0196123123168945e-01" nType="0">
        <Node pos="l" depth="1" NCoef="0" IVar="31" Cut="3.8088295608758926e-02" cType="1" res="1.8794339848682284e-03" rms="2.0975252985954285e-01" purity="5.1315408945083618e-01" nType="0">
          <Node pos="l" depth="2" NCoef="0" IVar="-1" Cut="0.0000000000000000e+00" cType="1" res="5.1564862951636314e-03" rms="2.0713351666927338e-01" purity="6.1702525615692139e-01" nType="-99"/>
          <Node pos="r" depth="2" NCoef="0" IVar="-1" Cut="0.0000000000000000e+00" cType="1" res="-6.2086619436740875e-03" rms="2.1554583311080933e-01" purity="2.6932439208030701e-01" nType="-99"/>
        </Node>
        <Node pos="r" depth="1" NCoef="0" IVar="-1" Cut="0.0000000000000000e+00" cType="1" res="-2.9484353959560394e-02" rms="1.6357530653476715e-01" purity="1.8259437382221222e-01" nType="-99"/>
      </Node>
    </BinaryTree>
    <BinaryTree type="DecisionTree" boostWeight="1.0000000000000000e+00" itree="245">
      <Node pos="s" depth="0" NCoef="0" IVar="4" Cut="7.2025570869445801e+00" cType="1" res="-1.8964904593303800e-03" rms="2.0315702259540558e-01" purity="4.9978911876678467e-01" nType="0">
        <Node pos="l" depth="1" NCoef="0" IVar="5" Cut="3.8754379749298096e+00" cType="1" res="-2.8722169809043407e-03" rms="2.0233452320098877e-01" purity="5.0500482320785522e-01" nType="0">
          <Node pos="l" depth="2" NCoef="0" IVar="-1" Cut="0.0000000000000000e+00" cType="1" res="-6.5434520365670323e-04" rms="2.0314694941043854e-01" purity="5.3788203001022339e-01" nType="-99"/>
          <Node pos="r" depth="2" NCoef="0" IVar="-1" Cut="0.0000000000000000e+00" cType="1" res="-2.7456164360046387e-02" rms="1.9297403097152710e-01" purity="1.8571361899375916e-01" nType="-99"/>
        </Node>
        <Node pos="r" depth="1" NCoef="0" IVar="-1" Cut="0.0000000000000000e+00" cType="1" res="2.4186445400118828e-02" rms="2.2431786358356476e-01" purity="3.4472227096557617e-01" nType="-99"/>
      </Node>
    </BinaryTree>
    <BinaryTree type="DecisionTree" boostWeight="1.0000000000000000e+00" itree="246">
      <Node pos="s" depth="0" NCoef="0" IVar="7" Cut="2.3102777004241943e+00" cType="1" res="2.7844266151078045e-04" rms="2.0644786953926086e-01" purity="4.9671268463134766e-01" nType="0">
        <Node pos="l" depth="1" NCoef="0" IVar="6" Cut="3.6861155033111572e+00" cType="1" res="3.3412601333111525e-03" rms="2.2551046311855316e-01" purity="6.6582787036895752e-01" nType="0">
          <Node pos="l" depth="2" NCoef="0" IVar="-1" Cut="0.0000000000000000e+00" cType="1" res="-2.5968801230192184e-02" rms="2.4193948507308960e-01" purity="1.8480160832405090e-01" nType="-99"/>
          <Node pos="r" depth="2" NCoef="0" IVar="-1" Cut="0.0000000000000000e+00" cType="1" res="4.0902625769376755e-03" rms="2.2461445629596710e-01" purity="6.8707305192947388e-01" nType="-99"/>
        </Node>
        <Node pos="r" depth="1" NCoef="0" IVar="15" Cut="6.3811092376708984e+00" cType="1" res="-5.7669635862112045e-03" rms="1.6221240162849426e-01" purity="1.6291199624538422e-01" nType="0">
          <Node pos="l" depth="2" NCoef="0" IVar="-1" Cut="0.0000000000000000e+00" cType="1" res="8.2378247752785683e-03" rms="1.6262400150299072e-01" purity="2.0912905037403107e-01" nType="-99"/>
          <Node pos="r" depth="2" NCoef="0" IVar="-1" Cut="0.0000000000000000e+00" cType="1" res="-2.7689527720212936e-02" rms="1.6099730134010315e-01" purity="1.1701294034719467e-01" nType="-99"/>
        </Node>
      </Node>
    </BinaryTree>
    <BinaryTree type="DecisionTree" boostWeight="1.0000000000000000e+00" itree="247">
      <Node pos="s" depth="0" NCoef="0" IVar="20" Cut="-5.5670890808105469e+01" cType="1" res="5.8665835240390152e-05" rms="2.0490176975727081e-01" purity="5.0203961133956909e-01" nType="0">
        <Node pos="l" depth="1" NCoef="0" IVar="-1" Cut="0.0000000000000000e+00" cType="1" res="3.5820189863443375e-02" rms="1.2534213066101074e-01" purity="9.4780099391937256e-01" nType="-99"/>
        <Node pos="r" depth="1" NCoef="0" IVar="11" Cut="7.2607893943786621e+00" cType="1" res="-1.1526220478117466e-03" rms="2.0899492502212524e-01" purity="4.7289147973060608e-01" nType="0">
          <Node pos="l" depth="2" NCoef="0" IVar="-1" Cut="0.0000000000000000e+00" cType="1" res="1.3387507060542703e-03" rms="2.0884045958518982e-01" purity="5.1540869474411011e-01" nType="-99"/>
          <Node pos="r" depth="2" NCoef="0" IVar="-1" Cut="0.0000000000000000e+00" cType="1" res="-7.7846571803092957e-03" rms="2.0926488935947418e-01" purity="3.5019850730895996e-01" nType="-99"/>
        </Node>
      </Node>
    </BinaryTree>
    <BinaryTree type="DecisionTree" boostWeight="1.0000000000000000e+00" itree="248">
      <Node pos="s" depth="0" NCoef="0" IVar="3" Cut="3.0979743003845215e+00" cType="1" res="2.4585865903645754e-03" rms="2.0835323631763458e-01" purity="5.0329810380935669e-01" nType="0">
        <Node pos="l" depth="1" NCoef="0" IVar="31" Cut="2.4747483432292938e-01" cType="1" res="4.7205174341797829e-03" rms="2.3406447470188141e-01" purity="6.3598287105560303e-01" nType="0">
          <Node pos="l" depth="2" NCoef="0" IVar="-1" Cut="0.0000000000000000e+00" cType="1" res="4.4277538545429707e-03" rms="2.3420166969299316e-01" purity="6.4724916219711304e-01" nType="-99"/>
          <Node pos="r" depth="2" NCoef="0" IVar="-1" Cut="0.0000000000000000e+00" cType="1" res="-1.8229341134428978e-02" rms="2.2799739241600037e-01" purity="2.9851162433624268e-01" nType="-99"/>
        </Node>
        <Node pos="r" depth="1" NCoef="0" IVar="34" Cut="1.9861310720443726e+00" cType="1" res="-6.1213406734168530e-03" rms="1.3043544255197048e-02" purity="0.0000000000000000e+00" nType="0">
          <Node pos="l" depth="2" NCoef="0" IVar="-1" Cut="0.0000000000000000e+00" cType="1" res="-5.2319005131721497e-02" rms="1.8698707222938538e-02" purity="0.0000000000000000e+00" nType="-99"/>
          <Node pos="r" depth="2" NCoef="0" IVar="-1" Cut="0.0000000000000000e+00" cType="1" res="-5.0872374325990677e-02" rms="7.0603806525468826e-03" purity="0.0000000000000000e+00" nType="-99"/>
        </Node>
      </Node>
    </BinaryTree>
    <BinaryTree type="DecisionTree" boostWeight="1.0000000000000000e+00" itree="249">
      <Node pos="s" depth="0" NCoef="0" IVar="31" Cut="7.6165363192558289e-02" cType="1" res="-1.0677920654416084e-03" rms="2.0530223846435547e-01" purity="4.9453812837600708e-01" nType="0">
        <Node pos="l" depth="1" NCoef="0" IVar="31" Cut="3.6408645100891590e-03" cType="1" res="9.1191887622699142e-04" rms="2.0713314414024353e-01" purity="5.5892288684844971e-01" nType="0">
          <Node pos="l" depth="2" NCoef="0" IVar="-1" Cut="0.0000000000000000e+00" cType="1" res="8.1243282184004784e-03" rms="1.8839235603809357e-01" purity="7.0638519525527954e-01" nType="-99"/>
          <Node pos="r" depth="2" NCoef="0" IVar="-1" Cut="0.0000000000000000e+00" cType="1" res="-2.3871862795203924e-03" rms="2.1614973247051239e-01" purity="4.8227444291114807e-01" nType="-99"/>
        </Node>
        <Node pos="r" depth="1" NCoef="0" IVar="19" Cut="1.9249194860458374e+00" cType="1" res="-9.6779987215995789e-03" rms="1.9691015779972076e-01" purity="2.1451465785503387e-01" nType="0">
          <Node pos="l" depth="2" NCoef="0" IVar="-1" Cut="0.0000000000000000e+00" cType="1" res="1.0170227847993374e-02" rms="1.9582837820053101e-01" purity="1.4698325097560883e-01" nType="-99"/>
          <Node pos="r" depth="2" NCoef="0" IVar="-1" Cut="0.0000000000000000e+00" cType="1" res="-1.3411538675427437e-02" rms="1.9695518910884857e-01" purity="2.3008939623832703e-01" nType="-99"/>
        </Node>
      </Node>
    </BinaryTree>
    <BinaryTree type="DecisionTree" boostWeight="1.0000000000000000e+00" itree="250">
      <Node pos="s" depth="0" NCoef="0" IVar="19" Cut="2.4474843978881836e+01" cType="1" res="5.1633175462484360e-04" rms="2.0584706962108612e-01" purity="4.9861469864845276e-01" nType="0">
        <Node pos="l" depth="1" NCoef="0" IVar="12" Cut="6.9189281463623047e+00" cType="1" res="-2.0766786765307188e-03" rms="2.1279625594615936e-01" purity="4.1076296567916870e-01" nType="0">
          <Node pos="l" depth="2" NCoef="0" IVar="-1" Cut="0.0000000000000000e+00" cType="1" res="-1.0754690505564213e-02" rms="2.1431940793991089e-01" purity="2.4913617968559265e-01" nType="-99"/>
          <Node pos="r" depth="2" NCoef="0" IVar="-1" Cut="0.0000000000000000e+00" cType="1" res="1.2978556333109736e-03" rms="2.1212960779666901e-01" purity="4.7013401985168457e-01" nType="-99"/>
        </Node>
        <Node pos="r" depth="1" NCoef="0" IVar="13" Cut="8.0462284088134766e+00" cType="1" res="8.9655546471476555e-03" rms="1.8110802769660950e-01" purity="7.8487616777420044e-01" nType="0">
          <Node pos="l" depth="2" NCoef="0" IVar="-1" Cut="0.0000000000000000e+00" cType="1" res="2.5091271847486496e-02" rms="1.7988280951976776e-01" purity="8.1961202621459961e-01" nType="-99"/>
          <Node pos="r" depth="2" NCoef="0" IVar="-1" Cut="0.0000000000000000e+00" cType="1" res="6.6133140353485942e-04" rms="1.8133509159088135e-01" purity="7.6379811763763428e-01" nType="-99"/>
        </Node>
      </Node>
    </BinaryTree>
    <BinaryTree type="DecisionTree" boostWeight="1.0000000000000000e+00" itree="251">
      <Node pos="s" depth="0" NCoef="0" IVar="33" Cut="9.5242604613304138e-02" cType="1" res="4.3623315286822617e-04" rms="2.0756967365741730e-01" purity="4.9913233518600464e-01" nType="0">
        <Node pos="l" depth="1" NCoef="0" IVar="34" Cut="6.3492217063903809e+00" cType="1" res="2.8937936294823885e-03" rms="2.0740096271038055e-01" purity="5.5328029394149780e-01" nType="0">
          <Node pos="l" depth="2" NCoef="0" IVar="-1" Cut="0.0000000000000000e+00" cType="1" res="3.7950191181153059e-03" rms="2.0854477584362030e-01" purity="5.7463932037353516e-01" nType="-99"/>
          <Node pos="r" depth="2" NCoef="0" IVar="-1" Cut="0.0000000000000000e+00" cType="1" res="-2.4942575022578239e-02" rms="1.8113943934440613e-01" purity="1.1739069968461990e-01" nType="-99"/>
        </Node>
        <Node pos="r" depth="1" NCoef="0" IVar="19" Cut="1.5672205686569214e+00" cType="1" res="-9.8918210715055466e-03" rms="2.0795994997024536e-01" purity="2.7157184481620789e-01" nType="0">
          <Node pos="l" depth="2" NCoef="0" IVar="-1" Cut="0.0000000000000000e+00" cType="1" res="1.1488601565361023e-02" rms="2.0431534945964813e-01" purity="1.8365848064422607e-01" nType="-99"/>
          <Node pos="r" depth="2" NCoef="0" IVar="-1" Cut="0.0000000000000000e+00" cType="1" res="-1.3648854568600655e-02" rms="2.0855955779552460e-01" purity="2.9271194338798523e-01" nType="-99"/>
        </Node>
      </Node>
    </BinaryTree>
    <BinaryTree type="DecisionTree" boostWeight="1.0000000000000000e+00" itree="252">
      <Node pos="s" depth="0" NCoef="0" IVar="15" Cut="5.9346647262573242e+00" cType="1" res="-1.2341896072030067e-03" rms="2.0765160024166107e-01" purity="4.9826425313949585e-01" nType="0">
        <Node pos="l" depth="1" NCoef="0" IVar="11" Cut="7.3888902664184570e+00" cType="1" res="9.1966129839420319e-03" rms="2.1924129128456116e-01" purity="5.1725304126739502e-01" nType="0">
          <Node pos="l" depth="2" NCoef="0" IVar="-1" Cut="0.0000000000000000e+00" cType="1" res="1.1963201686739922e-02" rms="2.1598072350025177e-01" purity="5.5411338806152344e-01" nType="-99"/>
          <Node pos="r" depth="2" NCoef="0" IVar="-1" Cut="0.0000000000000000e+00" cType="1" res="-1.1652185581624508e-02" rms="2.3566628992557526e-01" purity="3.0420163273811340e-01" nType="-99"/>
        </Node>
        <Node pos="r" depth="1" NCoef="0" IVar="13" Cut="8.6582040786743164e+00" cType="1" res="-4.5214309357106686e-03" rms="2.0375199615955353e-01" purity="4.9227994680404663e-01" nType="0">
          <Node pos="l" depth="2" NCoef="0" IVar="-1" Cut="0.0000000000000000e+00" cType="1" res="-7.9870782792568207e-03" rms="2.0612078905105591e-01" purity="4.7604846954345703e-01" nType="-99"/>
          <Node pos="r" depth="2" NCoef="0" IVar="-1" Cut="0.0000000000000000e+00" cType="1" res="7.7319229021668434e-03" rms="1.9529613852500916e-01" purity="5.4577463865280151e-01" nType="-99"/>
        </Node>
      </Node>
    </BinaryTree>
    <BinaryTree type="DecisionTree" boostWeight="1.0000000000000000e+00" itree="253">
      <Node pos="s" depth="0" NCoef="0" IVar="5" Cut="9.0829467773437500e+00" cType="1" res="7.5747456867247820e-04" rms="2.0689475536346436e-01" purity="4.9963769316673279e-01" nType="0">
        <Node pos="l" depth="1" NCoef="0" IVar="5" Cut="8.6648881435394287e-01" cType="1" res="1.7981213750317693e-03" rms="2.0819307863712311e-01" purity="5.1564592123031616e-01" nType="0">
          <Node pos="l" depth="2" NCoef="0" IVar="-1" Cut="0.0000000000000000e+00" cType="1" res="1.1237705126404762e-02" rms="2.0112670958042145e-01" purity="6.0993444919586182e-01" nType="-99"/>
          <Node pos="r" depth="2" NCoef="0" IVar="-1" Cut="0.0000000000000000e+00" cType="1" res="-2.1622823551297188e-03" rms="2.1109861135482788e-01" purity="4.7414958477020264e-01" nType="-99"/>
        </Node>
        <Node pos="r" depth="1" NCoef="0" IVar="-1" Cut="0.0000000000000000e+00" cType="1" res="-3.5526830703020096e-02" rms="1.6965469717979431e-01" purity="1.0358525067567825e-01" nType="-99"/>
      </Node>
    </BinaryTree>
    <BinaryTree type="DecisionTree" boostWeight="1.0000000000000000e+00" itree="254">
      <Node pos="s" depth="0" NCoef="0" IVar="11" Cut="6.4896101951599121e+00" cType="1" res="5.2738899830728769e-04" rms="2.0634728670120239e-01" purity="5.0441324710845947e-01" nType="0">
        <Node pos="l" depth="1" NCoef="0" IVar="34" Cut="1.1910109519958496e+00" cType="1" res="-5.4785939864814281e-03" rms="2.0929351449012756e-01" purity="4.6946302056312561e-01" nType="0">
          <Node pos="l" depth="2" NCoef="0" IVar="-1" Cut="0.0000000000000000e+00" cType="1" res="4.3415655381977558e-03" rms="1.9915421307086945e-01" purity="7.1864509582519531e-01" nType="-99"/>
          <Node pos="r" depth="2" NCoef="0" IVar="-1" Cut="0.0000000000000000e+00" cType="1" res="-1.0024303570389748e-02" rms="2.1399050951004028e-01" purity="3.4548756480216980e-01" nType="-99"/>
        </Node>
        <Node pos="r" depth="1" NCoef="0" IVar="16" Cut="3.8647371530532837e-01" cType="1" res="3.8336929865181446e-03" rms="2.0463207364082336e-01" purity="5.2365338802337646e-01" nType="0">
          <Node pos="l" depth="2" NCoef="0" IVar="-1" Cut="0.0000000000000000e+00" cType="1" res="-1.7487748991698027e-03" rms="2.2411689162254333e-01" purity="3.3555269241333008e-01" nType="-99"/>
          <Node pos="r" depth="2" NCoef="0" IVar="-1" Cut="0.0000000000000000e+00" cType="1" res="1.2839325703680515e-02" rms="1.7899104952812195e-01" purity="7.4313700199127197e-01" nType="-99"/>
        </Node>
      </Node>
    </BinaryTree>
    <BinaryTree type="DecisionTree" boostWeight="1.0000000000000000e+00" itree="255">
      <Node pos="s" depth="0" NCoef="0" IVar="9" Cut="1.8087589263916016e+01" cType="1" res="5.4675352293998003e-04" rms="2.0608454942703247e-01" purity="5.0208485126495361e-01" nType="0">
        <Node pos="l" depth="1" NCoef="0" IVar="1" Cut="3.6418914794921875e+00" cType="1" res="3.4233445767313242e-03" rms="2.0913231372833252e-01" purity="5.2452945709228516e-01" nType="0">
          <Node pos="l" depth="2" NCoef="0" IVar="-1" Cut="0.0000000000000000e+00" cType="1" res="-1.4651699922978878e-02" rms="2.0421531796455383e-01" purity="3.4469196200370789e-01" nType="-99"/>
          <Node pos="r" depth="2" NCoef="0" IVar="-1" Cut="0.0000000000000000e+00" cType="1" res="7.3274774476885796e-03" rms="2.1002662181854248e-01" purity="5.6550496816635132e-01" nType="-99"/>
        </Node>
        <Node pos="r" depth="1" NCoef="0" IVar="16" Cut="3.6750912666320801e-01" cType="1" res="-5.8415853418409824e-03" rms="1.9900071620941162e-01" purity="4.5223993062973022e-01" nType="0">
          <Node pos="l" depth="2" NCoef="0" IVar="-1" Cut="0.0000000000000000e+00" cType="1" res="-1.8892094492912292e-02" rms="2.0434190332889557e-01" purity="1.8601611256599426e-01" nType="-99"/>
          <Node pos="r" depth="2" NCoef="0" IVar="-1" Cut="0.0000000000000000e+00" cType="1" res="9.1619212180376053e-03" rms="1.9281521439552307e-01" purity="6.9789832830429077e-01" nType="-99"/>
        </Node>
      </Node>
    </BinaryTree>
    <BinaryTree type="DecisionTree" boostWeight="1.0000000000000000e+00" itree="256">
      <Node pos="s" depth="0" NCoef="0" IVar="28" Cut="5.7395690679550171e-01" cType="1" res="-7.8983674757182598e-04" rms="2.0630662143230438e-01" purity="5.0104165077209473e-01" nType="0">
        <Node pos="l" depth="1" NCoef="0" IVar="14" Cut="7.8916749954223633e+00" cType="1" res="-6.1479108408093452e-03" rms="2.1416348218917847e-01" purity="3.1787043809890747e-01" nType="0">
          <Node pos="l" depth="2" NCoef="0" IVar="-1" Cut="0.0000000000000000e+00" cType="1" res="3.8840246852487326e-03" rms="2.1602474153041840e-01" purity="3.4587699174880981e-01" nType="-99"/>
          <Node pos="r" depth="2" NCoef="0" IVar="-1" Cut="0.0000000000000000e+00" cType="1" res="-1.0106736794114113e-02" rms="2.1307942271232605e-01" purity="3.0431646108627319e-01" nType="-99"/>
        </Node>
        <Node pos="r" depth="1" NCoef="0" IVar="19" Cut="1.4581582546234131e+00" cType="1" res="2.3429277352988720e-03" rms="2.0150505006313324e-01" purity="6.0813844203948975e-01" nType="0">
          <Node pos="l" depth="2" NCoef="0" IVar="-1" Cut="0.0000000000000000e+00" cType="1" res="1.4214621856808662e-02" rms="2.1049901843070984e-01" purity="5.2340990304946899e-01" nType="-99"/>
          <Node pos="r" depth="2" NCoef="0" IVar="-1" Cut="0.0000000000000000e+00" cType="1" res="1.4524627476930618e-04" rms="1.9967187941074371e-01" purity="6.2426269054412842e-01" nType="-99"/>
        </Node>
      </Node>
    </BinaryTree>
    <BinaryTree type="DecisionTree" boostWeight="1.0000000000000000e+00" itree="257">
      <Node pos="s" depth="0" NCoef="0" IVar="4" Cut="6.8980369567871094e+00" cType="1" res="-1.1538886610651389e-04" rms="2.0754650235176086e-01" purity="4.9963951110839844e-01" nType="0">
        <Node pos="l" depth="1" NCoef="0" IVar="5" Cut="3.8826887607574463e+00" cType="1" res="-8.9062139159068465e-04" rms="2.0730561017990112e-01" purity="5.0582659244537354e-01" nType="0">
          <Node pos="l" depth="2" NCoef="0" IVar="-1" Cut="0.0000000000000000e+00" cType="1" res="7.3849741602316499e-04" rms="2.0873384177684784e-01" purity="5.3757166862487793e-01" nType="-99"/>
          <Node pos="r" depth="2" NCoef="0" IVar="-1" Cut="0.0000000000000000e+00" cType="1" res="-1.9807871431112289e-02" rms="1.9198836386203766e-01" purity="1.9468227028846741e-01" nType="-99"/>
        </Node>
        <Node pos="r" depth="1" NCoef="0" IVar="-1" Cut="0.0000000000000000e+00" cType="1" res="2.0563626661896706e-02" rms="2.1302565932273865e-01" purity="3.2693967223167419e-01" nType="-99"/>
      </Node>
    </BinaryTree>
    <BinaryTree type="DecisionTree" boostWeight="1.0000000000000000e+00" itree="258">
      <Node pos="s" depth="0" NCoef="0" IVar="15" Cut="5.6983275413513184e+00" cType="1" res="6.0801889048889279e-04" rms="2.0570439100265503e-01" purity="5.0186079740524292e-01" nType="0">
        <Node pos="l" depth="1" NCoef="0" IVar="3" Cut="3.1041188240051270e+00" cType="1" res="1.1680762283504009e-02" rms="2.1577259898185730e-01" purity="5.6870239973068237e-01" nType="0">
          <Node pos="l" depth="2" NCoef="0" IVar="-1" Cut="0.0000000000000000e+00" cType="1" res="1.1754718609154224e-02" rms="2.3833402991294861e-01" purity="6.9575458765029907e-01" nType="-99"/>
          <Node pos="r" depth="2" NCoef="0" IVar="-1" Cut="0.0000000000000000e+00" cType="1" res="-5.1843248307704926e-02" rms="1.4888035133481026e-02" purity="0.0000000000000000e+00" nType="-99"/>
        </Node>
        <Node pos="r" depth="1" NCoef="0" IVar="23" Cut="4.2919850349426270e-01" cType="1" res="-1.1868173023685813e-03" rms="2.0396898686885834e-01" purity="4.9102607369422913e-01" nType="0">
          <Node pos="l" depth="2" NCoef="0" IVar="-1" Cut="0.0000000000000000e+00" cType="1" res="-1.2063512578606606e-02" rms="1.7349073290824890e-01" purity="7.2836987674236298e-02" nType="-99"/>
          <Node pos="r" depth="2" NCoef="0" IVar="-1" Cut="0.0000000000000000e+00" cType="1" res="9.4066403107717633e-04" rms="2.1080848574638367e-01" purity="5.9500443935394287e-01" nType="-99"/>
        </Node>
      </Node>
    </BinaryTree>
    <BinaryTree type="DecisionTree" boostWeight="1.0000000000000000e+00" itree="259">
      <Node pos="s" depth="0" NCoef="0" IVar="34" Cut="7.9487633705139160e-01" cType="1" res="1.9505762611515820e-04" rms="2.0518004894256592e-01" purity="4.9894660711288452e-01" nType="0">
        <Node pos="l" depth="1" NCoef="0" IVar="11" Cut="7.1982312202453613e+00" cType="1" res="6.3898698426783085e-03" rms="1.9852547347545624e-01" purity="6.5293318033218384e-01" nType="0">
          <Node pos="l" depth="2" NCoef="0" IVar="-1" Cut="0.0000000000000000e+00" cType="1" res="1.4121854677796364e-02" rms="1.9540299475193024e-01" purity="7.3363602161407471e-01" nType="-99"/>
          <Node pos="r" depth="2" NCoef="0" IVar="-1" Cut="0.0000000000000000e+00" cType="1" res="-7.7337678521871567e-03" rms="2.0369364321231842e-01" purity="4.9496152997016907e-01" nType="-99"/>
        </Node>
        <Node pos="r" depth="1" NCoef="0" IVar="20" Cut="-3.7946712493896484e+01" cType="1" res="-2.0924338605254889e-03" rms="2.0753663778305054e-01" purity="4.4208571314811707e-01" nType="0">
          <Node pos="l" depth="2" NCoef="0" IVar="-1" Cut="0.0000000000000000e+00" cType="1" res="1.2295298278331757e-02" rms="1.6694360971450806e-01" purity="8.5127300024032593e-01" nType="-99"/>
          <Node pos="r" depth="2" NCoef="0" IVar="-1" Cut="0.0000000000000000e+00" cType="1" res="-3.8669172208756208e-03" rms="2.1370992064476013e-01" purity="3.7136960029602051e-01" nType="-99"/>
        </Node>
      </Node>
    </BinaryTree>
    <BinaryTree type="DecisionTree" boostWeight="1.0000000000000000e+00" itree="260">
      <Node pos="s" depth="0" NCoef="0" IVar="12" Cut="6.9173731803894043e+00" cType="1" res="5.6017813039943576e-04" rms="2.0634420216083527e-01" purity="5.0035810470581055e-01" nType="0">
        <Node pos="l" depth="1" NCoef="0" IVar="23" Cut="7.6219457387924194e-01" cType="1" res="-6.8144830875098705e-03" rms="2.1513959765434265e-01" purity="3.4117704629898071e-01" nType="0">
          <Node pos="l" depth="2" NCoef="0" IVar="-1" Cut="0.0000000000000000e+00" cType="1" res="1.0590760502964258e-03" rms="2.0863409340381622e-01" purity="1.6542142629623413e-01" nType="-99"/>
          <Node pos="r" depth="2" NCoef="0" IVar="-1" Cut="0.0000000000000000e+00" cType="1" res="-1.8045702949166298e-02" rms="2.2500765323638916e-01" purity="6.3611781597137451e-01" nType="-99"/>
        </Node>
        <Node pos="r" depth="1" NCoef="0" IVar="23" Cut="5.7260632514953613e-01" cType="1" res="3.1382855959236622e-03" rms="2.0311647653579712e-01" purity="5.5600619316101074e-01" nType="0">
          <Node pos="l" depth="2" NCoef="0" IVar="-1" Cut="0.0000000000000000e+00" cType="1" res="-6.6470773890614510e-03" rms="1.9468684494495392e-01" purity="9.2478349804878235e-02" nType="-99"/>
          <Node pos="r" depth="2" NCoef="0" IVar="-1" Cut="0.0000000000000000e+00" cType="1" res="6.5227691084146500e-03" rms="2.0595787465572357e-01" purity="7.2265750169754028e-01" nType="-99"/>
        </Node>
      </Node>
    </BinaryTree>
    <BinaryTree type="DecisionTree" boostWeight="1.0000000000000000e+00" itree="261">
      <Node pos="s" depth="0" NCoef="0" IVar="25" Cut="3.6818084120750427e-01" cType="1" res="8.9649407891556621e-04" rms="2.0618844032287598e-01" purity="4.9730616807937622e-01" nType="0">
        <Node pos="l" depth="1" NCoef="0" IVar="32" Cut="5.7132042944431305e-02" cType="1" res="2.8454794082790613e-03" rms="2.0881038904190063e-01" purity="5.5297935009002686e-01" nType="0">
          <Node pos="l" depth="2" NCoef="0" IVar="-1" Cut="0.0000000000000000e+00" cType="1" res="5.0682662986218929e-03" rms="2.1019317209720612e-01" purity="6.2458544969558716e-01" nType="-99"/>
          <Node pos="r" depth="2" NCoef="0" IVar="-1" Cut="0.0000000000000000e+00" cType="1" res="-7.0673222653567791e-03" rms="2.0289869606494904e-01" purity="2.6773893833160400e-01" nType="-99"/>
        </Node>
        <Node pos="r" depth="1" NCoef="0" IVar="10" Cut="6.7168431282043457e+00" cType="1" res="-1.0495007038116455e-02" rms="1.8974159657955170e-01" purity="1.7190541326999664e-01" nType="0">
          <Node pos="l" depth="2" NCoef="0" IVar="-1" Cut="0.0000000000000000e+00" cType="1" res="-2.2994145750999451e-02" rms="1.9502903521060944e-01" purity="1.5820509195327759e-01" nType="-99"/>
          <Node pos="r" depth="2" NCoef="0" IVar="-1" Cut="0.0000000000000000e+00" cType="1" res="-3.5412129363976419e-04" rms="1.8343994021415710e-01" purity="1.8637321889400482e-01" nType="-99"/>
        </Node>
      </Node>
    </BinaryTree>
    <BinaryTree type="DecisionTree" boostWeight="1.0000000000000000e+00" itree="262">
      <Node pos="s" depth="0" NCoef="0" IVar="9" Cut="4.5851631164550781e+01" cType="1" res="1.8482195446267724e-03" rms="2.0881886780261993e-01" purity="5.0327664613723755e-01" nType="0">
        <Node pos="l" depth="1" NCoef="0" IVar="1" Cut="4.8100857734680176e+00" cType="1" res="2.5053082499653101e-03" rms="2.1029518544673920e-01" purity="5.1313579082489014e-01" nType="0">
          <Node pos="l" depth="2" NCoef="0" IVar="-1" Cut="0.0000000000000000e+00" cType="1" res="-6.7034079693257809e-03" rms="2.0845089852809906e-01" purity="4.1212561726570129e-01" nType="-99"/>
          <Node pos="r" depth="2" NCoef="0" IVar="-1" Cut="0.0000000000000000e+00" cType="1" res="6.4542959444224834e-03" rms="2.1100965142250061e-01" purity="5.5988037586212158e-01" nType="-99"/>
        </Node>
        <Node pos="r" depth="1" NCoef="0" IVar="-1" Cut="0.0000000000000000e+00" cType="1" res="-2.4102415889501572e-02" rms="1.5176999568939209e-01" purity="1.8297854065895081e-01" nType="-99"/>
      </Node>
    </BinaryTree>
    <BinaryTree type="DecisionTree" boostWeight="1.0000000000000000e+00" itree="263">
      <Node pos="s" depth="0" NCoef="0" IVar="21" Cut="7.0476441383361816e+00" cType="1" res="7.7318301191553473e-04" rms="2.0658101141452789e-01" purity="5.0092470645904541e-01" nType="0">
        <Node pos="l" depth="1" NCoef="0" IVar="7" Cut="3.7573027610778809e+00" cType="1" res="-7.0559233427047729e-03" rms="2.1523544192314148e-01" purity="2.8102815151214600e-01" nType="0">
          <Node pos="l" depth="2" NCoef="0" IVar="-1" Cut="0.0000000000000000e+00" cType="1" res="-9.1929184272885323e-03" rms="2.1776705980300903e-01" purity="2.9547756910324097e-01" nType="-99"/>
          <Node pos="r" depth="2" NCoef="0" IVar="-1" Cut="0.0000000000000000e+00" cType="1" res="1.2803484685719013e-02" rms="1.9733233749866486e-01" purity="1.8816512823104858e-01" nType="-99"/>
        </Node>
        <Node pos="r" depth="1" NCoef="0" IVar="3" Cut="3.0998809337615967e+00" cType="1" res="3.5372609272599220e-03" rms="2.0336565375328064e-01" purity="5.7855951786041260e-01" nType="0">
          <Node pos="l" depth="2" NCoef="0" IVar="-1" Cut="0.0000000000000000e+00" cType="1" res="4.7121285460889339e-03" rms="2.2377254068851471e-01" purity="7.0133984088897705e-01" nType="-99"/>
          <Node pos="r" depth="2" NCoef="0" IVar="-1" Cut="0.0000000000000000e+00" cType="1" res="-5.1803048700094223e-02" rms="1.3160902075469494e-02" purity="0.0000000000000000e+00" nType="-99"/>
        </Node>
      </Node>
    </BinaryTree>
    <BinaryTree type="DecisionTree" boostWeight="1.0000000000000000e+00" itree="264">
      <Node pos="s" depth="0" NCoef="0" IVar="15" Cut="5.4623360633850098e+00" cType="1" res="-2.6940729003399611e-03" rms="2.0698438584804535e-01" purity="4.9823865294456482e-01" nType="0">
        <Node pos="l" depth="1" NCoef="0" IVar="2" Cut="7.2389669418334961e+00" cType="1" res="1.2329011224210262e-02" rms="2.2312951087951660e-01" purity="5.8550637960433960e-01" nType="0">
          <Node pos="l" depth="2" NCoef="0" IVar="-1" Cut="0.0000000000000000e+00" cType="1" res="1.7490524798631668e-02" rms="2.2839251160621643e-01" purity="6.0657167434692383e-01" nType="-99"/>
          <Node pos="r" depth="2" NCoef="0" IVar="-1" Cut="0.0000000000000000e+00" cType="1" res="-1.4730871189385653e-03" rms="2.1365752816200256e-01" purity="5.5171281099319458e-01" nType="-99"/>
        </Node>
        <Node pos="r" depth="1" NCoef="0" IVar="17" Cut="5.4161102294921875e+01" cType="1" res="-3.8005930837243795e-03" rms="2.0570175349712372e-01" purity="4.9181097745895386e-01" nType="0">
          <Node pos="l" depth="2" NCoef="0" IVar="-1" Cut="0.0000000000000000e+00" cType="1" res="-4.7473809681832790e-03" rms="2.1029983460903168e-01" purity="4.5935800671577454e-01" nType="-99"/>
          <Node pos="r" depth="2" NCoef="0" IVar="-1" Cut="0.0000000000000000e+00" cType="1" res="2.0176757127046585e-02" rms="1.2540477514266968e-01" purity="9.3904674053192139e-01" nType="-99"/>
        </Node>
      </Node>
    </BinaryTree>
    <BinaryTree type="DecisionTree" boostWeight="1.0000000000000000e+00" itree="265">
      <Node pos="s" depth="0" NCoef="0" IVar="22" Cut="3.1879384994506836e+01" cType="1" res="-1.0894421720877290e-03" rms="2.0453120768070221e-01" purity="4.9658527970314026e-01" nType="0">
        <Node pos="l" depth="1" NCoef="0" IVar="10" Cut="7.3820095062255859e+00" cType="1" res="-2.2290449123829603e-03" rms="2.0812337100505829e-01" purity="4.6601277589797974e-01" nType="0">
          <Node pos="l" depth="2" NCoef="0" IVar="-1" Cut="0.0000000000000000e+00" cType="1" res="6.1701040249317884e-04" rms="2.0612245798110962e-01" purity="4.9003016948699951e-01" nType="-99"/>
          <Node pos="r" depth="2" NCoef="0" IVar="-1" Cut="0.0000000000000000e+00" cType="1" res="-7.5238305144011974e-03" rms="2.1204760670661926e-01" purity="4.1675660014152527e-01" nType="-99"/>
        </Node>
        <Node pos="r" depth="1" NCoef="0" IVar="-1" Cut="0.0000000000000000e+00" cType="1" res="2.2739194333553314e-02" rms="1.5038332343101501e-01" purity="8.8821208477020264e-01" nType="-99"/>
      </Node>
    </BinaryTree>
    <BinaryTree type="DecisionTree" boostWeight="1.0000000000000000e+00" itree="266">
      <Node pos="s" depth="0" NCoef="0" IVar="10" Cut="7.3968105316162109e+00" cType="1" res="-4.6480807941406965e-04" rms="2.0502519607543945e-01" purity="4.9956613779067993e-01" nType="0">
        <Node pos="l" depth="1" NCoef="0" IVar="19" Cut="7.0776615142822266e+00" cType="1" res="2.5491721462458372e-03" rms="2.0329634845256805e-01" purity="5.2347463369369507e-01" nType="0">
          <Node pos="l" depth="2" NCoef="0" IVar="-1" Cut="0.0000000000000000e+00" cType="1" res="-1.3883983716368675e-02" rms="2.0382329821586609e-01" purity="2.3675796389579773e-01" nType="-99"/>
          <Node pos="r" depth="2" NCoef="0" IVar="-1" Cut="0.0000000000000000e+00" cType="1" res="6.3197440467774868e-03" rms="2.0298370718955994e-01" purity="5.9695255756378174e-01" nType="-99"/>
        </Node>
        <Node pos="r" depth="1" NCoef="0" IVar="15" Cut="6.9898171424865723e+00" cType="1" res="-6.9452100433409214e-03" rms="2.0854642987251282e-01" purity="4.4816026091575623e-01" nType="0">
          <Node pos="l" depth="2" NCoef="0" IVar="-1" Cut="0.0000000000000000e+00" cType="1" res="-1.4523982070386410e-02" rms="2.1894930303096771e-01" purity="3.7441217899322510e-01" nType="-99"/>
          <Node pos="r" depth="2" NCoef="0" IVar="-1" Cut="0.0000000000000000e+00" cType="1" res="8.3082010969519615e-03" rms="1.9052740931510925e-01" purity="5.6177711486816406e-01" nType="-99"/>
        </Node>
      </Node>
    </BinaryTree>
    <BinaryTree type="DecisionTree" boostWeight="1.0000000000000000e+00" itree="267">
      <Node pos="s" depth="0" NCoef="0" IVar="10" Cut="7.7954273223876953e+00" cType="1" res="1.1729182442650199e-03" rms="2.0893876254558563e-01" purity="5.0232481956481934e-01" nType="0">
        <Node pos="l" depth="1" NCoef="0" IVar="11" Cut="7.5994100570678711e+00" cType="1" res="-5.5260612862184644e-04" rms="2.0704710483551025e-01" purity="5.0821083784103394e-01" nType="0">
          <Node pos="l" depth="2" NCoef="0" IVar="-1" Cut="0.0000000000000000e+00" cType="1" res="1.2889259960502386e-03" rms="2.0817019045352936e-01" purity="5.3025567531585693e-01" nType="-99"/>
          <Node pos="r" depth="2" NCoef="0" IVar="-1" Cut="0.0000000000000000e+00" cType="1" res="-1.2281893752515316e-02" rms="1.9902485609054565e-01" purity="3.6230447888374329e-01" nType="-99"/>
        </Node>
        <Node pos="r" depth="1" NCoef="0" IVar="0" Cut="1.0212147712707520e+01" cType="1" res="1.2025100179016590e-02" rms="2.2015428543090820e-01" purity="4.6530666947364807e-01" nType="0">
          <Node pos="l" depth="2" NCoef="0" IVar="-1" Cut="0.0000000000000000e+00" cType="1" res="1.9704552367329597e-02" rms="2.2847515344619751e-01" purity="5.1329344511032104e-01" nType="-99"/>
          <Node pos="r" depth="2" NCoef="0" IVar="-1" Cut="0.0000000000000000e+00" cType="1" res="-3.4629523288458586e-03" rms="2.0419466495513916e-01" purity="3.8309904932975769e-01" nType="-99"/>
        </Node>
      </Node>
    </BinaryTree>
    <BinaryTree type="DecisionTree" boostWeight="1.0000000000000000e+00" itree="268">
      <Node pos="s" depth="0" NCoef="0" IVar="22" Cut="2.6194787979125977e+01" cType="1" res="1.4259269228205085e-03" rms="2.0842652022838593e-01" purity="5.0231581926345825e-01" nType="0">
        <Node pos="l" depth="1" NCoef="0" IVar="25" Cut="6.9381219148635864e-01" cType="1" res="-2.6680983137339354e-04" rms="2.1414348483085632e-01" purity="4.4686782360076904e-01" nType="0">
          <Node pos="l" depth="2" NCoef="0" IVar="-1" Cut="0.0000000000000000e+00" cType="1" res="4.8438773956149817e-04" rms="2.1551242470741272e-01" purity="4.5951539278030396e-01" nType="-99"/>
          <Node pos="r" depth="2" NCoef="0" IVar="-1" Cut="0.0000000000000000e+00" cType="1" res="-2.6608772575855255e-02" rms="1.7352114617824554e-01" purity="1.1753036081790924e-01" nType="-99"/>
        </Node>
        <Node pos="r" depth="1" NCoef="0" IVar="34" Cut="2.7780895233154297e+00" cType="1" res="1.1506124399602413e-02" rms="1.7010827362537384e-01" purity="8.3250683546066284e-01" nType="0">
          <Node pos="l" depth="2" NCoef="0" IVar="-1" Cut="0.0000000000000000e+00" cType="1" res="8.8377930223941803e-03" rms="1.5635795891284943e-01" purity="8.7527865171432495e-01" nType="-99"/>
          <Node pos="r" depth="2" NCoef="0" IVar="-1" Cut="0.0000000000000000e+00" cType="1" res="3.1591877341270447e-02" rms="2.1405218541622162e-01" purity="6.6546714305877686e-01" nType="-99"/>
        </Node>
      </Node>
    </BinaryTree>
    <BinaryTree type="DecisionTree" boostWeight="1.0000000000000000e+00" itree="269">
      <Node pos="s" depth="0" NCoef="0" IVar="33" Cut="9.5237940549850464e-02" cType="1" res="-1.5015614917501807e-03" rms="2.0635069906711578e-01" purity="4.9901992082595825e-01" nType="0">
        <Node pos="l" depth="1" NCoef="0" IVar="27" Cut="1.4496050775051117e-01" cType="1" res="8.9786417083814740e-04" rms="2.0577581226825714e-01" purity="5.5385285615921021e-01" nType="0">
          <Node pos="l" depth="2" NCoef="0" IVar="-1" Cut="0.0000000000000000e+00" cType="1" res="-2.9271852225065231e-02" rms="1.9964689016342163e-01" purity="1.7136679589748383e-01" nType="-99"/>
          <Node pos="r" depth="2" NCoef="0" IVar="-1" Cut="0.0000000000000000e+00" cType="1" res="1.8203433137387037e-03" rms="2.0590835809707642e-01" purity="5.6655180454254150e-01" nType="-99"/>
        </Node>
        <Node pos="r" depth="1" NCoef="0" IVar="10" Cut="6.5128374099731445e+00" cType="1" res="-1.1789022013545036e-02" rms="2.0848478376865387e-01" purity="2.6392543315887451e-01" nType="0">
          <Node pos="l" depth="2" NCoef="0" IVar="-1" Cut="0.0000000000000000e+00" cType="1" res="-3.0614547431468964e-02" rms="1.8919949233531952e-01" purity="2.1207386255264282e-01" nType="-99"/>
          <Node pos="r" depth="2" NCoef="0" IVar="-1" Cut="0.0000000000000000e+00" cType="1" res="-6.1065857298672199e-03" rms="2.1481604874134064e-01" purity="2.8275427222251892e-01" nType="-99"/>
        </Node>
      </Node>
    </BinaryTree>
    <BinaryTree type="DecisionTree" boostWeight="1.0000000000000000e+00" itree="270">
      <Node pos="s" depth="0" NCoef="0" IVar="11" Cut="6.4263243675231934e+00" cType="1" res="2.1946725901216269e-03" rms="2.0785415172576904e-01" purity="5.0386160612106323e-01" nType="0">
        <Node pos="l" depth="1" NCoef="0" IVar="34" Cut="1.9854919910430908e+00" cType="1" res="-4.0200636722147465e-03" rms="2.0889641344547272e-01" purity="4.6384641528129578e-01" nType="0">
          <Node pos="l" depth="2" NCoef="0" IVar="-1" Cut="0.0000000000000000e+00" cType="1" res="5.1642530597746372e-03" rms="2.0829129219055176e-01" purity="6.8260693550109863e-01" nType="-99"/>
          <Node pos="r" depth="2" NCoef="0" IVar="-1" Cut="0.0000000000000000e+00" cType="1" res="-1.3839670456945896e-02" rms="2.0907701551914215e-01" purity="2.5420129299163818e-01" nType="-99"/>
        </Node>
        <Node pos="r" depth="1" NCoef="0" IVar="13" Cut="8.0272941589355469e+00" cType="1" res="5.1777535118162632e-03" rms="2.0728582143783569e-01" purity="5.2306896448135376e-01" nType="0">
          <Node pos="l" depth="2" NCoef="0" IVar="-1" Cut="0.0000000000000000e+00" cType="1" res="1.4179741032421589e-02" rms="2.2053131461143494e-01" purity="5.2506113052368164e-01" nType="-99"/>
          <Node pos="r" depth="2" NCoef="0" IVar="-1" Cut="0.0000000000000000e+00" cType="1" res="1.6922778449952602e-03" rms="2.0231112837791443e-01" purity="5.2236926555633545e-01" nType="-99"/>
        </Node>
      </Node>
    </BinaryTree>
    <BinaryTree type="DecisionTree" boostWeight="1.0000000000000000e+00" itree="271">
      <Node pos="s" depth="0" NCoef="0" IVar="27" Cut="5.2534639835357666e-01" cType="1" res="-1.0467232204973698e-03" rms="2.0647983253002167e-01" purity="4.9898809194564819e-01" nType="0">
        <Node pos="l" depth="1" NCoef="0" IVar="23" Cut="7.6252138614654541e-01" cType="1" res="-1.1645652353763580e-02" rms="2.0020163059234619e-01" purity="1.7484581470489502e-01" nType="0">
          <Node pos="l" depth="2" NCoef="0" IVar="-1" Cut="0.0000000000000000e+00" cType="1" res="-4.6237818896770477e-03" rms="1.6464649140834808e-01" purity="4.7935135662555695e-02" nType="-99"/>
          <Node pos="r" depth="2" NCoef="0" IVar="-1" Cut="0.0000000000000000e+00" cType="1" res="-2.1149452775716782e-02" rms="2.5774529576301575e-01" purity="4.3741023540496826e-01" nType="-99"/>
        </Node>
        <Node pos="r" depth="1" NCoef="0" IVar="27" Cut="9.7713571786880493e-01" cType="1" res="4.4429031549952924e-04" rms="2.0730429887771606e-01" purity="5.4458707571029663e-01" nType="0">
          <Node pos="l" depth="2" NCoef="0" IVar="-1" Cut="0.0000000000000000e+00" cType="1" res="-3.2262112945318222e-03" rms="2.1919214725494385e-01" purity="3.6301162838935852e-01" nType="-99"/>
          <Node pos="r" depth="2" NCoef="0" IVar="-1" Cut="0.0000000000000000e+00" cType="1" res="5.6613041087985039e-03" rms="1.9121418893337250e-01" purity="7.7264398336410522e-01" nType="-99"/>
        </Node>
      </Node>
    </BinaryTree>
    <BinaryTree type="DecisionTree" boostWeight="1.0000000000000000e+00" itree="272">
      <Node pos="s" depth="0" NCoef="0" IVar="27" Cut="3.3351770043373108e-01" cType="1" res="-1.9531889120116830e-04" rms="2.0750804245471954e-01" purity="5.0316762924194336e-01" nType="0">
        <Node pos="l" depth="1" NCoef="0" IVar="23" Cut="6.6795134544372559e-01" cType="1" res="-1.5332096256315708e-02" rms="1.9183175265789032e-01" purity="1.5344561636447906e-01" nType="0">
          <Node pos="l" depth="2" NCoef="0" IVar="-1" Cut="0.0000000000000000e+00" cType="1" res="-3.7650645244866610e-03" rms="1.4823585748672485e-01" purity="3.7523292005062103e-02" nType="-99"/>
          <Node pos="r" depth="2" NCoef="0" IVar="-1" Cut="0.0000000000000000e+00" cType="1" res="-2.6584537699818611e-02" rms="2.3718240857124329e-01" purity="3.1003484129905701e-01" nType="-99"/>
        </Node>
        <Node pos="r" depth="1" NCoef="0" IVar="24" Cut="9.5235085487365723e-01" cType="1" res="1.0065266396850348e-03" rms="2.0865522325038910e-01" purity="5.3093522787094116e-01" nType="0">
          <Node pos="l" depth="2" NCoef="0" IVar="-1" Cut="0.0000000000000000e+00" cType="1" res="-2.3603804875165224e-03" rms="2.1275416016578674e-01" purity="3.8118752837181091e-01" nType="-99"/>
          <Node pos="r" depth="2" NCoef="0" IVar="-1" Cut="0.0000000000000000e+00" cType="1" res="5.4940022528171539e-03" rms="2.0318095386028290e-01" purity="7.2336065769195557e-01" nType="-99"/>
        </Node>
      </Node>
    </BinaryTree>
    <BinaryTree type="DecisionTree" boostWeight="1.0000000000000000e+00" itree="273">
      <Node pos="s" depth="0" NCoef="0" IVar="22" Cut="8.7684125900268555e+00" cType="1" res="-1.4552010688930750e-03" rms="2.0581658184528351e-01" purity="4.9476572871208191e-01" nType="0">
        <Node pos="l" depth="1" NCoef="0" IVar="14" Cut="8.7400388717651367e+00" cType="1" res="-6.3423858955502510e-03" rms="2.1194574236869812e-01" purity="3.3423826098442078e-01" nType="0">
          <Node pos="l" depth="2" NCoef="0" IVar="-1" Cut="0.0000000000000000e+00" cType="1" res="-9.8377969115972519e-03" rms="2.1528676152229309e-01" purity="3.2104843854904175e-01" nType="-99"/>
          <Node pos="r" depth="2" NCoef="0" IVar="-1" Cut="0.0000000000000000e+00" cType="1" res="9.7223054617643356e-03" rms="1.9924467802047729e-01" purity="3.7981432676315308e-01" nType="-99"/>
        </Node>
        <Node pos="r" depth="1" NCoef="0" IVar="15" Cut="6.5061120986938477e+00" cType="1" res="1.3144873082637787e-03" rms="2.0220816135406494e-01" purity="5.8574062585830688e-01" nType="0">
          <Node pos="l" depth="2" NCoef="0" IVar="-1" Cut="0.0000000000000000e+00" cType="1" res="6.8757683038711548e-03" rms="2.0932663977146149e-01" purity="5.7922613620758057e-01" nType="-99"/>
          <Node pos="r" depth="2" NCoef="0" IVar="-1" Cut="0.0000000000000000e+00" cType="1" res="-3.9470107294619083e-03" rms="1.9575732946395874e-01" purity="5.9132874011993408e-01" nType="-99"/>
        </Node>
      </Node>
    </BinaryTree>
    <BinaryTree type="DecisionTree" boostWeight="1.0000000000000000e+00" itree="274">
      <Node pos="s" depth="0" NCoef="0" IVar="2" Cut="2.6476831436157227e+01" cType="1" res="-8.4540637908503413e-04" rms="2.0459814369678497e-01" purity="4.9944943189620972e-01" nType="0">
        <Node pos="l" depth="1" NCoef="0" IVar="11" Cut="6.2573661804199219e+00" cType="1" res="-1.1175904364790767e-04" rms="2.0599180459976196e-01" purity="5.1010465621948242e-01" nType="0">
          <Node pos="l" depth="2" NCoef="0" IVar="-1" Cut="0.0000000000000000e+00" cType="1" res="-6.9398232735693455e-03" rms="2.0956264436244965e-01" purity="4.3115594983100891e-01" nType="-99"/>
          <Node pos="r" depth="2" NCoef="0" IVar="-1" Cut="0.0000000000000000e+00" cType="1" res="2.0587183535099030e-03" rms="2.0478817820549011e-01" purity="5.3537571430206299e-01" nType="-99"/>
        </Node>
        <Node pos="r" depth="1" NCoef="0" IVar="-1" Cut="0.0000000000000000e+00" cType="1" res="-3.4536648541688919e-02" rms="1.4538593590259552e-01" purity="1.2621310353279114e-01" nType="-99"/>
      </Node>
    </BinaryTree>
    <BinaryTree type="DecisionTree" boostWeight="1.0000000000000000e+00" itree="275">
      <Node pos="s" depth="0" NCoef="0" IVar="20" Cut="8.6612491607666016e+00" cType="1" res="-8.6734944488853216e-04" rms="2.0521120727062225e-01" purity="5.0179898738861084e-01" nType="0">
        <Node pos="l" depth="1" NCoef="0" IVar="27" Cut="4.7726681828498840e-01" cType="1" res="-2.0430416334420443e-03" rms="2.0453433692455292e-01" purity="5.1858663558959961e-01" nType="0">
          <Node pos="l" depth="2" NCoef="0" IVar="-1" Cut="0.0000000000000000e+00" cType="1" res="-3.0729740858078003e-02" rms="1.7476950585842133e-01" purity="1.1785428971052170e-01" nType="-99"/>
          <Node pos="r" depth="2" NCoef="0" IVar="-1" Cut="0.0000000000000000e+00" cType="1" res="-5.9444038197398186e-04" rms="2.0627002418041229e-01" purity="5.4508155584335327e-01" nType="-99"/>
        </Node>
        <Node pos="r" depth="1" NCoef="0" IVar="6" Cut="5.0673012733459473e+00" cType="1" res="1.4227392151951790e-02" rms="2.1313582360744476e-01" purity="2.8626197576522827e-01" nType="0">
          <Node pos="l" depth="2" NCoef="0" IVar="-1" Cut="0.0000000000000000e+00" cType="1" res="-5.6427734671160579e-04" rms="1.9260145723819733e-01" purity="2.2920727729797363e-01" nType="-99"/>
          <Node pos="r" depth="2" NCoef="0" IVar="-1" Cut="0.0000000000000000e+00" cType="1" res="2.3960450664162636e-02" rms="2.2799973189830780e-01" purity="3.3340072631835938e-01" nType="-99"/>
        </Node>
      </Node>
    </BinaryTree>
    <BinaryTree type="DecisionTree" boostWeight="1.0000000000000000e+00" itree="276">
      <Node pos="s" depth="0" NCoef="0" IVar="24" Cut="1.4420181512832642e-01" cType="1" res="9.7214977722615004e-04" rms="2.0987057685852051e-01" purity="4.9898394942283630e-01" nType="0">
        <Node pos="l" depth="1" NCoef="0" IVar="-1" Cut="0.0000000000000000e+00" cType="1" res="-3.2201655209064484e-02" rms="1.8795040249824524e-01" purity="8.6165800690650940e-02" nType="-99"/>
        <Node pos="r" depth="1" NCoef="0" IVar="19" Cut="1.0762182474136353e+00" cType="1" res="1.6666692681610584e-03" rms="2.1041046082973480e-01" purity="5.1056265830993652e-01" nType="0">
          <Node pos="l" depth="2" NCoef="0" IVar="-1" Cut="0.0000000000000000e+00" cType="1" res="1.3347744010388851e-02" rms="2.0969603955745697e-01" purity="4.0136155486106873e-01" nType="-99"/>
          <Node pos="r" depth="2" NCoef="0" IVar="-1" Cut="0.0000000000000000e+00" cType="1" res="-2.6954672648571432e-04" rms="2.1048192679882050e-01" purity="5.3041809797286987e-01" nType="-99"/>
        </Node>
      </Node>
    </BinaryTree>
    <BinaryTree type="DecisionTree" boostWeight="1.0000000000000000e+00" itree="277">
      <Node pos="s" depth="0" NCoef="0" IVar="19" Cut="-5.3637318611145020e+00" cType="1" res="-1.3823100016452372e-04" rms="2.0470669865608215e-01" purity="4.9974864721298218e-01" nType="0">
        <Node pos="l" depth="1" NCoef="0" IVar="11" Cut="6.9774060249328613e+00" cType="1" res="1.0406895540654659e-02" rms="1.9959460198879242e-01" purity="4.4913727045059204e-01" nType="0">
          <Node pos="l" depth="2" NCoef="0" IVar="-1" Cut="0.0000000000000000e+00" cType="1" res="-3.8291760574793443e-05" rms="1.9771493971347809e-01" purity="4.3276908993721008e-01" nType="-99"/>
          <Node pos="r" depth="2" NCoef="0" IVar="-1" Cut="0.0000000000000000e+00" cType="1" res="2.6479745283722878e-02" rms="2.0118448138237000e-01" purity="4.7006806731224060e-01" nType="-99"/>
        </Node>
        <Node pos="r" depth="1" NCoef="0" IVar="16" Cut="4.3758416175842285e-01" cType="1" res="-1.2207522522658110e-03" rms="2.0519360899925232e-01" purity="5.0494426488876343e-01" nType="0">
          <Node pos="l" depth="2" NCoef="0" IVar="-1" Cut="0.0000000000000000e+00" cType="1" res="-4.0605510585010052e-03" rms="2.1912087500095367e-01" purity="3.7816774845123291e-01" nType="-99"/>
          <Node pos="r" depth="2" NCoef="0" IVar="-1" Cut="0.0000000000000000e+00" cType="1" res="3.4693309571594000e-03" rms="1.8654000759124756e-01" purity="6.6104078292846680e-01" nType="-99"/>
        </Node>
      </Node>
    </BinaryTree>
    <BinaryTree type="DecisionTree" boostWeight="1.0000000000000000e+00" itree="278">
      <Node pos="s" depth="0" NCoef="0" IVar="15" Cut="6.4073386192321777e+00" cType="1" res="-5.1262060878798366e-04" rms="2.0592270791530609e-01" purity="5.0107723474502563e-01" nType="0">
        <Node pos="l" depth="1" NCoef="0" IVar="11" Cut="7.2945370674133301e+00" cType="1" res="4.5350729487836361e-03" rms="2.1609267592430115e-01" purity="4.8433408141136169e-01" nType="0">
          <Node pos="l" depth="2" NCoef="0" IVar="-1" Cut="0.0000000000000000e+00" cType="1" res="7.9607581719756126e-03" rms="2.1559384465217590e-01" purity="5.2335381507873535e-01" nType="-99"/>
          <Node pos="r" depth="2" NCoef="0" IVar="-1" Cut="0.0000000000000000e+00" cType="1" res="-1.0729087516665459e-02" rms="2.1744178235530853e-01" purity="3.1444007158279419e-01" nType="-99"/>
        </Node>
        <Node pos="r" depth="1" NCoef="0" IVar="23" Cut="9.5238322019577026e-01" cType="1" res="-5.0511392764747143e-03" rms="1.9621850550174713e-01" purity="5.1613140106201172e-01" nType="0">
          <Node pos="l" depth="2" NCoef="0" IVar="-1" Cut="0.0000000000000000e+00" cType="1" res="-8.8230846449732780e-03" rms="2.2347563505172729e-01" purity="2.6664349436759949e-01" nType="-99"/>
          <Node pos="r" depth="2" NCoef="0" IVar="-1" Cut="0.0000000000000000e+00" cType="1" res="7.7738822437822819e-03" rms="1.3831844925880432e-01" purity="9.3589067459106445e-01" nType="-99"/>
        </Node>
      </Node>
    </BinaryTree>
    <BinaryTree type="DecisionTree" boostWeight="1.0000000000000000e+00" itree="279">
      <Node pos="s" depth="0" NCoef="0" IVar="17" Cut="3.8478965759277344e+01" cType="1" res="-4.2661034967750311e-04" rms="2.0392690598964691e-01" purity="5.0316852331161499e-01" nType="0">
        <Node pos="l" depth="1" NCoef="0" IVar="12" Cut="6.5173134803771973e+00" cType="1" res="-2.6971846818923950e-03" rms="2.1049378812313080e-01" purity="4.2777916789054871e-01" nType="0">
          <Node pos="l" depth="2" NCoef="0" IVar="-1" Cut="0.0000000000000000e+00" cType="1" res="8.5907550528645515e-03" rms="2.1830353140830994e-01" purity="2.6189562678337097e-01" nType="-99"/>
          <Node pos="r" depth="2" NCoef="0" IVar="-1" Cut="0.0000000000000000e+00" cType="1" res="-3.8153319619596004e-03" rms="2.0964679121971130e-01" purity="4.4463014602661133e-01" nType="-99"/>
        </Node>
        <Node pos="r" depth="1" NCoef="0" IVar="18" Cut="-5.3845725059509277e+00" cType="1" res="1.0162313468754292e-02" rms="1.6958309710025787e-01" purity="8.5475063323974609e-01" nType="0">
          <Node pos="l" depth="2" NCoef="0" IVar="-1" Cut="0.0000000000000000e+00" cType="1" res="8.8955806568264961e-03" rms="1.5884923934936523e-01" purity="8.7913346290588379e-01" nType="-99"/>
          <Node pos="r" depth="2" NCoef="0" IVar="-1" Cut="0.0000000000000000e+00" cType="1" res="2.2766439244151115e-02" rms="2.1055594086647034e-01" purity="7.4446767568588257e-01" nType="-99"/>
        </Node>
      </Node>
    </BinaryTree>
    <BinaryTree type="DecisionTree" boostWeight="1.0000000000000000e+00" itree="280">
      <Node pos="s" depth="0" NCoef="0" IVar="26" Cut="9.5118880271911621e-02" cType="1" res="-6.2805064953863621e-04" rms="2.0528423786163330e-01" purity="4.9762001633644104e-01" nType="0">
        <Node pos="l" depth="1" NCoef="0" IVar="27" Cut="6.6725146770477295e-01" cType="1" res="-2.7213913854211569e-03" rms="2.0399960875511169e-01" purity="5.4581218957901001e-01" nType="0">
          <Node pos="l" depth="2" NCoef="0" IVar="-1" Cut="0.0000000000000000e+00" cType="1" res="-2.3112805560231209e-02" rms="1.9422936439514160e-01" purity="1.6054995357990265e-01" nType="-99"/>
          <Node pos="r" depth="2" NCoef="0" IVar="-1" Cut="0.0000000000000000e+00" cType="1" res="-1.5219176420941949e-03" rms="2.0460821688175201e-01" purity="5.7255280017852783e-01" nType="-99"/>
        </Node>
        <Node pos="r" depth="1" NCoef="0" IVar="32" Cut="1.3330499827861786e-01" cType="1" res="9.5112137496471405e-03" rms="2.1110245585441589e-01" purity="2.6419720053672791e-01" nType="0">
          <Node pos="l" depth="2" NCoef="0" IVar="-1" Cut="0.0000000000000000e+00" cType="1" res="1.5674000605940819e-02" rms="2.1876092255115509e-01" purity="3.0206605792045593e-01" nType="-99"/>
          <Node pos="r" depth="2" NCoef="0" IVar="-1" Cut="0.0000000000000000e+00" cType="1" res="-2.3275358602404594e-02" rms="1.7135384678840637e-01" purity="9.8709724843502045e-02" nType="-99"/>
        </Node>
      </Node>
    </BinaryTree>
    <BinaryTree type="DecisionTree" boostWeight="1.0000000000000000e+00" itree="281">
      <Node pos="s" depth="0" NCoef="0" IVar="4" Cut="6.9344944953918457e+00" cType="1" res="9.4334431923925877e-04" rms="2.0759536325931549e-01" purity="5.0158697366714478e-01" nType="0">
        <Node pos="l" depth="1" NCoef="0" IVar="5" Cut="5.0937433242797852e+00" cType="1" res="1.8719256331678480e-04" rms="2.0709536969661713e-01" purity="5.0730919837951660e-01" nType="0">
          <Node pos="l" depth="2" NCoef="0" IVar="-1" Cut="0.0000000000000000e+00" cType="1" res="1.1722847120836377e-03" rms="2.0774680376052856e-01" purity="5.3200936317443848e-01" nType="-99"/>
          <Node pos="r" depth="2" NCoef="0" IVar="-1" Cut="0.0000000000000000e+00" cType="1" res="-1.8806308507919312e-02" rms="1.9638954102993011e-01" purity="1.3462053239345551e-01" nType="-99"/>
        </Node>
        <Node pos="r" depth="1" NCoef="0" IVar="-1" Cut="0.0000000000000000e+00" cType="1" res="2.2039515897631645e-02" rms="2.2034855186939240e-01" purity="3.3754512667655945e-01" nType="-99"/>
      </Node>
    </BinaryTree>
    <BinaryTree type="DecisionTree" boostWeight="1.0000000000000000e+00" itree="282">
      <Node pos="s" depth="0" NCoef="0" IVar="26" Cut="4.7566644847393036e-02" cType="1" res="9.5133575086947531e-05" rms="2.0388117432594299e-01" purity="4.9846473336219788e-01" nType="0">
        <Node pos="l" depth="1" NCoef="0" IVar="16" Cut="4.6948620676994324e-01" cType="1" res="-2.0514919888228178e-03" rms="2.0153746008872986e-01" purity="5.6335896253585815e-01" nType="0">
          <Node pos="l" depth="2" NCoef="0" IVar="-1" Cut="0.0000000000000000e+00" cType="1" res="-5.3728041239082813e-03" rms="2.1254119277000427e-01" purity="4.6517914533615112e-01" nType="-99"/>
          <Node pos="r" depth="2" NCoef="0" IVar="-1" Cut="0.0000000000000000e+00" cType="1" res="6.7675905302166939e-03" rms="1.7921391129493713e-01" purity="7.4470287561416626e-01" nType="-99"/>
        </Node>
        <Node pos="r" depth="1" NCoef="0" IVar="3" Cut="1.4358533620834351e+00" cType="1" res="7.5929448939859867e-03" rms="2.1169328689575195e-01" purity="2.7179977297782898e-01" nType="0">
          <Node pos="l" depth="2" NCoef="0" IVar="-1" Cut="0.0000000000000000e+00" cType="1" res="1.7226837575435638e-02" rms="2.6083070039749146e-01" purity="5.5079197883605957e-01" nType="-99"/>
          <Node pos="r" depth="2" NCoef="0" IVar="-1" Cut="0.0000000000000000e+00" cType="1" res="1.3640277320519090e-03" rms="1.9123099744319916e-01" purity="1.7474949359893799e-01" nType="-99"/>
        </Node>
      </Node>
    </BinaryTree>
    <BinaryTree type="DecisionTree" boostWeight="1.0000000000000000e+00" itree="283">
      <Node pos="s" depth="0" NCoef="0" IVar="1" Cut="1.7907733917236328e+01" cType="1" res="-3.8987412699498236e-04" rms="2.0612479746341705e-01" purity="5.0417655706405640e-01" nType="0">
        <Node pos="l" depth="1" NCoef="0" IVar="1" Cut="3.9066548347473145e+00" cType="1" res="1.2918519787490368e-03" rms="2.0849959552288055e-01" purity="5.1488804817199707e-01" nType="0">
          <Node pos="l" depth="2" NCoef="0" IVar="-1" Cut="0.0000000000000000e+00" cType="1" res="-9.8495353013277054e-03" rms="2.0964887738227844e-01" purity="3.6378329992294312e-01" nType="-99"/>
          <Node pos="r" depth="2" NCoef="0" IVar="-1" Cut="0.0000000000000000e+00" cType="1" res="4.1531668975949287e-03" rms="2.0810191333293915e-01" purity="5.5459415912628174e-01" nType="-99"/>
        </Node>
        <Node pos="r" depth="1" NCoef="0" IVar="16" Cut="3.8265007734298706e-01" cType="1" res="-1.3127918355166912e-02" rms="1.8666985630989075e-01" purity="4.2304351925849915e-01" nType="0">
          <Node pos="l" depth="2" NCoef="0" IVar="-1" Cut="0.0000000000000000e+00" cType="1" res="-2.9418371617794037e-02" rms="1.8993599712848663e-01" purity="1.5105044841766357e-01" nType="-99"/>
          <Node pos="r" depth="2" NCoef="0" IVar="-1" Cut="0.0000000000000000e+00" cType="1" res="9.3202013522386551e-03" rms="1.8045839667320251e-01" purity="7.4500811100006104e-01" nType="-99"/>
        </Node>
      </Node>
    </BinaryTree>
    <BinaryTree type="DecisionTree" boostWeight="1.0000000000000000e+00" itree="284">
      <Node pos="s" depth="0" NCoef="0" IVar="34" Cut="6.3492217063903809e+00" cType="1" res="9.0221798745915294e-04" rms="2.0652334392070770e-01" purity="4.9951148033142090e-01" nType="0">
        <Node pos="l" depth="1" NCoef="0" IVar="1" Cut="1.0741870880126953e+01" cType="1" res="1.7732745036482811e-03" rms="2.0853391289710999e-01" purity="5.2213352918624878e-01" nType="0">
          <Node pos="l" depth="2" NCoef="0" IVar="-1" Cut="0.0000000000000000e+00" cType="1" res="4.1324477642774582e-03" rms="2.1398778259754181e-01" purity="5.3113281726837158e-01" nType="-99"/>
          <Node pos="r" depth="2" NCoef="0" IVar="-1" Cut="0.0000000000000000e+00" cType="1" res="-4.0990253910422325e-03" rms="1.9495710730552673e-01" purity="5.0093054771423340e-01" nType="-99"/>
        </Node>
        <Node pos="r" depth="1" NCoef="0" IVar="33" Cut="3.8162417709827423e-02" cType="1" res="-1.5381427481770515e-02" rms="1.6362245380878448e-01" purity="7.6610736548900604e-02" nType="0">
          <Node pos="l" depth="2" NCoef="0" IVar="-1" Cut="0.0000000000000000e+00" cType="1" res="-2.8751347213983536e-02" rms="1.8052460253238678e-01" purity="1.0438593477010727e-01" nType="-99"/>
          <Node pos="r" depth="2" NCoef="0" IVar="-1" Cut="0.0000000000000000e+00" cType="1" res="-1.3363980688154697e-02" rms="1.4392653107643127e-01" purity="4.8358552157878876e-02" nType="-99"/>
        </Node>
      </Node>
    </BinaryTree>
    <BinaryTree type="DecisionTree" boostWeight="1.0000000000000000e+00" itree="285">
      <Node pos="s" depth="0" NCoef="0" IVar="25" Cut="3.7019351124763489e-01" cType="1" res="3.5124304122291505e-04" rms="2.0479279756546021e-01" purity="4.9770182371139526e-01" nType="0">
        <Node pos="l" depth="1" NCoef="0" IVar="11" Cut="7.3610992431640625e+00" cType="1" res="2.3560489062219858e-03" rms="2.0795901119709015e-01" purity="5.5438297986984253e-01" nType="0">
          <Node pos="l" depth="2" NCoef="0" IVar="-1" Cut="0.0000000000000000e+00" cType="1" res="5.0879875198006630e-03" rms="2.0856687426567078e-01" purity="5.9423708915710449e-01" nType="-99"/>
          <Node pos="r" depth="2" NCoef="0" IVar="-1" Cut="0.0000000000000000e+00" cType="1" res="-6.0090767219662666e-03" rms="2.0582205057144165e-01" purity="4.3106031417846680e-01" nType="-99"/>
        </Node>
        <Node pos="r" depth="1" NCoef="0" IVar="3" Cut="2.8658359050750732e+00" cType="1" res="-1.1579074896872044e-02" rms="1.8438245356082916e-01" purity="1.6040012240409851e-01" nType="0">
          <Node pos="l" depth="2" NCoef="0" IVar="-1" Cut="0.0000000000000000e+00" cType="1" res="-1.4121453277766705e-02" rms="2.4243168532848358e-01" purity="2.8735285997390747e-01" nType="-99"/>
          <Node pos="r" depth="2" NCoef="0" IVar="-1" Cut="0.0000000000000000e+00" cType="1" res="-1.1350777000188828e-02" rms="6.3861392438411713e-02" purity="8.0925486981868744e-03" nType="-99"/>
        </Node>
      </Node>
    </BinaryTree>
    <BinaryTree type="DecisionTree" boostWeight="1.0000000000000000e+00" itree="286">
      <Node pos="s" depth="0" NCoef="0" IVar="15" Cut="7.5471272468566895e+00" cType="1" res="2.1431349159684032e-04" rms="2.0704463124275208e-01" purity="4.9866563081741333e-01" nType="0">
        <Node pos="l" depth="1" NCoef="0" IVar="10" Cut="7.3706007003784180e+00" cType="1" res="-1.0694842785596848e-03" rms="2.0797644555568695e-01" purity="4.9150964617729187e-01" nType="0">
          <Node pos="l" depth="2" NCoef="0" IVar="-1" Cut="0.0000000000000000e+00" cType="1" res="2.3151133209466934e-03" rms="2.0441946387290955e-01" purity="5.1989167928695679e-01" nType="-99"/>
          <Node pos="r" depth="2" NCoef="0" IVar="-1" Cut="0.0000000000000000e+00" cType="1" res="-8.0592203885316849e-03" rms="2.1566714346408844e-01" purity="4.2685094475746155e-01" nType="-99"/>
        </Node>
        <Node pos="r" depth="1" NCoef="0" IVar="7" Cut="2.2227299213409424e+00" cType="1" res="1.4206252992153168e-02" rms="1.9605845212936401e-01" purity="5.7665783166885376e-01" nType="0">
          <Node pos="l" depth="2" NCoef="0" IVar="-1" Cut="0.0000000000000000e+00" cType="1" res="3.2287679612636566e-02" rms="2.0066317915916443e-01" purity="8.2329428195953369e-01" nType="-99"/>
          <Node pos="r" depth="2" NCoef="0" IVar="-1" Cut="0.0000000000000000e+00" cType="1" res="-2.2128583863377571e-02" rms="1.8454863131046295e-01" purity="1.4685952663421631e-01" nType="-99"/>
        </Node>
      </Node>
    </BinaryTree>
    <BinaryTree type="DecisionTree" boostWeight="1.0000000000000000e+00" itree="287">
      <Node pos="s" depth="0" NCoef="0" IVar="26" Cut="4.7562580555677414e-02" cType="1" res="6.8389950320124626e-04" rms="2.0737129449844360e-01" purity="4.9666729569435120e-01" nType="0">
        <Node pos="l" depth="1" NCoef="0" IVar="26" Cut="2.2699730470776558e-03" cType="1" res="-1.4329957775771618e-03" rms="2.0543995499610901e-01" purity="5.6254595518112183e-01" nType="0">
          <Node pos="l" depth="2" NCoef="0" IVar="-1" Cut="0.0000000000000000e+00" cType="1" res="3.2796550076454878e-03" rms="1.9950388371944427e-01" purity="6.8189829587936401e-01" nType="-99"/>
          <Node pos="r" depth="2" NCoef="0" IVar="-1" Cut="0.0000000000000000e+00" cType="1" res="-7.5970194302499294e-03" rms="2.1342821419239044e-01" purity="3.9276391267776489e-01" nType="-99"/>
        </Node>
        <Node pos="r" depth="1" NCoef="0" IVar="23" Cut="7.6251053810119629e-01" cType="1" res="7.9315649345517159e-03" rms="2.1369287371635437e-01" purity="2.7111679315567017e-01" nType="0">
          <Node pos="l" depth="2" NCoef="0" IVar="-1" Cut="0.0000000000000000e+00" cType="1" res="1.9862007349729538e-02" rms="1.9917692244052887e-01" purity="8.6862064898014069e-02" nType="-99"/>
          <Node pos="r" depth="2" NCoef="0" IVar="-1" Cut="0.0000000000000000e+00" cType="1" res="-2.8427236247807741e-03" rms="2.3516941070556641e-01" purity="5.7405441999435425e-01" nType="-99"/>
        </Node>
      </Node>
    </BinaryTree>
    <BinaryTree type="DecisionTree" boostWeight="1.0000000000000000e+00" itree="288">
      <Node pos="s" depth="0" NCoef="0" IVar="18" Cut="-4.2485542297363281e+01" cType="1" res="-1.0106830159202218e-03" rms="2.0492751896381378e-01" purity="4.9936076998710632e-01" nType="0">
        <Node pos="l" depth="1" NCoef="0" IVar="23" Cut="7.6390856504440308e-01" cType="1" res="8.2164239138364792e-03" rms="1.6004745662212372e-01" purity="8.7718921899795532e-01" nType="0">
          <Node pos="l" depth="2" NCoef="0" IVar="-1" Cut="0.0000000000000000e+00" cType="1" res="1.3345257379114628e-02" rms="2.8573805093765259e-01" purity="4.8661020398139954e-01" nType="-99"/>
          <Node pos="r" depth="2" NCoef="0" IVar="-1" Cut="0.0000000000000000e+00" cType="1" res="1.0242280550301075e-02" rms="1.1493819952011108e-01" purity="9.6297633647918701e-01" nType="-99"/>
        </Node>
        <Node pos="r" depth="1" NCoef="0" IVar="20" Cut="-2.8306567668914795e+00" cType="1" res="-2.6672498788684607e-03" rms="2.1193872392177582e-01" purity="4.3152824044227600e-01" nType="0">
          <Node pos="l" depth="2" NCoef="0" IVar="-1" Cut="0.0000000000000000e+00" cType="1" res="-5.5755656212568283e-03" rms="2.1049964427947998e-01" purity="4.8360919952392578e-01" nType="-99"/>
          <Node pos="r" depth="2" NCoef="0" IVar="-1" Cut="0.0000000000000000e+00" cType="1" res="3.0993672553449869e-03" rms="2.1430489420890808e-01" purity="3.4066084027290344e-01" nType="-99"/>
        </Node>
      </Node>
    </BinaryTree>
    <BinaryTree type="DecisionTree" boostWeight="1.0000000000000000e+00" itree="289">
      <Node pos="s" depth="0" NCoef="0" IVar="3" Cut="9.5820802450180054e-01" cType="1" res="-5.6451599812135100e-04" rms="2.0659041404724121e-01" purity="4.9970492720603943e-01" nType="0">
        <Node pos="l" depth="1" NCoef="0" IVar="14" Cut="8.3605165481567383e+00" cType="1" res="8.2771824672818184e-03" rms="2.1511463820934296e-01" purity="7.5356483459472656e-01" nType="0">
          <Node pos="l" depth="2" NCoef="0" IVar="-1" Cut="0.0000000000000000e+00" cType="1" res="1.3589415699243546e-02" rms="2.3164077103137970e-01" purity="7.8704202175140381e-01" nType="-99"/>
          <Node pos="r" depth="2" NCoef="0" IVar="-1" Cut="0.0000000000000000e+00" cType="1" res="1.2502149911597371e-03" rms="2.0058211684226990e-01" purity="7.2667175531387329e-01" nType="-99"/>
        </Node>
        <Node pos="r" depth="1" NCoef="0" IVar="11" Cut="6.4891338348388672e+00" cType="1" res="-2.6932209730148315e-03" rms="2.0442797243595123e-01" purity="4.3858623504638672e-01" nType="0">
          <Node pos="l" depth="2" NCoef="0" IVar="-1" Cut="0.0000000000000000e+00" cType="1" res="-9.3294885009527206e-03" rms="2.0215629041194916e-01" purity="4.0165650844573975e-01" nType="-99"/>
          <Node pos="r" depth="2" NCoef="0" IVar="-1" Cut="0.0000000000000000e+00" cType="1" res="8.2961254520341754e-04" rms="2.0565067231655121e-01" purity="4.5997455716133118e-01" nType="-99"/>
        </Node>
      </Node>
    </BinaryTree>
    <BinaryTree type="DecisionTree" boostWeight="1.0000000000000000e+00" itree="290">
      <Node pos="s" depth="0" NCoef="0" IVar="17" Cut="5.1565784454345703e+01" cType="1" res="-2.0001785014756024e-04" rms="2.0693174004554749e-01" purity="5.0014966726303101e-01" nType="0">
        <Node pos="l" depth="1" NCoef="0" IVar="10" Cut="8.2088451385498047e+00" cType="1" res="-1.2836464447900653e-03" rms="2.1180652081966400e-01" purity="4.6340134739875793e-01" nType="0">
          <Node pos="l" depth="2" NCoef="0" IVar="-1" Cut="0.0000000000000000e+00" cType="1" res="-1.9693225622177124e-03" rms="2.1122899651527405e-01" purity="4.6505212783813477e-01" nType="-99"/>
          <Node pos="r" depth="2" NCoef="0" IVar="-1" Cut="0.0000000000000000e+00" cType="1" res="1.5920612961053848e-02" rms="2.2374612092971802e-01" purity="4.2644426226615906e-01" nType="-99"/>
        </Node>
        <Node pos="r" depth="1" NCoef="0" IVar="-1" Cut="0.0000000000000000e+00" cType="1" res="2.0519634708762169e-02" rms="1.3722108304500580e-01" purity="9.2893177270889282e-01" nType="-99"/>
      </Node>
    </BinaryTree>
    <BinaryTree type="DecisionTree" boostWeight="1.0000000000000000e+00" itree="291">
      <Node pos="s" depth="0" NCoef="0" IVar="10" Cut="7.3820095062255859e+00" cType="1" res="-4.0694331983104348e-04" rms="2.0595860481262207e-01" purity="5.0280368328094482e-01" nType="0">
        <Node pos="l" depth="1" NCoef="0" IVar="11" Cut="7.3908581733703613e+00" cType="1" res="2.3587606847286224e-03" rms="2.0301239192485809e-01" purity="5.2801650762557983e-01" nType="0">
          <Node pos="l" depth="2" NCoef="0" IVar="-1" Cut="0.0000000000000000e+00" cType="1" res="5.8483206667006016e-03" rms="2.0091120898723602e-01" purity="5.6409549713134766e-01" nType="-99"/>
          <Node pos="r" depth="2" NCoef="0" IVar="-1" Cut="0.0000000000000000e+00" cType="1" res="-1.0500671342015266e-02" rms="2.1114316582679749e-01" purity="3.7482792139053345e-01" nType="-99"/>
        </Node>
        <Node pos="r" depth="1" NCoef="0" IVar="13" Cut="8.4717884063720703e+00" cType="1" res="-6.1483015306293964e-03" rms="2.1182872354984283e-01" purity="4.5046412944793701e-01" nType="0">
          <Node pos="l" depth="2" NCoef="0" IVar="-1" Cut="0.0000000000000000e+00" cType="1" res="-1.8421255052089691e-02" rms="2.2626699507236481e-01" purity="3.6856782436370850e-01" nType="-99"/>
          <Node pos="r" depth="2" NCoef="0" IVar="-1" Cut="0.0000000000000000e+00" cType="1" res="3.2506994903087616e-03" rms="2.0209167897701263e-01" purity="4.9980366230010986e-01" nType="-99"/>
        </Node>
      </Node>
    </BinaryTree>
    <BinaryTree type="DecisionTree" boostWeight="1.0000000000000000e+00" itree="292">
      <Node pos="s" depth="0" NCoef="0" IVar="11" Cut="6.4890990257263184e+00" cType="1" res="-2.4176242004614323e-04" rms="2.0409630239009857e-01" purity="4.9636808037757874e-01" nType="0">
        <Node pos="l" depth="1" NCoef="0" IVar="1" Cut="8.5642004013061523e+00" cType="1" res="-6.7904940806329250e-03" rms="2.0151540637016296e-01" purity="4.6356779336929321e-01" nType="0">
          <Node pos="l" depth="2" NCoef="0" IVar="-1" Cut="0.0000000000000000e+00" cType="1" res="-1.1564617976546288e-02" rms="2.0113126933574677e-01" purity="4.1510209441184998e-01" nType="-99"/>
          <Node pos="r" depth="2" NCoef="0" IVar="-1" Cut="0.0000000000000000e+00" cType="1" res="7.1849981322884560e-03" rms="2.0214673876762390e-01" purity="6.2246793508529663e-01" nType="-99"/>
        </Node>
        <Node pos="r" depth="1" NCoef="0" IVar="6" Cut="4.9947056770324707e+00" cType="1" res="3.3856788650155067e-03" rms="2.0542213320732117e-01" purity="5.1453667879104614e-01" nType="0">
          <Node pos="l" depth="2" NCoef="0" IVar="-1" Cut="0.0000000000000000e+00" cType="1" res="1.3961608521640301e-02" rms="2.1798451244831085e-01" purity="5.2999889850616455e-01" nType="-99"/>
          <Node pos="r" depth="2" NCoef="0" IVar="-1" Cut="0.0000000000000000e+00" cType="1" res="-4.9689761362969875e-04" rms="2.0034325122833252e-01" purity="5.0870615243911743e-01" nType="-99"/>
        </Node>
      </Node>
    </BinaryTree>
    <BinaryTree type="DecisionTree" boostWeight="1.0000000000000000e+00" itree="293">
      <Node pos="s" depth="0" NCoef="0" IVar="23" Cut="5.7188332080841064e-01" cType="1" res="7.3352002073079348e-04" rms="2.0337422192096710e-01" purity="4.9626368284225464e-01" nType="0">
        <Node pos="l" depth="1" NCoef="0" IVar="16" Cut="5.0978678464889526e-01" cType="1" res="-5.5290446616709232e-03" rms="1.8997083604335785e-01" purity="1.0102523118257523e-01" nType="0">
          <Node pos="l" depth="2" NCoef="0" IVar="-1" Cut="0.0000000000000000e+00" cType="1" res="-9.9650118499994278e-03" rms="1.8621970713138580e-01" purity="8.6645074188709259e-02" nType="-99"/>
          <Node pos="r" depth="2" NCoef="0" IVar="-1" Cut="0.0000000000000000e+00" cType="1" res="8.5105206817388535e-03" rms="2.0559947192668915e-01" purity="1.6683971881866455e-01" nType="-99"/>
        </Node>
        <Node pos="r" depth="1" NCoef="0" IVar="34" Cut="6.3483982086181641e+00" cType="1" res="3.3984545152634382e-03" rms="2.0876006782054901e-01" purity="6.6445118188858032e-01" nType="0">
          <Node pos="l" depth="2" NCoef="0" IVar="-1" Cut="0.0000000000000000e+00" cType="1" res="4.2588450014591217e-03" rms="2.0901995897293091e-01" purity="6.8451428413391113e-01" nType="-99"/>
          <Node pos="r" depth="2" NCoef="0" IVar="-1" Cut="0.0000000000000000e+00" cType="1" res="-2.2941352799534798e-02" rms="2.0032404363155365e-01" purity="1.4600782096385956e-01" nType="-99"/>
        </Node>
      </Node>
    </BinaryTree>
    <BinaryTree type="DecisionTree" boostWeight="1.0000000000000000e+00" itree="294">
      <Node pos="s" depth="0" NCoef="0" IVar="30" Cut="5.7142429053783417e-02" cType="1" res="-1.2939773732796311e-03" rms="2.0317189395427704e-01" purity="4.9962911009788513e-01" nType="0">
        <Node pos="l" depth="1" NCoef="0" IVar="9" Cut="2.7184419631958008e+01" cType="1" res="8.1167952157557011e-04" rms="2.0148201286792755e-01" purity="5.7923018932342529e-01" nType="0">
          <Node pos="l" depth="2" NCoef="0" IVar="-1" Cut="0.0000000000000000e+00" cType="1" res="2.2857035510241985e-03" rms="2.0444115996360779e-01" purity="6.0490059852600098e-01" nType="-99"/>
          <Node pos="r" depth="2" NCoef="0" IVar="-1" Cut="0.0000000000000000e+00" cType="1" res="-8.9169582352042198e-03" rms="1.8000152707099915e-01" purity="4.0629369020462036e-01" nType="-99"/>
        </Node>
        <Node pos="r" depth="1" NCoef="0" IVar="17" Cut="3.2539199829101562e+01" cType="1" res="-7.2842007502913475e-03" rms="2.0778751373291016e-01" purity="2.7317798137664795e-01" nType="0">
          <Node pos="l" depth="2" NCoef="0" IVar="-1" Cut="0.0000000000000000e+00" cType="1" res="-1.1101681739091873e-02" rms="2.0284603536128998e-01" purity="2.0971466600894928e-01" nType="-99"/>
          <Node pos="r" depth="2" NCoef="0" IVar="-1" Cut="0.0000000000000000e+00" cType="1" res="7.9589197412133217e-03" rms="2.3252023756504059e-01" purity="6.2606900930404663e-01" nType="-99"/>
        </Node>
      </Node>
    </BinaryTree>
    <BinaryTree type="DecisionTree" boostWeight="1.0000000000000000e+00" itree="295">
      <Node pos="s" depth="0" NCoef="0" IVar="15" Cut="5.6824760437011719e+00" cType="1" res="1.4642673777416348e-03" rms="2.0649802684783936e-01" purity="5.0083750486373901e-01" nType="0">
        <Node pos="l" depth="1" NCoef="0" IVar="27" Cut="7.6315855979919434e-01" cType="1" res="1.0860039852559566e-02" rms="2.1764734387397766e-01" purity="5.5995488166809082e-01" nType="0">
          <Node pos="l" depth="2" NCoef="0" IVar="-1" Cut="0.0000000000000000e+00" cType="1" res="-5.7235769927501678e-03" rms="2.2016051411628723e-01" purity="2.4888032674789429e-01" nType="-99"/>
          <Node pos="r" depth="2" NCoef="0" IVar="-1" Cut="0.0000000000000000e+00" cType="1" res="1.3826979324221611e-02" rms="2.1673038601875305e-01" purity="6.4413630962371826e-01" nType="-99"/>
        </Node>
        <Node pos="r" depth="1" NCoef="0" IVar="14" Cut="9.3591613769531250e+00" cType="1" res="2.2998483473202214e-05" rms="2.0469592511653900e-01" purity="4.9176916480064392e-01" nType="0">
          <Node pos="l" depth="2" NCoef="0" IVar="-1" Cut="0.0000000000000000e+00" cType="1" res="-7.2491826722398400e-04" rms="2.0462334156036377e-01" purity="4.8862954974174500e-01" nType="-99"/>
          <Node pos="r" depth="2" NCoef="0" IVar="-1" Cut="0.0000000000000000e+00" cType="1" res="2.2645227611064911e-02" rms="2.0566637814044952e-01" purity="5.7678830623626709e-01" nType="-99"/>
        </Node>
      </Node>
    </BinaryTree>
    <BinaryTree type="DecisionTree" boostWeight="1.0000000000000000e+00" itree="296">
      <Node pos="s" depth="0" NCoef="0" IVar="10" Cut="6.4959821701049805e+00" cType="1" res="8.2346773706376553e-04" rms="2.0503525435924530e-01" purity="5.0280278921127319e-01" nType="0">
        <Node pos="l" depth="1" NCoef="0" IVar="19" Cut="5.8921470642089844e+00" cType="1" res="-6.8818819709122181e-03" rms="1.9457527995109558e-01" purity="4.4291338324546814e-01" nType="0">
          <Node pos="l" depth="2" NCoef="0" IVar="-1" Cut="0.0000000000000000e+00" cType="1" res="-3.1995628029108047e-02" rms="1.7839731276035309e-01" purity="1.2430211156606674e-01" nType="-99"/>
          <Node pos="r" depth="2" NCoef="0" IVar="-1" Cut="0.0000000000000000e+00" cType="1" res="-2.5296588428318501e-03" rms="1.9841079413890839e-01" purity="5.2757000923156738e-01" nType="-99"/>
        </Node>
        <Node pos="r" depth="1" NCoef="0" IVar="6" Cut="5.2422251701354980e+00" cType="1" res="3.1357004772871733e-03" rms="2.0801587402820587e-01" purity="5.2077448368072510e-01" nType="0">
          <Node pos="l" depth="2" NCoef="0" IVar="-1" Cut="0.0000000000000000e+00" cType="1" res="1.0599334724247456e-02" rms="2.1975067257881165e-01" purity="5.3892660140991211e-01" nType="-99"/>
          <Node pos="r" depth="2" NCoef="0" IVar="-1" Cut="0.0000000000000000e+00" cType="1" res="-1.4045805437490344e-03" rms="2.0067851245403290e-01" purity="5.1013296842575073e-01" nType="-99"/>
        </Node>
      </Node>
    </BinaryTree>
    <BinaryTree type="DecisionTree" boostWeight="1.0000000000000000e+00" itree="297">
      <Node pos="s" depth="0" NCoef="0" IVar="5" Cut="1.1200457572937012e+01" cType="1" res="2.3437970958184451e-04" rms="2.0521421730518341e-01" purity="5.0166642665863037e-01" nType="0">
        <Node pos="l" depth="1" NCoef="0" IVar="5" Cut="1.0683711767196655e+00" cType="1" res="1.0100849904119968e-03" rms="2.0593881607055664e-01" purity="5.1286339759826660e-01" nType="0">
          <Node pos="l" depth="2" NCoef="0" IVar="-1" Cut="0.0000000000000000e+00" cType="1" res="5.4187346249818802e-03" rms="1.9753600656986237e-01" purity="6.0190546512603760e-01" nType="-99"/>
          <Node pos="r" depth="2" NCoef="0" IVar="-1" Cut="0.0000000000000000e+00" cType="1" res="-1.7164854798465967e-03" rms="2.1128809452056885e-01" purity="4.5374512672424316e-01" nType="-99"/>
        </Node>
        <Node pos="r" depth="1" NCoef="0" IVar="-1" Cut="0.0000000000000000e+00" cType="1" res="-3.6842700093984604e-02" rms="1.7578528821468353e-01" purity="1.0888843983411789e-01" nType="-99"/>
      </Node>
    </BinaryTree>
    <BinaryTree type="DecisionTree" boostWeight="1.0000000000000000e+00" itree="298">
      <Node pos="s" depth="0" NCoef="0" IVar="18" Cut="-5.9938503265380859e+01" cType="1" res="1.6875049332156777e-03" rms="2.0526616275310516e-01" purity="5.0153410434722900e-01" nType="0">
        <Node pos="l" depth="1" NCoef="0" IVar="-1" Cut="0.0000000000000000e+00" cType="1" res="3.1791605055332184e-02" rms="1.3600872457027435e-01" purity="9.5032626390457153e-01" nType="-99"/>
        <Node pos="r" depth="1" NCoef="0" IVar="12" Cut="6.8865590095520020e+00" cType="1" res="7.6918554259464145e-04" rms="2.0912067592144012e-01" purity="4.7095456719398499e-01" nType="0">
          <Node pos="l" depth="2" NCoef="0" IVar="-1" Cut="0.0000000000000000e+00" cType="1" res="-5.1888353191316128e-03" rms="2.1507179737091064e-01" purity="3.1217473745346069e-01" nType="-99"/>
          <Node pos="r" depth="2" NCoef="0" IVar="-1" Cut="0.0000000000000000e+00" cType="1" res="2.9074631165713072e-03" rms="2.0704604685306549e-01" purity="5.2414321899414062e-01" nType="-99"/>
        </Node>
      </Node>
    </BinaryTree>
    <BinaryTree type="DecisionTree" boostWeight="1.0000000000000000e+00" itree="299">
      <Node pos="s" depth="0" NCoef="0" IVar="20" Cut="1.0328104019165039e+01" cType="1" res="2.8709281468763947e-04" rms="2.0442309975624084e-01" purity="5.0158190727233887e-01" nType="0">
        <Node pos="l" depth="1" NCoef="0" IVar="27" Cut="5.2577304840087891e-01" cType="1" res="-7.0181081537157297e-04" rms="2.0353873074054718e-01" purity="5.1443696022033691e-01" nType="0">
          <Node pos="l" depth="2" NCoef="0" IVar="-1" Cut="0.0000000000000000e+00" cType="1" res="-2.6948403567075729e-02" rms="1.7407877743244171e-01" purity="1.3835428655147552e-01" nType="-99"/>
          <Node pos="r" depth="2" NCoef="0" IVar="-1" Cut="0.0000000000000000e+00" cType="1" res="1.1641620658338070e-03" rms="2.0598606765270233e-01" purity="5.4968762397766113e-01" nType="-99"/>
        </Node>
        <Node pos="r" depth="1" NCoef="0" IVar="16" Cut="4.0462633967399597e-01" cType="1" res="1.7901610583066940e-02" rms="2.1883226931095123e-01" purity="2.7260544896125793e-01" nType="0">
          <Node pos="l" depth="2" NCoef="0" IVar="-1" Cut="0.0000000000000000e+00" cType="1" res="3.8790829479694366e-02" rms="2.3261840641498566e-01" purity="1.7547054588794708e-01" nType="-99"/>
          <Node pos="r" depth="2" NCoef="0" IVar="-1" Cut="0.0000000000000000e+00" cType="1" res="2.5392805691808462e-03" rms="2.0308849215507507e-01" purity="3.6894267797470093e-01" nType="-99"/>
        </Node>
      </Node>
    </BinaryTree>
    <BinaryTree type="DecisionTree" boostWeight="1.0000000000000000e+00" itree="300">
      <Node pos="s" depth="0" NCoef="0" IVar="30" Cut="1.9044174253940582e-01" cType="1" res="-1.6180301317945123e-03" rms="2.0526812970638275e-01" purity="4.9993616342544556e-01" nType="0">
        <Node pos="l" depth="1" NCoef="0" IVar="30" Cut="9.1050555929541588e-03" cType="1" res="-2.6194422971457243e-03" rms="2.0423951745033264e-01" purity="5.2073311805725098e-01" nType="0">
          <Node pos="l" depth="2" NCoef="0" IVar="-1" Cut="0.0000000000000000e+00" cType="1" res="2.4782570544630289e-03" rms="1.9608597457408905e-01" purity="6.7486816644668579e-01" nType="-99"/>
          <Node pos="r" depth="2" NCoef="0" IVar="-1" Cut="0.0000000000000000e+00" cType="1" res="-5.8280862867832184e-03" rms="2.0959797501564026e-01" purity="4.1472852230072021e-01" nType="-99"/>
        </Node>
        <Node pos="r" depth="1" NCoef="0" IVar="3" Cut="1.9167655706405640e+00" cType="1" res="1.1321643367409706e-02" rms="2.1770936250686646e-01" purity="2.3120997846126556e-01" nType="0">
          <Node pos="l" depth="2" NCoef="0" IVar="-1" Cut="0.0000000000000000e+00" cType="1" res="1.9046684727072716e-02" rms="2.8127330541610718e-01" purity="4.6151596307754517e-01" nType="-99"/>
          <Node pos="r" depth="2" NCoef="0" IVar="-1" Cut="0.0000000000000000e+00" cType="1" res="-8.6356303654611111e-04" rms="1.7060270905494690e-01" purity="1.0121206939220428e-01" nType="-99"/>
        </Node>
      </Node>
    </BinaryTree>
    <BinaryTree type="DecisionTree" boostWeight="1.0000000000000000e+00" itree="301">
      <Node pos="s" depth="0" NCoef="0" IVar="16" Cut="3.3189502358436584e-01" cType="1" res="-3.5252593079349026e-05" rms="2.0392630994319916e-01" purity="4.9823364615440369e-01" nType="0">
        <Node pos="l" depth="1" NCoef="0" IVar="11" Cut="7.2643828392028809e+00" cType="1" res="-5.6444453075528145e-03" rms="2.1799917519092560e-01" purity="2.5713697075843811e-01" nType="0">
          <Node pos="l" depth="2" NCoef="0" IVar="-1" Cut="0.0000000000000000e+00" cType="1" res="4.2057773098349571e-03" rms="2.2275108098983765e-01" purity="2.8334215283393860e-01" nType="-99"/>
          <Node pos="r" depth="2" NCoef="0" IVar="-1" Cut="0.0000000000000000e+00" cType="1" res="-1.6067044809460640e-02" rms="2.1184581518173218e-01" purity="2.2723069787025452e-01" nType="-99"/>
        </Node>
        <Node pos="r" depth="1" NCoef="0" IVar="16" Cut="3.5886704921722412e-01" cType="1" res="2.4920131545513868e-03" rms="1.9720573723316193e-01" purity="6.0686171054840088e-01" nType="0">
          <Node pos="l" depth="2" NCoef="0" IVar="-1" Cut="0.0000000000000000e+00" cType="1" res="1.6113284975290298e-02" rms="2.2926448285579681e-01" purity="4.5268481969833374e-01" nType="-99"/>
          <Node pos="r" depth="2" NCoef="0" IVar="-1" Cut="0.0000000000000000e+00" cType="1" res="5.5946881184354424e-04" rms="1.9299367070198059e-01" purity="6.2497109174728394e-01" nType="-99"/>
        </Node>
      </Node>
    </BinaryTree>
    <BinaryTree type="DecisionTree" boostWeight="1.0000000000000000e+00" itree="302">
      <Node pos="s" depth="0" NCoef="0" IVar="10" Cut="6.7168431282043457e+00" cType="1" res="-8.9186365948989987e-04" rms="2.0550701022148132e-01" purity="4.9978581070899963e-01" nType="0">
        <Node pos="l" depth="1" NCoef="0" IVar="22" Cut="1.4412744343280792e-01" cType="1" res="-5.8244508691132069e-03" rms="1.9724370539188385e-01" purity="4.6574863791465759e-01" nType="0">
          <Node pos="l" depth="2" NCoef="0" IVar="-1" Cut="0.0000000000000000e+00" cType="1" res="-3.5673130303621292e-02" rms="1.9308793544769287e-01" purity="2.5558269023895264e-01" nType="-99"/>
          <Node pos="r" depth="2" NCoef="0" IVar="-1" Cut="0.0000000000000000e+00" cType="1" res="-3.9460398256778717e-03" rms="1.9744119048118591e-01" purity="4.8362040519714355e-01" nType="-99"/>
        </Node>
        <Node pos="r" depth="1" NCoef="0" IVar="19" Cut="9.4880619049072266e+00" cType="1" res="1.6189685557037592e-03" rms="2.0954360067844391e-01" purity="5.1711171865463257e-01" nType="0">
          <Node pos="l" depth="2" NCoef="0" IVar="-1" Cut="0.0000000000000000e+00" cType="1" res="8.3347233012318611e-03" rms="2.1703457832336426e-01" purity="3.7564074993133545e-01" nType="-99"/>
          <Node pos="r" depth="2" NCoef="0" IVar="-1" Cut="0.0000000000000000e+00" cType="1" res="-1.9310630159452558e-03" rms="2.0517221093177795e-01" purity="5.9577780961990356e-01" nType="-99"/>
        </Node>
      </Node>
    </BinaryTree>
    <BinaryTree type="DecisionTree" boostWeight="1.0000000000000000e+00" itree="303">
      <Node pos="s" depth="0" NCoef="0" IVar="1" Cut="3.1017974853515625e+01" cType="1" res="9.9706684704869986e-04" rms="2.0398096740245819e-01" purity="5.0363582372665405e-01" nType="0">
        <Node pos="l" depth="1" NCoef="0" IVar="1" Cut="4.1654653549194336e+00" cType="1" res="1.6880790935829282e-03" rms="2.0532174408435822e-01" purity="5.0985759496688843e-01" nType="0">
          <Node pos="l" depth="2" NCoef="0" IVar="-1" Cut="0.0000000000000000e+00" cType="1" res="-6.2602455727756023e-03" rms="2.0674102008342743e-01" purity="3.7709492444992065e-01" nType="-99"/>
          <Node pos="r" depth="2" NCoef="0" IVar="-1" Cut="0.0000000000000000e+00" cType="1" res="4.0313317440450191e-03" rms="2.0484089851379395e-01" purity="5.4955428838729858e-01" nType="-99"/>
        </Node>
        <Node pos="r" depth="1" NCoef="0" IVar="-1" Cut="0.0000000000000000e+00" cType="1" res="-2.6054436340928078e-02" rms="1.5168790519237518e-01" purity="2.9881620407104492e-01" nType="-99"/>
      </Node>
    </BinaryTree>
    <BinaryTree type="DecisionTree" boostWeight="1.0000000000000000e+00" itree="304">
      <Node pos="s" depth="0" NCoef="0" IVar="27" Cut="2.3989260196685791e-01" cType="1" res="1.3387922663241625e-03" rms="2.0746469497680664e-01" purity="4.9719536304473877e-01" nType="0">
        <Node pos="l" depth="1" NCoef="0" IVar="24" Cut="8.0961740016937256e-01" cType="1" res="-1.7743069678544998e-02" rms="1.8320755660533905e-01" purity="1.4955341815948486e-01" nType="0">
          <Node pos="l" depth="2" NCoef="0" IVar="-1" Cut="0.0000000000000000e+00" cType="1" res="-1.1488621123135090e-02" rms="1.4794836938381195e-01" purity="6.1973810195922852e-02" nType="-99"/>
          <Node pos="r" depth="2" NCoef="0" IVar="-1" Cut="0.0000000000000000e+00" cType="1" res="-2.9582530260086060e-02" rms="2.1635565161705017e-01" purity="2.5150746107101440e-01" nType="-99"/>
        </Node>
        <Node pos="r" depth="1" NCoef="0" IVar="11" Cut="6.6826500892639160e+00" cType="1" res="2.5041431654244661e-03" rms="2.0879834890365601e-01" purity="5.1842629909515381e-01" nType="0">
          <Node pos="l" depth="2" NCoef="0" IVar="-1" Cut="0.0000000000000000e+00" cType="1" res="-2.1791327744722366e-03" rms="2.0612262189388275e-01" purity="5.0790214538574219e-01" nType="-99"/>
          <Node pos="r" depth="2" NCoef="0" IVar="-1" Cut="0.0000000000000000e+00" cType="1" res="6.3342740759253502e-03" rms="2.1094316244125366e-01" purity="5.2727258205413818e-01" nType="-99"/>
        </Node>
      </Node>
    </BinaryTree>
    <BinaryTree type="DecisionTree" boostWeight="1.0000000000000000e+00" itree="305">
      <Node pos="s" depth="0" NCoef="0" IVar="23" Cut="7.6227295398712158e-01" cType="1" res="1.0367481736466289e-03" rms="2.0581500232219696e-01" purity="5.0001168251037598e-01" nType="0">
        <Node pos="l" depth="1" NCoef="0" IVar="16" Cut="5.0889933109283447e-01" cType="1" res="5.0650858320295811e-03" rms="2.1733649075031281e-01" purity="1.6072180867195129e-01" nType="0">
          <Node pos="l" depth="2" NCoef="0" IVar="-1" Cut="0.0000000000000000e+00" cType="1" res="1.4108214527368546e-03" rms="2.1599125862121582e-01" purity="1.4382296800613403e-01" nType="-99"/>
          <Node pos="r" depth="2" NCoef="0" IVar="-1" Cut="0.0000000000000000e+00" cType="1" res="1.7647720873355865e-02" rms="2.2273688018321991e-01" purity="2.3922663927078247e-01" nType="-99"/>
        </Node>
        <Node pos="r" depth="1" NCoef="0" IVar="23" Cut="9.8862129449844360e-01" cType="1" res="-2.3848854470998049e-03" rms="1.9543096423149109e-01" purity="7.8820139169692993e-01" nType="0">
          <Node pos="l" depth="2" NCoef="0" IVar="-1" Cut="0.0000000000000000e+00" cType="1" res="-6.9327205419540405e-03" rms="2.2841279208660126e-01" purity="6.9028258323669434e-01" nType="-99"/>
          <Node pos="r" depth="2" NCoef="0" IVar="-1" Cut="0.0000000000000000e+00" cType="1" res="1.8670959398150444e-02" rms="1.1374145746231079e-01" purity="9.6404290199279785e-01" nType="-99"/>
        </Node>
      </Node>
    </BinaryTree>
    <BinaryTree type="DecisionTree" boostWeight="1.0000000000000000e+00" itree="306">
      <Node pos="s" depth="0" NCoef="0" IVar="31" Cut="2.4747779965400696e-01" cType="1" res="-2.0707820658572018e-04" rms="2.0305815339088440e-01" purity="4.9856576323509216e-01" nType="0">
        <Node pos="l" depth="1" NCoef="0" IVar="9" Cut="3.8102012634277344e+01" cType="1" res="5.8117537992075086e-04" rms="2.0449781417846680e-01" purity="5.1305425167083740e-01" nType="0">
          <Node pos="l" depth="2" NCoef="0" IVar="-1" Cut="0.0000000000000000e+00" cType="1" res="1.4337206957861781e-03" rms="2.0646156370639801e-01" purity="5.2832263708114624e-01" nType="-99"/>
          <Node pos="r" depth="2" NCoef="0" IVar="-1" Cut="0.0000000000000000e+00" cType="1" res="-1.7083458602428436e-02" rms="1.6446609795093536e-01" purity="2.3817881941795349e-01" nType="-99"/>
        </Node>
        <Node pos="r" depth="1" NCoef="0" IVar="-1" Cut="0.0000000000000000e+00" cType="1" res="-2.4141909554600716e-02" rms="1.6511292755603790e-01" purity="1.6222068667411804e-01" nType="-99"/>
      </Node>
    </BinaryTree>
    <BinaryTree type="DecisionTree" boostWeight="1.0000000000000000e+00" itree="307">
      <Node pos="s" depth="0" NCoef="0" IVar="25" Cut="6.9188308715820312e-01" cType="1" res="9.2475482961162925e-04" rms="2.0298056304454803e-01" purity="4.9998000264167786e-01" nType="0">
        <Node pos="l" depth="1" NCoef="0" IVar="3" Cut="3.0998809337615967e+00" cType="1" res="1.6715640667825937e-03" rms="2.0384716987609863e-01" purity="5.1348769664764404e-01" nType="0">
          <Node pos="l" depth="2" NCoef="0" IVar="-1" Cut="0.0000000000000000e+00" cType="1" res="2.8305724263191223e-03" rms="2.2831459343433380e-01" purity="6.4485865831375122e-01" nType="-99"/>
          <Node pos="r" depth="2" NCoef="0" IVar="-1" Cut="0.0000000000000000e+00" cType="1" res="-5.1916848868131638e-02" rms="1.2829648330807686e-02" purity="0.0000000000000000e+00" nType="-99"/>
        </Node>
        <Node pos="r" depth="1" NCoef="0" IVar="-1" Cut="0.0000000000000000e+00" cType="1" res="-2.7728674933314323e-02" rms="1.7546452581882477e-01" purity="1.1864488571882248e-01" nType="-99"/>
      </Node>
    </BinaryTree>
    <BinaryTree type="DecisionTree" boostWeight="1.0000000000000000e+00" itree="308">
      <Node pos="s" depth="0" NCoef="0" IVar="10" Cut="8.2088451385498047e+00" cType="1" res="4.4323084875941277e-04" rms="2.0520359277725220e-01" purity="5.0059103965759277e-01" nType="0">
        <Node pos="l" depth="1" NCoef="0" IVar="10" Cut="7.4409837722778320e+00" cType="1" res="-4.5630233944393694e-04" rms="2.0425350964069366e-01" purity="5.0220823287963867e-01" nType="0">
          <Node pos="l" depth="2" NCoef="0" IVar="-1" Cut="0.0000000000000000e+00" cType="1" res="2.4771159514784813e-03" rms="2.0351606607437134e-01" purity="5.2085077762603760e-01" nType="-99"/>
          <Node pos="r" depth="2" NCoef="0" IVar="-1" Cut="0.0000000000000000e+00" cType="1" res="-8.2804188132286072e-03" rms="2.0607100427150726e-01" purity="4.5065757632255554e-01" nType="-99"/>
        </Node>
        <Node pos="r" depth="1" NCoef="0" IVar="-1" Cut="0.0000000000000000e+00" cType="1" res="2.2406268864870071e-02" rms="2.2464694082736969e-01" purity="4.6405279636383057e-01" nType="-99"/>
      </Node>
    </BinaryTree>
    <BinaryTree type="DecisionTree" boostWeight="1.0000000000000000e+00" itree="309">
      <Node pos="s" depth="0" NCoef="0" IVar="15" Cut="7.3584561347961426e+00" cType="1" res="-1.1733750579878688e-03" rms="2.0594644546508789e-01" purity="5.0068676471710205e-01" nType="0">
        <Node pos="l" depth="1" NCoef="0" IVar="10" Cut="7.3966841697692871e+00" cType="1" res="-2.5968835689127445e-03" rms="2.0836246013641357e-01" purity="4.8860338330268860e-01" nType="0">
          <Node pos="l" depth="2" NCoef="0" IVar="-1" Cut="0.0000000000000000e+00" cType="1" res="5.7357246987521648e-04" rms="2.0590215921401978e-01" purity="5.2034163475036621e-01" nType="-99"/>
          <Node pos="r" depth="2" NCoef="0" IVar="-1" Cut="0.0000000000000000e+00" cType="1" res="-1.0246593505144119e-02" rms="2.1438761055469513e-01" purity="4.0639045834541321e-01" nType="-99"/>
        </Node>
        <Node pos="r" depth="1" NCoef="0" IVar="7" Cut="3.3443169593811035e+00" cType="1" res="8.4035601466894150e-03" rms="1.8861153721809387e-01" purity="5.8198040723800659e-01" nType="0">
          <Node pos="l" depth="2" NCoef="0" IVar="-1" Cut="0.0000000000000000e+00" cType="1" res="2.0983440801501274e-02" rms="1.9711326062679291e-01" purity="7.2943902015686035e-01" nType="-99"/>
          <Node pos="r" depth="2" NCoef="0" IVar="-1" Cut="0.0000000000000000e+00" cType="1" res="-4.8558786511421204e-02" rms="1.4929963648319244e-01" purity="4.7345146536827087e-02" nType="-99"/>
        </Node>
      </Node>
    </BinaryTree>
    <BinaryTree type="DecisionTree" boostWeight="1.0000000000000000e+00" itree="310">
      <Node pos="s" depth="0" NCoef="0" IVar="11" Cut="6.2959895133972168e+00" cType="1" res="4.9362395657226443e-04" rms="2.0595586299896240e-01" purity="4.9979847669601440e-01" nType="0">
        <Node pos="l" depth="1" NCoef="0" IVar="3" Cut="1.4369021654129028e+00" cType="1" res="-6.4263003878295422e-03" rms="2.0845972001552582e-01" purity="4.3738949298858643e-01" nType="0">
          <Node pos="l" depth="2" NCoef="0" IVar="-1" Cut="0.0000000000000000e+00" cType="1" res="5.3503038361668587e-03" rms="2.2598114609718323e-01" purity="7.4030667543411255e-01" nType="-99"/>
          <Node pos="r" depth="2" NCoef="0" IVar="-1" Cut="0.0000000000000000e+00" cType="1" res="-1.4243179000914097e-02" rms="1.9956843554973602e-01" purity="2.9753294587135315e-01" nType="-99"/>
        </Node>
        <Node pos="r" depth="1" NCoef="0" IVar="33" Cut="2.6661869883537292e-01" cType="1" res="2.9410049319267273e-03" rms="2.0500709116458893e-01" purity="5.2187073230743408e-01" nType="0">
          <Node pos="l" depth="2" NCoef="0" IVar="-1" Cut="0.0000000000000000e+00" cType="1" res="2.1363038104027510e-03" rms="2.0435950160026550e-01" purity="5.3136146068572998e-01" nType="-99"/>
          <Node pos="r" depth="2" NCoef="0" IVar="-1" Cut="0.0000000000000000e+00" cType="1" res="2.2210771217942238e-02" rms="2.1841172873973846e-01" purity="3.0434218049049377e-01" nType="-99"/>
        </Node>
      </Node>
    </BinaryTree>
    <BinaryTree type="DecisionTree" boostWeight="1.0000000000000000e+00" itree="311">
      <Node pos="s" depth="0" NCoef="0" IVar="27" Cut="9.5199495553970337e-01" cType="1" res="4.7678995179012418e-04" rms="2.0590832829475403e-01" purity="5.0121909379959106e-01" nType="0">
        <Node pos="l" depth="1" NCoef="0" IVar="20" Cut="-2.7327701568603516e+01" cType="1" res="3.7550257984548807e-03" rms="2.1352498233318329e-01" purity="2.9107242822647095e-01" nType="0">
          <Node pos="l" depth="2" NCoef="0" IVar="-1" Cut="0.0000000000000000e+00" cType="1" res="2.6441620662808418e-02" rms="2.2305341064929962e-01" purity="5.0162190198898315e-01" nType="-99"/>
          <Node pos="r" depth="2" NCoef="0" IVar="-1" Cut="0.0000000000000000e+00" cType="1" res="1.3693694490939379e-03" rms="2.1245881915092468e-01" purity="2.7161160111427307e-01" nType="-99"/>
        </Node>
        <Node pos="r" depth="1" NCoef="0" IVar="27" Cut="9.9277400970458984e-01" cType="1" res="-2.8398432768881321e-03" rms="1.9784910976886749e-01" purity="7.1382713317871094e-01" nType="0">
          <Node pos="l" depth="2" NCoef="0" IVar="-1" Cut="0.0000000000000000e+00" cType="1" res="-1.3009016402065754e-02" rms="2.2245846688747406e-01" purity="5.9072673320770264e-01" nType="-99"/>
          <Node pos="r" depth="2" NCoef="0" IVar="-1" Cut="0.0000000000000000e+00" cType="1" res="1.3041461817920208e-02" rms="1.6636595129966736e-01" purity="8.4642833471298218e-01" nType="-99"/>
        </Node>
      </Node>
    </BinaryTree>
    <BinaryTree type="DecisionTree" boostWeight="1.0000000000000000e+00" itree="312">
      <Node pos="s" depth="0" NCoef="0" IVar="15" Cut="5.9000520706176758e+00" cType="1" res="-2.3193786910269409e-04" rms="2.0239287614822388e-01" purity="5.0463378429412842e-01" nType="0">
        <Node pos="l" depth="1" NCoef="0" IVar="12" Cut="7.3509902954101562e+00" cType="1" res="7.4684745632112026e-03" rms="2.1690738201141357e-01" purity="5.2887707948684692e-01" nType="0">
          <Node pos="l" depth="2" NCoef="0" IVar="-1" Cut="0.0000000000000000e+00" cType="1" res="1.1823338456451893e-02" rms="2.2353897988796234e-01" purity="4.8646271228790283e-01" nType="-99"/>
          <Node pos="r" depth="2" NCoef="0" IVar="-1" Cut="0.0000000000000000e+00" cType="1" res="-4.7649429179728031e-03" rms="2.0250046253204346e-01" purity="6.1333084106445312e-01" nType="-99"/>
        </Node>
        <Node pos="r" depth="1" NCoef="0" IVar="23" Cut="4.3046540021896362e-01" cType="1" res="-2.3993309587240219e-03" rms="1.9806188344955444e-01" purity="4.9781018495559692e-01" nType="0">
          <Node pos="l" depth="2" NCoef="0" IVar="-1" Cut="0.0000000000000000e+00" cType="1" res="-1.4939779415726662e-02" rms="1.6314943134784698e-01" purity="7.0651873946189880e-02" nType="-99"/>
          <Node pos="r" depth="2" NCoef="0" IVar="-1" Cut="0.0000000000000000e+00" cType="1" res="-1.7064306302927434e-04" rms="2.0572772622108459e-01" purity="6.0350954532623291e-01" nType="-99"/>
        </Node>
      </Node>
    </BinaryTree>
    <BinaryTree type="DecisionTree" boostWeight="1.0000000000000000e+00" itree="313">
      <Node pos="s" depth="0" NCoef="0" IVar="10" Cut="7.7957029342651367e+00" cType="1" res="3.1661725370213389e-04" rms="2.0442810654640198e-01" purity="4.9956691265106201e-01" nType="0">
        <Node pos="l" depth="1" NCoef="0" IVar="14" Cut="8.1762151718139648e+00" cType="1" res="-1.3678221730515361e-03" rms="2.0171104371547699e-01" purity="5.0680887699127197e-01" nType="0">
          <Node pos="l" depth="2" NCoef="0" IVar="-1" Cut="0.0000000000000000e+00" cType="1" res="3.1405952759087086e-03" rms="2.0959724485874176e-01" purity="4.7143092751502991e-01" nType="-99"/>
          <Node pos="r" depth="2" NCoef="0" IVar="-1" Cut="0.0000000000000000e+00" cType="1" res="-5.3988657891750336e-03" rms="1.9496120512485504e-01" purity="5.3568083047866821e-01" nType="-99"/>
        </Node>
        <Node pos="r" depth="1" NCoef="0" IVar="19" Cut="6.1605758666992188e+00" cType="1" res="1.0594491846859455e-02" rms="2.2000250220298767e-01" purity="4.5537886023521423e-01" nType="0">
          <Node pos="l" depth="2" NCoef="0" IVar="-1" Cut="0.0000000000000000e+00" cType="1" res="2.1445160731673241e-02" rms="2.2263887524604797e-01" purity="4.4184109568595886e-01" nType="-99"/>
          <Node pos="r" depth="2" NCoef="0" IVar="-1" Cut="0.0000000000000000e+00" cType="1" res="-4.9499636515974998e-03" rms="2.1484486758708954e-01" purity="4.7674131393432617e-01" nType="-99"/>
        </Node>
      </Node>
    </BinaryTree>
    <BinaryTree type="DecisionTree" boostWeight="1.0000000000000000e+00" itree="314">
      <Node pos="s" depth="0" NCoef="0" IVar="14" Cut="7.6805338859558105e+00" cType="1" res="-1.9158943323418498e-03" rms="2.0285299420356750e-01" purity="4.9828583002090454e-01" nType="0">
        <Node pos="l" depth="1" NCoef="0" IVar="6" Cut="4.0541281700134277e+00" cType="1" res="6.4648804254829884e-03" rms="2.0431248843669891e-01" purity="4.1333404183387756e-01" nType="0">
          <Node pos="l" depth="2" NCoef="0" IVar="-1" Cut="0.0000000000000000e+00" cType="1" res="-2.1905021741986275e-02" rms="1.8100386857986450e-01" purity="1.3482929766178131e-01" nType="-99"/>
          <Node pos="r" depth="2" NCoef="0" IVar="-1" Cut="0.0000000000000000e+00" cType="1" res="1.7332497984170914e-02" rms="2.1412561833858490e-01" purity="5.5367928743362427e-01" nType="-99"/>
        </Node>
        <Node pos="r" depth="1" NCoef="0" IVar="23" Cut="9.5246654748916626e-01" cType="1" res="-3.5488344728946686e-03" rms="2.0252703130245209e-01" purity="5.1483815908432007e-01" nType="0">
          <Node pos="l" depth="2" NCoef="0" IVar="-1" Cut="0.0000000000000000e+00" cType="1" res="-5.7468824088573456e-03" rms="2.3020112514495850e-01" purity="2.7841353416442871e-01" nType="-99"/>
          <Node pos="r" depth="2" NCoef="0" IVar="-1" Cut="0.0000000000000000e+00" cType="1" res="5.7501373812556267e-03" rms="1.4002481102943420e-01" purity="9.3627315759658813e-01" nType="-99"/>
        </Node>
      </Node>
    </BinaryTree>
    <BinaryTree type="DecisionTree" boostWeight="1.0000000000000000e+00" itree="315">
      <Node pos="s" depth="0" NCoef="0" IVar="5" Cut="9.6675853729248047e+00" cType="1" res="-1.3283351436257362e-03" rms="2.0348042249679565e-01" purity="4.9753516912460327e-01" nType="0">
        <Node pos="l" depth="1" NCoef="0" IVar="5" Cut="1.8424030542373657e+00" cType="1" res="-6.1711377929896116e-04" rms="2.0444600284099579e-01" purity="5.1195830106735229e-01" nType="0">
          <Node pos="l" depth="2" NCoef="0" IVar="-1" Cut="0.0000000000000000e+00" cType="1" res="3.5055419430136681e-03" rms="2.0571473240852356e-01" purity="5.6467348337173462e-01" nType="-99"/>
          <Node pos="r" depth="2" NCoef="0" IVar="-1" Cut="0.0000000000000000e+00" cType="1" res="-9.3976277858018875e-03" rms="2.0149324834346771e-01" purity="4.0133365988731384e-01" nType="-99"/>
        </Node>
        <Node pos="r" depth="1" NCoef="0" IVar="-1" Cut="0.0000000000000000e+00" cType="1" res="-3.3575396984815598e-02" rms="1.7379651963710785e-01" purity="1.0189983248710632e-01" nType="-99"/>
      </Node>
    </BinaryTree>
    <BinaryTree type="DecisionTree" boostWeight="1.0000000000000000e+00" itree="316">
      <Node pos="s" depth="0" NCoef="0" IVar="23" Cut="2.8651058673858643e-01" cType="1" res="8.4754469571635127e-04" rms="2.0240172743797302e-01" purity="5.0304621458053589e-01" nType="0">
        <Node pos="l" depth="1" NCoef="0" IVar="7" Cut="2.2623186111450195e+00" cType="1" res="-8.6252726614475250e-03" rms="1.5512195229530334e-01" purity="5.7633791118860245e-02" nType="0">
          <Node pos="l" depth="2" NCoef="0" IVar="-1" Cut="0.0000000000000000e+00" cType="1" res="-1.3663952238857746e-02" rms="2.0032018423080444e-01" purity="1.0119923949241638e-01" nType="-99"/>
          <Node pos="r" depth="2" NCoef="0" IVar="-1" Cut="0.0000000000000000e+00" cType="1" res="-6.2765609472990036e-03" rms="9.4667546451091766e-02" purity="1.6967121511697769e-02" nType="-99"/>
        </Node>
        <Node pos="r" depth="1" NCoef="0" IVar="29" Cut="2.7415817975997925e-01" cType="1" res="2.0340830087661743e-03" rms="2.0753581821918488e-01" purity="5.5883729457855225e-01" nType="0">
          <Node pos="l" depth="2" NCoef="0" IVar="-1" Cut="0.0000000000000000e+00" cType="1" res="4.7441073693335056e-03" rms="2.0227146148681641e-01" purity="6.4586561918258667e-01" nType="-99"/>
          <Node pos="r" depth="2" NCoef="0" IVar="-1" Cut="0.0000000000000000e+00" cType="1" res="-3.2691331580281258e-03" rms="2.1903593838214874e-01" purity="3.5912653803825378e-01" nType="-99"/>
        </Node>
      </Node>
    </BinaryTree>
    <BinaryTree type="DecisionTree" boostWeight="1.0000000000000000e+00" itree="317">
      <Node pos="s" depth="0" NCoef="0" IVar="30" Cut="7.6192371547222137e-02" cType="1" res="-1.4342472422868013e-03" rms="2.0477595925331116e-01" purity="4.9914541840553284e-01" nType="0">
        <Node pos="l" depth="1" NCoef="0" IVar="7" Cut="5.0976400375366211e+00" cType="1" res="6.1641924548894167e-04" rms="2.0640929043292999e-01" purity="5.6366258859634399e-01" nType="0">
          <Node pos="l" depth="2" NCoef="0" IVar="-1" Cut="0.0000000000000000e+00" cType="1" res="-2.7880287962034345e-04" rms="2.0579726994037628e-01" purity="5.7708984613418579e-01" nType="-99"/>
          <Node pos="r" depth="2" NCoef="0" IVar="-1" Cut="0.0000000000000000e+00" cType="1" res="2.0476296544075012e-02" rms="2.1808651089668274e-01" purity="2.8037378191947937e-01" nType="-99"/>
        </Node>
        <Node pos="r" depth="1" NCoef="0" IVar="15" Cut="7.0811514854431152e+00" cType="1" res="-9.1621018946170807e-03" rms="1.9830971956253052e-01" purity="2.5601494312286377e-01" nType="0">
          <Node pos="l" depth="2" NCoef="0" IVar="-1" Cut="0.0000000000000000e+00" cType="1" res="-1.2159151956439018e-02" rms="1.9934706389904022e-01" purity="2.4509382247924805e-01" nType="-99"/>
          <Node pos="r" depth="2" NCoef="0" IVar="-1" Cut="0.0000000000000000e+00" cType="1" res="6.3981739804148674e-03" rms="1.9269554316997528e-01" purity="3.0739557743072510e-01" nType="-99"/>
        </Node>
      </Node>
    </BinaryTree>
    <BinaryTree type="DecisionTree" boostWeight="1.0000000000000000e+00" itree="318">
      <Node pos="s" depth="0" NCoef="0" IVar="26" Cut="9.5122739672660828e-02" cType="1" res="-3.3901346614584327e-04" rms="2.0400694012641907e-01" purity="4.9855312705039978e-01" nType="0">
        <Node pos="l" depth="1" NCoef="0" IVar="27" Cut="8.0973994731903076e-01" cType="1" res="-1.9239239627495408e-03" rms="2.0321545004844666e-01" purity="5.4720830917358398e-01" nType="0">
          <Node pos="l" depth="2" NCoef="0" IVar="-1" Cut="0.0000000000000000e+00" cType="1" res="-1.6570162028074265e-02" rms="1.9037456810474396e-01" purity="1.9894230365753174e-01" nType="-99"/>
          <Node pos="r" depth="2" NCoef="0" IVar="-1" Cut="0.0000000000000000e+00" cType="1" res="4.6237193600973114e-05" rms="2.0513609051704407e-01" purity="6.0318547487258911e-01" nType="-99"/>
        </Node>
        <Node pos="r" depth="1" NCoef="0" IVar="3" Cut="2.1498270034790039e+00" cType="1" res="7.3859519325196743e-03" rms="2.0764844119548798e-01" purity="2.6140436530113220e-01" nType="0">
          <Node pos="l" depth="2" NCoef="0" IVar="-1" Cut="0.0000000000000000e+00" cType="1" res="1.2683846056461334e-02" rms="2.5853827595710754e-01" purity="4.8106411099433899e-01" nType="-99"/>
          <Node pos="r" depth="2" NCoef="0" IVar="-1" Cut="0.0000000000000000e+00" cType="1" res="-3.8891076110303402e-03" rms="1.5381692349910736e-01" purity="8.2986928522586823e-02" nType="-99"/>
        </Node>
      </Node>
    </BinaryTree>
    <BinaryTree type="DecisionTree" boostWeight="1.0000000000000000e+00" itree="319">
      <Node pos="s" depth="0" NCoef="0" IVar="25" Cut="6.9188314676284790e-01" cType="1" res="-1.0834670392796397e-03" rms="2.0532955229282379e-01" purity="4.9820885062217712e-01" nType="0">
        <Node pos="l" depth="1" NCoef="0" IVar="0" Cut="2.0063631057739258e+01" cType="1" res="-3.6490583443082869e-04" rms="2.0660687983036041e-01" purity="5.1071935892105103e-01" nType="0">
          <Node pos="l" depth="2" NCoef="0" IVar="-1" Cut="0.0000000000000000e+00" cType="1" res="6.0346006648615003e-04" rms="2.0797953009605408e-01" purity="5.2034306526184082e-01" nType="-99"/>
          <Node pos="r" depth="2" NCoef="0" IVar="-1" Cut="0.0000000000000000e+00" cType="1" res="-1.5321032144129276e-02" rms="1.8496407568454742e-01" purity="3.7088793516159058e-01" nType="-99"/>
        </Node>
        <Node pos="r" depth="1" NCoef="0" IVar="-1" Cut="0.0000000000000000e+00" cType="1" res="-3.0937369912862778e-02" rms="1.6144770383834839e-01" purity="1.2672287225723267e-01" nType="-99"/>
      </Node>
    </BinaryTree>
    <BinaryTree type="DecisionTree" boostWeight="1.0000000000000000e+00" itree="320">
      <Node pos="s" depth="0" NCoef="0" IVar="13" Cut="7.0716667175292969e+00" cType="1" res="2.9624361195601523e-04" rms="2.0531757175922394e-01" purity="4.9911159276962280e-01" nType="0">
        <Node pos="l" depth="1" NCoef="0" IVar="-1" Cut="0.0000000000000000e+00" cType="1" res="2.0317317917943001e-02" rms="2.2402624785900116e-01" purity="3.7399333715438843e-01" nType="-99"/>
        <Node pos="r" depth="1" NCoef="0" IVar="22" Cut="3.2554260253906250e+01" cType="1" res="-4.3949516839347780e-04" rms="2.0448543131351471e-01" purity="5.0420796871185303e-01" nType="0">
          <Node pos="l" depth="2" NCoef="0" IVar="-1" Cut="0.0000000000000000e+00" cType="1" res="-1.3451193226501346e-03" rms="2.0775140821933746e-01" purity="4.7543969750404358e-01" nType="-99"/>
          <Node pos="r" depth="2" NCoef="0" IVar="-1" Cut="0.0000000000000000e+00" cType="1" res="2.0837696269154549e-02" rms="1.5249097347259521e-01" purity="8.9738494157791138e-01" nType="-99"/>
        </Node>
      </Node>
    </BinaryTree>
    <BinaryTree type="DecisionTree" boostWeight="1.0000000000000000e+00" itree="321">
      <Node pos="s" depth="0" NCoef="0" IVar="17" Cut="2.6801128387451172e+01" cType="1" res="3.8987904554232955e-04" rms="2.0376086235046387e-01" purity="4.9920687079429626e-01" nType="0">
        <Node pos="l" depth="1" NCoef="0" IVar="20" Cut="-2.5986133575439453e+01" cType="1" res="-1.7674053087830544e-03" rms="2.0843097567558289e-01" purity="3.6711964011192322e-01" nType="0">
          <Node pos="l" depth="2" NCoef="0" IVar="-1" Cut="0.0000000000000000e+00" cType="1" res="6.3449298031628132e-03" rms="2.1164298057556152e-01" purity="6.5107995271682739e-01" nType="-99"/>
          <Node pos="r" depth="2" NCoef="0" IVar="-1" Cut="0.0000000000000000e+00" cType="1" res="-4.2294231243431568e-03" rms="2.0743280649185181e-01" purity="2.8499081730842590e-01" nType="-99"/>
        </Node>
        <Node pos="r" depth="1" NCoef="0" IVar="20" Cut="-2.9683766365051270e+00" cType="1" res="4.5941779389977455e-03" rms="1.9426833093166351e-01" purity="7.5662982463836670e-01" nType="0">
          <Node pos="l" depth="2" NCoef="0" IVar="-1" Cut="0.0000000000000000e+00" cType="1" res="-3.5706776543520391e-04" rms="1.8028020858764648e-01" purity="7.9315513372421265e-01" nType="-99"/>
          <Node pos="r" depth="2" NCoef="0" IVar="-1" Cut="0.0000000000000000e+00" cType="1" res="1.7032045871019363e-02" rms="2.3449464142322540e-01" purity="6.3395553827285767e-01" nType="-99"/>
        </Node>
      </Node>
    </BinaryTree>
    <BinaryTree type="DecisionTree" boostWeight="1.0000000000000000e+00" itree="322">
      <Node pos="s" depth="0" NCoef="0" IVar="15" Cut="5.9802470207214355e+00" cType="1" res="6.8354973336681724e-04" rms="2.0525677502155304e-01" purity="4.9902480840682983e-01" nType="0">
        <Node pos="l" depth="1" NCoef="0" IVar="7" Cut="3.2912812232971191e+00" cType="1" res="7.0391702465713024e-03" rms="2.1985420584678650e-01" purity="5.0671058893203735e-01" nType="0">
          <Node pos="l" depth="2" NCoef="0" IVar="-1" Cut="0.0000000000000000e+00" cType="1" res="3.0470718629658222e-03" rms="2.2045561671257019e-01" purity="5.2273124456405640e-01" nType="-99"/>
          <Node pos="r" depth="2" NCoef="0" IVar="-1" Cut="0.0000000000000000e+00" cType="1" res="3.2412130385637283e-02" rms="2.1394178271293640e-01" purity="3.9623850584030151e-01" nType="-99"/>
        </Node>
        <Node pos="r" depth="1" NCoef="0" IVar="28" Cut="5.7396149635314941e-01" cType="1" res="-1.5139542520046234e-03" rms="1.9991484284400940e-01" purity="4.9636739492416382e-01" nType="0">
          <Node pos="l" depth="2" NCoef="0" IVar="-1" Cut="0.0000000000000000e+00" cType="1" res="-9.1249793767929077e-03" rms="2.0212908089160919e-01" purity="2.3137889802455902e-01" nType="-99"/>
          <Node pos="r" depth="2" NCoef="0" IVar="-1" Cut="0.0000000000000000e+00" cType="1" res="1.3441235059872270e-03" rms="1.9899015128612518e-01" purity="5.9809225797653198e-01" nType="-99"/>
        </Node>
      </Node>
    </BinaryTree>
    <BinaryTree type="DecisionTree" boostWeight="1.0000000000000000e+00" itree="323">
      <Node pos="s" depth="0" NCoef="0" IVar="33" Cut="1.7142958939075470e-01" cType="1" res="-3.9267801912501454e-04" rms="2.0386561751365662e-01" purity="4.9858748912811279e-01" nType="0">
        <Node pos="l" depth="1" NCoef="0" IVar="33" Cut="8.1761954352259636e-03" cType="1" res="8.2394748460501432e-04" rms="2.0460104942321777e-01" purity="5.2622860670089722e-01" nType="0">
          <Node pos="l" depth="2" NCoef="0" IVar="-1" Cut="0.0000000000000000e+00" cType="1" res="6.4556305296719074e-03" rms="1.8620398640632629e-01" purity="6.6810953617095947e-01" nType="-99"/>
          <Node pos="r" depth="2" NCoef="0" IVar="-1" Cut="0.0000000000000000e+00" cType="1" res="-2.6673299726098776e-03" rms="2.1698904037475586e-01" purity="4.2257308959960938e-01" nType="-99"/>
        </Node>
        <Node pos="r" depth="1" NCoef="0" IVar="7" Cut="2.5659508705139160e+00" cType="1" res="-1.1236364021897316e-02" rms="1.9685767590999603e-01" purity="2.5222498178482056e-01" nType="0">
          <Node pos="l" depth="2" NCoef="0" IVar="-1" Cut="0.0000000000000000e+00" cType="1" res="-1.5708504244685173e-02" rms="2.2814559936523438e-01" purity="3.5401222109794617e-01" nType="-99"/>
          <Node pos="r" depth="2" NCoef="0" IVar="-1" Cut="0.0000000000000000e+00" cType="1" res="-2.3106603475753218e-04" rms="1.3978664577007294e-01" purity="1.0677006840705872e-01" nType="-99"/>
        </Node>
      </Node>
    </BinaryTree>
    <BinaryTree type="DecisionTree" boostWeight="1.0000000000000000e+00" itree="324">
      <Node pos="s" depth="0" NCoef="0" IVar="20" Cut="8.6612491607666016e+00" cType="1" res="2.3968799505382776e-03" rms="2.0717841386795044e-01" purity="4.9876925349235535e-01" nType="0">
        <Node pos="l" depth="1" NCoef="0" IVar="27" Cut="5.2476298809051514e-01" cType="1" res="1.1414570035412908e-03" rms="2.0518183708190918e-01" purity="5.1432567834854126e-01" nType="0">
          <Node pos="l" depth="2" NCoef="0" IVar="-1" Cut="0.0000000000000000e+00" cType="1" res="-2.0599108189344406e-02" rms="1.6975611448287964e-01" purity="1.2654817104339600e-01" nType="-99"/>
          <Node pos="r" depth="2" NCoef="0" IVar="-1" Cut="0.0000000000000000e+00" cType="1" res="2.4904008023440838e-03" rms="2.0768544077873230e-01" purity="5.4518288373947144e-01" nType="-99"/>
        </Node>
        <Node pos="r" depth="1" NCoef="0" IVar="16" Cut="4.4230994582176208e-01" cType="1" res="1.8285375088453293e-02" rms="2.3036979138851166e-01" purity="3.0188882350921631e-01" nType="0">
          <Node pos="l" depth="2" NCoef="0" IVar="-1" Cut="0.0000000000000000e+00" cType="1" res="3.6298163235187531e-02" rms="2.4114628136157990e-01" purity="2.3288244009017944e-01" nType="-99"/>
          <Node pos="r" depth="2" NCoef="0" IVar="-1" Cut="0.0000000000000000e+00" cType="1" res="-1.5949780354276299e-03" rms="2.1392841637134552e-01" purity="3.9151042699813843e-01" nType="-99"/>
        </Node>
      </Node>
    </BinaryTree>
    <BinaryTree type="DecisionTree" boostWeight="1.0000000000000000e+00" itree="325">
      <Node pos="s" depth="0" NCoef="0" IVar="12" Cut="7.4383077621459961e+00" cType="1" res="1.3804734917357564e-03" rms="2.0417360961437225e-01" purity="5.0097537040710449e-01" nType="0">
        <Node pos="l" depth="1" NCoef="0" IVar="19" Cut="2.6537927627563477e+01" cType="1" res="5.0978320650756359e-03" rms="2.1377946436405182e-01" purity="4.3035048246383667e-01" nType="0">
          <Node pos="l" depth="2" NCoef="0" IVar="-1" Cut="0.0000000000000000e+00" cType="1" res="2.1164221689105034e-03" rms="2.1733264625072479e-01" purity="3.5541936755180359e-01" nType="-99"/>
          <Node pos="r" depth="2" NCoef="0" IVar="-1" Cut="0.0000000000000000e+00" cType="1" res="1.8856082111597061e-02" rms="1.9566790759563446e-01" purity="7.8238487243652344e-01" nType="-99"/>
        </Node>
        <Node pos="r" depth="1" NCoef="0" IVar="16" Cut="3.7226778268814087e-01" cType="1" res="-4.1235238313674927e-03" rms="1.8892252445220947e-01" purity="6.0554403066635132e-01" nType="0">
          <Node pos="l" depth="2" NCoef="0" IVar="-1" Cut="0.0000000000000000e+00" cType="1" res="-1.4219032600522041e-02" rms="2.0485873520374298e-01" purity="3.3548906445503235e-01" nType="-99"/>
          <Node pos="r" depth="2" NCoef="0" IVar="-1" Cut="0.0000000000000000e+00" cType="1" res="1.0670040501281619e-03" rms="1.8146055936813354e-01" purity="7.2097945213317871e-01" nType="-99"/>
        </Node>
      </Node>
    </BinaryTree>
    <BinaryTree type="DecisionTree" boostWeight="1.0000000000000000e+00" itree="326">
      <Node pos="s" depth="0" NCoef="0" IVar="14" Cut="7.6885609626770020e+00" cType="1" res="8.1151461927220225e-04" rms="2.0567777752876282e-01" purity="5.0056648254394531e-01" nType="0">
        <Node pos="l" depth="1" NCoef="0" IVar="15" Cut="6.4145493507385254e+00" cType="1" res="9.0549346059560776e-03" rms="2.1199822425842285e-01" purity="4.1573968529701233e-01" nType="0">
          <Node pos="l" depth="2" NCoef="0" IVar="-1" Cut="0.0000000000000000e+00" cType="1" res="1.5288051217794418e-02" rms="2.1440179646015167e-01" purity="4.4045245647430420e-01" nType="-99"/>
          <Node pos="r" depth="2" NCoef="0" IVar="-1" Cut="0.0000000000000000e+00" cType="1" res="-1.8821861594915390e-02" rms="1.9903907179832458e-01" purity="3.0735605955123901e-01" nType="-99"/>
        </Node>
        <Node pos="r" depth="1" NCoef="0" IVar="12" Cut="6.9110651016235352e+00" cType="1" res="-8.3998718764632940e-04" rms="2.0434804260730743e-01" purity="5.1756083965301514e-01" nType="0">
          <Node pos="l" depth="2" NCoef="0" IVar="-1" Cut="0.0000000000000000e+00" cType="1" res="-8.3356266841292381e-03" rms="2.1054232120513916e-01" purity="3.2987329363822937e-01" nType="-99"/>
          <Node pos="r" depth="2" NCoef="0" IVar="-1" Cut="0.0000000000000000e+00" cType="1" res="1.1376442853361368e-03" rms="2.0280528068542480e-01" purity="5.6207126379013062e-01" nType="-99"/>
        </Node>
      </Node>
    </BinaryTree>
    <BinaryTree type="DecisionTree" boostWeight="1.0000000000000000e+00" itree="327">
      <Node pos="s" depth="0" NCoef="0" IVar="12" Cut="6.7197985649108887e+00" cType="1" res="3.2660289434716105e-05" rms="2.0314976572990417e-01" purity="4.9859935045242310e-01" nType="0">
        <Node pos="l" depth="1" NCoef="0" IVar="13" Cut="7.7510380744934082e+00" cType="1" res="-8.9828297495841980e-03" rms="2.1120320260524750e-01" purity="3.0922266840934753e-01" nType="0">
          <Node pos="l" depth="2" NCoef="0" IVar="-1" Cut="0.0000000000000000e+00" cType="1" res="7.6745986007153988e-04" rms="2.0726664364337921e-01" purity="3.4598240256309509e-01" nType="-99"/>
          <Node pos="r" depth="2" NCoef="0" IVar="-1" Cut="0.0000000000000000e+00" cType="1" res="-2.0004665479063988e-02" rms="2.1597367525100708e-01" purity="2.5636214017868042e-01" nType="-99"/>
        </Node>
        <Node pos="r" depth="1" NCoef="0" IVar="12" Cut="7.4309797286987305e+00" cType="1" res="1.7082103295251727e-03" rms="2.0157314836978912e-01" purity="5.3379541635513306e-01" nType="0">
          <Node pos="l" depth="2" NCoef="0" IVar="-1" Cut="0.0000000000000000e+00" cType="1" res="6.0436408966779709e-03" rms="2.1392379701137543e-01" purity="4.6706843376159668e-01" nType="-99"/>
          <Node pos="r" depth="2" NCoef="0" IVar="-1" Cut="0.0000000000000000e+00" cType="1" res="-3.6197938024997711e-03" rms="1.8741680681705475e-01" purity="6.0481339693069458e-01" nType="-99"/>
        </Node>
      </Node>
    </BinaryTree>
    <BinaryTree type="DecisionTree" boostWeight="1.0000000000000000e+00" itree="328">
      <Node pos="s" depth="0" NCoef="0" IVar="10" Cut="7.3820095062255859e+00" cType="1" res="-4.7161223483271897e-04" rms="2.0198926329612732e-01" purity="4.9909633398056030e-01" nType="0">
        <Node pos="l" depth="1" NCoef="0" IVar="16" Cut="2.6702919602394104e-01" cType="1" res="2.3194304667413235e-03" rms="1.9887781143188477e-01" purity="5.2408730983734131e-01" nType="0">
          <Node pos="l" depth="2" NCoef="0" IVar="-1" Cut="0.0000000000000000e+00" cType="1" res="-2.3084839805960655e-02" rms="1.9577370584011078e-01" purity="1.4585997164249420e-01" nType="-99"/>
          <Node pos="r" depth="2" NCoef="0" IVar="-1" Cut="0.0000000000000000e+00" cType="1" res="4.7081829980015755e-03" rms="1.9901360571384430e-01" purity="5.5751132965087891e-01" nType="-99"/>
        </Node>
        <Node pos="r" depth="1" NCoef="0" IVar="6" Cut="4.7198972702026367e+00" cType="1" res="-6.2877759337425232e-03" rms="2.0820365846157074e-01" purity="4.4701841473579407e-01" nType="0">
          <Node pos="l" depth="2" NCoef="0" IVar="-1" Cut="0.0000000000000000e+00" cType="1" res="2.3420033976435661e-02" rms="2.2412440180778503e-01" purity="4.7988539934158325e-01" nType="-99"/>
          <Node pos="r" depth="2" NCoef="0" IVar="-1" Cut="0.0000000000000000e+00" cType="1" res="-1.1205630376935005e-02" rms="2.0525546371936798e-01" purity="4.4199466705322266e-01" nType="-99"/>
        </Node>
      </Node>
    </BinaryTree>
    <BinaryTree type="DecisionTree" boostWeight="1.0000000000000000e+00" itree="329">
      <Node pos="s" depth="0" NCoef="0" IVar="34" Cut="5.5556426048278809e+00" cType="1" res="-1.2208019616082311e-03" rms="2.0060390233993530e-01" purity="4.9951601028442383e-01" nType="0">
        <Node pos="l" depth="1" NCoef="0" IVar="10" Cut="6.7097291946411133e+00" cType="1" res="-7.4149502324871719e-05" rms="2.0239993929862976e-01" purity="5.3573071956634521e-01" nType="0">
          <Node pos="l" depth="2" NCoef="0" IVar="-1" Cut="0.0000000000000000e+00" cType="1" res="-5.7701808400452137e-03" rms="1.9473150372505188e-01" purity="5.1724356412887573e-01" nType="-99"/>
          <Node pos="r" depth="2" NCoef="0" IVar="-1" Cut="0.0000000000000000e+00" cType="1" res="2.3912640754133463e-03" rms="2.0580124855041504e-01" purity="5.4427433013916016e-01" nType="-99"/>
        </Node>
        <Node pos="r" depth="1" NCoef="0" IVar="3" Cut="2.1761777400970459e+00" cType="1" res="-1.3318464159965515e-02" rms="1.8012559413909912e-01" purity="1.1743525415658951e-01" nType="0">
          <Node pos="l" depth="2" NCoef="0" IVar="-1" Cut="0.0000000000000000e+00" cType="1" res="-2.5232868269085884e-02" rms="2.5397431850433350e-01" purity="2.5944504141807556e-01" nType="-99"/>
          <Node pos="r" depth="2" NCoef="0" IVar="-1" Cut="0.0000000000000000e+00" cType="1" res="-2.3736681323498487e-03" rms="1.2315136194229126e-01" purity="4.2902290821075439e-02" nType="-99"/>
        </Node>
      </Node>
    </BinaryTree>
    <BinaryTree type="DecisionTree" boostWeight="1.0000000000000000e+00" itree="330">
      <Node pos="s" depth="0" NCoef="0" IVar="13" Cut="8.5511589050292969e+00" cType="1" res="1.5183340292423964e-04" rms="2.0479644834995270e-01" purity="5.0059759616851807e-01" nType="0">
        <Node pos="l" depth="1" NCoef="0" IVar="12" Cut="7.4440159797668457e+00" cType="1" res="-2.1979883313179016e-03" rms="2.0748861134052277e-01" purity="4.8714491724967957e-01" nType="0">
          <Node pos="l" depth="2" NCoef="0" IVar="-1" Cut="0.0000000000000000e+00" cType="1" res="9.0836989693343639e-04" rms="2.1195445954799652e-01" purity="4.4000557065010071e-01" nType="-99"/>
          <Node pos="r" depth="2" NCoef="0" IVar="-1" Cut="0.0000000000000000e+00" cType="1" res="-1.2889308854937553e-02" rms="1.9341845810413361e-01" purity="6.2621790170669556e-01" nType="-99"/>
        </Node>
        <Node pos="r" depth="1" NCoef="0" IVar="22" Cut="2.7032368183135986e+00" cType="1" res="7.2609893977642059e-03" rms="1.9625580310821533e-01" purity="5.4129731655120850e-01" nType="0">
          <Node pos="l" depth="2" NCoef="0" IVar="-1" Cut="0.0000000000000000e+00" cType="1" res="3.3603403717279434e-02" rms="2.0975728332996368e-01" purity="4.4770422577857971e-01" nType="-99"/>
          <Node pos="r" depth="2" NCoef="0" IVar="-1" Cut="0.0000000000000000e+00" cType="1" res="3.0750464648008347e-03" rms="1.9295811653137207e-01" purity="5.6119650602340698e-01" nType="-99"/>
        </Node>
      </Node>
    </BinaryTree>
    <BinaryTree type="DecisionTree" boostWeight="1.0000000000000000e+00" itree="331">
      <Node pos="s" depth="0" NCoef="0" IVar="5" Cut="6.8086185455322266e+00" cType="1" res="-1.7177116824313998e-03" rms="2.0359846949577332e-01" purity="4.9471801519393921e-01" nType="0">
        <Node pos="l" depth="1" NCoef="0" IVar="15" Cut="7.4094557762145996e+00" cType="1" res="-8.1151945050805807e-04" rms="2.0541371405124664e-01" purity="5.1703023910522461e-01" nType="0">
          <Node pos="l" depth="2" NCoef="0" IVar="-1" Cut="0.0000000000000000e+00" cType="1" res="-2.3807876277714968e-03" rms="2.0702832937240601e-01" purity="4.9972569942474365e-01" nType="-99"/>
          <Node pos="r" depth="2" NCoef="0" IVar="-1" Cut="0.0000000000000000e+00" cType="1" res="1.4717084355652332e-02" rms="1.9116307795047760e-01" purity="6.5918624401092529e-01" nType="-99"/>
        </Node>
        <Node pos="r" depth="1" NCoef="0" IVar="3" Cut="3.1239061355590820e+00" cType="1" res="-1.7471875995397568e-02" rms="1.6817349195480347e-01" purity="1.0682021081447601e-01" nType="0">
          <Node pos="l" depth="2" NCoef="0" IVar="-1" Cut="0.0000000000000000e+00" cType="1" res="-2.6614909991621971e-02" rms="2.3032326996326447e-01" purity="2.0204213261604309e-01" nType="-99"/>
          <Node pos="r" depth="2" NCoef="0" IVar="-1" Cut="0.0000000000000000e+00" cType="1" res="-5.1548860967159271e-02" rms="7.9878717660903931e-03" purity="0.0000000000000000e+00" nType="-99"/>
        </Node>
      </Node>
    </BinaryTree>
    <BinaryTree type="DecisionTree" boostWeight="1.0000000000000000e+00" itree="332">
      <Node pos="s" depth="0" NCoef="0" IVar="28" Cut="1.4499127864837646e-01" cType="1" res="-2.7745636180043221e-04" rms="2.0394182205200195e-01" purity="5.0040167570114136e-01" nType="0">
        <Node pos="l" depth="1" NCoef="0" IVar="-1" Cut="0.0000000000000000e+00" cType="1" res="-1.5647765249013901e-02" rms="2.0351444184780121e-01" purity="3.0691054463386536e-01" nType="-99"/>
        <Node pos="r" depth="1" NCoef="0" IVar="14" Cut="8.6814022064208984e+00" cType="1" res="4.9915967974811792e-04" rms="2.0393304526805878e-01" purity="5.1025557518005371e-01" nType="0">
          <Node pos="l" depth="2" NCoef="0" IVar="-1" Cut="0.0000000000000000e+00" cType="1" res="-1.5069134533405304e-03" rms="2.0811761915683746e-01" purity="4.9263617396354675e-01" nType="-99"/>
          <Node pos="r" depth="2" NCoef="0" IVar="-1" Cut="0.0000000000000000e+00" cType="1" res="6.9430754519999027e-03" rms="1.9235323369503021e-01" purity="5.5675584077835083e-01" nType="-99"/>
        </Node>
      </Node>
    </BinaryTree>
    <BinaryTree type="DecisionTree" boostWeight="1.0000000000000000e+00" itree="333">
      <Node pos="s" depth="0" NCoef="0" IVar="27" Cut="9.5205581188201904e-01" cType="1" res="1.2384451692923903e-03" rms="2.0552955567836761e-01" purity="4.9871784448623657e-01" nType="0">
        <Node pos="l" depth="1" NCoef="0" IVar="10" Cut="6.5214047431945801e+00" cType="1" res="4.7748028300702572e-03" rms="2.1409356594085693e-01" purity="2.8842356801033020e-01" nType="0">
          <Node pos="l" depth="2" NCoef="0" IVar="-1" Cut="0.0000000000000000e+00" cType="1" res="-7.4908081442117691e-03" rms="2.0123642683029175e-01" purity="2.2645737230777740e-01" nType="-99"/>
          <Node pos="r" depth="2" NCoef="0" IVar="-1" Cut="0.0000000000000000e+00" cType="1" res="8.7067456915974617e-03" rms="2.1836560964584351e-01" purity="3.1055510044097900e-01" nType="-99"/>
        </Node>
        <Node pos="r" depth="1" NCoef="0" IVar="27" Cut="9.7244656085968018e-01" cType="1" res="-2.3645670153200626e-03" rms="1.9635498523712158e-01" purity="7.1297585964202881e-01" nType="0">
          <Node pos="l" depth="2" NCoef="0" IVar="-1" Cut="0.0000000000000000e+00" cType="1" res="-2.1464107558131218e-02" rms="2.2327727079391479e-01" purity="4.9673965573310852e-01" nType="-99"/>
          <Node pos="r" depth="2" NCoef="0" IVar="-1" Cut="0.0000000000000000e+00" cType="1" res="2.5579154025763273e-03" rms="1.9003757834434509e-01" purity="7.5729316473007202e-01" nType="-99"/>
        </Node>
      </Node>
    </BinaryTree>
    <BinaryTree type="DecisionTree" boostWeight="1.0000000000000000e+00" itree="334">
      <Node pos="s" depth="0" NCoef="0" IVar="29" Cut="9.3147106468677521e-02" cType="1" res="8.5992168169468641e-04" rms="2.0358423888683319e-01" purity="5.0087457895278931e-01" nType="0">
        <Node pos="l" depth="1" NCoef="0" IVar="16" Cut="3.2822486758232117e-01" cType="1" res="4.0875547565519810e-03" rms="1.9440631568431854e-01" purity="6.6447091102600098e-01" nType="0">
          <Node pos="l" depth="2" NCoef="0" IVar="-1" Cut="0.0000000000000000e+00" cType="1" res="-3.4715563524514437e-03" rms="2.3890765011310577e-01" purity="3.9971986413002014e-01" nType="-99"/>
          <Node pos="r" depth="2" NCoef="0" IVar="-1" Cut="0.0000000000000000e+00" cType="1" res="9.3797845765948296e-03" rms="1.7608831822872162e-01" purity="7.5717794895172119e-01" nType="-99"/>
        </Node>
        <Node pos="r" depth="1" NCoef="0" IVar="10" Cut="6.8631529808044434e+00" cType="1" res="-2.3946142755448818e-03" rms="2.1238788962364197e-01" purity="3.3591458201408386e-01" nType="0">
          <Node pos="l" depth="2" NCoef="0" IVar="-1" Cut="0.0000000000000000e+00" cType="1" res="-7.4950242415070534e-03" rms="2.0523162186145782e-01" purity="3.4339794516563416e-01" nType="-99"/>
          <Node pos="r" depth="2" NCoef="0" IVar="-1" Cut="0.0000000000000000e+00" cType="1" res="1.4094900107011199e-03" rms="2.1793375909328461e-01" purity="3.2985371351242065e-01" nType="-99"/>
        </Node>
      </Node>
    </BinaryTree>
    <BinaryTree type="DecisionTree" boostWeight="1.0000000000000000e+00" itree="335">
      <Node pos="s" depth="0" NCoef="0" IVar="4" Cut="6.9344944953918457e+00" cType="1" res="1.8675168976187706e-03" rms="2.0313465595245361e-01" purity="5.0436401367187500e-01" nType="0">
        <Node pos="l" depth="1" NCoef="0" IVar="5" Cut="5.5716104507446289e+00" cType="1" res="1.2238351628184319e-03" rms="2.0309504866600037e-01" purity="5.1031368970870972e-01" nType="0">
          <Node pos="l" depth="2" NCoef="0" IVar="-1" Cut="0.0000000000000000e+00" cType="1" res="2.3378469049930573e-03" rms="2.0387323200702667e-01" purity="5.3262352943420410e-01" nType="-99"/>
          <Node pos="r" depth="2" NCoef="0" IVar="-1" Cut="0.0000000000000000e+00" cType="1" res="-2.4558292701840401e-02" rms="1.8766802549362183e-01" purity="1.1182170361280441e-01" nType="-99"/>
        </Node>
        <Node pos="r" depth="1" NCoef="0" IVar="-1" Cut="0.0000000000000000e+00" cType="1" res="2.2081598639488220e-02" rms="2.0339989662170410e-01" purity="3.3296343684196472e-01" nType="-99"/>
      </Node>
    </BinaryTree>
    <BinaryTree type="DecisionTree" boostWeight="1.0000000000000000e+00" itree="336">
      <Node pos="s" depth="0" NCoef="0" IVar="34" Cut="1.9842606782913208e+00" cType="1" res="-3.0956952832639217e-04" rms="2.0287533104419708e-01" purity="5.0241905450820923e-01" nType="0">
        <Node pos="l" depth="1" NCoef="0" IVar="11" Cut="7.6503028869628906e+00" cType="1" res="2.4764982517808676e-03" rms="2.0221343636512756e-01" purity="6.2643653154373169e-01" nType="0">
          <Node pos="l" depth="2" NCoef="0" IVar="-1" Cut="0.0000000000000000e+00" cType="1" res="4.9320855177938938e-03" rms="2.0245559513568878e-01" purity="6.6385316848754883e-01" nType="-99"/>
          <Node pos="r" depth="2" NCoef="0" IVar="-1" Cut="0.0000000000000000e+00" cType="1" res="-1.1421500705182552e-02" rms="2.0021454989910126e-01" purity="4.0524071455001831e-01" nType="-99"/>
        </Node>
        <Node pos="r" depth="1" NCoef="0" IVar="1" Cut="8.4452638626098633e+00" cType="1" res="-4.1947811841964722e-03" rms="2.0373116433620453e-01" purity="3.2947486639022827e-01" nType="0">
          <Node pos="l" depth="2" NCoef="0" IVar="-1" Cut="0.0000000000000000e+00" cType="1" res="-8.5046198219060898e-03" rms="2.0508238673210144e-01" purity="2.9393938183784485e-01" nType="-99"/>
          <Node pos="r" depth="2" NCoef="0" IVar="-1" Cut="0.0000000000000000e+00" cType="1" res="3.1587309204041958e-03" rms="2.0063716173171997e-01" purity="4.0505224466323853e-01" nType="-99"/>
        </Node>
      </Node>
    </BinaryTree>
    <BinaryTree type="DecisionTree" boostWeight="1.0000000000000000e+00" itree="337">
      <Node pos="s" depth="0" NCoef="0" IVar="27" Cut="1.4323829114437103e-01" cType="1" res="1.0915575549006462e-03" rms="2.0308305323123932e-01" purity="5.0142192840576172e-01" nType="0">
        <Node pos="l" depth="1" NCoef="0" IVar="-1" Cut="0.0000000000000000e+00" cType="1" res="-2.2054709494113922e-02" rms="1.8678066134452820e-01" purity="1.4145189523696899e-01" nType="-99"/>
        <Node pos="r" depth="1" NCoef="0" IVar="3" Cut="3.0991165637969971e+00" cType="1" res="1.7334418371319771e-03" rms="2.0361760258674622e-01" purity="5.1440525054931641e-01" nType="0">
          <Node pos="l" depth="2" NCoef="0" IVar="-1" Cut="0.0000000000000000e+00" cType="1" res="2.8356455732136965e-03" rms="2.2800193727016449e-01" purity="6.4558631181716919e-01" nType="-99"/>
          <Node pos="r" depth="2" NCoef="0" IVar="-1" Cut="0.0000000000000000e+00" cType="1" res="-5.1795534789562225e-02" rms="1.1769697070121765e-02" purity="0.0000000000000000e+00" nType="-99"/>
        </Node>
      </Node>
    </BinaryTree>
    <BinaryTree type="DecisionTree" boostWeight="1.0000000000000000e+00" itree="338">
      <Node pos="s" depth="0" NCoef="0" IVar="15" Cut="6.2041168212890625e+00" cType="1" res="7.8873848542571068e-04" rms="2.0364770293235779e-01" purity="5.0158256292343140e-01" nType="0">
        <Node pos="l" depth="1" NCoef="0" IVar="4" Cut="4.9524078369140625e+00" cType="1" res="5.1779467612504959e-03" rms="2.1383911371231079e-01" purity="4.9163791537284851e-01" nType="0">
          <Node pos="l" depth="2" NCoef="0" IVar="-1" Cut="0.0000000000000000e+00" cType="1" res="2.2359802387654781e-03" rms="2.1364489197731018e-01" purity="4.9674984812736511e-01" nType="-99"/>
          <Node pos="r" depth="2" NCoef="0" IVar="-1" Cut="0.0000000000000000e+00" cType="1" res="3.9107140153646469e-02" rms="2.1307729184627533e-01" purity="4.2498844861984253e-01" nType="-99"/>
        </Node>
        <Node pos="r" depth="1" NCoef="0" IVar="23" Cut="9.5238322019577026e-01" cType="1" res="-1.8158166203647852e-03" rms="1.9730530679225922e-01" purity="5.0748378038406372e-01" nType="0">
          <Node pos="l" depth="2" NCoef="0" IVar="-1" Cut="0.0000000000000000e+00" cType="1" res="-4.3370020575821400e-03" rms="2.2237160801887512e-01" purity="2.7342879772186279e-01" nType="-99"/>
          <Node pos="r" depth="2" NCoef="0" IVar="-1" Cut="0.0000000000000000e+00" cType="1" res="7.4619594961404800e-03" rms="1.4074522256851196e-01" purity="9.3185895681381226e-01" nType="-99"/>
        </Node>
      </Node>
    </BinaryTree>
    <BinaryTree type="DecisionTree" boostWeight="1.0000000000000000e+00" itree="339">
      <Node pos="s" depth="0" NCoef="0" IVar="3" Cut="2.1495981216430664e+00" cType="1" res="6.2854704447090626e-04" rms="2.0199719071388245e-01" purity="5.0108474493026733e-01" nType="0">
        <Node pos="l" depth="1" NCoef="0" IVar="16" Cut="2.5741076469421387e-01" cType="1" res="3.0170523095875978e-03" rms="2.2131659090518951e-01" purity="7.0093727111816406e-01" nType="0">
          <Node pos="l" depth="2" NCoef="0" IVar="-1" Cut="0.0000000000000000e+00" cType="1" res="1.4530339278280735e-02" rms="2.8067794442176819e-01" purity="3.8101637363433838e-01" nType="-99"/>
          <Node pos="r" depth="2" NCoef="0" IVar="-1" Cut="0.0000000000000000e+00" cType="1" res="1.3605915009975433e-03" rms="2.1608521044254303e-01" purity="7.2515225410461426e-01" nType="-99"/>
        </Node>
        <Node pos="r" depth="1" NCoef="0" IVar="21" Cut="2.7414268493652344e+01" cType="1" res="-2.8325547464191914e-03" rms="1.7009384930133820e-01" purity="2.1148537099361420e-01" nType="0">
          <Node pos="l" depth="2" NCoef="0" IVar="-1" Cut="0.0000000000000000e+00" cType="1" res="-7.0490180514752865e-03" rms="1.6797515749931335e-01" purity="1.6662745177745819e-01" nType="-99"/>
          <Node pos="r" depth="2" NCoef="0" IVar="-1" Cut="0.0000000000000000e+00" cType="1" res="1.2638463638722897e-02" rms="1.8514195084571838e-01" purity="5.5869740247726440e-01" nType="-99"/>
        </Node>
      </Node>
    </BinaryTree>
    <BinaryTree type="DecisionTree" boostWeight="1.0000000000000000e+00" itree="340">
      <Node pos="s" depth="0" NCoef="0" IVar="15" Cut="5.4809136390686035e+00" cType="1" res="3.1251087784767151e-04" rms="2.0400218665599823e-01" purity="5.0305563211441040e-01" nType="0">
        <Node pos="l" depth="1" NCoef="0" IVar="7" Cut="2.0118451118469238e+00" cType="1" res="1.2922870926558971e-02" rms="2.1145185828208923e-01" purity="5.9132182598114014e-01" nType="0">
          <Node pos="l" depth="2" NCoef="0" IVar="-1" Cut="0.0000000000000000e+00" cType="1" res="3.2824720256030560e-03" rms="2.2413587570190430e-01" purity="7.4178993701934814e-01" nType="-99"/>
          <Node pos="r" depth="2" NCoef="0" IVar="-1" Cut="0.0000000000000000e+00" cType="1" res="2.7162654325366020e-02" rms="1.9241468608379364e-01" purity="3.8888049125671387e-01" nType="-99"/>
        </Node>
        <Node pos="r" depth="1" NCoef="0" IVar="21" Cut="4.3788337707519531e+01" cType="1" res="-6.6748226527124643e-04" rms="2.0337907969951630e-01" purity="4.9619615077972412e-01" nType="0">
          <Node pos="l" depth="2" NCoef="0" IVar="-1" Cut="0.0000000000000000e+00" cType="1" res="-1.6099035274237394e-03" rms="2.0890676975250244e-01" purity="4.6021503210067749e-01" nType="-99"/>
          <Node pos="r" depth="2" NCoef="0" IVar="-1" Cut="0.0000000000000000e+00" cType="1" res="2.6150796562433243e-02" rms="1.1332023143768311e-01" purity="9.4434732198715210e-01" nType="-99"/>
        </Node>
      </Node>
    </BinaryTree>
    <BinaryTree type="DecisionTree" boostWeight="1.0000000000000000e+00" itree="341">
      <Node pos="s" depth="0" NCoef="0" IVar="32" Cut="9.5216222107410431e-02" cType="1" res="-2.9975688084959984e-04" rms="2.0245112478733063e-01" purity="4.9872443079948425e-01" nType="0">
        <Node pos="l" depth="1" NCoef="0" IVar="32" Cut="4.5392331667244434e-03" cType="1" res="1.2231173459440470e-03" rms="2.0416133105754852e-01" purity="5.5135202407836914e-01" nType="0">
          <Node pos="l" depth="2" NCoef="0" IVar="-1" Cut="0.0000000000000000e+00" cType="1" res="6.7832893691956997e-03" rms="1.9020572304725647e-01" purity="7.0499706268310547e-01" nType="-99"/>
          <Node pos="r" depth="2" NCoef="0" IVar="-1" Cut="0.0000000000000000e+00" cType="1" res="-2.3910340387374163e-03" rms="2.1441343426704407e-01" purity="4.3068826198577881e-01" nType="-99"/>
        </Node>
        <Node pos="r" depth="1" NCoef="0" IVar="3" Cut="1.4662462472915649e+00" cType="1" res="-9.1042919084429741e-03" rms="1.9202901422977448e-01" purity="1.9445666670799255e-01" nType="0">
          <Node pos="l" depth="2" NCoef="0" IVar="-1" Cut="0.0000000000000000e+00" cType="1" res="-1.4445560052990913e-02" rms="2.4809136986732483e-01" purity="4.0649411082267761e-01" nType="-99"/>
          <Node pos="r" depth="2" NCoef="0" IVar="-1" Cut="0.0000000000000000e+00" cType="1" res="-7.8163379803299904e-03" rms="1.7075246572494507e-01" purity="1.2868088483810425e-01" nType="-99"/>
        </Node>
      </Node>
    </BinaryTree>
    <BinaryTree type="DecisionTree" boostWeight="1.0000000000000000e+00" itree="342">
      <Node pos="s" depth="0" NCoef="0" IVar="3" Cut="7.2439265251159668e-01" cType="1" res="1.3719252310693264e-03" rms="2.0318421721458435e-01" purity="5.0217998027801514e-01" nType="0">
        <Node pos="l" depth="1" NCoef="0" IVar="23" Cut="8.1000030040740967e-01" cType="1" res="1.0255918838083744e-02" rms="2.1421918272972107e-01" purity="7.6462340354919434e-01" nType="0">
          <Node pos="l" depth="2" NCoef="0" IVar="-1" Cut="0.0000000000000000e+00" cType="1" res="1.3743092305958271e-02" rms="2.9808557033538818e-01" purity="3.9988094568252563e-01" nType="-99"/>
          <Node pos="r" depth="2" NCoef="0" IVar="-1" Cut="0.0000000000000000e+00" cType="1" res="3.1702695414423943e-03" rms="1.5588366985321045e-01" purity="9.4612455368041992e-01" nType="-99"/>
        </Node>
        <Node pos="r" depth="1" NCoef="0" IVar="23" Cut="2.8651574254035950e-01" cType="1" res="1.9632941985037178e-04" rms="2.0164944231510162e-01" purity="4.6745151281356812e-01" nType="0">
          <Node pos="l" depth="2" NCoef="0" IVar="-1" Cut="0.0000000000000000e+00" cType="1" res="-1.5474392101168633e-02" rms="1.5241351723670959e-01" purity="4.8133891075849533e-02" nType="-99"/>
          <Node pos="r" depth="2" NCoef="0" IVar="-1" Cut="0.0000000000000000e+00" cType="1" res="1.5668999403715134e-03" rms="2.0730401575565338e-01" purity="5.2343803644180298e-01" nType="-99"/>
        </Node>
      </Node>
    </BinaryTree>
    <BinaryTree type="DecisionTree" boostWeight="1.0000000000000000e+00" itree="343">
      <Node pos="s" depth="0" NCoef="0" IVar="33" Cut="2.8570723533630371e-01" cType="1" res="-1.1486653238534927e-03" rms="2.0299090445041656e-01" purity="4.9940872192382812e-01" nType="0">
        <Node pos="l" depth="1" NCoef="0" IVar="33" Cut="1.3616891577839851e-02" cType="1" res="-1.8672199221327901e-03" rms="2.0204620063304901e-01" purity="5.0741827487945557e-01" nType="0">
          <Node pos="l" depth="2" NCoef="0" IVar="-1" Cut="0.0000000000000000e+00" cType="1" res="2.2116261534392834e-03" rms="1.9385096430778503e-01" purity="6.5045827627182007e-01" nType="-99"/>
          <Node pos="r" depth="2" NCoef="0" IVar="-1" Cut="0.0000000000000000e+00" cType="1" res="-5.5078752338886261e-03" rms="2.0945231616497040e-01" purity="3.7185436487197876e-01" nType="-99"/>
        </Node>
        <Node pos="r" depth="1" NCoef="0" IVar="-1" Cut="0.0000000000000000e+00" cType="1" res="1.8874492496252060e-02" rms="2.2609628736972809e-01" purity="2.8375723958015442e-01" nType="-99"/>
      </Node>
    </BinaryTree>
    <BinaryTree type="DecisionTree" boostWeight="1.0000000000000000e+00" itree="344">
      <Node pos="s" depth="0" NCoef="0" IVar="6" Cut="5.0095028877258301e+00" cType="1" res="-1.8037727568298578e-04" rms="2.0473967492580414e-01" purity="5.0064128637313843e-01" nType="0">
        <Node pos="l" depth="1" NCoef="0" IVar="16" Cut="4.7345510125160217e-01" cType="1" res="4.7363834455609322e-03" rms="2.0770829916000366e-01" purity="4.5411294698715210e-01" nType="0">
          <Node pos="l" depth="2" NCoef="0" IVar="-1" Cut="0.0000000000000000e+00" cType="1" res="1.4112016186118126e-02" rms="2.1577709913253784e-01" purity="4.2719522118568420e-01" nType="-99"/>
          <Node pos="r" depth="2" NCoef="0" IVar="-1" Cut="0.0000000000000000e+00" cType="1" res="-1.1106543242931366e-02" rms="1.9306093454360962e-01" purity="4.9784079194068909e-01" nType="-99"/>
        </Node>
        <Node pos="r" depth="1" NCoef="0" IVar="13" Cut="7.8677763938903809e+00" cType="1" res="-2.8107224497944117e-03" rms="2.0308485627174377e-01" purity="5.2553284168243408e-01" nType="0">
          <Node pos="l" depth="2" NCoef="0" IVar="-1" Cut="0.0000000000000000e+00" cType="1" res="1.1333866044878960e-02" rms="2.0847478508949280e-01" purity="6.1391538381576538e-01" nType="-99"/>
          <Node pos="r" depth="2" NCoef="0" IVar="-1" Cut="0.0000000000000000e+00" cType="1" res="-6.5611926838755608e-03" rms="2.0162446796894073e-01" purity="5.0445199012756348e-01" nType="-99"/>
        </Node>
      </Node>
    </BinaryTree>
    <BinaryTree type="DecisionTree" boostWeight="1.0000000000000000e+00" itree="345">
      <Node pos="s" depth="0" NCoef="0" IVar="33" Cut="1.5238158404827118e-01" cType="1" res="7.3519925354048610e-04" rms="2.0212301611900330e-01" purity="4.9977776408195496e-01" nType="0">
        <Node pos="l" depth="1" NCoef="0" IVar="33" Cut="7.2665000334382057e-03" cType="1" res="1.7859892686828971e-03" rms="2.0263427495956421e-01" purity="5.3222262859344482e-01" nType="0">
          <Node pos="l" depth="2" NCoef="0" IVar="-1" Cut="0.0000000000000000e+00" cType="1" res="6.4506237395107746e-03" rms="1.8970762193202972e-01" purity="6.7336368560791016e-01" nType="-99"/>
          <Node pos="r" depth="2" NCoef="0" IVar="-1" Cut="0.0000000000000000e+00" cType="1" res="-8.7242206791415811e-04" rms="2.1116212010383606e-01" purity="4.3354043364524841e-01" nType="-99"/>
        </Node>
        <Node pos="r" depth="1" NCoef="0" IVar="17" Cut="1.9694835662841797e+01" cType="1" res="-7.1666468866169453e-03" rms="1.9805774092674255e-01" purity="2.5579497218132019e-01" nType="0">
          <Node pos="l" depth="2" NCoef="0" IVar="-1" Cut="0.0000000000000000e+00" cType="1" res="-1.8333677202463150e-02" rms="1.7796114087104797e-01" purity="1.4326567947864532e-01" nType="-99"/>
          <Node pos="r" depth="2" NCoef="0" IVar="-1" Cut="0.0000000000000000e+00" cType="1" res="4.4930097647011280e-03" rms="2.2806870937347412e-01" purity="4.4983515143394470e-01" nType="-99"/>
        </Node>
      </Node>
    </BinaryTree>
    <BinaryTree type="DecisionTree" boostWeight="1.0000000000000000e+00" itree="346">
      <Node pos="s" depth="0" NCoef="0" IVar="33" Cut="2.2856815159320831e-01" cType="1" res="-3.3960115979425609e-04" rms="2.0274055004119873e-01" purity="4.9916493892669678e-01" nType="0">
        <Node pos="l" depth="1" NCoef="0" IVar="25" Cut="1.8501828610897064e-01" cType="1" res="-1.2135121505707502e-03" rms="2.0230942964553833e-01" purity="5.1477956771850586e-01" nType="0">
          <Node pos="l" depth="2" NCoef="0" IVar="-1" Cut="0.0000000000000000e+00" cType="1" res="7.2316022124141455e-04" rms="2.0587041974067688e-01" purity="6.1004370450973511e-01" nType="-99"/>
          <Node pos="r" depth="2" NCoef="0" IVar="-1" Cut="0.0000000000000000e+00" cType="1" res="-8.7555190548300743e-03" rms="1.9032704830169678e-01" purity="2.0969647169113159e-01" nType="-99"/>
        </Node>
        <Node pos="r" depth="1" NCoef="0" IVar="12" Cut="7.1597490310668945e+00" cType="1" res="1.2731027789413929e-02" rms="2.0864622294902802e-01" purity="2.6562461256980896e-01" nType="0">
          <Node pos="l" depth="2" NCoef="0" IVar="-1" Cut="0.0000000000000000e+00" cType="1" res="2.1507560741156340e-03" rms="2.0220071077346802e-01" purity="1.8263241648674011e-01" nType="-99"/>
          <Node pos="r" depth="2" NCoef="0" IVar="-1" Cut="0.0000000000000000e+00" cType="1" res="2.2479694336652756e-02" rms="2.1436190605163574e-01" purity="3.4872347116470337e-01" nType="-99"/>
        </Node>
      </Node>
    </BinaryTree>
    <BinaryTree type="DecisionTree" boostWeight="1.0000000000000000e+00" itree="347">
      <Node pos="s" depth="0" NCoef="0" IVar="20" Cut="-8.0601429939270020e-01" cType="1" res="-7.3817314114421606e-04" rms="2.0398586988449097e-01" purity="4.9715310335159302e-01" nType="0">
        <Node pos="l" depth="1" NCoef="0" IVar="13" Cut="8.6700868606567383e+00" cType="1" res="-2.7478765696287155e-03" rms="2.0264126360416412e-01" purity="5.5241870880126953e-01" nType="0">
          <Node pos="l" depth="2" NCoef="0" IVar="-1" Cut="0.0000000000000000e+00" cType="1" res="-5.0407140515744686e-03" rms="2.0581901073455811e-01" purity="5.4323005676269531e-01" nType="-99"/>
          <Node pos="r" depth="2" NCoef="0" IVar="-1" Cut="0.0000000000000000e+00" cType="1" res="7.0771067403256893e-03" rms="1.8937566876411438e-01" purity="5.8858460187911987e-01" nType="-99"/>
        </Node>
        <Node pos="r" depth="1" NCoef="0" IVar="24" Cut="3.8327831029891968e-01" cType="1" res="5.0083799287676811e-03" rms="2.0767533779144287e-01" purity="3.3912634849548340e-01" nType="0">
          <Node pos="l" depth="2" NCoef="0" IVar="-1" Cut="0.0000000000000000e+00" cType="1" res="-2.0027099177241325e-02" rms="1.5374831855297089e-01" purity="6.5930031239986420e-02" nType="-99"/>
          <Node pos="r" depth="2" NCoef="0" IVar="-1" Cut="0.0000000000000000e+00" cType="1" res="8.2413293421268463e-03" rms="2.1756868064403534e-01" purity="3.9911499619483948e-01" nType="-99"/>
        </Node>
      </Node>
    </BinaryTree>
    <BinaryTree type="DecisionTree" boostWeight="1.0000000000000000e+00" itree="348">
      <Node pos="s" depth="0" NCoef="0" IVar="18" Cut="-6.1131072998046875e+01" cType="1" res="2.7059149579145014e-04" rms="2.0210720598697662e-01" purity="5.0117391347885132e-01" nType="0">
        <Node pos="l" depth="1" NCoef="0" IVar="-1" Cut="0.0000000000000000e+00" cType="1" res="2.9812401160597801e-02" rms="1.2211533635854721e-01" purity="9.4899874925613403e-01" nType="-99"/>
        <Node pos="r" depth="1" NCoef="0" IVar="12" Cut="6.9198150634765625e+00" cType="1" res="-6.0153484810143709e-04" rms="2.0621682703495026e-01" purity="4.7198414802551270e-01" nType="0">
          <Node pos="l" depth="2" NCoef="0" IVar="-1" Cut="0.0000000000000000e+00" cType="1" res="-6.2146787531673908e-03" rms="2.1650880575180054e-01" purity="3.1622129678726196e-01" nType="-99"/>
          <Node pos="r" depth="2" NCoef="0" IVar="-1" Cut="0.0000000000000000e+00" cType="1" res="1.6163109103217721e-03" rms="2.0228543877601624e-01" purity="5.2886462211608887e-01" nType="-99"/>
        </Node>
      </Node>
    </BinaryTree>
    <BinaryTree type="DecisionTree" boostWeight="1.0000000000000000e+00" itree="349">
      <Node pos="s" depth="0" NCoef="0" IVar="14" Cut="7.9973964691162109e+00" cType="1" res="-3.9252970600500703e-04" rms="1.9987808167934418e-01" purity="4.9846646189689636e-01" nType="0">
        <Node pos="l" depth="1" NCoef="0" IVar="6" Cut="4.3177285194396973e+00" cType="1" res="6.2774238176643848e-03" rms="2.0500926673412323e-01" purity="4.6345284581184387e-01" nType="0">
          <Node pos="l" depth="2" NCoef="0" IVar="-1" Cut="0.0000000000000000e+00" cType="1" res="-1.2739337980747223e-02" rms="1.9404336810112000e-01" purity="2.1543540060520172e-01" nType="-99"/>
          <Node pos="r" depth="2" NCoef="0" IVar="-1" Cut="0.0000000000000000e+00" cType="1" res="1.6118951141834259e-02" rms="2.1049340069293976e-01" purity="6.0819762945175171e-01" nType="-99"/>
        </Node>
        <Node pos="r" depth="1" NCoef="0" IVar="16" Cut="3.2831305265426636e-01" cType="1" res="-3.1365079339593649e-03" rms="1.9766315817832947e-01" purity="5.1287090778350830e-01" nType="0">
          <Node pos="l" depth="2" NCoef="0" IVar="-1" Cut="0.0000000000000000e+00" cType="1" res="-1.0944981127977371e-02" rms="2.1363566815853119e-01" purity="2.4381503462791443e-01" nType="-99"/>
          <Node pos="r" depth="2" NCoef="0" IVar="-1" Cut="0.0000000000000000e+00" cType="1" res="1.8011225620284677e-03" rms="1.8810297548770905e-01" purity="6.6141068935394287e-01" nType="-99"/>
        </Node>
      </Node>
    </BinaryTree>
    <BinaryTree type="DecisionTree" boostWeight="1.0000000000000000e+00" itree="350">
      <Node pos="s" depth="0" NCoef="0" IVar="9" Cut="1.8087589263916016e+01" cType="1" res="-3.7400855217128992e-04" rms="2.0362380146980286e-01" purity="4.9737015366554260e-01" nType="0">
        <Node pos="l" depth="1" NCoef="0" IVar="0" Cut="5.7851052284240723e+00" cType="1" res="1.9904193468391895e-03" rms="2.0973622798919678e-01" purity="5.1654684543609619e-01" nType="0">
          <Node pos="l" depth="2" NCoef="0" IVar="-1" Cut="0.0000000000000000e+00" cType="1" res="7.4707018211483955e-03" rms="2.1186013519763947e-01" purity="4.7289240360260010e-01" nType="-99"/>
          <Node pos="r" depth="2" NCoef="0" IVar="-1" Cut="0.0000000000000000e+00" cType="1" res="-4.4113029725849628e-03" rms="2.0692686736583710e-01" purity="5.7023161649703979e-01" nType="-99"/>
        </Node>
        <Node pos="r" depth="1" NCoef="0" IVar="16" Cut="3.9571127295494080e-01" cType="1" res="-5.4267840459942818e-03" rms="1.8980455398559570e-01" purity="4.5638957619667053e-01" nType="0">
          <Node pos="l" depth="2" NCoef="0" IVar="-1" Cut="0.0000000000000000e+00" cType="1" res="-1.5491960570216179e-02" rms="1.9740703701972961e-01" purity="2.3184508085250854e-01" nType="-99"/>
          <Node pos="r" depth="2" NCoef="0" IVar="-1" Cut="0.0000000000000000e+00" cType="1" res="9.7998389974236488e-03" rms="1.7911297082901001e-01" purity="7.3290920257568359e-01" nType="-99"/>
        </Node>
      </Node>
    </BinaryTree>
    <BinaryTree type="DecisionTree" boostWeight="1.0000000000000000e+00" itree="351">
      <Node pos="s" depth="0" NCoef="0" IVar="2" Cut="2.6193593978881836e+01" cType="1" res="-1.7780708149075508e-03" rms="2.0067250728607178e-01" purity="4.9458250403404236e-01" nType="0">
        <Node pos="l" depth="1" NCoef="0" IVar="23" Cut="1.4434428513050079e-01" cType="1" res="-1.2112067779526114e-03" rms="2.0204398036003113e-01" purity="5.0539857149124146e-01" nType="0">
          <Node pos="l" depth="2" NCoef="0" IVar="-1" Cut="0.0000000000000000e+00" cType="1" res="-2.6526318863034248e-02" rms="1.4113540947437286e-01" purity="3.7928126752376556e-02" nType="-99"/>
          <Node pos="r" depth="2" NCoef="0" IVar="-1" Cut="0.0000000000000000e+00" cType="1" res="-5.3622218547388911e-04" rms="2.0415513217449188e-01" purity="5.2485114336013794e-01" nType="-99"/>
        </Node>
        <Node pos="r" depth="1" NCoef="0" IVar="-1" Cut="0.0000000000000000e+00" cType="1" res="-3.0000437051057816e-02" rms="1.4510716497898102e-01" purity="1.2585249543190002e-01" nType="-99"/>
      </Node>
    </BinaryTree>
    <BinaryTree type="DecisionTree" boostWeight="1.0000000000000000e+00" itree="352">
      <Node pos="s" depth="0" NCoef="0" IVar="11" Cut="6.1013073921203613e+00" cType="1" res="1.2892013182863593e-03" rms="2.0360080897808075e-01" purity="4.9779865145683289e-01" nType="0">
        <Node pos="l" depth="1" NCoef="0" IVar="1" Cut="5.8147182464599609e+00" cType="1" res="-7.4080270715057850e-03" rms="1.9964173436164856e-01" purity="4.0339538455009460e-01" nType="0">
          <Node pos="l" depth="2" NCoef="0" IVar="-1" Cut="0.0000000000000000e+00" cType="1" res="-1.6130607575178146e-02" rms="1.9754317402839661e-01" purity="3.2490956783294678e-01" nType="-99"/>
          <Node pos="r" depth="2" NCoef="0" IVar="-1" Cut="0.0000000000000000e+00" cType="1" res="8.4107136353850365e-03" rms="2.0331889390945435e-01" purity="5.7556742429733276e-01" nType="-99"/>
        </Node>
        <Node pos="r" depth="1" NCoef="0" IVar="27" Cut="5.2508592605590820e-01" cType="1" res="3.1386208720505238e-03" rms="2.0438510179519653e-01" purity="5.1787298917770386e-01" nType="0">
          <Node pos="l" depth="2" NCoef="0" IVar="-1" Cut="0.0000000000000000e+00" cType="1" res="-8.4455357864499092e-03" rms="1.9424644112586975e-01" purity="1.7280375957489014e-01" nType="-99"/>
          <Node pos="r" depth="2" NCoef="0" IVar="-1" Cut="0.0000000000000000e+00" cType="1" res="4.6533546410501003e-03" rms="2.0569548010826111e-01" purity="5.6506675481796265e-01" nType="-99"/>
        </Node>
      </Node>
    </BinaryTree>
    <BinaryTree type="DecisionTree" boostWeight="1.0000000000000000e+00" itree="353">
      <Node pos="s" depth="0" NCoef="0" IVar="13" Cut="7.7034797668457031e+00" cType="1" res="-9.3743571778759360e-04" rms="2.0483465492725372e-01" purity="4.9993616342544556e-01" nType="0">
        <Node pos="l" depth="1" NCoef="0" IVar="6" Cut="4.3645381927490234e+00" cType="1" res="5.2430015057325363e-03" rms="2.0584969222545624e-01" purity="4.2915734648704529e-01" nType="0">
          <Node pos="l" depth="2" NCoef="0" IVar="-1" Cut="0.0000000000000000e+00" cType="1" res="-1.2911948375403881e-02" rms="2.0103393495082855e-01" purity="2.0544542372226715e-01" nType="-99"/>
          <Node pos="r" depth="2" NCoef="0" IVar="-1" Cut="0.0000000000000000e+00" cType="1" res="1.7633697018027306e-02" rms="2.0857441425323486e-01" purity="5.9746962785720825e-01" nType="-99"/>
        </Node>
        <Node pos="r" depth="1" NCoef="0" IVar="6" Cut="4.1904668807983398e+00" cType="1" res="-2.8200813103467226e-03" rms="2.0448735356330872e-01" purity="5.2149641513824463e-01" nType="0">
          <Node pos="l" depth="2" NCoef="0" IVar="-1" Cut="0.0000000000000000e+00" cType="1" res="1.4846985228359699e-02" rms="2.0993956923484802e-01" purity="4.2855790257453918e-01" nType="-99"/>
          <Node pos="r" depth="2" NCoef="0" IVar="-1" Cut="0.0000000000000000e+00" cType="1" res="-4.3017156422138214e-03" rms="2.0398937165737152e-01" purity="5.2897894382476807e-01" nType="-99"/>
        </Node>
      </Node>
    </BinaryTree>
    <BinaryTree type="DecisionTree" boostWeight="1.0000000000000000e+00" itree="354">
      <Node pos="s" depth="0" NCoef="0" IVar="10" Cut="7.3820095062255859e+00" cType="1" res="-1.4463898260146379e-03" rms="1.9987228512763977e-01" purity="5.0127130746841431e-01" nType="0">
        <Node pos="l" depth="1" NCoef="0" IVar="22" Cut="4.3851799964904785e+00" cType="1" res="8.5117458365857601e-04" rms="1.9665855169296265e-01" purity="5.2375000715255737e-01" nType="0">
          <Node pos="l" depth="2" NCoef="0" IVar="-1" Cut="0.0000000000000000e+00" cType="1" res="-1.1673027649521828e-02" rms="2.0371845364570618e-01" purity="3.1879478693008423e-01" nType="-99"/>
          <Node pos="r" depth="2" NCoef="0" IVar="-1" Cut="0.0000000000000000e+00" cType="1" res="3.9841798134148121e-03" rms="1.9493749737739563e-01" purity="5.6970787048339844e-01" nType="-99"/>
        </Node>
        <Node pos="r" depth="1" NCoef="0" IVar="15" Cut="7.0795321464538574e+00" cType="1" res="-6.1741992831230164e-03" rms="2.0624741911888123e-01" purity="4.5501580834388733e-01" nType="0">
          <Node pos="l" depth="2" NCoef="0" IVar="-1" Cut="0.0000000000000000e+00" cType="1" res="-1.2886615470051765e-02" rms="2.1106946468353271e-01" purity="3.9051312208175659e-01" nType="-99"/>
          <Node pos="r" depth="2" NCoef="0" IVar="-1" Cut="0.0000000000000000e+00" cType="1" res="9.5999538898468018e-03" rms="1.9596926867961884e-01" purity="5.7781279087066650e-01" nType="-99"/>
        </Node>
      </Node>
    </BinaryTree>
    <BinaryTree type="DecisionTree" boostWeight="1.0000000000000000e+00" itree="355">
      <Node pos="s" depth="0" NCoef="0" IVar="29" Cut="7.8989613056182861e-01" cType="1" res="-1.0410895629320294e-04" rms="2.0248556137084961e-01" purity="4.9920669198036194e-01" nType="0">
        <Node pos="l" depth="1" NCoef="0" IVar="15" Cut="5.5208659172058105e+00" cType="1" res="-6.7914935061708093e-04" rms="2.0216898620128632e-01" purity="5.0173592567443848e-01" nType="0">
          <Node pos="l" depth="2" NCoef="0" IVar="-1" Cut="0.0000000000000000e+00" cType="1" res="1.2950528413057327e-02" rms="2.1690140664577484e-01" purity="5.9391218423843384e-01" nType="-99"/>
          <Node pos="r" depth="2" NCoef="0" IVar="-1" Cut="0.0000000000000000e+00" cType="1" res="-2.0743103232234716e-03" rms="2.0081037282943726e-01" purity="4.9385792016983032e-01" nType="-99"/>
        </Node>
        <Node pos="r" depth="1" NCoef="0" IVar="-1" Cut="0.0000000000000000e+00" cType="1" res="1.9697852432727814e-02" rms="2.1299710869789124e-01" purity="4.0335342288017273e-01" nType="-99"/>
      </Node>
    </BinaryTree>
    <BinaryTree type="DecisionTree" boostWeight="1.0000000000000000e+00" itree="356">
      <Node pos="s" depth="0" NCoef="0" IVar="30" Cut="5.7164348661899567e-02" cType="1" res="2.2117029875516891e-03" rms="2.0274554193019867e-01" purity="5.0134050846099854e-01" nType="0">
        <Node pos="l" depth="1" NCoef="0" IVar="19" Cut="3.4700664877891541e-01" cType="1" res="4.6238796785473824e-03" rms="2.0198801159858704e-01" purity="5.8305102586746216e-01" nType="0">
          <Node pos="l" depth="2" NCoef="0" IVar="-1" Cut="0.0000000000000000e+00" cType="1" res="1.5870552510023117e-02" rms="2.0677198469638824e-01" purity="4.6183755993843079e-01" nType="-99"/>
          <Node pos="r" depth="2" NCoef="0" IVar="-1" Cut="0.0000000000000000e+00" cType="1" res="3.1389167997986078e-03" rms="2.0112821459770203e-01" purity="6.0334050655364990e-01" nType="-99"/>
        </Node>
        <Node pos="r" depth="1" NCoef="0" IVar="10" Cut="6.7095131874084473e+00" cType="1" res="-4.5827659778296947e-03" rms="2.0471148192882538e-01" purity="2.7118363976478577e-01" nType="0">
          <Node pos="l" depth="2" NCoef="0" IVar="-1" Cut="0.0000000000000000e+00" cType="1" res="-1.2985629029572010e-02" rms="1.9489593803882599e-01" purity="2.4215857684612274e-01" nType="-99"/>
          <Node pos="r" depth="2" NCoef="0" IVar="-1" Cut="0.0000000000000000e+00" cType="1" res="-5.6113163009285927e-04" rms="2.1019670367240906e-01" purity="2.8834912180900574e-01" nType="-99"/>
        </Node>
      </Node>
    </BinaryTree>
    <BinaryTree type="DecisionTree" boostWeight="1.0000000000000000e+00" itree="357">
      <Node pos="s" depth="0" NCoef="0" IVar="15" Cut="5.5019521713256836e+00" cType="1" res="8.2904647570103407e-04" rms="2.0197163522243500e-01" purity="4.9999174475669861e-01" nType="0">
        <Node pos="l" depth="1" NCoef="0" IVar="29" Cut="4.5120832324028015e-01" cType="1" res="1.3621752150356770e-02" rms="2.0215189456939697e-01" purity="5.9093379974365234e-01" nType="0">
          <Node pos="l" depth="2" NCoef="0" IVar="-1" Cut="0.0000000000000000e+00" cType="1" res="3.1800668220967054e-03" rms="1.9127354025840759e-01" purity="6.2400949001312256e-01" nType="-99"/>
          <Node pos="r" depth="2" NCoef="0" IVar="-1" Cut="0.0000000000000000e+00" cType="1" res="2.2649429738521576e-02" rms="2.1295876801013947e-01" purity="5.5431336164474487e-01" nType="-99"/>
        </Node>
        <Node pos="r" depth="1" NCoef="0" IVar="11" Cut="6.6832308769226074e+00" cType="1" res="-2.2906069352757186e-04" rms="2.0192043483257294e-01" purity="4.9246978759765625e-01" nType="0">
          <Node pos="l" depth="2" NCoef="0" IVar="-1" Cut="0.0000000000000000e+00" cType="1" res="-4.6870824880897999e-03" rms="2.0186325907707214e-01" purity="4.7863361239433289e-01" nType="-99"/>
          <Node pos="r" depth="2" NCoef="0" IVar="-1" Cut="0.0000000000000000e+00" cType="1" res="3.2905770931392908e-03" rms="2.0190656185150146e-01" purity="5.0368833541870117e-01" nType="-99"/>
        </Node>
      </Node>
    </BinaryTree>
    <BinaryTree type="DecisionTree" boostWeight="1.0000000000000000e+00" itree="358">
      <Node pos="s" depth="0" NCoef="0" IVar="9" Cut="4.5851631164550781e+01" cType="1" res="7.3025858728215098e-04" rms="2.0289398729801178e-01" purity="5.0103902816772461e-01" nType="0">
        <Node pos="l" depth="1" NCoef="0" IVar="1" Cut="3.6600081920623779e+00" cType="1" res="1.2729670852422714e-03" rms="2.0442634820938110e-01" purity="5.1104480028152466e-01" nType="0">
          <Node pos="l" depth="2" NCoef="0" IVar="-1" Cut="0.0000000000000000e+00" cType="1" res="-1.0529306717216969e-02" rms="2.0372259616851807e-01" purity="3.4785616397857666e-01" nType="-99"/>
          <Node pos="r" depth="2" NCoef="0" IVar="-1" Cut="0.0000000000000000e+00" cType="1" res="3.3632467966526747e-03" rms="2.0448604226112366e-01" purity="5.3878700733184814e-01" nType="-99"/>
        </Node>
        <Node pos="r" depth="1" NCoef="0" IVar="-1" Cut="0.0000000000000000e+00" cType="1" res="-2.5727337226271629e-02" rms="1.4028611779212952e-01" purity="1.6218240559101105e-01" nType="-99"/>
      </Node>
    </BinaryTree>
    <BinaryTree type="DecisionTree" boostWeight="1.0000000000000000e+00" itree="359">
      <Node pos="s" depth="0" NCoef="0" IVar="22" Cut="-8.9300832748413086e+00" cType="1" res="1.1398076312616467e-03" rms="2.0355528593063354e-01" purity="5.0262337923049927e-01" nType="0">
        <Node pos="l" depth="1" NCoef="0" IVar="-1" Cut="0.0000000000000000e+00" cType="1" res="2.3695603013038635e-02" rms="1.9945989549160004e-01" purity="4.5013594627380371e-01" nType="-99"/>
        <Node pos="r" depth="1" NCoef="0" IVar="16" Cut="2.5825873017311096e-01" cType="1" res="5.9808470541611314e-04" rms="2.0365637540817261e-01" purity="5.0424402952194214e-01" nType="0">
          <Node pos="l" depth="2" NCoef="0" IVar="-1" Cut="0.0000000000000000e+00" cType="1" res="1.1020315811038017e-02" rms="2.0523475110530853e-01" purity="1.9773747026920319e-01" nType="-99"/>
          <Node pos="r" depth="2" NCoef="0" IVar="-1" Cut="0.0000000000000000e+00" cType="1" res="-5.1885057473555207e-04" rms="2.0343072712421417e-01" purity="5.4278278350830078e-01" nType="-99"/>
        </Node>
      </Node>
    </BinaryTree>
    <BinaryTree type="DecisionTree" boostWeight="1.0000000000000000e+00" itree="360">
      <Node pos="s" depth="0" NCoef="0" IVar="20" Cut="-3.3598908782005310e-01" cType="1" res="-3.8219397538341582e-04" rms="2.0325890183448792e-01" purity="5.0176066160202026e-01" nType="0">
        <Node pos="l" depth="1" NCoef="0" IVar="11" Cut="6.4413685798645020e+00" cType="1" res="-2.5955724995583296e-03" rms="2.0056737959384918e-01" purity="5.5565446615219116e-01" nType="0">
          <Node pos="l" depth="2" NCoef="0" IVar="-1" Cut="0.0000000000000000e+00" cType="1" res="-1.0335663333535194e-02" rms="1.9887483119964600e-01" purity="5.1266348361968994e-01" nType="-99"/>
          <Node pos="r" depth="2" NCoef="0" IVar="-1" Cut="0.0000000000000000e+00" cType="1" res="8.9697430667001754e-05" rms="2.0116530358791351e-01" purity="5.7254773378372192e-01" nType="-99"/>
        </Node>
        <Node pos="r" depth="1" NCoef="0" IVar="17" Cut="2.5719644546508789e+01" cType="1" res="6.3749942928552628e-03" rms="2.1112026274204254e-01" purity="3.3722922205924988e-01" nType="0">
          <Node pos="l" depth="2" NCoef="0" IVar="-1" Cut="0.0000000000000000e+00" cType="1" res="1.3629808381665498e-04" rms="2.0319807529449463e-01" purity="2.2807504236698151e-01" nType="-99"/>
          <Node pos="r" depth="2" NCoef="0" IVar="-1" Cut="0.0000000000000000e+00" cType="1" res="1.9563162699341774e-02" rms="2.3024056851863861e-01" purity="6.3076126575469971e-01" nType="-99"/>
        </Node>
      </Node>
    </BinaryTree>
    <BinaryTree type="DecisionTree" boostWeight="1.0000000000000000e+00" itree="361">
      <Node pos="s" depth="0" NCoef="0" IVar="12" Cut="6.3160467147827148e+00" cType="1" res="-9.0769426606129855e-05" rms="2.0037403702735901e-01" purity="5.0455939769744873e-01" nType="0">
        <Node pos="l" depth="1" NCoef="0" IVar="-1" Cut="0.0000000000000000e+00" cType="1" res="1.6033310443162918e-02" rms="2.0761358737945557e-01" purity="2.9918962717056274e-01" nType="-99"/>
        <Node pos="r" depth="1" NCoef="0" IVar="16" Cut="3.3069556951522827e-01" cType="1" res="-8.4477057680487633e-04" rms="1.9998602569103241e-01" purity="5.1450449228286743e-01" nType="0">
          <Node pos="l" depth="2" NCoef="0" IVar="-1" Cut="0.0000000000000000e+00" cType="1" res="-5.6385435163974762e-03" rms="2.1812136471271515e-01" purity="2.6265466213226318e-01" nType="-99"/>
          <Node pos="r" depth="2" NCoef="0" IVar="-1" Cut="0.0000000000000000e+00" cType="1" res="1.5299504157155752e-03" rms="1.9188554584980011e-01" purity="6.1941021680831909e-01" nType="-99"/>
        </Node>
      </Node>
    </BinaryTree>
    <BinaryTree type="DecisionTree" boostWeight="1.0000000000000000e+00" itree="362">
      <Node pos="s" depth="0" NCoef="0" IVar="11" Cut="5.7147607803344727e+00" cType="1" res="2.1588742674794048e-04" rms="2.0419639348983765e-01" purity="4.9904188513755798e-01" nType="0">
        <Node pos="l" depth="1" NCoef="0" IVar="-1" Cut="0.0000000000000000e+00" cType="1" res="-1.4767874963581562e-02" rms="2.1458721160888672e-01" purity="3.3331277966499329e-01" nType="-99"/>
        <Node pos="r" depth="1" NCoef="0" IVar="19" Cut="2.8297078609466553e-01" cType="1" res="8.4029545541852713e-04" rms="2.0367790758609772e-01" purity="5.0676238536834717e-01" nType="0">
          <Node pos="l" depth="2" NCoef="0" IVar="-1" Cut="0.0000000000000000e+00" cType="1" res="1.0590328834950924e-02" rms="1.9989700615406036e-01" purity="4.0124180912971497e-01" nType="-99"/>
          <Node pos="r" depth="2" NCoef="0" IVar="-1" Cut="0.0000000000000000e+00" cType="1" res="-6.2136445194482803e-04" rms="2.0431832969188690e-01" purity="5.2576982975006104e-01" nType="-99"/>
        </Node>
      </Node>
    </BinaryTree>
    <BinaryTree type="DecisionTree" boostWeight="1.0000000000000000e+00" itree="363">
      <Node pos="s" depth="0" NCoef="0" IVar="17" Cut="1.9260444641113281e+01" cType="1" res="-6.3053501071408391e-04" rms="2.0036135613918304e-01" purity="4.9702069163322449e-01" nType="0">
        <Node pos="l" depth="1" NCoef="0" IVar="12" Cut="6.8751425743103027e+00" cType="1" res="-4.2508919723331928e-03" rms="2.0212894678115845e-01" purity="2.9212120175361633e-01" nType="0">
          <Node pos="l" depth="2" NCoef="0" IVar="-1" Cut="0.0000000000000000e+00" cType="1" res="-1.5023726969957352e-02" rms="1.8598447740077972e-01" purity="1.6094787418842316e-01" nType="-99"/>
          <Node pos="r" depth="2" NCoef="0" IVar="-1" Cut="0.0000000000000000e+00" cType="1" res="-1.2772865593433380e-03" rms="2.0773848891258240e-01" purity="3.4096691012382507e-01" nType="-99"/>
        </Node>
        <Node pos="r" depth="1" NCoef="0" IVar="20" Cut="-9.5940071344375610e-01" cType="1" res="2.8436363209038973e-03" rms="1.9858831167221069e-01" purity="6.9364660978317261e-01" nType="0">
          <Node pos="l" depth="2" NCoef="0" IVar="-1" Cut="0.0000000000000000e+00" cType="1" res="-1.4171023212838918e-04" rms="1.9132138788700104e-01" purity="7.2981441020965576e-01" nType="-99"/>
          <Node pos="r" depth="2" NCoef="0" IVar="-1" Cut="0.0000000000000000e+00" cType="1" res="1.2451026588678360e-02" rms="2.2376376390457153e-01" purity="5.5586105585098267e-01" nType="-99"/>
        </Node>
      </Node>
    </BinaryTree>
    <BinaryTree type="DecisionTree" boostWeight="1.0000000000000000e+00" itree="364">
      <Node pos="s" depth="0" NCoef="0" IVar="13" Cut="7.7294993400573730e+00" cType="1" res="1.6612423351034522e-03" rms="2.0427109301090240e-01" purity="4.9962061643600464e-01" nType="0">
        <Node pos="l" depth="1" NCoef="0" IVar="6" Cut="4.3177285194396973e+00" cType="1" res="8.4001962095499039e-03" rms="2.0432808995246887e-01" purity="4.2877763509750366e-01" nType="0">
          <Node pos="l" depth="2" NCoef="0" IVar="-1" Cut="0.0000000000000000e+00" cType="1" res="-8.4854625165462494e-03" rms="1.9625622034072876e-01" purity="2.0306432247161865e-01" nType="-99"/>
          <Node pos="r" depth="2" NCoef="0" IVar="-1" Cut="0.0000000000000000e+00" cType="1" res="1.8853176385164261e-02" rms="2.0916955173015594e-01" purity="5.8766740560531616e-01" nType="-99"/>
        </Node>
        <Node pos="r" depth="1" NCoef="0" IVar="12" Cut="6.9167637825012207e+00" cType="1" res="-4.8610678641125560e-04" rms="2.0420621335506439e-01" purity="5.2219462394714355e-01" nType="0">
          <Node pos="l" depth="2" NCoef="0" IVar="-1" Cut="0.0000000000000000e+00" cType="1" res="-1.0400784201920033e-02" rms="2.2007031738758087e-01" purity="3.0796962976455688e-01" nType="-99"/>
          <Node pos="r" depth="2" NCoef="0" IVar="-1" Cut="0.0000000000000000e+00" cType="1" res="1.7989651532843709e-03" rms="2.0087724924087524e-01" purity="5.6420594453811646e-01" nType="-99"/>
        </Node>
      </Node>
    </BinaryTree>
    <BinaryTree type="DecisionTree" boostWeight="1.0000000000000000e+00" itree="365">
      <Node pos="s" depth="0" NCoef="0" IVar="6" Cut="4.9539933204650879e+00" cType="1" res="9.4781134976074100e-05" rms="1.9939167797565460e-01" purity="5.0438302755355835e-01" nType="0">
        <Node pos="l" depth="1" NCoef="0" IVar="16" Cut="3.6670452356338501e-01" cType="1" res="4.8845778219401836e-03" rms="2.0108135044574738e-01" purity="4.5420297980308533e-01" nType="0">
          <Node pos="l" depth="2" NCoef="0" IVar="-1" Cut="0.0000000000000000e+00" cType="1" res="2.2834528237581253e-02" rms="2.1256813406944275e-01" purity="3.6160853505134583e-01" nType="-99"/>
          <Node pos="r" depth="2" NCoef="0" IVar="-1" Cut="0.0000000000000000e+00" cType="1" res="-5.1933834329247475e-03" rms="1.9388261437416077e-01" purity="5.0484275817871094e-01" nType="-99"/>
        </Node>
        <Node pos="r" depth="1" NCoef="0" IVar="13" Cut="7.7304263114929199e+00" cType="1" res="-2.2837601136416197e-03" rms="1.9850432872772217e-01" purity="5.2930164337158203e-01" nType="0">
          <Node pos="l" depth="2" NCoef="0" IVar="-1" Cut="0.0000000000000000e+00" cType="1" res="1.5885654836893082e-02" rms="1.9892433285713196e-01" purity="6.2487119436264038e-01" nType="-99"/>
          <Node pos="r" depth="2" NCoef="0" IVar="-1" Cut="0.0000000000000000e+00" cType="1" res="-5.5561298504471779e-03" rms="1.9827586412429810e-01" purity="5.1353514194488525e-01" nType="-99"/>
        </Node>
      </Node>
    </BinaryTree>
    <BinaryTree type="DecisionTree" boostWeight="1.0000000000000000e+00" itree="366">
      <Node pos="s" depth="0" NCoef="0" IVar="33" Cut="9.5246180891990662e-02" cType="1" res="-3.6443505086936057e-04" rms="2.0235395431518555e-01" purity="5.0077414512634277e-01" nType="0">
        <Node pos="l" depth="1" NCoef="0" IVar="5" Cut="9.6695613861083984e+00" cType="1" res="1.2112630065530539e-03" rms="2.0275695621967316e-01" purity="5.5421638488769531e-01" nType="0">
          <Node pos="l" depth="2" NCoef="0" IVar="-1" Cut="0.0000000000000000e+00" cType="1" res="1.9540127832442522e-03" rms="2.0378543436527252e-01" purity="5.6999510526657104e-01" nType="-99"/>
          <Node pos="r" depth="2" NCoef="0" IVar="-1" Cut="0.0000000000000000e+00" cType="1" res="-2.4660779163241386e-02" rms="1.7107416689395905e-01" purity="1.1910493671894073e-01" nType="-99"/>
        </Node>
        <Node pos="r" depth="1" NCoef="0" IVar="16" Cut="2.9317942261695862e-01" cType="1" res="-7.1919583715498447e-03" rms="2.0045530796051025e-01" purity="2.6920825242996216e-01" nType="0">
          <Node pos="l" depth="2" NCoef="0" IVar="-1" Cut="0.0000000000000000e+00" cType="1" res="7.0489090867340565e-03" rms="1.9435803592205048e-01" purity="1.0612937062978745e-01" nType="-99"/>
          <Node pos="r" depth="2" NCoef="0" IVar="-1" Cut="0.0000000000000000e+00" cType="1" res="-1.1482766829431057e-02" rms="2.0214046537876129e-01" purity="3.1939190626144409e-01" nType="-99"/>
        </Node>
      </Node>
    </BinaryTree>
    <BinaryTree type="DecisionTree" boostWeight="1.0000000000000000e+00" itree="367">
      <Node pos="s" depth="0" NCoef="0" IVar="10" Cut="6.7618832588195801e+00" cType="1" res="7.0338411023840308e-04" rms="2.0416171848773956e-01" purity="4.9963068962097168e-01" nType="0">
        <Node pos="l" depth="1" NCoef="0" IVar="19" Cut="9.0438423156738281e+00" cType="1" res="-3.6662463098764420e-03" rms="2.0017458498477936e-01" purity="4.6994704008102417e-01" nType="0">
          <Node pos="l" depth="2" NCoef="0" IVar="-1" Cut="0.0000000000000000e+00" cType="1" res="-1.8106864765286446e-02" rms="2.0348815619945526e-01" purity="1.8694767355918884e-01" nType="-99"/>
          <Node pos="r" depth="2" NCoef="0" IVar="-1" Cut="0.0000000000000000e+00" cType="1" res="1.8826435552909970e-03" rms="1.9842439889907837e-01" purity="5.9768968820571899e-01" nType="-99"/>
        </Node>
        <Node pos="r" depth="1" NCoef="0" IVar="6" Cut="4.7900757789611816e+00" cType="1" res="3.1556293834000826e-03" rms="2.0632500946521759e-01" purity="5.1628929376602173e-01" nType="0">
          <Node pos="l" depth="2" NCoef="0" IVar="-1" Cut="0.0000000000000000e+00" cType="1" res="1.6262102872133255e-02" rms="2.1255332231521606e-01" purity="5.1333171129226685e-01" nType="-99"/>
          <Node pos="r" depth="2" NCoef="0" IVar="-1" Cut="0.0000000000000000e+00" cType="1" res="-2.7559747104533017e-04" rms="2.0448991656303406e-01" purity="5.1708096265792847e-01" nType="-99"/>
        </Node>
      </Node>
    </BinaryTree>
    <BinaryTree type="DecisionTree" boostWeight="1.0000000000000000e+00" itree="368">
      <Node pos="s" depth="0" NCoef="0" IVar="20" Cut="-2.6409637451171875e+01" cType="1" res="-7.7532074647024274e-04" rms="2.0047324895858765e-01" purity="4.9829927086830139e-01" nType="0">
        <Node pos="l" depth="1" NCoef="0" IVar="1" Cut="9.0154647827148438e+00" cType="1" res="4.5828013680875301e-03" rms="1.8104711174964905e-01" purity="7.6348078250885010e-01" nType="0">
          <Node pos="l" depth="2" NCoef="0" IVar="-1" Cut="0.0000000000000000e+00" cType="1" res="1.3602863065898418e-02" rms="1.8039788305759430e-01" purity="8.0223375558853149e-01" nType="-99"/>
          <Node pos="r" depth="2" NCoef="0" IVar="-1" Cut="0.0000000000000000e+00" cType="1" res="-4.0898430161178112e-03" rms="1.8161581456661224e-01" purity="7.1070426702499390e-01" nType="-99"/>
        </Node>
        <Node pos="r" depth="1" NCoef="0" IVar="26" Cut="9.5123097300529480e-02" cType="1" res="-2.8948865365236998e-03" rms="2.0761865377426147e-01" purity="3.9339876174926758e-01" nType="0">
          <Node pos="l" depth="2" NCoef="0" IVar="-1" Cut="0.0000000000000000e+00" cType="1" res="-5.4696653969585896e-03" rms="2.0897568762302399e-01" purity="4.3456688523292542e-01" nType="-99"/>
          <Node pos="r" depth="2" NCoef="0" IVar="-1" Cut="0.0000000000000000e+00" cType="1" res="6.3822884112596512e-03" rms="2.0285534858703613e-01" purity="2.5788983702659607e-01" nType="-99"/>
        </Node>
      </Node>
    </BinaryTree>
    <BinaryTree type="DecisionTree" boostWeight="1.0000000000000000e+00" itree="369">
      <Node pos="s" depth="0" NCoef="0" IVar="22" Cut="-9.6823701858520508e+00" cType="1" res="-1.4718360034748912e-04" rms="2.0437709987163544e-01" purity="4.9877676367759705e-01" nType="0">
        <Node pos="l" depth="1" NCoef="0" IVar="-1" Cut="0.0000000000000000e+00" cType="1" res="2.8516808524727821e-02" rms="1.9136363267898560e-01" purity="4.5375815033912659e-01" nType="-99"/>
        <Node pos="r" depth="1" NCoef="0" IVar="11" Cut="7.3095827102661133e+00" cType="1" res="-7.4417260475456715e-04" rms="2.0468252897262573e-01" purity="4.9998784065246582e-01" nType="0">
          <Node pos="l" depth="2" NCoef="0" IVar="-1" Cut="0.0000000000000000e+00" cType="1" res="1.0923930676653981e-03" rms="2.0272724330425262e-01" purity="5.3361612558364868e-01" nType="-99"/>
          <Node pos="r" depth="2" NCoef="0" IVar="-1" Cut="0.0000000000000000e+00" cType="1" res="-6.0944017022848129e-03" rms="2.1026608347892761e-01" purity="4.0065479278564453e-01" nType="-99"/>
        </Node>
      </Node>
    </BinaryTree>
    <BinaryTree type="DecisionTree" boostWeight="1.0000000000000000e+00" itree="370">
      <Node pos="s" depth="0" NCoef="0" IVar="27" Cut="4.7632220387458801e-01" cType="1" res="6.2783021712675691e-04" rms="2.0344200730323792e-01" purity="5.0214171409606934e-01" nType="0">
        <Node pos="l" depth="1" NCoef="0" IVar="23" Cut="7.6253688335418701e-01" cType="1" res="-1.1035344563424587e-02" rms="1.8792788684368134e-01" purity="1.6421110928058624e-01" nType="0">
          <Node pos="l" depth="2" NCoef="0" IVar="-1" Cut="0.0000000000000000e+00" cType="1" res="-4.0600816719233990e-03" rms="1.5925830602645874e-01" purity="4.3611746281385422e-02" nType="-99"/>
          <Node pos="r" depth="2" NCoef="0" IVar="-1" Cut="0.0000000000000000e+00" cType="1" res="-2.5331526994705200e-02" rms="2.3625074326992035e-01" purity="4.1887679696083069e-01" nType="-99"/>
        </Node>
        <Node pos="r" depth="1" NCoef="0" IVar="23" Cut="8.1003123521804810e-01" cType="1" res="2.0777618046849966e-03" rms="2.0524244010448456e-01" purity="5.4415225982666016e-01" nType="0">
          <Node pos="l" depth="2" NCoef="0" IVar="-1" Cut="0.0000000000000000e+00" cType="1" res="4.9935015849769115e-03" rms="2.2675158083438873e-01" purity="2.0712429285049438e-01" nType="-99"/>
          <Node pos="r" depth="2" NCoef="0" IVar="-1" Cut="0.0000000000000000e+00" cType="1" res="-1.8242459045723081e-03" rms="1.8386501073837280e-01" purity="8.4495145082473755e-01" nType="-99"/>
        </Node>
      </Node>
    </BinaryTree>
    <BinaryTree type="DecisionTree" boostWeight="1.0000000000000000e+00" itree="371">
      <Node pos="s" depth="0" NCoef="0" IVar="28" Cut="9.5250934362411499e-01" cType="1" res="-1.0819308226928115e-03" rms="2.0155568420886993e-01" purity="4.9573159217834473e-01" nType="0">
        <Node pos="l" depth="1" NCoef="0" IVar="13" Cut="8.0101947784423828e+00" cType="1" res="-2.8077645692974329e-03" rms="2.0951205492019653e-01" purity="4.0831157565116882e-01" nType="0">
          <Node pos="l" depth="2" NCoef="0" IVar="-1" Cut="0.0000000000000000e+00" cType="1" res="1.8583334749564528e-03" rms="2.1008981764316559e-01" purity="4.1862487792968750e-01" nType="-99"/>
          <Node pos="r" depth="2" NCoef="0" IVar="-1" Cut="0.0000000000000000e+00" cType="1" res="-6.0651171952486038e-03" rms="2.0902530848979950e-01" purity="4.0079167485237122e-01" nType="-99"/>
        </Node>
        <Node pos="r" depth="1" NCoef="0" IVar="7" Cut="2.6293370723724365e+00" cType="1" res="4.4941636733710766e-03" rms="1.7325358092784882e-01" purity="7.7818208932876587e-01" nType="0">
          <Node pos="l" depth="2" NCoef="0" IVar="-1" Cut="0.0000000000000000e+00" cType="1" res="1.0658299550414085e-02" rms="1.7054271697998047e-01" purity="8.7051111459732056e-01" nType="-99"/>
          <Node pos="r" depth="2" NCoef="0" IVar="-1" Cut="0.0000000000000000e+00" cType="1" res="-2.0070286467671394e-02" rms="1.8804083764553070e-01" purity="2.0283962786197662e-01" nType="-99"/>
        </Node>
      </Node>
    </BinaryTree>
    <BinaryTree type="DecisionTree" boostWeight="1.0000000000000000e+00" itree="372">
      <Node pos="s" depth="0" NCoef="0" IVar="23" Cut="9.7850985825061798e-02" cType="1" res="2.7127724024467170e-04" rms="2.0163393020629883e-01" purity="4.9692738056182861e-01" nType="0">
        <Node pos="l" depth="1" NCoef="0" IVar="-1" Cut="0.0000000000000000e+00" cType="1" res="-3.1635455787181854e-02" rms="1.3115139305591583e-01" purity="2.9749259352684021e-02" nType="-99"/>
        <Node pos="r" depth="1" NCoef="0" IVar="24" Cut="2.3987346887588501e-01" cType="1" res="7.9638243187218904e-04" rms="2.0309752225875854e-01" purity="5.0894474983215332e-01" nType="0">
          <Node pos="l" depth="2" NCoef="0" IVar="-1" Cut="0.0000000000000000e+00" cType="1" res="-1.7665227875113487e-02" rms="1.6383408010005951e-01" purity="1.0825650393962860e-01" nType="-99"/>
          <Node pos="r" depth="2" NCoef="0" IVar="-1" Cut="0.0000000000000000e+00" cType="1" res="1.8085781484842300e-03" rms="2.0572723448276520e-01" purity="5.3918904066085815e-01" nType="-99"/>
        </Node>
      </Node>
    </BinaryTree>
    <BinaryTree type="DecisionTree" boostWeight="1.0000000000000000e+00" itree="373">
      <Node pos="s" depth="0" NCoef="0" IVar="17" Cut="5.9863059997558594e+01" cType="1" res="-1.4764016959816217e-03" rms="2.0145517587661743e-01" purity="4.9681815505027771e-01" nType="0">
        <Node pos="l" depth="1" NCoef="0" IVar="16" Cut="3.6788237094879150e-01" cType="1" res="-2.1302124951034784e-03" rms="2.0492564141750336e-01" purity="4.7369742393493652e-01" nType="0">
          <Node pos="l" depth="2" NCoef="0" IVar="-1" Cut="0.0000000000000000e+00" cType="1" res="-5.0736539997160435e-03" rms="2.1900342404842377e-01" purity="2.6607650518417358e-01" nType="-99"/>
          <Node pos="r" depth="2" NCoef="0" IVar="-1" Cut="0.0000000000000000e+00" cType="1" res="2.5328219635412097e-04" rms="1.9425587356090546e-01" purity="6.2140989303588867e-01" nType="-99"/>
        </Node>
        <Node pos="r" depth="1" NCoef="0" IVar="-1" Cut="0.0000000000000000e+00" cType="1" res="2.6178559288382530e-02" rms="1.1119695752859116e-01" purity="9.5653265714645386e-01" nType="-99"/>
      </Node>
    </BinaryTree>
    <BinaryTree type="DecisionTree" boostWeight="1.0000000000000000e+00" itree="374">
      <Node pos="s" depth="0" NCoef="0" IVar="34" Cut="3.9732375741004944e-01" cType="1" res="1.5021136496216059e-03" rms="2.0212140679359436e-01" purity="5.0541794300079346e-01" nType="0">
        <Node pos="l" depth="1" NCoef="0" IVar="9" Cut="1.5089264869689941e+01" cType="1" res="1.0385759174823761e-02" rms="1.9960276782512665e-01" purity="6.7311382293701172e-01" nType="0">
          <Node pos="l" depth="2" NCoef="0" IVar="-1" Cut="0.0000000000000000e+00" cType="1" res="2.3677807301282883e-02" rms="2.0062924921512604e-01" purity="7.6280027627944946e-01" nType="-99"/>
          <Node pos="r" depth="2" NCoef="0" IVar="-1" Cut="0.0000000000000000e+00" cType="1" res="-6.2730541685596108e-04" rms="1.9795767962932587e-01" purity="5.8317303657531738e-01" nType="-99"/>
        </Node>
        <Node pos="r" depth="1" NCoef="0" IVar="23" Cut="5.7263362407684326e-01" cType="1" res="2.3309941752813756e-04" rms="2.0244680345058441e-01" purity="4.8146283626556396e-01" nType="0">
          <Node pos="l" depth="2" NCoef="0" IVar="-1" Cut="0.0000000000000000e+00" cType="1" res="-4.4665313325822353e-03" rms="1.8621774017810822e-01" purity="9.7846314311027527e-02" nType="-99"/>
          <Node pos="r" depth="2" NCoef="0" IVar="-1" Cut="0.0000000000000000e+00" cType="1" res="2.0453350152820349e-03" rms="2.0921468734741211e-01" purity="6.5151035785675049e-01" nType="-99"/>
        </Node>
      </Node>
    </BinaryTree>
    <BinaryTree type="DecisionTree" boostWeight="1.0000000000000000e+00" itree="375">
      <Node pos="s" depth="0" NCoef="0" IVar="10" Cut="6.5115327835083008e+00" cType="1" res="-1.5326503198593855e-03" rms="2.0096585154533386e-01" purity="5.0151503086090088e-01" nType="0">
        <Node pos="l" depth="1" NCoef="0" IVar="23" Cut="8.1005120277404785e-01" cType="1" res="-7.0555158890783787e-03" rms="1.8968677520751953e-01" purity="4.3899485468864441e-01" nType="0">
          <Node pos="l" depth="2" NCoef="0" IVar="-1" Cut="0.0000000000000000e+00" cType="1" res="-1.5329566085711122e-03" rms="1.8660190701484680e-01" purity="1.5896613895893097e-01" nType="-99"/>
          <Node pos="r" depth="2" NCoef="0" IVar="-1" Cut="0.0000000000000000e+00" cType="1" res="-1.7385456711053848e-02" rms="1.9284307956695557e-01" purity="7.4839270114898682e-01" nType="-99"/>
        </Node>
        <Node pos="r" depth="1" NCoef="0" IVar="16" Cut="3.8653123378753662e-01" cType="1" res="1.9821725436486304e-04" rms="2.0434191823005676e-01" purity="5.2110886573791504e-01" nType="0">
          <Node pos="l" depth="2" NCoef="0" IVar="-1" Cut="0.0000000000000000e+00" cType="1" res="-4.0472834371030331e-03" rms="2.1929937601089478e-01" purity="3.3571702241897583e-01" nType="-99"/>
          <Node pos="r" depth="2" NCoef="0" IVar="-1" Cut="0.0000000000000000e+00" cType="1" res="6.8950005806982517e-03" rms="1.8601691722869873e-01" purity="7.2889018058776855e-01" nType="-99"/>
        </Node>
      </Node>
    </BinaryTree>
    <BinaryTree type="DecisionTree" boostWeight="1.0000000000000000e+00" itree="376">
      <Node pos="s" depth="0" NCoef="0" IVar="34" Cut="3.1748065948486328e+00" cType="1" res="-1.0659153340384364e-03" rms="2.0129553973674774e-01" purity="4.9984580278396606e-01" nType="0">
        <Node pos="l" depth="1" NCoef="0" IVar="6" Cut="5.0057339668273926e+00" cType="1" res="-2.7402231935411692e-03" rms="2.0308382809162140e-01" purity="5.8958184719085693e-01" nType="0">
          <Node pos="l" depth="2" NCoef="0" IVar="-1" Cut="0.0000000000000000e+00" cType="1" res="4.1067125275731087e-03" rms="2.0645055174827576e-01" purity="6.3103240728378296e-01" nType="-99"/>
          <Node pos="r" depth="2" NCoef="0" IVar="-1" Cut="0.0000000000000000e+00" cType="1" res="-5.5248313583433628e-03" rms="2.0171368122100830e-01" purity="5.7361948490142822e-01" nType="-99"/>
        </Node>
        <Node pos="r" depth="1" NCoef="0" IVar="11" Cut="6.6810288429260254e+00" cType="1" res="3.6763739772140980e-03" rms="1.9606438279151917e-01" purity="2.4567840993404388e-01" nType="0">
          <Node pos="l" depth="2" NCoef="0" IVar="-1" Cut="0.0000000000000000e+00" cType="1" res="-2.5788913480937481e-03" rms="1.9153635203838348e-01" purity="2.0422717928886414e-01" nType="-99"/>
          <Node pos="r" depth="2" NCoef="0" IVar="-1" Cut="0.0000000000000000e+00" cType="1" res="1.3505777344107628e-02" rms="2.0189347863197327e-01" purity="3.0307516455650330e-01" nType="-99"/>
        </Node>
      </Node>
    </BinaryTree>
    <BinaryTree type="DecisionTree" boostWeight="1.0000000000000000e+00" itree="377">
      <Node pos="s" depth="0" NCoef="0" IVar="12" Cut="6.9173731803894043e+00" cType="1" res="1.6500124474987388e-03" rms="2.0511274039745331e-01" purity="5.0256085395812988e-01" nType="0">
        <Node pos="l" depth="1" NCoef="0" IVar="7" Cut="1.6633253097534180e+00" cType="1" res="-3.7756457459181547e-03" rms="2.1651649475097656e-01" purity="3.4590548276901245e-01" nType="0">
          <Node pos="l" depth="2" NCoef="0" IVar="-1" Cut="0.0000000000000000e+00" cType="1" res="-1.1626476421952248e-02" rms="2.5536036491394043e-01" purity="5.9783238172531128e-01" nType="-99"/>
          <Node pos="r" depth="2" NCoef="0" IVar="-1" Cut="0.0000000000000000e+00" cType="1" res="5.2264099940657616e-03" rms="1.8829497694969177e-01" purity="1.9108492136001587e-01" nType="-99"/>
        </Node>
        <Node pos="r" depth="1" NCoef="0" IVar="23" Cut="5.7263803482055664e-01" cType="1" res="3.5644136369228363e-03" rms="2.0089963078498840e-01" purity="5.5783545970916748e-01" nType="0">
          <Node pos="l" depth="2" NCoef="0" IVar="-1" Cut="0.0000000000000000e+00" cType="1" res="-6.2050349079072475e-03" rms="1.9078001379966736e-01" purity="9.3173138797283173e-02" nType="-99"/>
          <Node pos="r" depth="2" NCoef="0" IVar="-1" Cut="0.0000000000000000e+00" cType="1" res="7.3712947778403759e-03" rms="2.0428231358528137e-01" purity="7.2298163175582886e-01" nType="-99"/>
        </Node>
      </Node>
    </BinaryTree>
    <BinaryTree type="DecisionTree" boostWeight="1.0000000000000000e+00" itree="378">
      <Node pos="s" depth="0" NCoef="0" IVar="20" Cut="-5.4319416046142578e+01" cType="1" res="-1.1431065649958327e-04" rms="1.9879677891731262e-01" purity="5.0153833627700806e-01" nType="0">
        <Node pos="l" depth="1" NCoef="0" IVar="-1" Cut="0.0000000000000000e+00" cType="1" res="2.5699842721223831e-02" rms="1.0907444357872009e-01" purity="9.4685143232345581e-01" nType="-99"/>
        <Node pos="r" depth="1" NCoef="0" IVar="31" Cut="9.5186352729797363e-02" cType="1" res="-8.9294242206960917e-04" rms="2.0368331670761108e-01" purity="4.6968588232994080e-01" nType="0">
          <Node pos="l" depth="2" NCoef="0" IVar="-1" Cut="0.0000000000000000e+00" cType="1" res="3.4821109147742391e-04" rms="2.0632047951221466e-01" purity="5.2346116304397583e-01" nType="-99"/>
          <Node pos="r" depth="2" NCoef="0" IVar="-1" Cut="0.0000000000000000e+00" cType="1" res="-8.2993963733315468e-03" rms="1.8955868482589722e-01" purity="1.9578996300697327e-01" nType="-99"/>
        </Node>
      </Node>
    </BinaryTree>
    <BinaryTree type="DecisionTree" boostWeight="1.0000000000000000e+00" itree="379">
      <Node pos="s" depth="0" NCoef="0" IVar="19" Cut="-1.1693752288818359e+01" cType="1" res="-1.5267351409420371e-03" rms="2.0003043115139008e-01" purity="5.0039893388748169e-01" nType="0">
        <Node pos="l" depth="1" NCoef="0" IVar="-1" Cut="0.0000000000000000e+00" cType="1" res="1.5136941336095333e-02" rms="1.9482493400573730e-01" purity="5.3830242156982422e-01" nType="-99"/>
        <Node pos="r" depth="1" NCoef="0" IVar="10" Cut="7.4542098045349121e+00" cType="1" res="-2.2989064455032349e-03" rms="2.0028267800807953e-01" purity="4.9832490086555481e-01" nType="0">
          <Node pos="l" depth="2" NCoef="0" IVar="-1" Cut="0.0000000000000000e+00" cType="1" res="2.7450537891127169e-04" rms="1.9946338236331940e-01" purity="5.2388077974319458e-01" nType="-99"/>
          <Node pos="r" depth="2" NCoef="0" IVar="-1" Cut="0.0000000000000000e+00" cType="1" res="-1.0079815052449703e-02" rms="2.0243950188159943e-01" purity="4.2490714788436890e-01" nType="-99"/>
        </Node>
      </Node>
    </BinaryTree>
    <BinaryTree type="DecisionTree" boostWeight="1.0000000000000000e+00" itree="380">
      <Node pos="s" depth="0" NCoef="0" IVar="27" Cut="2.3993429541587830e-01" cType="1" res="6.3239596784114838e-04" rms="2.0165950059890747e-01" purity="4.9886375665664673e-01" nType="0">
        <Node pos="l" depth="1" NCoef="0" IVar="23" Cut="6.2179911136627197e-01" cType="1" res="-1.2844353914260864e-02" rms="1.7213535308837891e-01" purity="1.4634047448635101e-01" nType="0">
          <Node pos="l" depth="2" NCoef="0" IVar="-1" Cut="0.0000000000000000e+00" cType="1" res="-9.8779350519180298e-03" rms="1.3528199493885040e-01" purity="3.5209517925977707e-02" nType="-99"/>
          <Node pos="r" depth="2" NCoef="0" IVar="-1" Cut="0.0000000000000000e+00" cType="1" res="-2.1428314968943596e-02" rms="2.0660015940666199e-01" purity="2.7602428197860718e-01" nType="-99"/>
        </Node>
        <Node pos="r" depth="1" NCoef="0" IVar="20" Cut="-1.2029017448425293e+01" cType="1" res="1.4072685735300183e-03" rms="2.0319953560829163e-01" purity="5.1913285255432129e-01" nType="0">
          <Node pos="l" depth="2" NCoef="0" IVar="-1" Cut="0.0000000000000000e+00" cType="1" res="-1.6804677434265614e-03" rms="1.9315575063228607e-01" purity="6.3207316398620605e-01" nType="-99"/>
          <Node pos="r" depth="2" NCoef="0" IVar="-1" Cut="0.0000000000000000e+00" cType="1" res="4.5897546224296093e-03" rms="2.1333248913288116e-01" purity="3.9886158704757690e-01" nType="-99"/>
        </Node>
      </Node>
    </BinaryTree>
    <BinaryTree type="DecisionTree" boostWeight="1.0000000000000000e+00" itree="381">
      <Node pos="s" depth="0" NCoef="0" IVar="33" Cut="9.5246061682701111e-02" cType="1" res="-1.5131313120946288e-03" rms="1.9868105649948120e-01" purity="5.0115811824798584e-01" nType="0">
        <Node pos="l" depth="1" NCoef="0" IVar="23" Cut="5.7263374328613281e-01" cType="1" res="1.7678065341897309e-04" rms="1.9745215773582458e-01" purity="5.5658620595932007e-01" nType="0">
          <Node pos="l" depth="2" NCoef="0" IVar="-1" Cut="0.0000000000000000e+00" cType="1" res="-6.3595930114388466e-03" rms="1.9833821058273315e-01" purity="1.1619167774915695e-01" nType="-99"/>
          <Node pos="r" depth="2" NCoef="0" IVar="-1" Cut="0.0000000000000000e+00" cType="1" res="2.7533653192222118e-03" rms="1.9707539677619934e-01" purity="7.1856099367141724e-01" nType="-99"/>
        </Node>
        <Node pos="r" depth="1" NCoef="0" IVar="23" Cut="7.1520704030990601e-01" cType="1" res="-8.7477732449769974e-03" rms="2.0369994640350342e-01" purity="2.6386627554893494e-01" nType="0">
          <Node pos="l" depth="2" NCoef="0" IVar="-1" Cut="0.0000000000000000e+00" cType="1" res="-1.5714609762653708e-03" rms="1.7373207211494446e-01" purity="6.7320160567760468e-02" nType="-99"/>
          <Node pos="r" depth="2" NCoef="0" IVar="-1" Cut="0.0000000000000000e+00" cType="1" res="-1.5442076139152050e-02" rms="2.3684814572334290e-01" purity="5.2069747447967529e-01" nType="-99"/>
        </Node>
      </Node>
    </BinaryTree>
    <BinaryTree type="DecisionTree" boostWeight="1.0000000000000000e+00" itree="382">
      <Node pos="s" depth="0" NCoef="0" IVar="22" Cut="8.5104570388793945e+00" cType="1" res="-1.2460486032068729e-03" rms="2.0203444361686707e-01" purity="4.9817547202110291e-01" nType="0">
        <Node pos="l" depth="1" NCoef="0" IVar="27" Cut="9.5216900110244751e-01" cType="1" res="-5.7208193466067314e-03" rms="2.0743355154991150e-01" purity="3.2410487532615662e-01" nType="0">
          <Node pos="l" depth="2" NCoef="0" IVar="-1" Cut="0.0000000000000000e+00" cType="1" res="-2.8276655939407647e-04" rms="1.9817899167537689e-01" purity="1.9313111901283264e-01" nType="-99"/>
          <Node pos="r" depth="2" NCoef="0" IVar="-1" Cut="0.0000000000000000e+00" cType="1" res="-1.2851777486503124e-02" rms="2.2145879268646240e-01" purity="5.3851902484893799e-01" nType="-99"/>
        </Node>
        <Node pos="r" depth="1" NCoef="0" IVar="15" Cut="7.4525141716003418e+00" cType="1" res="1.1403672397136688e-03" rms="1.9905409216880798e-01" purity="5.9100818634033203e-01" nType="0">
          <Node pos="l" depth="2" NCoef="0" IVar="-1" Cut="0.0000000000000000e+00" cType="1" res="2.5389422662556171e-03" rms="2.0089888572692871e-01" purity="5.8405464887619019e-01" nType="-99"/>
          <Node pos="r" depth="2" NCoef="0" IVar="-1" Cut="0.0000000000000000e+00" cType="1" res="-1.5113302506506443e-02" rms="1.7961978912353516e-01" purity="6.5891230106353760e-01" nType="-99"/>
        </Node>
      </Node>
    </BinaryTree>
    <BinaryTree type="DecisionTree" boostWeight="1.0000000000000000e+00" itree="383">
      <Node pos="s" depth="0" NCoef="0" IVar="34" Cut="1.5875600576400757e+00" cType="1" res="-2.9855771572329104e-04" rms="2.0057374238967896e-01" purity="4.9855670332908630e-01" nType="0">
        <Node pos="l" depth="1" NCoef="0" IVar="13" Cut="7.8589468002319336e+00" cType="1" res="2.7772441972047091e-03" rms="1.9937588274478912e-01" purity="6.3324803113937378e-01" nType="0">
          <Node pos="l" depth="2" NCoef="0" IVar="-1" Cut="0.0000000000000000e+00" cType="1" res="1.5222015790641308e-02" rms="1.9934779405593872e-01" purity="7.3194879293441772e-01" nType="-99"/>
          <Node pos="r" depth="2" NCoef="0" IVar="-1" Cut="0.0000000000000000e+00" cType="1" res="-6.6990143386647105e-04" rms="1.9925211369991302e-01" purity="6.0538715124130249e-01" nType="-99"/>
        </Node>
        <Node pos="r" depth="1" NCoef="0" IVar="12" Cut="6.6706743240356445e+00" cType="1" res="-3.3217959571629763e-03" rms="2.0169848203659058e-01" purity="3.6616718769073486e-01" nType="0">
          <Node pos="l" depth="2" NCoef="0" IVar="-1" Cut="0.0000000000000000e+00" cType="1" res="-1.5002526342868805e-02" rms="1.8812271952629089e-01" purity="1.9673331081867218e-01" nType="-99"/>
          <Node pos="r" depth="2" NCoef="0" IVar="-1" Cut="0.0000000000000000e+00" cType="1" res="-1.4623798197135329e-03" rms="2.0432555675506592e-01" purity="4.0105834603309631e-01" nType="-99"/>
        </Node>
      </Node>
    </BinaryTree>
    <BinaryTree type="DecisionTree" boostWeight="1.0000000000000000e+00" itree="384">
      <Node pos="s" depth="0" NCoef="0" IVar="3" Cut="1.6748000383377075e+00" cType="1" res="7.3916651308536530e-04" rms="2.0242033898830414e-01" purity="4.9868524074554443e-01" nType="0">
        <Node pos="l" depth="1" NCoef="0" IVar="26" Cut="9.4962596893310547e-02" cType="1" res="5.0038760527968407e-03" rms="2.1642903983592987e-01" purity="7.2592693567276001e-01" nType="0">
          <Node pos="l" depth="2" NCoef="0" IVar="-1" Cut="0.0000000000000000e+00" cType="1" res="2.8879949823021889e-03" rms="2.1065992116928101e-01" purity="7.5343394279479980e-01" nType="-99"/>
          <Node pos="r" depth="2" NCoef="0" IVar="-1" Cut="0.0000000000000000e+00" cType="1" res="1.4038793742656708e-02" rms="2.5517243146896362e-01" purity="5.1901322603225708e-01" nType="-99"/>
        </Node>
        <Node pos="r" depth="1" NCoef="0" IVar="23" Cut="8.5756123065948486e-01" cType="1" res="-2.7082213200628757e-03" rms="1.9027446210384369e-01" purity="3.1499388813972473e-01" nType="0">
          <Node pos="l" depth="2" NCoef="0" IVar="-1" Cut="0.0000000000000000e+00" cType="1" res="7.5208029011264443e-04" rms="1.8045316636562347e-01" purity="1.0445444285869598e-01" nType="-99"/>
          <Node pos="r" depth="2" NCoef="0" IVar="-1" Cut="0.0000000000000000e+00" cType="1" res="-1.0052303783595562e-02" rms="2.0780712366104126e-01" purity="7.2204422950744629e-01" nType="-99"/>
        </Node>
      </Node>
    </BinaryTree>
    <BinaryTree type="DecisionTree" boostWeight="1.0000000000000000e+00" itree="385">
      <Node pos="s" depth="0" NCoef="0" IVar="32" Cut="9.5217652618885040e-02" cType="1" res="-4.4131145114079118e-04" rms="1.9819341599941254e-01" purity="5.0140088796615601e-01" nType="0">
        <Node pos="l" depth="1" NCoef="0" IVar="32" Cut="4.5392271131277084e-03" cType="1" res="1.1700888862833381e-03" rms="2.0008514821529388e-01" purity="5.5481082201004028e-01" nType="0">
          <Node pos="l" depth="2" NCoef="0" IVar="-1" Cut="0.0000000000000000e+00" cType="1" res="6.6371588036417961e-03" rms="1.8499858677387238e-01" purity="7.1028530597686768e-01" nType="-99"/>
          <Node pos="r" depth="2" NCoef="0" IVar="-1" Cut="0.0000000000000000e+00" cType="1" res="-2.3204996250569820e-03" rms="2.1104927361011505e-01" purity="4.3342882394790649e-01" nType="-99"/>
        </Node>
        <Node pos="r" depth="1" NCoef="0" IVar="25" Cut="4.5814912766218185e-02" cType="1" res="-9.8977880552411079e-03" rms="1.8642538785934448e-01" purity="1.8796566128730774e-01" nType="0">
          <Node pos="l" depth="2" NCoef="0" IVar="-1" Cut="0.0000000000000000e+00" cType="1" res="-1.8135199323296547e-02" rms="2.1529066562652588e-01" purity="3.3678987622261047e-01" nType="-99"/>
          <Node pos="r" depth="2" NCoef="0" IVar="-1" Cut="0.0000000000000000e+00" cType="1" res="-5.7018436491489410e-03" rms="1.6529755294322968e-01" purity="9.3959018588066101e-02" nType="-99"/>
        </Node>
      </Node>
    </BinaryTree>
    <BinaryTree type="DecisionTree" boostWeight="1.0000000000000000e+00" itree="386">
      <Node pos="s" depth="0" NCoef="0" IVar="11" Cut="6.6826171875000000e+00" cType="1" res="6.8319216370582581e-04" rms="2.0489953458309174e-01" purity="4.9927315115928650e-01" nType="0">
        <Node pos="l" depth="1" NCoef="0" IVar="17" Cut="3.1421699523925781e+01" cType="1" res="-3.4526111558079720e-03" rms="2.0201632380485535e-01" purity="4.9065476655960083e-01" nType="0">
          <Node pos="l" depth="2" NCoef="0" IVar="-1" Cut="0.0000000000000000e+00" cType="1" res="-6.7855361849069595e-03" rms="2.0769676566123962e-01" purity="3.8273802399635315e-01" nType="-99"/>
          <Node pos="r" depth="2" NCoef="0" IVar="-1" Cut="0.0000000000000000e+00" cType="1" res="7.3629538528621197e-03" rms="1.8317045271396637e-01" purity="8.2189404964447021e-01" nType="-99"/>
        </Node>
        <Node pos="r" depth="1" NCoef="0" IVar="6" Cut="4.0869612693786621e+00" cType="1" res="4.1765985079109669e-03" rms="2.0723937451839447e-01" purity="5.0655281543731689e-01" nType="0">
          <Node pos="l" depth="2" NCoef="0" IVar="-1" Cut="0.0000000000000000e+00" cType="1" res="2.9824361205101013e-02" rms="2.3045869171619415e-01" purity="3.4848904609680176e-01" nType="-99"/>
          <Node pos="r" depth="2" NCoef="0" IVar="-1" Cut="0.0000000000000000e+00" cType="1" res="2.8704605065286160e-03" rms="2.0552997291088104e-01" purity="5.1695013046264648e-01" nType="-99"/>
        </Node>
      </Node>
    </BinaryTree>
    <BinaryTree type="DecisionTree" boostWeight="1.0000000000000000e+00" itree="387">
      <Node pos="s" depth="0" NCoef="0" IVar="12" Cut="6.7120728492736816e+00" cType="1" res="3.8356109143933281e-05" rms="2.0223760604858398e-01" purity="5.0054818391799927e-01" nType="0">
        <Node pos="l" depth="1" NCoef="0" IVar="23" Cut="6.6805559396743774e-01" cType="1" res="-8.4872683510184288e-03" rms="2.1057046949863434e-01" purity="3.1460514664649963e-01" nType="0">
          <Node pos="l" depth="2" NCoef="0" IVar="-1" Cut="0.0000000000000000e+00" cType="1" res="1.1814296012744308e-03" rms="2.0223708450794220e-01" purity="1.3779959082603455e-01" nType="-99"/>
          <Node pos="r" depth="2" NCoef="0" IVar="-1" Cut="0.0000000000000000e+00" cType="1" res="-1.9136596471071243e-02" rms="2.1982225775718689e-01" purity="5.3220820426940918e-01" nType="-99"/>
        </Node>
        <Node pos="r" depth="1" NCoef="0" IVar="30" Cut="7.6208330690860748e-02" cType="1" res="1.6259599942713976e-03" rms="2.0060767233371735e-01" purity="5.3517359495162964e-01" nType="0">
          <Node pos="l" depth="2" NCoef="0" IVar="-1" Cut="0.0000000000000000e+00" cType="1" res="3.7171698641031981e-03" rms="2.0113264024257660e-01" purity="5.9689402580261230e-01" nType="-99"/>
          <Node pos="r" depth="2" NCoef="0" IVar="-1" Cut="0.0000000000000000e+00" cType="1" res="-6.2139900401234627e-03" rms="1.9821631908416748e-01" purity="2.7585858106613159e-01" nType="-99"/>
        </Node>
      </Node>
    </BinaryTree>
    <BinaryTree type="DecisionTree" boostWeight="1.0000000000000000e+00" itree="388">
      <Node pos="s" depth="0" NCoef="0" IVar="22" Cut="1.4056143760681152e+01" cType="1" res="3.1846255296841264e-04" rms="2.0136047899723053e-01" purity="5.0113350152969360e-01" nType="0">
        <Node pos="l" depth="1" NCoef="0" IVar="15" Cut="7.0587449073791504e+00" cType="1" res="-2.6869503781199455e-03" rms="2.0800150930881500e-01" purity="3.7230813503265381e-01" nType="0">
          <Node pos="l" depth="2" NCoef="0" IVar="-1" Cut="0.0000000000000000e+00" cType="1" res="-4.7582243569195271e-03" rms="2.1193350851535797e-01" purity="3.6065381765365601e-01" nType="-99"/>
          <Node pos="r" depth="2" NCoef="0" IVar="-1" Cut="0.0000000000000000e+00" cType="1" res="9.4349589198827744e-03" rms="1.8833786249160767e-01" purity="4.2643862962722778e-01" nType="-99"/>
        </Node>
        <Node pos="r" depth="1" NCoef="0" IVar="11" Cut="7.8177356719970703e+00" cType="1" res="4.0819197893142700e-03" rms="1.9265586137771606e-01" purity="6.6245198249816895e-01" nType="0">
          <Node pos="l" depth="2" NCoef="0" IVar="-1" Cut="0.0000000000000000e+00" cType="1" res="6.5564499236643314e-03" rms="1.9377578794956207e-01" purity="6.7728441953659058e-01" nType="-99"/>
          <Node pos="r" depth="2" NCoef="0" IVar="-1" Cut="0.0000000000000000e+00" cType="1" res="-1.4205717481672764e-02" rms="1.7847569286823273e-01" purity="4.9327069520950317e-01" nType="-99"/>
        </Node>
      </Node>
    </BinaryTree>
    <BinaryTree type="DecisionTree" boostWeight="1.0000000000000000e+00" itree="389">
      <Node pos="s" depth="0" NCoef="0" IVar="12" Cut="6.7047576904296875e+00" cType="1" res="2.2346517653204501e-04" rms="2.0112057030200958e-01" purity="5.0082683563232422e-01" nType="0">
        <Node pos="l" depth="1" NCoef="0" IVar="10" Cut="6.8843111991882324e+00" cType="1" res="-6.1391708441078663e-03" rms="2.0812536776065826e-01" purity="3.1128463149070740e-01" nType="0">
          <Node pos="l" depth="2" NCoef="0" IVar="-1" Cut="0.0000000000000000e+00" cType="1" res="-1.9043311476707458e-02" rms="1.9378845393657684e-01" purity="2.8745073080062866e-01" nType="-99"/>
          <Node pos="r" depth="2" NCoef="0" IVar="-1" Cut="0.0000000000000000e+00" cType="1" res="5.5828010663390160e-03" rms="2.2215160727500916e-01" purity="3.3743634819984436e-01" nType="-99"/>
        </Node>
        <Node pos="r" depth="1" NCoef="0" IVar="23" Cut="2.4023886024951935e-01" cType="1" res="1.3610817259177566e-03" rms="1.9982092082500458e-01" purity="5.3471630811691284e-01" nType="0">
          <Node pos="l" depth="2" NCoef="0" IVar="-1" Cut="0.0000000000000000e+00" cType="1" res="-1.3159046880900860e-02" rms="1.4972700178623199e-01" purity="5.1909565925598145e-02" nType="-99"/>
          <Node pos="r" depth="2" NCoef="0" IVar="-1" Cut="0.0000000000000000e+00" cType="1" res="2.4390309117734432e-03" rms="2.0395143330097198e-01" purity="5.8097749948501587e-01" nType="-99"/>
        </Node>
      </Node>
    </BinaryTree>
    <BinaryTree type="DecisionTree" boostWeight="1.0000000000000000e+00" itree="390">
      <Node pos="s" depth="0" NCoef="0" IVar="13" Cut="7.0721716880798340e+00" cType="1" res="1.7206649063155055e-03" rms="2.0319814980030060e-01" purity="5.0054287910461426e-01" nType="0">
        <Node pos="l" depth="1" NCoef="0" IVar="-1" Cut="0.0000000000000000e+00" cType="1" res="2.3351011797785759e-02" rms="2.2632762789726257e-01" purity="3.4183660149574280e-01" nType="-99"/>
        <Node pos="r" depth="1" NCoef="0" IVar="19" Cut="2.2658572196960449e+00" cType="1" res="9.4339996576309204e-04" rms="2.0217835903167725e-01" purity="5.0689607858657837e-01" nType="0">
          <Node pos="l" depth="2" NCoef="0" IVar="-1" Cut="0.0000000000000000e+00" cType="1" res="8.5007576271891594e-03" rms="2.0042191445827484e-01" purity="3.7453311681747437e-01" nType="-99"/>
          <Node pos="r" depth="2" NCoef="0" IVar="-1" Cut="0.0000000000000000e+00" cType="1" res="-4.8420645180158317e-04" rms="2.0255176723003387e-01" purity="5.3715693950653076e-01" nType="-99"/>
        </Node>
      </Node>
    </BinaryTree>
    <BinaryTree type="DecisionTree" boostWeight="1.0000000000000000e+00" itree="391">
      <Node pos="s" depth="0" NCoef="0" IVar="27" Cut="7.1423238515853882e-01" cType="1" res="4.1377057641511783e-05" rms="2.0374421775341034e-01" purity="4.9957588315010071e-01" nType="0">
        <Node pos="l" depth="1" NCoef="0" IVar="23" Cut="7.6252138614654541e-01" cType="1" res="-7.6479711569845676e-03" rms="1.9607746601104736e-01" purity="1.9418442249298096e-01" nType="0">
          <Node pos="l" depth="2" NCoef="0" IVar="-1" Cut="0.0000000000000000e+00" cType="1" res="-1.9395173294469714e-03" rms="1.6718241572380066e-01" purity="5.5281024426221848e-02" nType="-99"/>
          <Node pos="r" depth="2" NCoef="0" IVar="-1" Cut="0.0000000000000000e+00" cType="1" res="-1.5705753117799759e-02" rms="2.4313774704933167e-01" purity="4.7099104523658752e-01" nType="-99"/>
        </Node>
        <Node pos="r" depth="1" NCoef="0" IVar="26" Cut="7.4176974594593048e-02" cType="1" res="1.9623253028839827e-03" rms="2.0556999742984772e-01" purity="5.7586860656738281e-01" nType="0">
          <Node pos="l" depth="2" NCoef="0" IVar="-1" Cut="0.0000000000000000e+00" cType="1" res="9.3961454695090652e-04" rms="2.0298486948013306e-01" purity="5.8500289916992188e-01" nType="-99"/>
          <Node pos="r" depth="2" NCoef="0" IVar="-1" Cut="0.0000000000000000e+00" cType="1" res="1.8148491159081459e-02" rms="2.4142313003540039e-01" purity="4.3471434712409973e-01" nType="-99"/>
        </Node>
      </Node>
    </BinaryTree>
    <BinaryTree type="DecisionTree" boostWeight="1.0000000000000000e+00" itree="392">
      <Node pos="s" depth="0" NCoef="0" IVar="19" Cut="-4.7139472961425781e+00" cType="1" res="-4.9931707326322794e-04" rms="2.0154161751270294e-01" purity="4.9935659766197205e-01" nType="0">
        <Node pos="l" depth="1" NCoef="0" IVar="27" Cut="9.5216834545135498e-01" cType="1" res="1.0638482868671417e-02" rms="2.0410008728504181e-01" purity="4.4048115611076355e-01" nType="0">
          <Node pos="l" depth="2" NCoef="0" IVar="-1" Cut="0.0000000000000000e+00" cType="1" res="2.7394747361540794e-02" rms="2.1294240653514862e-01" purity="2.8250175714492798e-01" nType="-99"/>
          <Node pos="r" depth="2" NCoef="0" IVar="-1" Cut="0.0000000000000000e+00" cType="1" res="-7.4271885678172112e-03" rms="1.8968375027179718e-01" purity="6.6247165203094482e-01" nType="-99"/>
        </Node>
        <Node pos="r" depth="1" NCoef="0" IVar="19" Cut="2.5200386047363281e+01" cType="1" res="-1.7237400170415640e-03" rms="2.0122075080871582e-01" purity="5.0582903623580933e-01" nType="0">
          <Node pos="l" depth="2" NCoef="0" IVar="-1" Cut="0.0000000000000000e+00" cType="1" res="-3.8168586324900389e-03" rms="2.0734632015228271e-01" purity="4.1211980581283569e-01" nType="-99"/>
          <Node pos="r" depth="2" NCoef="0" IVar="-1" Cut="0.0000000000000000e+00" cType="1" res="5.9524350799620152e-03" rms="1.8061845004558563e-01" purity="7.9848098754882812e-01" nType="-99"/>
        </Node>
      </Node>
    </BinaryTree>
    <BinaryTree type="DecisionTree" boostWeight="1.0000000000000000e+00" itree="393">
      <Node pos="s" depth="0" NCoef="0" IVar="27" Cut="9.5207250118255615e-01" cType="1" res="5.0462433136999607e-04" rms="2.0238044857978821e-01" purity="5.0243574380874634e-01" nType="0">
        <Node pos="l" depth="1" NCoef="0" IVar="19" Cut="-9.7544145584106445e+00" cType="1" res="4.3484857305884361e-03" rms="2.1083046495914459e-01" purity="2.9146665334701538e-01" nType="0">
          <Node pos="l" depth="2" NCoef="0" IVar="-1" Cut="0.0000000000000000e+00" cType="1" res="2.8911510482430458e-02" rms="2.1825723350048065e-01" purity="3.2751184701919556e-01" nType="-99"/>
          <Node pos="r" depth="2" NCoef="0" IVar="-1" Cut="0.0000000000000000e+00" cType="1" res="2.9549777973443270e-03" rms="2.1018758416175842e-01" purity="2.8883218765258789e-01" nType="-99"/>
        </Node>
        <Node pos="r" depth="1" NCoef="0" IVar="27" Cut="9.9277895689010620e-01" cType="1" res="-3.3669066615402699e-03" rms="1.9341976940631866e-01" purity="7.1492344141006470e-01" nType="0">
          <Node pos="l" depth="2" NCoef="0" IVar="-1" Cut="0.0000000000000000e+00" cType="1" res="-1.1990332975983620e-02" rms="2.1470132470130920e-01" purity="5.9497475624084473e-01" nType="-99"/>
          <Node pos="r" depth="2" NCoef="0" IVar="-1" Cut="0.0000000000000000e+00" cType="1" res="8.9443800970911980e-03" rms="1.6711819171905518e-01" purity="8.4330272674560547e-01" nType="-99"/>
        </Node>
      </Node>
    </BinaryTree>
    <BinaryTree type="DecisionTree" boostWeight="1.0000000000000000e+00" itree="394">
      <Node pos="s" depth="0" NCoef="0" IVar="15" Cut="6.1004719734191895e+00" cType="1" res="-2.1401552949100733e-03" rms="2.0239759981632233e-01" purity="4.9749910831451416e-01" nType="0">
        <Node pos="l" depth="1" NCoef="0" IVar="7" Cut="3.2768030166625977e+00" cType="1" res="2.5801525916904211e-03" rms="2.1336776018142700e-01" purity="4.9957692623138428e-01" nType="0">
          <Node pos="l" depth="2" NCoef="0" IVar="-1" Cut="0.0000000000000000e+00" cType="1" res="-1.9729565246962011e-04" rms="2.1441222727298737e-01" purity="5.1630705595016479e-01" nType="-99"/>
          <Node pos="r" depth="2" NCoef="0" IVar="-1" Cut="0.0000000000000000e+00" cType="1" res="2.4875074625015259e-02" rms="2.0455621182918549e-01" purity="3.7888172268867493e-01" nType="-99"/>
        </Node>
        <Node pos="r" depth="1" NCoef="0" IVar="14" Cut="8.6796379089355469e+00" cType="1" res="-4.3409108184278011e-03" rms="1.9703571498394012e-01" purity="4.9653032422065735e-01" nType="0">
          <Node pos="l" depth="2" NCoef="0" IVar="-1" Cut="0.0000000000000000e+00" cType="1" res="-8.9587057009339333e-03" rms="2.0212835073471069e-01" purity="4.6493044495582581e-01" nType="-99"/>
          <Node pos="r" depth="2" NCoef="0" IVar="-1" Cut="0.0000000000000000e+00" cType="1" res="2.9946030117571354e-03" rms="1.8758343160152435e-01" purity="5.5195325613021851e-01" nType="-99"/>
        </Node>
      </Node>
    </BinaryTree>
    <BinaryTree type="DecisionTree" boostWeight="1.0000000000000000e+00" itree="395">
      <Node pos="s" depth="0" NCoef="0" IVar="20" Cut="8.2852287292480469e+00" cType="1" res="1.2254923349246383e-03" rms="2.0399114489555359e-01" purity="5.0100106000900269e-01" nType="0">
        <Node pos="l" depth="1" NCoef="0" IVar="27" Cut="8.5741114616394043e-01" cType="1" res="2.0481532556004822e-04" rms="2.0253692567348480e-01" purity="5.1880550384521484e-01" nType="0">
          <Node pos="l" depth="2" NCoef="0" IVar="-1" Cut="0.0000000000000000e+00" cType="1" res="-5.6729931384325027e-03" rms="1.9670352339744568e-01" purity="2.1637663245201111e-01" nType="-99"/>
          <Node pos="r" depth="2" NCoef="0" IVar="-1" Cut="0.0000000000000000e+00" cType="1" res="2.0695216953754425e-03" rms="2.0447656512260437e-01" purity="6.2287718057632446e-01" nType="-99"/>
        </Node>
        <Node pos="r" depth="1" NCoef="0" IVar="32" Cut="3.8054421544075012e-02" cType="1" res="1.3589752838015556e-02" rms="2.2047309577465057e-01" purity="2.8532180190086365e-01" nType="0">
          <Node pos="l" depth="2" NCoef="0" IVar="-1" Cut="0.0000000000000000e+00" cType="1" res="2.5729021057486534e-02" rms="2.3041021823883057e-01" purity="3.9236131310462952e-01" nType="-99"/>
          <Node pos="r" depth="2" NCoef="0" IVar="-1" Cut="0.0000000000000000e+00" cType="1" res="-1.7687391955405474e-03" rms="2.0728307962417603e-01" purity="1.6050671041011810e-01" nType="-99"/>
        </Node>
      </Node>
    </BinaryTree>
    <BinaryTree type="DecisionTree" boostWeight="1.0000000000000000e+00" itree="396">
      <Node pos="s" depth="0" NCoef="0" IVar="17" Cut="5.6244567871093750e+01" cType="1" res="-7.2358298348262906e-04" rms="2.0030066370964050e-01" purity="5.0047779083251953e-01" nType="0">
        <Node pos="l" depth="1" NCoef="0" IVar="20" Cut="8.2852287292480469e+00" cType="1" res="-1.4158446574583650e-03" rms="2.0428639650344849e-01" purity="4.7317701578140259e-01" nType="0">
          <Node pos="l" depth="2" NCoef="0" IVar="-1" Cut="0.0000000000000000e+00" cType="1" res="-2.3910789750516415e-03" rms="2.0323193073272705e-01" purity="4.9122685194015503e-01" nType="-99"/>
          <Node pos="r" depth="2" NCoef="0" IVar="-1" Cut="0.0000000000000000e+00" cType="1" res="9.2469751834869385e-03" rms="2.1608242392539978e-01" purity="2.6038098335266113e-01" nType="-99"/>
        </Node>
        <Node pos="r" depth="1" NCoef="0" IVar="-1" Cut="0.0000000000000000e+00" cType="1" res="2.2962229326367378e-02" rms="1.1611101031303406e-01" purity="9.4914126396179199e-01" nType="-99"/>
      </Node>
    </BinaryTree>
    <BinaryTree type="DecisionTree" boostWeight="1.0000000000000000e+00" itree="397">
      <Node pos="s" depth="0" NCoef="0" IVar="11" Cut="6.2959895133972168e+00" cType="1" res="1.2988912640139461e-03" rms="2.0220293104648590e-01" purity="5.0092494487762451e-01" nType="0">
        <Node pos="l" depth="1" NCoef="0" IVar="3" Cut="9.6186989545822144e-01" cType="1" res="-5.0642178393900394e-03" rms="2.0723514258861542e-01" purity="4.3642431497573853e-01" nType="0">
          <Node pos="l" depth="2" NCoef="0" IVar="-1" Cut="0.0000000000000000e+00" cType="1" res="1.3266703113913536e-02" rms="2.2142678499221802e-01" purity="7.7797037363052368e-01" nType="-99"/>
          <Node pos="r" depth="2" NCoef="0" IVar="-1" Cut="0.0000000000000000e+00" cType="1" res="-1.0296024382114410e-02" rms="2.0409548282623291e-01" purity="3.6922261118888855e-01" nType="-99"/>
        </Node>
        <Node pos="r" depth="1" NCoef="0" IVar="22" Cut="-3.4076542854309082e+00" cType="1" res="3.5459930077195168e-03" rms="2.0034736394882202e-01" purity="5.2370297908782959e-01" nType="0">
          <Node pos="l" depth="2" NCoef="0" IVar="-1" Cut="0.0000000000000000e+00" cType="1" res="2.1344251930713654e-02" rms="2.0815184712409973e-01" purity="4.0479639172554016e-01" nType="-99"/>
          <Node pos="r" depth="2" NCoef="0" IVar="-1" Cut="0.0000000000000000e+00" cType="1" res="2.7279499918222427e-03" rms="1.9977588951587677e-01" purity="5.3166538476943970e-01" nType="-99"/>
        </Node>
      </Node>
    </BinaryTree>
    <BinaryTree type="DecisionTree" boostWeight="1.0000000000000000e+00" itree="398">
      <Node pos="s" depth="0" NCoef="0" IVar="3" Cut="3.0990719795227051e+00" cType="1" res="8.2425418077036738e-04" rms="2.0131048560142517e-01" purity="4.9945646524429321e-01" nType="0">
        <Node pos="l" depth="1" NCoef="0" IVar="24" Cut="1.9307604432106018e-01" cType="1" res="2.0830843131989241e-03" rms="2.2628839313983917e-01" purity="6.3155412673950195e-01" nType="0">
          <Node pos="l" depth="2" NCoef="0" IVar="-1" Cut="0.0000000000000000e+00" cType="1" res="-1.3922112062573433e-02" rms="2.3013551533222198e-01" purity="1.7836980521678925e-01" nType="-99"/>
          <Node pos="r" depth="2" NCoef="0" IVar="-1" Cut="0.0000000000000000e+00" cType="1" res="2.3682548198848963e-03" rms="2.2612974047660828e-01" purity="6.4723378419876099e-01" nType="-99"/>
        </Node>
        <Node pos="r" depth="1" NCoef="0" IVar="34" Cut="1.9856690168380737e+00" cType="1" res="-3.9353379979729652e-03" rms="1.0703325271606445e-02" purity="0.0000000000000000e+00" nType="0">
          <Node pos="l" depth="2" NCoef="0" IVar="-1" Cut="0.0000000000000000e+00" cType="1" res="-5.2263107150793076e-02" rms="1.5692323446273804e-02" purity="0.0000000000000000e+00" nType="-99"/>
          <Node pos="r" depth="2" NCoef="0" IVar="-1" Cut="0.0000000000000000e+00" cType="1" res="-5.0809592008590698e-02" rms="5.6238635443150997e-03" purity="0.0000000000000000e+00" nType="-99"/>
        </Node>
      </Node>
    </BinaryTree>
    <BinaryTree type="DecisionTree" boostWeight="1.0000000000000000e+00" itree="399">
      <Node pos="s" depth="0" NCoef="0" IVar="34" Cut="3.9684844017028809e+00" cType="1" res="1.4011446910444647e-04" rms="2.0313680171966553e-01" purity="4.9657049775123596e-01" nType="0">
        <Node pos="l" depth="1" NCoef="0" IVar="6" Cut="6.3766140937805176e+00" cType="1" res="1.8452140502631664e-03" rms="2.0595732331275940e-01" purity="5.7124418020248413e-01" nType="0">
          <Node pos="l" depth="2" NCoef="0" IVar="-1" Cut="0.0000000000000000e+00" cType="1" res="4.5022852718830109e-03" rms="2.1111638844013214e-01" purity="6.1486220359802246e-01" nType="-99"/>
          <Node pos="r" depth="2" NCoef="0" IVar="-1" Cut="0.0000000000000000e+00" cType="1" res="-5.1239458844065666e-03" rms="1.9154804944992065e-01" purity="4.5634835958480835e-01" nType="-99"/>
        </Node>
        <Node pos="r" depth="1" NCoef="0" IVar="3" Cut="1.4713550806045532e+00" cType="1" res="-7.1574281901121140e-03" rms="1.9042196869850159e-01" purity="1.7697954177856445e-01" nType="0">
          <Node pos="l" depth="2" NCoef="0" IVar="-1" Cut="0.0000000000000000e+00" cType="1" res="-1.6867313534021378e-02" rms="2.4728365242481232e-01" purity="3.9704251289367676e-01" nType="-99"/>
          <Node pos="r" depth="2" NCoef="0" IVar="-1" Cut="0.0000000000000000e+00" cType="1" res="-4.4740862213075161e-03" rms="1.7282159626483917e-01" purity="1.2130884826183319e-01" nType="-99"/>
        </Node>
      </Node>
    </BinaryTree>
    <BinaryTree type="DecisionTree" boostWeight="1.0000000000000000e+00" itree="400">
      <Node pos="s" depth="0" NCoef="0" IVar="22" Cut="4.4494194984436035e+00" cType="1" res="2.6453763712197542e-04" rms="2.0181274414062500e-01" purity="4.9959748983383179e-01" nType="0">
        <Node pos="l" depth="1" NCoef="0" IVar="28" Cut="6.6776573657989502e-01" cType="1" res="-6.2600928358733654e-03" rms="1.9962428510189056e-01" purity="3.1926253437995911e-01" nType="0">
          <Node pos="l" depth="2" NCoef="0" IVar="-1" Cut="0.0000000000000000e+00" cType="1" res="-1.4106400310993195e-02" rms="1.9571754336357117e-01" purity="2.4007323384284973e-01" nType="-99"/>
          <Node pos="r" depth="2" NCoef="0" IVar="-1" Cut="0.0000000000000000e+00" cType="1" res="1.6129121184349060e-02" rms="2.1005383133888245e-01" purity="5.6592428684234619e-01" nType="-99"/>
        </Node>
        <Node pos="r" depth="1" NCoef="0" IVar="29" Cut="5.1849615573883057e-01" cType="1" res="1.8873207736760378e-03" rms="2.0232070982456207e-01" purity="5.4444980621337891e-01" nType="0">
          <Node pos="l" depth="2" NCoef="0" IVar="-1" Cut="0.0000000000000000e+00" cType="1" res="5.2138627506792545e-04" rms="1.9987979531288147e-01" purity="5.5450665950775146e-01" nType="-99"/>
          <Node pos="r" depth="2" NCoef="0" IVar="-1" Cut="0.0000000000000000e+00" cType="1" res="1.8572261556982994e-02" rms="2.3237149417400360e-01" purity="4.0653905272483826e-01" nType="-99"/>
        </Node>
      </Node>
    </BinaryTree>
    <BinaryTree type="DecisionTree" boostWeight="1.0000000000000000e+00" itree="401">
      <Node pos="s" depth="0" NCoef="0" IVar="18" Cut="-5.2068424224853516e+01" cType="1" res="-9.1628084192052484e-04" rms="2.0083864033222198e-01" purity="4.9625527858734131e-01" nType="0">
        <Node pos="l" depth="1" NCoef="0" IVar="19" Cut="1.9826929092407227e+01" cType="1" res="8.0759162083268166e-03" rms="1.4124420285224915e-01" purity="9.1638690233230591e-01" nType="0">
          <Node pos="l" depth="2" NCoef="0" IVar="-1" Cut="0.0000000000000000e+00" cType="1" res="2.3881744593381882e-02" rms="1.5645000338554382e-01" purity="8.8882195949554443e-01" nType="-99"/>
          <Node pos="r" depth="2" NCoef="0" IVar="-1" Cut="0.0000000000000000e+00" cType="1" res="3.0785996932536364e-03" rms="1.2684130668640137e-01" purity="9.3927568197250366e-01" nType="-99"/>
        </Node>
        <Node pos="r" depth="1" NCoef="0" IVar="24" Cut="1.4420001208782196e-01" cType="1" res="-1.8543816404417157e-03" rms="2.0604275166988373e-01" purity="4.5242553949356079e-01" nType="0">
          <Node pos="l" depth="2" NCoef="0" IVar="-1" Cut="0.0000000000000000e+00" cType="1" res="-2.8459871187806129e-02" rms="1.5845839679241180e-01" purity="7.1761988103389740e-02" nType="-99"/>
          <Node pos="r" depth="2" NCoef="0" IVar="-1" Cut="0.0000000000000000e+00" cType="1" res="-1.4554659137502313e-03" rms="2.0728006958961487e-01" purity="4.6380376815795898e-01" nType="-99"/>
        </Node>
      </Node>
    </BinaryTree>
    <BinaryTree type="DecisionTree" boostWeight="1.0000000000000000e+00" itree="402">
      <Node pos="s" depth="0" NCoef="0" IVar="22" Cut="3.7642309665679932e+00" cType="1" res="6.8575912155210972e-04" rms="2.0345447957515717e-01" purity="5.0022518634796143e-01" nType="0">
        <Node pos="l" depth="1" NCoef="0" IVar="15" Cut="7.1683878898620605e+00" cType="1" res="-5.1217400468885899e-03" rms="1.9804732501506805e-01" purity="3.2262793183326721e-01" nType="0">
          <Node pos="l" depth="2" NCoef="0" IVar="-1" Cut="0.0000000000000000e+00" cType="1" res="-1.2524302117526531e-02" rms="2.0141279697418213e-01" purity="2.7187696099281311e-01" nType="-99"/>
          <Node pos="r" depth="2" NCoef="0" IVar="-1" Cut="0.0000000000000000e+00" cType="1" res="1.7048332840204239e-02" rms="1.8808816373348236e-01" purity="4.5211449265480042e-01" nType="-99"/>
        </Node>
        <Node pos="r" depth="1" NCoef="0" IVar="15" Cut="6.3283452987670898e+00" cType="1" res="1.9361220765858889e-03" rms="2.0457838475704193e-01" purity="5.3846216201782227e-01" nType="0">
          <Node pos="l" depth="2" NCoef="0" IVar="-1" Cut="0.0000000000000000e+00" cType="1" res="7.2432705201208591e-03" rms="2.1399199962615967e-01" purity="5.2641308307647705e-01" nType="-99"/>
          <Node pos="r" depth="2" NCoef="0" IVar="-1" Cut="0.0000000000000000e+00" cType="1" res="-2.3063432890921831e-03" rms="1.9746504724025726e-01" purity="5.4709476232528687e-01" nType="-99"/>
        </Node>
      </Node>
    </BinaryTree>
    <BinaryTree type="DecisionTree" boostWeight="1.0000000000000000e+00" itree="403">
      <Node pos="s" depth="0" NCoef="0" IVar="3" Cut="7.2045624256134033e-01" cType="1" res="-1.7224060138687491e-03" rms="1.9734308123588562e-01" purity="5.0184512138366699e-01" nType="0">
        <Node pos="l" depth="1" NCoef="0" IVar="10" Cut="7.4708132743835449e+00" cType="1" res="8.4566315636038780e-03" rms="2.0524820685386658e-01" purity="7.6738756895065308e-01" nType="0">
          <Node pos="l" depth="2" NCoef="0" IVar="-1" Cut="0.0000000000000000e+00" cType="1" res="1.4664708636701107e-02" rms="2.0029503107070923e-01" purity="8.1224650144577026e-01" nType="-99"/>
          <Node pos="r" depth="2" NCoef="0" IVar="-1" Cut="0.0000000000000000e+00" cType="1" res="-4.9528009258210659e-03" rms="2.1662470698356628e-01" purity="6.5398389101028442e-01" nType="-99"/>
        </Node>
        <Node pos="r" depth="1" NCoef="0" IVar="15" Cut="6.1870532035827637e+00" cType="1" res="-3.1054841820150614e-03" rms="1.9620364904403687e-01" purity="4.6576449275016785e-01" nType="0">
          <Node pos="l" depth="2" NCoef="0" IVar="-1" Cut="0.0000000000000000e+00" cType="1" res="1.4531470369547606e-03" rms="2.0751188695430756e-01" purity="4.5108491182327271e-01" nType="-99"/>
          <Node pos="r" depth="2" NCoef="0" IVar="-1" Cut="0.0000000000000000e+00" cType="1" res="-6.8478728644549847e-03" rms="1.8943220376968384e-01" purity="4.7410222887992859e-01" nType="-99"/>
        </Node>
      </Node>
    </BinaryTree>
    <BinaryTree type="DecisionTree" boostWeight="1.0000000000000000e+00" itree="404">
      <Node pos="s" depth="0" NCoef="0" IVar="25" Cut="2.3137125372886658e-01" cType="1" res="6.2567974964622408e-05" rms="2.0049692690372467e-01" purity="4.9783128499984741e-01" nType="0">
        <Node pos="l" depth="1" NCoef="0" IVar="34" Cut="5.9512844085693359e+00" cType="1" res="1.6464068321511149e-03" rms="2.0308454334735870e-01" purity="5.8077937364578247e-01" nType="0">
          <Node pos="l" depth="2" NCoef="0" IVar="-1" Cut="0.0000000000000000e+00" cType="1" res="2.5794662069529295e-03" rms="2.0386813580989838e-01" purity="6.0638386011123657e-01" nType="-99"/>
          <Node pos="r" depth="2" NCoef="0" IVar="-1" Cut="0.0000000000000000e+00" cType="1" res="-1.7263010144233704e-02" rms="1.8791376054286957e-01" purity="1.2322445213794708e-01" nType="-99"/>
        </Node>
        <Node pos="r" depth="1" NCoef="0" IVar="24" Cut="4.2837452888488770e-01" cType="1" res="-5.8330018073320389e-03" rms="1.9044062495231628e-01" purity="1.8907122313976288e-01" nType="0">
          <Node pos="l" depth="2" NCoef="0" IVar="-1" Cut="0.0000000000000000e+00" cType="1" res="7.6257303589954972e-04" rms="1.8071021139621735e-01" purity="1.3289672136306763e-01" nType="-99"/>
          <Node pos="r" depth="2" NCoef="0" IVar="-1" Cut="0.0000000000000000e+00" cType="1" res="-1.5925575047731400e-02" rms="2.0305450260639191e-01" purity="2.6841431856155396e-01" nType="-99"/>
        </Node>
      </Node>
    </BinaryTree>
    <BinaryTree type="DecisionTree" boostWeight="1.0000000000000000e+00" itree="405">
      <Node pos="s" depth="0" NCoef="0" IVar="31" Cut="3.8078173995018005e-02" cType="1" res="2.1321307576727122e-04" rms="1.9995896518230438e-01" purity="5.0028246641159058e-01" nType="0">
        <Node pos="l" depth="1" NCoef="0" IVar="31" Cut="3.6314686294645071e-03" cType="1" res="1.8141156760975718e-03" rms="1.9936440885066986e-01" purity="6.0327160358428955e-01" nType="0">
          <Node pos="l" depth="2" NCoef="0" IVar="-1" Cut="0.0000000000000000e+00" cType="1" res="9.5350230112671852e-03" rms="1.8314932286739349e-01" purity="7.1658384799957275e-01" nType="-99"/>
          <Node pos="r" depth="2" NCoef="0" IVar="-1" Cut="0.0000000000000000e+00" cType="1" res="-2.2334023378789425e-03" rms="2.0934505760669708e-01" purity="5.2801322937011719e-01" nType="-99"/>
        </Node>
        <Node pos="r" depth="1" NCoef="0" IVar="19" Cut="1.1275362014770508e+01" cType="1" res="-3.5930371377617121e-03" rms="2.0131438970565796e-01" purity="2.5541904568672180e-01" nType="0">
          <Node pos="l" depth="2" NCoef="0" IVar="-1" Cut="0.0000000000000000e+00" cType="1" res="6.0886465944349766e-03" rms="1.9174025952816010e-01" purity="1.7772223055362701e-01" nType="-99"/>
          <Node pos="r" depth="2" NCoef="0" IVar="-1" Cut="0.0000000000000000e+00" cType="1" res="-1.1294743977487087e-02" rms="2.1018217504024506e-01" purity="3.3349031209945679e-01" nType="-99"/>
        </Node>
      </Node>
    </BinaryTree>
    <BinaryTree type="DecisionTree" boostWeight="1.0000000000000000e+00" itree="406">
      <Node pos="s" depth="0" NCoef="0" IVar="22" Cut="7.9020724296569824e+00" cType="1" res="1.3886167434975505e-03" rms="1.9972468912601471e-01" purity="5.0290715694427490e-01" nType="0">
        <Node pos="l" depth="1" NCoef="0" IVar="10" Cut="6.7618832588195801e+00" cType="1" res="-3.7786916363984346e-03" rms="2.0171232521533966e-01" purity="3.2855686545372009e-01" nType="0">
          <Node pos="l" depth="2" NCoef="0" IVar="-1" Cut="0.0000000000000000e+00" cType="1" res="-1.4109858311712742e-02" rms="1.8751183152198792e-01" purity="3.0155074596405029e-01" nType="-99"/>
          <Node pos="r" depth="2" NCoef="0" IVar="-1" Cut="0.0000000000000000e+00" cType="1" res="1.1325208470225334e-03" rms="2.0925158262252808e-01" purity="3.4401339292526245e-01" nType="-99"/>
        </Node>
        <Node pos="r" depth="1" NCoef="0" IVar="15" Cut="6.5520610809326172e+00" cType="1" res="3.8485915865749121e-03" rms="1.9872425496578217e-01" purity="5.8590930700302124e-01" nType="0">
          <Node pos="l" depth="2" NCoef="0" IVar="-1" Cut="0.0000000000000000e+00" cType="1" res="9.9165961146354675e-03" rms="2.0646169781684875e-01" purity="5.6977671384811401e-01" nType="-99"/>
          <Node pos="r" depth="2" NCoef="0" IVar="-1" Cut="0.0000000000000000e+00" cType="1" res="-2.3751270491629839e-03" rms="1.9039802253246307e-01" purity="6.0223281383514404e-01" nType="-99"/>
        </Node>
      </Node>
    </BinaryTree>
    <BinaryTree type="DecisionTree" boostWeight="1.0000000000000000e+00" itree="407">
      <Node pos="s" depth="0" NCoef="0" IVar="12" Cut="6.5208001136779785e+00" cType="1" res="5.3530605509877205e-04" rms="2.0019158720970154e-01" purity="5.0107860565185547e-01" nType="0">
        <Node pos="l" depth="1" NCoef="0" IVar="15" Cut="6.3053526878356934e+00" cType="1" res="9.5257991924881935e-03" rms="2.1021080017089844e-01" purity="3.1526353955268860e-01" nType="0">
          <Node pos="l" depth="2" NCoef="0" IVar="-1" Cut="0.0000000000000000e+00" cType="1" res="2.0552944391965866e-02" rms="2.2536012530326843e-01" purity="3.3996009826660156e-01" nType="-99"/>
          <Node pos="r" depth="2" NCoef="0" IVar="-1" Cut="0.0000000000000000e+00" cType="1" res="-7.5998799875378609e-03" rms="1.8836590647697449e-01" purity="2.8441855311393738e-01" nType="-99"/>
        </Node>
        <Node pos="r" depth="1" NCoef="0" IVar="12" Cut="6.6725368499755859e+00" cType="1" res="-3.3366880961693823e-04" rms="1.9917497038841248e-01" purity="5.1903849840164185e-01" nType="0">
          <Node pos="l" depth="2" NCoef="0" IVar="-1" Cut="0.0000000000000000e+00" cType="1" res="-1.5169986523687840e-02" rms="2.0194424688816071e-01" purity="3.3077391982078552e-01" nType="-99"/>
          <Node pos="r" depth="2" NCoef="0" IVar="-1" Cut="0.0000000000000000e+00" cType="1" res="6.1268138233572245e-04" rms="1.9896905124187469e-01" purity="5.3064531087875366e-01" nType="-99"/>
        </Node>
      </Node>
    </BinaryTree>
    <BinaryTree type="DecisionTree" boostWeight="1.0000000000000000e+00" itree="408">
      <Node pos="s" depth="0" NCoef="0" IVar="27" Cut="2.3841200768947601e-01" cType="1" res="7.9134595580399036e-05" rms="2.0024336874485016e-01" purity="4.9987420439720154e-01" nType="0">
        <Node pos="l" depth="1" NCoef="0" IVar="11" Cut="6.6813917160034180e+00" cType="1" res="-1.3226263225078583e-02" rms="1.8096366524696350e-01" purity="1.5520429611206055e-01" nType="0">
          <Node pos="l" depth="2" NCoef="0" IVar="-1" Cut="0.0000000000000000e+00" cType="1" res="8.8378816144540906e-04" rms="2.0195898413658142e-01" purity="2.1761989593505859e-01" nType="-99"/>
          <Node pos="r" depth="2" NCoef="0" IVar="-1" Cut="0.0000000000000000e+00" cType="1" res="-3.6797590553760529e-02" rms="1.6105072200298309e-01" purity="1.0456494987010956e-01" nType="-99"/>
        </Node>
        <Node pos="r" depth="1" NCoef="0" IVar="9" Cut="1.8110063552856445e+01" cType="1" res="8.6881004972383380e-04" rms="2.0130193233489990e-01" purity="5.2033036947250366e-01" nType="0">
          <Node pos="l" depth="2" NCoef="0" IVar="-1" Cut="0.0000000000000000e+00" cType="1" res="2.9841351788491011e-03" rms="2.0531801879405975e-01" purity="5.4499608278274536e-01" nType="-99"/>
          <Node pos="r" depth="2" NCoef="0" IVar="-1" Cut="0.0000000000000000e+00" cType="1" res="-3.6396039649844170e-03" rms="1.9224247336387634e-01" purity="4.6686241030693054e-01" nType="-99"/>
        </Node>
      </Node>
    </BinaryTree>
    <BinaryTree type="DecisionTree" boostWeight="1.0000000000000000e+00" itree="409">
      <Node pos="s" depth="0" NCoef="0" IVar="3" Cut="7.2045624256134033e-01" cType="1" res="-9.9365213827695698e-05" rms="2.0181025564670563e-01" purity="5.0162798166275024e-01" nType="0">
        <Node pos="l" depth="1" NCoef="0" IVar="18" Cut="-2.0716388702392578e+01" cType="1" res="9.1122193261981010e-03" rms="2.0151974260807037e-01" purity="7.6495498418807983e-01" nType="0">
          <Node pos="l" depth="2" NCoef="0" IVar="-1" Cut="0.0000000000000000e+00" cType="1" res="-1.1499343672767282e-03" rms="1.5999549627304077e-01" purity="8.5575705766677856e-01" nType="-99"/>
          <Node pos="r" depth="2" NCoef="0" IVar="-1" Cut="0.0000000000000000e+00" cType="1" res="1.4139415696263313e-02" rms="2.3382174968719482e-01" purity="6.7878949642181396e-01" nType="-99"/>
        </Node>
        <Node pos="r" depth="1" NCoef="0" IVar="13" Cut="7.0678200721740723e+00" cType="1" res="-1.3103532837703824e-03" rms="2.0181715488433838e-01" purity="4.6701008081436157e-01" nType="0">
          <Node pos="l" depth="2" NCoef="0" IVar="-1" Cut="0.0000000000000000e+00" cType="1" res="1.7039375379681587e-02" rms="2.1911223232746124e-01" purity="3.2417213916778564e-01" nType="-99"/>
          <Node pos="r" depth="2" NCoef="0" IVar="-1" Cut="0.0000000000000000e+00" cType="1" res="-2.2043813951313496e-03" rms="2.0106452703475952e-01" purity="4.7273665666580200e-01" nType="-99"/>
        </Node>
      </Node>
    </BinaryTree>
    <BinaryTree type="DecisionTree" boostWeight="1.0000000000000000e+00" itree="410">
      <Node pos="s" depth="0" NCoef="0" IVar="10" Cut="7.3820095062255859e+00" cType="1" res="1.5294082695618272e-03" rms="2.0133066177368164e-01" purity="5.0304752588272095e-01" nType="0">
        <Node pos="l" depth="1" NCoef="0" IVar="10" Cut="6.8504199981689453e+00" cType="1" res="3.9380057714879513e-03" rms="1.9801396131515503e-01" purity="5.2586358785629272e-01" nType="0">
          <Node pos="l" depth="2" NCoef="0" IVar="-1" Cut="0.0000000000000000e+00" cType="1" res="-7.8801426570862532e-04" rms="1.9723109900951385e-01" purity="4.7865605354309082e-01" nType="-99"/>
          <Node pos="r" depth="2" NCoef="0" IVar="-1" Cut="0.0000000000000000e+00" cType="1" res="1.1729203164577484e-02" rms="1.9898980855941772e-01" purity="5.9728515148162842e-01" nType="-99"/>
        </Node>
        <Node pos="r" depth="1" NCoef="0" IVar="23" Cut="9.5236682891845703e-01" cType="1" res="-3.3559117000550032e-03" rms="2.0780970156192780e-01" purity="4.5677009224891663e-01" nType="0">
          <Node pos="l" depth="2" NCoef="0" IVar="-1" Cut="0.0000000000000000e+00" cType="1" res="-7.9840496182441711e-03" rms="2.3238635063171387e-01" purity="2.1633338928222656e-01" nType="-99"/>
          <Node pos="r" depth="2" NCoef="0" IVar="-1" Cut="0.0000000000000000e+00" cType="1" res="1.4825837686657906e-02" rms="1.4587765932083130e-01" purity="9.3921029567718506e-01" nType="-99"/>
        </Node>
      </Node>
    </BinaryTree>
    <BinaryTree type="DecisionTree" boostWeight="1.0000000000000000e+00" itree="411">
      <Node pos="s" depth="0" NCoef="0" IVar="5" Cut="9.6768121719360352e+00" cType="1" res="3.8766875513829291e-04" rms="2.0139871537685394e-01" purity="5.0131446123123169e-01" nType="0">
        <Node pos="l" depth="1" NCoef="0" IVar="5" Cut="4.7209677100181580e-01" cType="1" res="1.0330732911825180e-03" rms="2.0298758149147034e-01" purity="5.1560026407241821e-01" nType="0">
          <Node pos="l" depth="2" NCoef="0" IVar="-1" Cut="0.0000000000000000e+00" cType="1" res="1.2238504365086555e-02" rms="2.0173393189907074e-01" purity="6.4616942405700684e-01" nType="-99"/>
          <Node pos="r" depth="2" NCoef="0" IVar="-1" Cut="0.0000000000000000e+00" cType="1" res="-2.5556280161254108e-04" rms="2.0312382280826569e-01" purity="4.9788814783096313e-01" nType="-99"/>
        </Node>
        <Node pos="r" depth="1" NCoef="0" IVar="-1" Cut="0.0000000000000000e+00" cType="1" res="-2.7801595628261566e-02" rms="1.5127550065517426e-01" purity="1.1529033631086349e-01" nType="-99"/>
      </Node>
    </BinaryTree>
    <BinaryTree type="DecisionTree" boostWeight="1.0000000000000000e+00" itree="412">
      <Node pos="s" depth="0" NCoef="0" IVar="16" Cut="2.6182043552398682e-01" cType="1" res="-8.9279230451211333e-04" rms="2.0080520212650299e-01" purity="5.0023031234741211e-01" nType="0">
        <Node pos="l" depth="1" NCoef="0" IVar="7" Cut="1.1938174962997437e+00" cType="1" res="-9.9164331331849098e-03" rms="1.9468501210212708e-01" purity="1.7300362884998322e-01" nType="0">
          <Node pos="l" depth="2" NCoef="0" IVar="-1" Cut="0.0000000000000000e+00" cType="1" res="-2.4045068770647049e-02" rms="2.6581680774688721e-01" purity="4.1266122460365295e-01" nType="-99"/>
          <Node pos="r" depth="2" NCoef="0" IVar="-1" Cut="0.0000000000000000e+00" cType="1" res="-4.0829684585332870e-03" rms="1.7024095356464386e-01" purity="1.0964566469192505e-01" nType="-99"/>
        </Node>
        <Node pos="r" depth="1" NCoef="0" IVar="11" Cut="6.8742823600769043e+00" cType="1" res="3.5977992229163647e-04" rms="2.0160815119743347e-01" purity="5.4565268754959106e-01" nType="0">
          <Node pos="l" depth="2" NCoef="0" IVar="-1" Cut="0.0000000000000000e+00" cType="1" res="-2.4253518786281347e-03" rms="2.0117726922035217e-01" purity="5.3873461484909058e-01" nType="-99"/>
          <Node pos="r" depth="2" NCoef="0" IVar="-1" Cut="0.0000000000000000e+00" cType="1" res="4.1444301605224609e-03" rms="2.0215110480785370e-01" purity="5.5525010824203491e-01" nType="-99"/>
        </Node>
      </Node>
    </BinaryTree>
    <BinaryTree type="DecisionTree" boostWeight="1.0000000000000000e+00" itree="413">
      <Node pos="s" depth="0" NCoef="0" IVar="11" Cut="6.4890990257263184e+00" cType="1" res="-9.0694322716444731e-04" rms="1.9975636899471283e-01" purity="5.0114399194717407e-01" nType="0">
        <Node pos="l" depth="1" NCoef="0" IVar="18" Cut="9.8128110170364380e-01" cType="1" res="-4.3090838007628918e-03" rms="1.9755212962627411e-01" purity="4.6927452087402344e-01" nType="0">
          <Node pos="l" depth="2" NCoef="0" IVar="-1" Cut="0.0000000000000000e+00" cType="1" res="-8.5994545370340347e-03" rms="1.9564753770828247e-01" purity="5.1917481422424316e-01" nType="-99"/>
          <Node pos="r" depth="2" NCoef="0" IVar="-1" Cut="0.0000000000000000e+00" cType="1" res="7.3625873774290085e-03" rms="2.0361045002937317e-01" purity="2.9708307981491089e-01" nType="-99"/>
        </Node>
        <Node pos="r" depth="1" NCoef="0" IVar="14" Cut="8.4041423797607422e+00" cType="1" res="9.4467581948265433e-04" rms="2.0092165470123291e-01" purity="5.1848894357681274e-01" nType="0">
          <Node pos="l" depth="2" NCoef="0" IVar="-1" Cut="0.0000000000000000e+00" cType="1" res="6.4290822483599186e-03" rms="2.1315383911132812e-01" purity="5.2160304784774780e-01" nType="-99"/>
          <Node pos="r" depth="2" NCoef="0" IVar="-1" Cut="0.0000000000000000e+00" cType="1" res="-3.2053778413683176e-03" rms="1.9212727248668671e-01" purity="5.1638478040695190e-01" nType="-99"/>
        </Node>
      </Node>
    </BinaryTree>
    <BinaryTree type="DecisionTree" boostWeight="1.0000000000000000e+00" itree="414">
      <Node pos="s" depth="0" NCoef="0" IVar="27" Cut="1.4324791729450226e-01" cType="1" res="4.2738585034385324e-04" rms="2.0112663507461548e-01" purity="5.0095140933990479e-01" nType="0">
        <Node pos="l" depth="1" NCoef="0" IVar="-1" Cut="0.0000000000000000e+00" cType="1" res="-2.3591501638293266e-02" rms="1.8387581408023834e-01" purity="1.4102210104465485e-01" nType="-99"/>
        <Node pos="r" depth="1" NCoef="0" IVar="16" Cut="4.3813157081604004e-01" cType="1" res="1.0613398626446724e-03" rms="2.0169329643249512e-01" purity="5.1394665241241455e-01" nType="0">
          <Node pos="l" depth="2" NCoef="0" IVar="-1" Cut="0.0000000000000000e+00" cType="1" res="-1.6822154866531491e-03" rms="2.1234080195426941e-01" purity="3.9850035309791565e-01" nType="-99"/>
          <Node pos="r" depth="2" NCoef="0" IVar="-1" Cut="0.0000000000000000e+00" cType="1" res="6.2772100791335106e-03" rms="1.8624407052993774e-01" purity="6.7024427652359009e-01" nType="-99"/>
        </Node>
      </Node>
    </BinaryTree>
    <BinaryTree type="DecisionTree" boostWeight="1.0000000000000000e+00" itree="415">
      <Node pos="s" depth="0" NCoef="0" IVar="3" Cut="3.0979743003845215e+00" cType="1" res="2.3582668509334326e-03" rms="2.0395562052726746e-01" purity="5.0467050075531006e-01" nType="0">
        <Node pos="l" depth="1" NCoef="0" IVar="14" Cut="8.2287139892578125e+00" cType="1" res="3.9925300516188145e-03" rms="2.2924993932247162e-01" purity="6.3819319009780884e-01" nType="0">
          <Node pos="l" depth="2" NCoef="0" IVar="-1" Cut="0.0000000000000000e+00" cType="1" res="7.0092692039906979e-03" rms="2.4358278512954712e-01" purity="6.5126514434814453e-01" nType="-99"/>
          <Node pos="r" depth="2" NCoef="0" IVar="-1" Cut="0.0000000000000000e+00" cType="1" res="8.1409164704382420e-04" rms="2.1950976550579071e-01" purity="6.2981033325195312e-01" nType="-99"/>
        </Node>
        <Node pos="r" depth="1" NCoef="0" IVar="17" Cut="2.2108633041381836e+01" cType="1" res="-3.8186917081475258e-03" rms="1.1554067954421043e-02" purity="0.0000000000000000e+00" nType="0">
          <Node pos="l" depth="2" NCoef="0" IVar="-1" Cut="0.0000000000000000e+00" cType="1" res="-5.0993103533983231e-02" rms="6.7483605816960335e-03" purity="0.0000000000000000e+00" nType="-99"/>
          <Node pos="r" depth="2" NCoef="0" IVar="-1" Cut="0.0000000000000000e+00" cType="1" res="-5.3434409201145172e-02" rms="2.1460449323058128e-02" purity="0.0000000000000000e+00" nType="-99"/>
        </Node>
      </Node>
    </BinaryTree>
    <BinaryTree type="DecisionTree" boostWeight="1.0000000000000000e+00" itree="416">
      <Node pos="s" depth="0" NCoef="0" IVar="28" Cut="1.9248203933238983e-01" cType="1" res="-7.5374223524704576e-04" rms="2.0051097869873047e-01" purity="5.0013196468353271e-01" nType="0">
        <Node pos="l" depth="1" NCoef="0" IVar="18" Cut="-1.3591994285583496e+01" cType="1" res="-1.0363167151808739e-02" rms="2.0052893459796906e-01" purity="2.9745271801948547e-01" nType="0">
          <Node pos="l" depth="2" NCoef="0" IVar="-1" Cut="0.0000000000000000e+00" cType="1" res="-1.9390244036912918e-02" rms="2.1752731502056122e-01" purity="4.1647097468376160e-01" nType="-99"/>
          <Node pos="r" depth="2" NCoef="0" IVar="-1" Cut="0.0000000000000000e+00" cType="1" res="-5.0552967004477978e-03" rms="1.8849834799766541e-01" purity="2.2063127160072327e-01" nType="-99"/>
        </Node>
        <Node pos="r" depth="1" NCoef="0" IVar="12" Cut="6.7197985649108887e+00" cType="1" res="1.5978667943272740e-04" rms="2.0048530399799347e-01" purity="5.1939982175827026e-01" nType="0">
          <Node pos="l" depth="2" NCoef="0" IVar="-1" Cut="0.0000000000000000e+00" cType="1" res="-7.4908011592924595e-03" rms="2.1105971932411194e-01" purity="3.3150249719619751e-01" nType="-99"/>
          <Node pos="r" depth="2" NCoef="0" IVar="-1" Cut="0.0000000000000000e+00" cType="1" res="1.7909490270540118e-03" rms="1.9841998815536499e-01" purity="5.5441445112228394e-01" nType="-99"/>
        </Node>
      </Node>
    </BinaryTree>
    <BinaryTree type="DecisionTree" boostWeight="1.0000000000000000e+00" itree="417">
      <Node pos="s" depth="0" NCoef="0" IVar="13" Cut="8.3495283126831055e+00" cType="1" res="3.5287852369947359e-05" rms="2.0205320417881012e-01" purity="4.9848416447639465e-01" nType="0">
        <Node pos="l" depth="1" NCoef="0" IVar="11" Cut="7.3814663887023926e+00" cType="1" res="2.2505049128085375e-03" rms="2.0667780935764313e-01" purity="4.8496529459953308e-01" nType="0">
          <Node pos="l" depth="2" NCoef="0" IVar="-1" Cut="0.0000000000000000e+00" cType="1" res="4.4928402639925480e-03" rms="2.0535545051097870e-01" purity="5.0550740957260132e-01" nType="-99"/>
          <Node pos="r" depth="2" NCoef="0" IVar="-1" Cut="0.0000000000000000e+00" cType="1" res="-1.8268913030624390e-02" rms="2.1990044414997101e-01" purity="2.5336879491806030e-01" nType="-99"/>
        </Node>
        <Node pos="r" depth="1" NCoef="0" IVar="22" Cut="6.6345849037170410e+00" cType="1" res="-3.5016487818211317e-03" rms="1.9438911974430084e-01" purity="5.2006912231445312e-01" nType="0">
          <Node pos="l" depth="2" NCoef="0" IVar="-1" Cut="0.0000000000000000e+00" cType="1" res="1.0437441989779472e-02" rms="2.0869675278663635e-01" purity="3.7032046914100647e-01" nType="-99"/>
          <Node pos="r" depth="2" NCoef="0" IVar="-1" Cut="0.0000000000000000e+00" cType="1" res="-9.5342537388205528e-03" rms="1.8846927583217621e-01" purity="5.7688218355178833e-01" nType="-99"/>
        </Node>
      </Node>
    </BinaryTree>
    <BinaryTree type="DecisionTree" boostWeight="1.0000000000000000e+00" itree="418">
      <Node pos="s" depth="0" NCoef="0" IVar="33" Cut="3.0473798513412476e-01" cType="1" res="-5.4437440121546388e-04" rms="2.0029661059379578e-01" purity="5.0062304735183716e-01" nType="0">
        <Node pos="l" depth="1" NCoef="0" IVar="18" Cut="-5.4528217315673828e+01" cType="1" res="-1.0924936505034566e-03" rms="1.9962616264820099e-01" purity="5.0694835186004639e-01" nType="0">
          <Node pos="l" depth="2" NCoef="0" IVar="-1" Cut="0.0000000000000000e+00" cType="1" res="1.8845494836568832e-02" rms="1.3770745694637299e-01" purity="9.2827105522155762e-01" nType="-99"/>
          <Node pos="r" depth="2" NCoef="0" IVar="-1" Cut="0.0000000000000000e+00" cType="1" res="-2.1255540195852518e-03" rms="2.0430313050746918e-01" purity="4.6863645315170288e-01" nType="-99"/>
        </Node>
        <Node pos="r" depth="1" NCoef="0" IVar="-1" Cut="0.0000000000000000e+00" cType="1" res="1.7968993633985519e-02" rms="2.2064757347106934e-01" purity="2.9047054052352905e-01" nType="-99"/>
      </Node>
    </BinaryTree>
    <BinaryTree type="DecisionTree" boostWeight="1.0000000000000000e+00" itree="419">
      <Node pos="s" depth="0" NCoef="0" IVar="12" Cut="6.9110651016235352e+00" cType="1" res="-5.9064826928079128e-04" rms="2.0143015682697296e-01" purity="5.0133401155471802e-01" nType="0">
        <Node pos="l" depth="1" NCoef="0" IVar="11" Cut="7.4660296440124512e+00" cType="1" res="-5.7412246242165565e-03" rms="2.0737753808498383e-01" purity="3.4171879291534424e-01" nType="0">
          <Node pos="l" depth="2" NCoef="0" IVar="-1" Cut="0.0000000000000000e+00" cType="1" res="-3.3351664897054434e-03" rms="2.0742611587047577e-01" purity="3.6700171232223511e-01" nType="-99"/>
          <Node pos="r" depth="2" NCoef="0" IVar="-1" Cut="0.0000000000000000e+00" cType="1" res="-2.6468364521861076e-02" rms="2.0590078830718994e-01" purity="1.3635182380676270e-01" nType="-99"/>
        </Node>
        <Node pos="r" depth="1" NCoef="0" IVar="7" Cut="2.7179033756256104e+00" cType="1" res="1.2039808789268136e-03" rms="1.9928492605686188e-01" purity="5.5694919824600220e-01" nType="0">
          <Node pos="l" depth="2" NCoef="0" IVar="-1" Cut="0.0000000000000000e+00" cType="1" res="3.4483012277632952e-03" rms="2.0863300561904907e-01" purity="6.6507023572921753e-01" nType="-99"/>
          <Node pos="r" depth="2" NCoef="0" IVar="-1" Cut="0.0000000000000000e+00" cType="1" res="-1.1270143091678619e-02" rms="1.6043187677860260e-01" purity="1.6286446154117584e-01" nType="-99"/>
        </Node>
      </Node>
    </BinaryTree>
    <BinaryTree type="DecisionTree" boostWeight="1.0000000000000000e+00" itree="420">
      <Node pos="s" depth="0" NCoef="0" IVar="27" Cut="8.5723614692687988e-01" cType="1" res="4.4268503552302718e-04" rms="2.0191900432109833e-01" purity="4.9622228741645813e-01" nType="0">
        <Node pos="l" depth="1" NCoef="0" IVar="20" Cut="9.9826526641845703e+00" cType="1" res="-3.5819869954138994e-03" rms="1.9821773469448090e-01" purity="2.1964436769485474e-01" nType="0">
          <Node pos="l" depth="2" NCoef="0" IVar="-1" Cut="0.0000000000000000e+00" cType="1" res="-7.8395912423729897e-03" rms="1.9189999997615814e-01" purity="2.0672769844532013e-01" nType="-99"/>
          <Node pos="r" depth="2" NCoef="0" IVar="-1" Cut="0.0000000000000000e+00" cType="1" res="1.0387034155428410e-02" rms="2.2494001686573029e-01" purity="2.8001537919044495e-01" nType="-99"/>
        </Node>
        <Node pos="r" depth="1" NCoef="0" IVar="11" Cut="7.6625561714172363e+00" cType="1" res="2.2654077038168907e-03" rms="2.0354694128036499e-01" purity="6.2148094177246094e-01" nType="0">
          <Node pos="l" depth="2" NCoef="0" IVar="-1" Cut="0.0000000000000000e+00" cType="1" res="4.4234152883291245e-03" rms="2.0378348231315613e-01" purity="6.4244896173477173e-01" nType="-99"/>
          <Node pos="r" depth="2" NCoef="0" IVar="-1" Cut="0.0000000000000000e+00" cType="1" res="-1.1280220933258533e-02" rms="2.0126970112323761e-01" purity="4.6639445424079895e-01" nType="-99"/>
        </Node>
      </Node>
    </BinaryTree>
    <BinaryTree type="DecisionTree" boostWeight="1.0000000000000000e+00" itree="421">
      <Node pos="s" depth="0" NCoef="0" IVar="15" Cut="5.8724708557128906e+00" cType="1" res="3.4703299752436578e-04" rms="2.0166829228401184e-01" purity="5.0121968984603882e-01" nType="0">
        <Node pos="l" depth="1" NCoef="0" IVar="7" Cut="3.2412118911743164e+00" cType="1" res="6.1556152068078518e-03" rms="2.1494971215724945e-01" purity="5.2676761150360107e-01" nType="0">
          <Node pos="l" depth="2" NCoef="0" IVar="-1" Cut="0.0000000000000000e+00" cType="1" res="2.1983929909765720e-03" rms="2.1650230884552002e-01" purity="5.4540175199508667e-01" nType="-99"/>
          <Node pos="r" depth="2" NCoef="0" IVar="-1" Cut="0.0000000000000000e+00" cType="1" res="3.2809745520353317e-02" rms="2.0214711129665375e-01" purity="4.0032657980918884e-01" nType="-99"/>
        </Node>
        <Node pos="r" depth="1" NCoef="0" IVar="11" Cut="6.6826171875000000e+00" cType="1" res="-1.1923491256311536e-03" rms="1.9797062873840332e-01" purity="4.9444904923439026e-01" nType="0">
          <Node pos="l" depth="2" NCoef="0" IVar="-1" Cut="0.0000000000000000e+00" cType="1" res="-5.8013889938592911e-03" rms="1.9590690732002258e-01" purity="4.8027613759040833e-01" nType="-99"/>
          <Node pos="r" depth="2" NCoef="0" IVar="-1" Cut="0.0000000000000000e+00" cType="1" res="1.9406011560931802e-03" rms="1.9947469234466553e-01" purity="5.0521218776702881e-01" nType="-99"/>
        </Node>
      </Node>
    </BinaryTree>
    <BinaryTree type="DecisionTree" boostWeight="1.0000000000000000e+00" itree="422">
      <Node pos="s" depth="0" NCoef="0" IVar="28" Cut="6.6859781742095947e-01" cType="1" res="-1.6929299454204738e-04" rms="1.9902613759040833e-01" purity="5.0229686498641968e-01" nType="0">
        <Node pos="l" depth="1" NCoef="0" IVar="13" Cut="8.3356733322143555e+00" cType="1" res="-3.4552840515971184e-03" rms="2.0721751451492310e-01" purity="3.2842892408370972e-01" nType="0">
          <Node pos="l" depth="2" NCoef="0" IVar="-1" Cut="0.0000000000000000e+00" cType="1" res="-2.5651685427874327e-04" rms="2.1120433509349823e-01" purity="3.5883310437202454e-01" nType="-99"/>
          <Node pos="r" depth="2" NCoef="0" IVar="-1" Cut="0.0000000000000000e+00" cType="1" res="-1.1271073482930660e-02" rms="1.9848550856113434e-01" purity="2.6506078243255615e-01" nType="-99"/>
        </Node>
        <Node pos="r" depth="1" NCoef="0" IVar="22" Cut="1.5949785709381104e+00" cType="1" res="2.3619292769581079e-03" rms="1.9244045019149780e-01" purity="6.3622862100601196e-01" nType="0">
          <Node pos="l" depth="2" NCoef="0" IVar="-1" Cut="0.0000000000000000e+00" cType="1" res="2.6386702433228493e-02" rms="2.1630394458770752e-01" purity="6.2523460388183594e-01" nType="-99"/>
          <Node pos="r" depth="2" NCoef="0" IVar="-1" Cut="0.0000000000000000e+00" cType="1" res="1.3111684238538146e-03" rms="1.9074752926826477e-01" purity="6.3693028688430786e-01" nType="-99"/>
        </Node>
      </Node>
    </BinaryTree>
    <BinaryTree type="DecisionTree" boostWeight="1.0000000000000000e+00" itree="423">
      <Node pos="s" depth="0" NCoef="0" IVar="1" Cut="2.7145656585693359e+01" cType="1" res="-4.6340658445842564e-04" rms="2.0162276923656464e-01" purity="4.9733445048332214e-01" nType="0">
        <Node pos="l" depth="1" NCoef="0" IVar="1" Cut="3.9812474250793457e+00" cType="1" res="1.8930622900370508e-04" rms="2.0342598855495453e-01" purity="5.0572794675827026e-01" nType="0">
          <Node pos="l" depth="2" NCoef="0" IVar="-1" Cut="0.0000000000000000e+00" cType="1" res="-7.5599947012960911e-03" rms="2.0493891835212708e-01" purity="3.6041778326034546e-01" nType="-99"/>
          <Node pos="r" depth="2" NCoef="0" IVar="-1" Cut="0.0000000000000000e+00" cType="1" res="2.1239807829260826e-03" rms="2.0299603044986725e-01" purity="5.4329961538314819e-01" nType="-99"/>
        </Node>
        <Node pos="r" depth="1" NCoef="0" IVar="-1" Cut="0.0000000000000000e+00" cType="1" res="-2.0946532487869263e-02" rms="1.5382334589958191e-01" purity="3.0477753281593323e-01" nType="-99"/>
      </Node>
    </BinaryTree>
    <BinaryTree type="DecisionTree" boostWeight="1.0000000000000000e+00" itree="424">
      <Node pos="s" depth="0" NCoef="0" IVar="13" Cut="8.5461559295654297e+00" cType="1" res="-1.7204802716150880e-03" rms="2.0050899684429169e-01" purity="4.9838617444038391e-01" nType="0">
        <Node pos="l" depth="1" NCoef="0" IVar="11" Cut="7.4127192497253418e+00" cType="1" res="-3.4226984716951847e-03" rms="2.0207123458385468e-01" purity="4.8356884717941284e-01" nType="0">
          <Node pos="l" depth="2" NCoef="0" IVar="-1" Cut="0.0000000000000000e+00" cType="1" res="-1.9475482404232025e-03" rms="2.0243243873119354e-01" purity="5.1012825965881348e-01" nType="-99"/>
          <Node pos="r" depth="2" NCoef="0" IVar="-1" Cut="0.0000000000000000e+00" cType="1" res="-1.5479233115911484e-02" rms="1.9894738495349884e-01" purity="2.8655773401260376e-01" nType="-99"/>
        </Node>
        <Node pos="r" depth="1" NCoef="0" IVar="19" Cut="6.6617555618286133e+00" cType="1" res="3.1852480024099350e-03" rms="1.9585429131984711e-01" purity="5.4108917713165283e-01" nType="0">
          <Node pos="l" depth="2" NCoef="0" IVar="-1" Cut="0.0000000000000000e+00" cType="1" res="1.4723596163094044e-02" rms="2.0758032798767090e-01" purity="4.5545995235443115e-01" nType="-99"/>
          <Node pos="r" depth="2" NCoef="0" IVar="-1" Cut="0.0000000000000000e+00" cType="1" res="-3.3560320734977722e-03" rms="1.8746867775917053e-01" purity="5.9769290685653687e-01" nType="-99"/>
        </Node>
      </Node>
    </BinaryTree>
    <BinaryTree type="DecisionTree" boostWeight="1.0000000000000000e+00" itree="425">
      <Node pos="s" depth="0" NCoef="0" IVar="24" Cut="1.4420181512832642e-01" cType="1" res="6.8101202487014234e-05" rms="2.0113553106784821e-01" purity="4.9874487519264221e-01" nType="0">
        <Node pos="l" depth="1" NCoef="0" IVar="-1" Cut="0.0000000000000000e+00" cType="1" res="-3.2486397773027420e-02" rms="1.5848495066165924e-01" purity="8.6383610963821411e-02" nType="-99"/>
        <Node pos="r" depth="1" NCoef="0" IVar="27" Cut="7.6224380731582642e-01" cType="1" res="6.3989910995587707e-04" rms="2.0218743383884430e-01" purity="5.1046895980834961e-01" nType="0">
          <Node pos="l" depth="2" NCoef="0" IVar="-1" Cut="0.0000000000000000e+00" cType="1" res="-5.4463031701743603e-03" rms="1.9377338886260986e-01" purity="2.0859146118164062e-01" nType="-99"/>
          <Node pos="r" depth="2" NCoef="0" IVar="-1" Cut="0.0000000000000000e+00" cType="1" res="2.2641823161393404e-03" rms="2.0452918112277985e-01" purity="5.9766083955764771e-01" nType="-99"/>
        </Node>
      </Node>
    </BinaryTree>
    <BinaryTree type="DecisionTree" boostWeight="1.0000000000000000e+00" itree="426">
      <Node pos="s" depth="0" NCoef="0" IVar="3" Cut="2.6224706172943115e+00" cType="1" res="1.5155668370425701e-03" rms="2.0284877717494965e-01" purity="5.0286769866943359e-01" nType="0">
        <Node pos="l" depth="1" NCoef="0" IVar="18" Cut="-1.6682870864868164e+01" cType="1" res="3.3914099913090467e-03" rms="2.2662371397018433e-01" purity="6.7083913087844849e-01" nType="0">
          <Node pos="l" depth="2" NCoef="0" IVar="-1" Cut="0.0000000000000000e+00" cType="1" res="-1.2819307157769799e-03" rms="1.9842182099819183e-01" purity="7.8014540672302246e-01" nType="-99"/>
          <Node pos="r" depth="2" NCoef="0" IVar="-1" Cut="0.0000000000000000e+00" cType="1" res="6.2524192035198212e-03" rms="2.5268170237541199e-01" purity="5.5653762817382812e-01" nType="-99"/>
        </Node>
        <Node pos="r" depth="1" NCoef="0" IVar="11" Cut="7.1682825088500977e+00" cType="1" res="-3.0470539350062609e-03" rms="1.2760394811630249e-01" purity="9.4310209155082703e-02" nType="0">
          <Node pos="l" depth="2" NCoef="0" IVar="-1" Cut="0.0000000000000000e+00" cType="1" res="-1.3840438798069954e-02" rms="1.2988634407520294e-01" purity="9.3885786831378937e-02" nType="-99"/>
          <Node pos="r" depth="2" NCoef="0" IVar="-1" Cut="0.0000000000000000e+00" cType="1" res="1.0374553501605988e-02" rms="1.2132425606250763e-01" purity="9.5392674207687378e-02" nType="-99"/>
        </Node>
      </Node>
    </BinaryTree>
    <BinaryTree type="DecisionTree" boostWeight="1.0000000000000000e+00" itree="427">
      <Node pos="s" depth="0" NCoef="0" IVar="30" Cut="1.9074274227023125e-02" cType="1" res="-2.4288498389068991e-04" rms="2.0067261159420013e-01" purity="4.9755662679672241e-01" nType="0">
        <Node pos="l" depth="1" NCoef="0" IVar="30" Cut="3.6570269148796797e-03" cType="1" res="2.4332846514880657e-03" rms="1.9350923597812653e-01" purity="6.4069640636444092e-01" nType="0">
          <Node pos="l" depth="2" NCoef="0" IVar="-1" Cut="0.0000000000000000e+00" cType="1" res="1.1426697485148907e-02" rms="1.9154414534568787e-01" purity="7.0305615663528442e-01" nType="-99"/>
          <Node pos="r" depth="2" NCoef="0" IVar="-1" Cut="0.0000000000000000e+00" cType="1" res="-2.9736938886344433e-03" rms="1.9474489986896515e-01" purity="5.9613412618637085e-01" nType="-99"/>
        </Node>
        <Node pos="r" depth="1" NCoef="0" IVar="0" Cut="1.6629772186279297e+01" cType="1" res="-3.1578291673213243e-03" rms="2.0815572142601013e-01" purity="3.4164562821388245e-01" nType="0">
          <Node pos="l" depth="2" NCoef="0" IVar="-1" Cut="0.0000000000000000e+00" cType="1" res="-4.8726932145655155e-03" rms="2.0924200117588043e-01" purity="3.4625399112701416e-01" nType="-99"/>
          <Node pos="r" depth="2" NCoef="0" IVar="-1" Cut="0.0000000000000000e+00" cType="1" res="1.1747789569199085e-02" rms="1.9798275828361511e-01" purity="3.0165991187095642e-01" nType="-99"/>
        </Node>
      </Node>
    </BinaryTree>
    <BinaryTree type="DecisionTree" boostWeight="1.0000000000000000e+00" itree="428">
      <Node pos="s" depth="0" NCoef="0" IVar="26" Cut="2.3779053986072540e-01" cType="1" res="5.4659618763253093e-04" rms="2.0224541425704956e-01" purity="4.9917119741439819e-01" nType="0">
        <Node pos="l" depth="1" NCoef="0" IVar="11" Cut="7.6155657768249512e+00" cType="1" res="-6.7870866041630507e-04" rms="2.0110571384429932e-01" purity="5.2851706743240356e-01" nType="0">
          <Node pos="l" depth="2" NCoef="0" IVar="-1" Cut="0.0000000000000000e+00" cType="1" res="7.7314634108915925e-04" rms="2.0159037411212921e-01" purity="5.5236512422561646e-01" nType="-99"/>
          <Node pos="r" depth="2" NCoef="0" IVar="-1" Cut="0.0000000000000000e+00" cType="1" res="-9.2624882236123085e-03" rms="1.9796253740787506e-01" purity="3.8500061631202698e-01" nType="-99"/>
        </Node>
        <Node pos="r" depth="1" NCoef="0" IVar="26" Cut="5.6393122673034668e-01" cType="1" res="1.1395197361707687e-02" rms="2.1176004409790039e-01" purity="2.3934864997863770e-01" nType="0">
          <Node pos="l" depth="2" NCoef="0" IVar="-1" Cut="0.0000000000000000e+00" cType="1" res="2.5017829611897469e-02" rms="2.2290073335170746e-01" purity="2.7476379275321960e-01" nType="-99"/>
          <Node pos="r" depth="2" NCoef="0" IVar="-1" Cut="0.0000000000000000e+00" cType="1" res="-4.2561972513794899e-03" rms="1.9548392295837402e-01" purity="1.9376541674137115e-01" nType="-99"/>
        </Node>
      </Node>
    </BinaryTree>
    <BinaryTree type="DecisionTree" boostWeight="1.0000000000000000e+00" itree="429">
      <Node pos="s" depth="0" NCoef="0" IVar="4" Cut="6.9212217330932617e+00" cType="1" res="-1.2469157809391618e-03" rms="2.0004251599311829e-01" purity="4.9816370010375977e-01" nType="0">
        <Node pos="l" depth="1" NCoef="0" IVar="5" Cut="3.9877276420593262e+00" cType="1" res="-1.7476986395195127e-03" rms="1.9985702633857727e-01" purity="5.0507986545562744e-01" nType="0">
          <Node pos="l" depth="2" NCoef="0" IVar="-1" Cut="0.0000000000000000e+00" cType="1" res="-8.0952577991411090e-04" rms="2.0149062573909760e-01" purity="5.3616732358932495e-01" nType="-99"/>
          <Node pos="r" depth="2" NCoef="0" IVar="-1" Cut="0.0000000000000000e+00" cType="1" res="-1.7037598416209221e-02" rms="1.8139791488647461e-01" purity="1.7724050581455231e-01" nType="-99"/>
        </Node>
        <Node pos="r" depth="1" NCoef="0" IVar="-1" Cut="0.0000000000000000e+00" cType="1" res="1.5889640897512436e-02" rms="2.0493850111961365e-01" purity="2.9176220297813416e-01" nType="-99"/>
      </Node>
    </BinaryTree>
    <BinaryTree type="DecisionTree" boostWeight="1.0000000000000000e+00" itree="430">
      <Node pos="s" depth="0" NCoef="0" IVar="16" Cut="4.7345510125160217e-01" cType="1" res="-3.4162108204327524e-04" rms="1.9881734251976013e-01" purity="4.9664169549942017e-01" nType="0">
        <Node pos="l" depth="1" NCoef="0" IVar="23" Cut="9.0506148338317871e-01" cType="1" res="-2.2605368867516518e-03" rms="2.0542499423027039e-01" purity="4.0986898541450500e-01" nType="0">
          <Node pos="l" depth="2" NCoef="0" IVar="-1" Cut="0.0000000000000000e+00" cType="1" res="-5.5287280119955540e-03" rms="2.2001515328884125e-01" purity="1.9895842671394348e-01" nType="-99"/>
          <Node pos="r" depth="2" NCoef="0" IVar="-1" Cut="0.0000000000000000e+00" cType="1" res="8.5680466145277023e-03" rms="1.6839507222175598e-01" purity="8.7683904170989990e-01" nType="-99"/>
        </Node>
        <Node pos="r" depth="1" NCoef="0" IVar="23" Cut="8.1041324138641357e-01" cType="1" res="3.2662397716194391e-03" rms="1.8570494651794434e-01" purity="6.5978783369064331e-01" nType="0">
          <Node pos="l" depth="2" NCoef="0" IVar="-1" Cut="0.0000000000000000e+00" cType="1" res="1.0767624713480473e-02" rms="2.2383753955364227e-01" purity="2.5696191191673279e-01" nType="-99"/>
          <Node pos="r" depth="2" NCoef="0" IVar="-1" Cut="0.0000000000000000e+00" cType="1" res="-2.3464609403163195e-03" rms="1.6269463300704956e-01" purity="8.6494791507720947e-01" nType="-99"/>
        </Node>
      </Node>
    </BinaryTree>
    <BinaryTree type="DecisionTree" boostWeight="1.0000000000000000e+00" itree="431">
      <Node pos="s" depth="0" NCoef="0" IVar="27" Cut="7.6229012012481689e-01" cType="1" res="1.6586948186159134e-04" rms="2.0186962187290192e-01" purity="4.9951195716857910e-01" nType="0">
        <Node pos="l" depth="1" NCoef="0" IVar="11" Cut="7.6503024101257324e+00" cType="1" res="-6.2223211862146854e-03" rms="1.9208417832851410e-01" purity="1.9757607579231262e-01" nType="0">
          <Node pos="l" depth="2" NCoef="0" IVar="-1" Cut="0.0000000000000000e+00" cType="1" res="-1.1629234068095684e-02" rms="1.9286109507083893e-01" purity="2.0909708738327026e-01" nType="-99"/>
          <Node pos="r" depth="2" NCoef="0" IVar="-1" Cut="0.0000000000000000e+00" cType="1" res="2.3828824982047081e-02" rms="1.8601852655410767e-01" purity="1.2788230180740356e-01" nType="-99"/>
        </Node>
        <Node pos="r" depth="1" NCoef="0" IVar="26" Cut="8.5893236100673676e-02" cType="1" res="2.0375486928969622e-03" rms="2.0461027324199677e-01" purity="5.8797627687454224e-01" nType="0">
          <Node pos="l" depth="2" NCoef="0" IVar="-1" Cut="0.0000000000000000e+00" cType="1" res="1.0794266127049923e-03" rms="2.0331044495105743e-01" purity="5.9260505437850952e-01" nType="-99"/>
          <Node pos="r" depth="2" NCoef="0" IVar="-1" Cut="0.0000000000000000e+00" cType="1" res="2.4835556745529175e-02" rms="2.3163710534572601e-01" purity="4.7982564568519592e-01" nType="-99"/>
        </Node>
      </Node>
    </BinaryTree>
    <BinaryTree type="DecisionTree" boostWeight="1.0000000000000000e+00" itree="432">
      <Node pos="s" depth="0" NCoef="0" IVar="25" Cut="3.6900496482849121e-01" cType="1" res="1.0363103356212378e-03" rms="2.0216523110866547e-01" purity="4.9928686022758484e-01" nType="0">
        <Node pos="l" depth="1" NCoef="0" IVar="3" Cut="3.0996837615966797e+00" cType="1" res="2.1640472114086151e-03" rms="2.0469546318054199e-01" purity="5.5462515354156494e-01" nType="0">
          <Node pos="l" depth="2" NCoef="0" IVar="-1" Cut="0.0000000000000000e+00" cType="1" res="3.1300357077270746e-03" rms="2.2570507228374481e-01" purity="6.7489200830459595e-01" nType="-99"/>
          <Node pos="r" depth="2" NCoef="0" IVar="-1" Cut="0.0000000000000000e+00" cType="1" res="-5.2157323807477951e-02" rms="1.2329610064625740e-02" purity="0.0000000000000000e+00" nType="-99"/>
        </Node>
        <Node pos="r" depth="1" NCoef="0" IVar="24" Cut="4.2699465155601501e-01" cType="1" res="-5.7324827648699284e-03" rms="1.8611404299736023e-01" purity="1.6714075207710266e-01" nType="0">
          <Node pos="l" depth="2" NCoef="0" IVar="-1" Cut="0.0000000000000000e+00" cType="1" res="-1.4786145184189081e-03" rms="1.7589078843593597e-01" purity="1.2323401868343353e-01" nType="-99"/>
          <Node pos="r" depth="2" NCoef="0" IVar="-1" Cut="0.0000000000000000e+00" cType="1" res="-1.8395267426967621e-02" rms="2.0825116336345673e-01" purity="2.7293968200683594e-01" nType="-99"/>
        </Node>
      </Node>
    </BinaryTree>
    <BinaryTree type="DecisionTree" boostWeight="1.0000000000000000e+00" itree="433">
      <Node pos="s" depth="0" NCoef="0" IVar="10" Cut="5.9215402603149414e+00" cType="1" res="1.9683424034155905e-04" rms="1.9972181320190430e-01" purity="5.0146687030792236e-01" nType="0">
        <Node pos="l" depth="1" NCoef="0" IVar="9" Cut="9.9311380386352539e+00" cType="1" res="1.1975227855145931e-02" rms="1.9086471199989319e-01" purity="3.6118483543395996e-01" nType="0">
          <Node pos="l" depth="2" NCoef="0" IVar="-1" Cut="0.0000000000000000e+00" cType="1" res="-5.3146976279094815e-04" rms="1.7542865872383118e-01" purity="2.2013060748577118e-01" nType="-99"/>
          <Node pos="r" depth="2" NCoef="0" IVar="-1" Cut="0.0000000000000000e+00" cType="1" res="2.5452435016632080e-02" rms="2.0545794069766998e-01" purity="5.1401019096374512e-01" nType="-99"/>
        </Node>
        <Node pos="r" depth="1" NCoef="0" IVar="11" Cut="6.8768820762634277e+00" cType="1" res="-4.7131913015618920e-04" rms="2.0019173622131348e-01" purity="5.0942456722259521e-01" nType="0">
          <Node pos="l" depth="2" NCoef="0" IVar="-1" Cut="0.0000000000000000e+00" cType="1" res="-3.4237308427691460e-03" rms="2.0202928781509399e-01" purity="5.2271872758865356e-01" nType="-99"/>
          <Node pos="r" depth="2" NCoef="0" IVar="-1" Cut="0.0000000000000000e+00" cType="1" res="2.9314833227545023e-03" rms="1.9791251420974731e-01" purity="4.9342453479766846e-01" nType="-99"/>
        </Node>
      </Node>
    </BinaryTree>
    <BinaryTree type="DecisionTree" boostWeight="1.0000000000000000e+00" itree="434">
      <Node pos="s" depth="0" NCoef="0" IVar="19" Cut="-6.0543751716613770e+00" cType="1" res="1.5778637316543609e-04" rms="2.0128595829010010e-01" purity="4.9996915459632874e-01" nType="0">
        <Node pos="l" depth="1" NCoef="0" IVar="6" Cut="6.3107519149780273e+00" cType="1" res="1.0415818542242050e-02" rms="1.9647081196308136e-01" purity="4.5753416419029236e-01" nType="0">
          <Node pos="l" depth="2" NCoef="0" IVar="-1" Cut="0.0000000000000000e+00" cType="1" res="3.4642526879906654e-03" rms="1.9310407340526581e-01" purity="4.6120083332061768e-01" nType="-99"/>
          <Node pos="r" depth="2" NCoef="0" IVar="-1" Cut="0.0000000000000000e+00" cType="1" res="3.1509295105934143e-02" rms="2.0218862593173981e-01" purity="4.5018273591995239e-01" nType="-99"/>
        </Node>
        <Node pos="r" depth="1" NCoef="0" IVar="22" Cut="2.5670400619506836e+01" cType="1" res="-8.3516136510297656e-04" rms="2.0171825587749481e-01" purity="5.0407671928405762e-01" nType="0">
          <Node pos="l" depth="2" NCoef="0" IVar="-1" Cut="0.0000000000000000e+00" cType="1" res="-2.2723390720784664e-03" rms="2.0683827996253967e-01" purity="4.4693133234977722e-01" nType="-99"/>
          <Node pos="r" depth="2" NCoef="0" IVar="-1" Cut="0.0000000000000000e+00" cType="1" res="1.0453019291162491e-02" rms="1.7033982276916504e-01" purity="8.2122272253036499e-01" nType="-99"/>
        </Node>
      </Node>
    </BinaryTree>
    <BinaryTree type="DecisionTree" boostWeight="1.0000000000000000e+00" itree="435">
      <Node pos="s" depth="0" NCoef="0" IVar="33" Cut="1.7142815887928009e-01" cType="1" res="-1.9736989634111524e-04" rms="1.9941326975822449e-01" purity="4.9831062555313110e-01" nType="0">
        <Node pos="l" depth="1" NCoef="0" IVar="16" Cut="3.3017668128013611e-01" cType="1" res="8.6177326738834381e-04" rms="1.9965314865112305e-01" purity="5.2513873577117920e-01" nType="0">
          <Node pos="l" depth="2" NCoef="0" IVar="-1" Cut="0.0000000000000000e+00" cType="1" res="-4.5882789418101311e-03" rms="2.1555724740028381e-01" purity="2.7290216088294983e-01" nType="-99"/>
          <Node pos="r" depth="2" NCoef="0" IVar="-1" Cut="0.0000000000000000e+00" cType="1" res="3.8438509218394756e-03" rms="1.9247099757194519e-01" purity="6.3197898864746094e-01" nType="-99"/>
        </Node>
        <Node pos="r" depth="1" NCoef="0" IVar="23" Cut="6.2073665857315063e-01" cType="1" res="-9.7086215391755104e-03" rms="1.9699113070964813e-01" purity="2.5739049911499023e-01" nType="0">
          <Node pos="l" depth="2" NCoef="0" IVar="-1" Cut="0.0000000000000000e+00" cType="1" res="2.7510229847393930e-04" rms="1.6960777342319489e-01" purity="5.5333685129880905e-02" nType="-99"/>
          <Node pos="r" depth="2" NCoef="0" IVar="-1" Cut="0.0000000000000000e+00" cType="1" res="-1.6629183664917946e-02" rms="2.1882109344005585e-01" purity="4.4356629252433777e-01" nType="-99"/>
        </Node>
      </Node>
    </BinaryTree>
    <BinaryTree type="DecisionTree" boostWeight="1.0000000000000000e+00" itree="436">
      <Node pos="s" depth="0" NCoef="0" IVar="19" Cut="2.2658572196960449e+00" cType="1" res="-3.1549055711366236e-04" rms="2.0094861090183258e-01" purity="5.0047457218170166e-01" nType="0">
        <Node pos="l" depth="1" NCoef="0" IVar="0" Cut="7.4318089485168457e+00" cType="1" res="6.1079417355358601e-03" rms="2.0351268351078033e-01" purity="3.6165323853492737e-01" nType="0">
          <Node pos="l" depth="2" NCoef="0" IVar="-1" Cut="0.0000000000000000e+00" cType="1" res="1.8769012764096260e-02" rms="2.1365603804588318e-01" purity="3.7006944417953491e-01" nType="-99"/>
          <Node pos="r" depth="2" NCoef="0" IVar="-1" Cut="0.0000000000000000e+00" cType="1" res="-8.7691955268383026e-03" rms="1.8789894878864288e-01" purity="3.5010528564453125e-01" nType="-99"/>
        </Node>
        <Node pos="r" depth="1" NCoef="0" IVar="13" Cut="8.0271139144897461e+00" cType="1" res="-1.7297313315793872e-03" rms="2.0035201311111450e-01" purity="5.3103870153427124e-01" nType="0">
          <Node pos="l" depth="2" NCoef="0" IVar="-1" Cut="0.0000000000000000e+00" cType="1" res="2.4342308752238750e-03" rms="2.0384423434734344e-01" purity="5.0966274738311768e-01" nType="-99"/>
          <Node pos="r" depth="2" NCoef="0" IVar="-1" Cut="0.0000000000000000e+00" cType="1" res="-5.2010859362781048e-03" rms="1.9765900075435638e-01" purity="5.4695951938629150e-01" nType="-99"/>
        </Node>
      </Node>
    </BinaryTree>
    <BinaryTree type="DecisionTree" boostWeight="1.0000000000000000e+00" itree="437">
      <Node pos="s" depth="0" NCoef="0" IVar="11" Cut="6.8768515586853027e+00" cType="1" res="-3.5362889320822433e-05" rms="1.9931904971599579e-01" purity="4.9973186850547791e-01" nType="0">
        <Node pos="l" depth="1" NCoef="0" IVar="7" Cut="4.6042466163635254e+00" cType="1" res="-2.9786091763526201e-03" rms="1.9773639738559723e-01" purity="5.0802361965179443e-01" nType="0">
          <Node pos="l" depth="2" NCoef="0" IVar="-1" Cut="0.0000000000000000e+00" cType="1" res="-4.6787234023213387e-03" rms="1.9700948894023895e-01" purity="5.2384889125823975e-01" nType="-99"/>
          <Node pos="r" depth="2" NCoef="0" IVar="-1" Cut="0.0000000000000000e+00" cType="1" res="1.5868946909904480e-02" rms="2.0751546323299408e-01" purity="2.7317357063293457e-01" nType="-99"/>
        </Node>
        <Node pos="r" depth="1" NCoef="0" IVar="16" Cut="2.8364160656929016e-01" cType="1" res="3.6076535470783710e-03" rms="2.0120114088058472e-01" purity="4.8946866393089294e-01" nType="0">
          <Node pos="l" depth="2" NCoef="0" IVar="-1" Cut="0.0000000000000000e+00" cType="1" res="-7.6296012848615646e-03" rms="2.1163079142570496e-01" purity="2.0122984051704407e-01" nType="-99"/>
          <Node pos="r" depth="2" NCoef="0" IVar="-1" Cut="0.0000000000000000e+00" cType="1" res="8.3023412153124809e-03" rms="1.9722591340541840e-01" purity="5.9177052974700928e-01" nType="-99"/>
        </Node>
      </Node>
    </BinaryTree>
    <BinaryTree type="DecisionTree" boostWeight="1.0000000000000000e+00" itree="438">
      <Node pos="s" depth="0" NCoef="0" IVar="10" Cut="7.3820095062255859e+00" cType="1" res="4.9239402869716287e-04" rms="1.9806848466396332e-01" purity="5.0259131193161011e-01" nType="0">
        <Node pos="l" depth="1" NCoef="0" IVar="11" Cut="7.4662680625915527e+00" cType="1" res="2.6999763213098049e-03" rms="1.9530859589576721e-01" purity="5.2671152353286743e-01" nType="0">
          <Node pos="l" depth="2" NCoef="0" IVar="-1" Cut="0.0000000000000000e+00" cType="1" res="5.5504972115159035e-03" rms="1.9615931808948517e-01" purity="5.6067728996276855e-01" nType="-99"/>
          <Node pos="r" depth="2" NCoef="0" IVar="-1" Cut="0.0000000000000000e+00" cType="1" res="-9.0503459796309471e-03" rms="1.9048662483692169e-01" purity="3.5141476988792419e-01" nType="-99"/>
        </Node>
        <Node pos="r" depth="1" NCoef="0" IVar="13" Cut="8.1906261444091797e+00" cType="1" res="-4.0563042275607586e-03" rms="2.0356184244155884e-01" purity="4.5289167761802673e-01" nType="0">
          <Node pos="l" depth="2" NCoef="0" IVar="-1" Cut="0.0000000000000000e+00" cType="1" res="-2.0833028480410576e-02" rms="2.2571024298667908e-01" purity="2.9296636581420898e-01" nType="-99"/>
          <Node pos="r" depth="2" NCoef="0" IVar="-1" Cut="0.0000000000000000e+00" cType="1" res="-1.0940913343802094e-03" rms="1.9964244961738586e-01" purity="4.7832965850830078e-01" nType="-99"/>
        </Node>
      </Node>
    </BinaryTree>
    <BinaryTree type="DecisionTree" boostWeight="1.0000000000000000e+00" itree="439">
      <Node pos="s" depth="0" NCoef="0" IVar="11" Cut="6.1020622253417969e+00" cType="1" res="-5.5143743520602584e-04" rms="2.0059359073638916e-01" purity="5.0084012746810913e-01" nType="0">
        <Node pos="l" depth="1" NCoef="0" IVar="26" Cut="1.8660353124141693e-01" cType="1" res="-6.3841096125543118e-03" rms="2.0382633805274963e-01" purity="4.0864911675453186e-01" nType="0">
          <Node pos="l" depth="2" NCoef="0" IVar="-1" Cut="0.0000000000000000e+00" cType="1" res="-1.1904926039278507e-02" rms="2.0175258815288544e-01" purity="4.3189260363578796e-01" nType="-99"/>
          <Node pos="r" depth="2" NCoef="0" IVar="-1" Cut="0.0000000000000000e+00" cType="1" res="1.6956634819507599e-02" rms="2.1261720359325409e-01" purity="2.9190686345100403e-01" nType="-99"/>
        </Node>
        <Node pos="r" depth="1" NCoef="0" IVar="16" Cut="4.0166431665420532e-01" cType="1" res="7.2188192280009389e-04" rms="1.9985827803611755e-01" purity="5.2096611261367798e-01" nType="0">
          <Node pos="l" depth="2" NCoef="0" IVar="-1" Cut="0.0000000000000000e+00" cType="1" res="-1.8351495964452624e-03" rms="2.1370373666286469e-01" purity="3.5282009840011597e-01" nType="-99"/>
          <Node pos="r" depth="2" NCoef="0" IVar="-1" Cut="0.0000000000000000e+00" cType="1" res="5.0424300134181976e-03" rms="1.8294791877269745e-01" purity="7.1058416366577148e-01" nType="-99"/>
        </Node>
      </Node>
    </BinaryTree>
    <BinaryTree type="DecisionTree" boostWeight="1.0000000000000000e+00" itree="440">
      <Node pos="s" depth="0" NCoef="0" IVar="34" Cut="6.3490958213806152e+00" cType="1" res="2.2706267191097140e-04" rms="2.0026215910911560e-01" purity="5.0083237886428833e-01" nType="0">
        <Node pos="l" depth="1" NCoef="0" IVar="6" Cut="5.3273754119873047e+00" cType="1" res="9.0496154734864831e-04" rms="2.0238973200321198e-01" purity="5.2349716424942017e-01" nType="0">
          <Node pos="l" depth="2" NCoef="0" IVar="-1" Cut="0.0000000000000000e+00" cType="1" res="4.5091779902577400e-03" rms="2.0830686390399933e-01" purity="5.2714091539382935e-01" nType="-99"/>
          <Node pos="r" depth="2" NCoef="0" IVar="-1" Cut="0.0000000000000000e+00" cType="1" res="-1.7301585758104920e-03" rms="1.9764533638954163e-01" purity="5.2067267894744873e-01" nType="-99"/>
        </Node>
        <Node pos="r" depth="1" NCoef="0" IVar="3" Cut="2.8881540298461914e+00" cType="1" res="-1.2241536751389503e-02" rms="1.5551276504993439e-01" purity="8.3959199488162994e-02" nType="0">
          <Node pos="l" depth="2" NCoef="0" IVar="-1" Cut="0.0000000000000000e+00" cType="1" res="-2.1642021834850311e-02" rms="2.0918136835098267e-01" purity="1.6143880784511566e-01" nType="-99"/>
          <Node pos="r" depth="2" NCoef="0" IVar="-1" Cut="0.0000000000000000e+00" cType="1" res="-5.7688076049089432e-03" rms="6.1200749129056931e-02" purity="4.1569583117961884e-03" nType="-99"/>
        </Node>
      </Node>
    </BinaryTree>
    <BinaryTree type="DecisionTree" boostWeight="1.0000000000000000e+00" itree="441">
      <Node pos="s" depth="0" NCoef="0" IVar="12" Cut="6.5171771049499512e+00" cType="1" res="-1.0539696086198092e-03" rms="1.9869378209114075e-01" purity="4.9665665626525879e-01" nType="0">
        <Node pos="l" depth="1" NCoef="0" IVar="24" Cut="8.5748291015625000e-01" cType="1" res="8.4182759746909142e-03" rms="2.1514891088008881e-01" purity="3.1708043813705444e-01" nType="0">
          <Node pos="l" depth="2" NCoef="0" IVar="-1" Cut="0.0000000000000000e+00" cType="1" res="-8.5826097056269646e-03" rms="1.7749695479869843e-01" purity="1.3507367670536041e-01" nType="-99"/>
          <Node pos="r" depth="2" NCoef="0" IVar="-1" Cut="0.0000000000000000e+00" cType="1" res="1.9028797745704651e-02" rms="2.4569028615951538e-01" purity="4.9551385641098022e-01" nType="-99"/>
        </Node>
        <Node pos="r" depth="1" NCoef="0" IVar="17" Cut="4.6214263916015625e+01" cType="1" res="-1.9442683551460505e-03" rms="1.9705313444137573e-01" purity="5.1353508234024048e-01" nType="0">
          <Node pos="l" depth="2" NCoef="0" IVar="-1" Cut="0.0000000000000000e+00" cType="1" res="-3.2611840870231390e-03" rms="2.0232304930686951e-01" purity="4.6416449546813965e-01" nType="-99"/>
          <Node pos="r" depth="2" NCoef="0" IVar="-1" Cut="0.0000000000000000e+00" cType="1" res="1.1501573026180267e-02" rms="1.4858703315258026e-01" purity="9.0462625026702881e-01" nType="-99"/>
        </Node>
      </Node>
    </BinaryTree>
    <BinaryTree type="DecisionTree" boostWeight="1.0000000000000000e+00" itree="442">
      <Node pos="s" depth="0" NCoef="0" IVar="22" Cut="2.3599741458892822e+00" cType="1" res="8.9924369240179658e-04" rms="2.0295649766921997e-01" purity="5.0056445598602295e-01" nType="0">
        <Node pos="l" depth="1" NCoef="0" IVar="28" Cut="6.2158912420272827e-01" cType="1" res="-6.5906937234103680e-03" rms="2.0017388463020325e-01" purity="3.3194783329963684e-01" nType="0">
          <Node pos="l" depth="2" NCoef="0" IVar="-1" Cut="0.0000000000000000e+00" cType="1" res="-1.5169346705079079e-02" rms="1.9548520445823669e-01" purity="2.2473101317882538e-01" nType="-99"/>
          <Node pos="r" depth="2" NCoef="0" IVar="-1" Cut="0.0000000000000000e+00" cType="1" res="1.1017004027962685e-02" rms="2.1019922196865082e-01" purity="5.9022963047027588e-01" nType="-99"/>
        </Node>
        <Node pos="r" depth="1" NCoef="0" IVar="29" Cut="4.4633415341377258e-01" cType="1" res="2.0958890672773123e-03" rms="2.0337198674678802e-01" purity="5.2750378847122192e-01" nType="0">
          <Node pos="l" depth="2" NCoef="0" IVar="-1" Cut="0.0000000000000000e+00" cType="1" res="6.3649972435086966e-04" rms="1.9847536087036133e-01" purity="5.5430245399475098e-01" nType="-99"/>
          <Node pos="r" depth="2" NCoef="0" IVar="-1" Cut="0.0000000000000000e+00" cType="1" res="1.1052372865378857e-02" rms="2.3109371960163116e-01" purity="3.6205589771270752e-01" nType="-99"/>
        </Node>
      </Node>
    </BinaryTree>
    <BinaryTree type="DecisionTree" boostWeight="1.0000000000000000e+00" itree="443">
      <Node pos="s" depth="0" NCoef="0" IVar="34" Cut="1.9844752550125122e+00" cType="1" res="3.3226853702217340e-05" rms="2.0059056580066681e-01" purity="4.9647429585456848e-01" nType="0">
        <Node pos="l" depth="1" NCoef="0" IVar="6" Cut="4.5678310394287109e+00" cType="1" res="2.4688364937901497e-03" rms="1.9964374601840973e-01" purity="6.2156927585601807e-01" nType="0">
          <Node pos="l" depth="2" NCoef="0" IVar="-1" Cut="0.0000000000000000e+00" cType="1" res="1.6815984621644020e-02" rms="2.0982399582862854e-01" purity="6.5700322389602661e-01" nType="-99"/>
          <Node pos="r" depth="2" NCoef="0" IVar="-1" Cut="0.0000000000000000e+00" cType="1" res="2.4280107754748315e-04" rms="1.9777055084705353e-01" purity="6.1553555727005005e-01" nType="-99"/>
        </Node>
        <Node pos="r" depth="1" NCoef="0" IVar="16" Cut="3.3278009295463562e-01" cType="1" res="-3.2985196448862553e-03" rms="2.0183096826076508e-01" purity="3.2535290718078613e-01" nType="0">
          <Node pos="l" depth="2" NCoef="0" IVar="-1" Cut="0.0000000000000000e+00" cType="1" res="4.6314615756273270e-03" rms="1.9828903675079346e-01" purity="1.7007857561111450e-01" nType="-99"/>
          <Node pos="r" depth="2" NCoef="0" IVar="-1" Cut="0.0000000000000000e+00" cType="1" res="-7.0293680764734745e-03" rms="2.0330026745796204e-01" purity="3.9391207695007324e-01" nType="-99"/>
        </Node>
      </Node>
    </BinaryTree>
    <BinaryTree type="DecisionTree" boostWeight="1.0000000000000000e+00" itree="444">
      <Node pos="s" depth="0" NCoef="0" IVar="27" Cut="7.1474760770797729e-01" cType="1" res="2.3990574845811352e-05" rms="2.0152533054351807e-01" purity="4.9995854496955872e-01" nType="0">
        <Node pos="l" depth="1" NCoef="0" IVar="11" Cut="7.5119628906250000e+00" cType="1" res="-8.4594991058111191e-03" rms="1.8906758725643158e-01" purity="1.8811522424221039e-01" nType="0">
          <Node pos="l" depth="2" NCoef="0" IVar="-1" Cut="0.0000000000000000e+00" cType="1" res="-1.4922519214451313e-02" rms="1.9102601706981659e-01" purity="2.0083712041378021e-01" nType="-99"/>
          <Node pos="r" depth="2" NCoef="0" IVar="-1" Cut="0.0000000000000000e+00" cType="1" res="1.3764180243015289e-02" rms="1.7948250472545624e-01" purity="1.3399051129817963e-01" nType="-99"/>
        </Node>
        <Node pos="r" depth="1" NCoef="0" IVar="32" Cut="1.3322958350181580e-01" cType="1" res="2.1192196290940046e-03" rms="2.0443107187747955e-01" purity="5.7697677612304688e-01" nType="0">
          <Node pos="l" depth="2" NCoef="0" IVar="-1" Cut="0.0000000000000000e+00" cType="1" res="1.2613441795110703e-03" rms="2.0315460860729218e-01" purity="5.9404289722442627e-01" nType="-99"/>
          <Node pos="r" depth="2" NCoef="0" IVar="-1" Cut="0.0000000000000000e+00" cType="1" res="1.9065976142883301e-02" rms="2.2343811392784119e-01" purity="3.0194163322448730e-01" nType="-99"/>
        </Node>
      </Node>
    </BinaryTree>
    <BinaryTree type="DecisionTree" boostWeight="1.0000000000000000e+00" itree="445">
      <Node pos="s" depth="0" NCoef="0" IVar="0" Cut="7.7144470214843750e+00" cType="1" res="7.1559601929038763e-04" rms="2.0108743011951447e-01" purity="4.9829840660095215e-01" nType="0">
        <Node pos="l" depth="1" NCoef="0" IVar="11" Cut="7.7832794189453125e+00" cType="1" res="2.7579821180552244e-03" rms="2.0393607020378113e-01" purity="4.9612402915954590e-01" nType="0">
          <Node pos="l" depth="2" NCoef="0" IVar="-1" Cut="0.0000000000000000e+00" cType="1" res="4.8365998081862926e-03" rms="2.0537784695625305e-01" purity="5.0403237342834473e-01" nType="-99"/>
          <Node pos="r" depth="2" NCoef="0" IVar="-1" Cut="0.0000000000000000e+00" cType="1" res="-1.8005151301622391e-02" rms="1.8386028707027435e-01" purity="3.9702203869819641e-01" nType="-99"/>
        </Node>
        <Node pos="r" depth="1" NCoef="0" IVar="16" Cut="2.9072478413581848e-01" cType="1" res="-2.1797486115247011e-03" rms="1.9694222509860992e-01" purity="5.0138074159622192e-01" nType="0">
          <Node pos="l" depth="2" NCoef="0" IVar="-1" Cut="0.0000000000000000e+00" cType="1" res="-2.0423658192157745e-02" rms="1.8996089696884155e-01" purity="1.4703789353370667e-01" nType="-99"/>
          <Node pos="r" depth="2" NCoef="0" IVar="-1" Cut="0.0000000000000000e+00" cType="1" res="1.7637874698266387e-03" rms="1.9834193587303162e-01" purity="5.8373725414276123e-01" nType="-99"/>
        </Node>
      </Node>
    </BinaryTree>
    <BinaryTree type="DecisionTree" boostWeight="1.0000000000000000e+00" itree="446">
      <Node pos="s" depth="0" NCoef="0" IVar="32" Cut="9.5217652618885040e-02" cType="1" res="4.1520403465256095e-04" rms="1.9929347932338715e-01" purity="4.9955531954765320e-01" nType="0">
        <Node pos="l" depth="1" NCoef="0" IVar="15" Cut="6.1747717857360840e+00" cType="1" res="1.9281973363831639e-03" rms="2.0144793391227722e-01" purity="5.5210691690444946e-01" nType="0">
          <Node pos="l" depth="2" NCoef="0" IVar="-1" Cut="0.0000000000000000e+00" cType="1" res="5.7574990205466747e-03" rms="2.1235446631908417e-01" purity="5.5226629972457886e-01" nType="-99"/>
          <Node pos="r" depth="2" NCoef="0" IVar="-1" Cut="0.0000000000000000e+00" cType="1" res="-2.2200944658834487e-04" rms="1.9527551531791687e-01" purity="5.5202084779739380e-01" nType="-99"/>
        </Node>
        <Node pos="r" depth="1" NCoef="0" IVar="3" Cut="1.2136089801788330e+00" cType="1" res="-8.4159802645444870e-03" rms="1.8597607314586639e-01" purity="1.9281691312789917e-01" nType="0">
          <Node pos="l" depth="2" NCoef="0" IVar="-1" Cut="0.0000000000000000e+00" cType="1" res="-1.9277038052678108e-02" rms="2.3278443515300751e-01" purity="4.0911251306533813e-01" nType="-99"/>
          <Node pos="r" depth="2" NCoef="0" IVar="-1" Cut="0.0000000000000000e+00" cType="1" res="-6.6491281613707542e-03" rms="1.7399829626083374e-01" purity="1.4625865221023560e-01" nType="-99"/>
        </Node>
      </Node>
    </BinaryTree>
    <BinaryTree type="DecisionTree" boostWeight="1.0000000000000000e+00" itree="447">
      <Node pos="s" depth="0" NCoef="0" IVar="1" Cut="1.9000307083129883e+01" cType="1" res="8.2187243970111012e-04" rms="1.9947302341461182e-01" purity="5.0168526172637939e-01" nType="0">
        <Node pos="l" depth="1" NCoef="0" IVar="1" Cut="3.5535600185394287e+00" cType="1" res="1.7690663225948811e-03" rms="2.0241828262805939e-01" purity="5.1328808069229126e-01" nType="0">
          <Node pos="l" depth="2" NCoef="0" IVar="-1" Cut="0.0000000000000000e+00" cType="1" res="-1.5545845963060856e-02" rms="1.9543352723121643e-01" purity="3.2506561279296875e-01" nType="-99"/>
          <Node pos="r" depth="2" NCoef="0" IVar="-1" Cut="0.0000000000000000e+00" cType="1" res="4.6195629984140396e-03" rms="2.0340025424957275e-01" purity="5.4304349422454834e-01" nType="-99"/>
        </Node>
        <Node pos="r" depth="1" NCoef="0" IVar="16" Cut="3.7348255515098572e-01" cType="1" res="-7.6004453003406525e-03" rms="1.7083775997161865e-01" purity="3.9851471781730652e-01" nType="0">
          <Node pos="l" depth="2" NCoef="0" IVar="-1" Cut="0.0000000000000000e+00" cType="1" res="-2.6975316926836967e-02" rms="1.6229285299777985e-01" purity="1.1961413919925690e-01" nType="-99"/>
          <Node pos="r" depth="2" NCoef="0" IVar="-1" Cut="0.0000000000000000e+00" cType="1" res="1.1787273921072483e-02" rms="1.7868563532829285e-01" purity="7.1952015161514282e-01" nType="-99"/>
        </Node>
      </Node>
    </BinaryTree>
    <BinaryTree type="DecisionTree" boostWeight="1.0000000000000000e+00" itree="448">
      <Node pos="s" depth="0" NCoef="0" IVar="30" Cut="5.7163648307323456e-02" cType="1" res="1.6349692596122622e-03" rms="2.0108373463153839e-01" purity="4.9980643391609192e-01" nType="0">
        <Node pos="l" depth="1" NCoef="0" IVar="30" Cut="4.6279639005661011e-02" cType="1" res="3.3926812466233969e-03" rms="2.0113027095794678e-01" purity="5.8197700977325439e-01" nType="0">
          <Node pos="l" depth="2" NCoef="0" IVar="-1" Cut="0.0000000000000000e+00" cType="1" res="2.8480032924562693e-03" rms="1.9943453371524811e-01" purity="5.9298747777938843e-01" nType="-99"/>
          <Node pos="r" depth="2" NCoef="0" IVar="-1" Cut="0.0000000000000000e+00" cType="1" res="1.9101880490779877e-02" rms="2.2708304226398468e-01" purity="3.9772382378578186e-01" nType="-99"/>
        </Node>
        <Node pos="r" depth="1" NCoef="0" IVar="10" Cut="6.4352750778198242e+00" cType="1" res="-3.3692447468638420e-03" rms="2.0086698234081268e-01" purity="2.6586630940437317e-01" nType="0">
          <Node pos="l" depth="2" NCoef="0" IVar="-1" Cut="0.0000000000000000e+00" cType="1" res="-1.9296290352940559e-02" rms="1.8629951775074005e-01" purity="2.0928509533405304e-01" nType="-99"/>
          <Node pos="r" depth="2" NCoef="0" IVar="-1" Cut="0.0000000000000000e+00" cType="1" res="4.2958225822076201e-04" rms="2.0510458946228027e-01" purity="2.8371906280517578e-01" nType="-99"/>
        </Node>
      </Node>
    </BinaryTree>
    <BinaryTree type="DecisionTree" boostWeight="1.0000000000000000e+00" itree="449">
      <Node pos="s" depth="0" NCoef="0" IVar="27" Cut="7.6222091913223267e-01" cType="1" res="-2.8730786289088428e-04" rms="2.0127695798873901e-01" purity="4.9821379780769348e-01" nType="0">
        <Node pos="l" depth="1" NCoef="0" IVar="23" Cut="8.5734504461288452e-01" cType="1" res="-5.0293523818254471e-03" rms="1.9441604614257812e-01" purity="1.9789093732833862e-01" nType="0">
          <Node pos="l" depth="2" NCoef="0" IVar="-1" Cut="0.0000000000000000e+00" cType="1" res="2.0450409501791000e-03" rms="1.7566442489624023e-01" purity="7.3948130011558533e-02" nType="-99"/>
          <Node pos="r" depth="2" NCoef="0" IVar="-1" Cut="0.0000000000000000e+00" cType="1" res="-2.0190887153148651e-02" rms="2.4179534614086151e-01" purity="5.7592540979385376e-01" nType="-99"/>
        </Node>
        <Node pos="r" depth="1" NCoef="0" IVar="27" Cut="9.8832881450653076e-01" cType="1" res="1.1047626612707973e-03" rms="2.0322605967521667e-01" purity="5.8637636899948120e-01" nType="0">
          <Node pos="l" depth="2" NCoef="0" IVar="-1" Cut="0.0000000000000000e+00" cType="1" res="-2.3601318243891001e-03" rms="2.1712198853492737e-01" purity="4.4083249568939209e-01" nType="-99"/>
          <Node pos="r" depth="2" NCoef="0" IVar="-1" Cut="0.0000000000000000e+00" cType="1" res="8.7782200425863266e-03" rms="1.7923209071159363e-01" purity="8.1379425525665283e-01" nType="-99"/>
        </Node>
      </Node>
    </BinaryTree>
    <BinaryTree type="DecisionTree" boostWeight="1.0000000000000000e+00" itree="450">
      <Node pos="s" depth="0" NCoef="0" IVar="16" Cut="2.9669365286827087e-01" cType="1" res="-8.9238956570625305e-04" rms="1.9848710298538208e-01" purity="5.0115954875946045e-01" nType="0">
        <Node pos="l" depth="1" NCoef="0" IVar="16" Cut="2.6962879300117493e-01" cType="1" res="5.8721019886434078e-03" rms="2.0943751931190491e-01" purity="2.3637790977954865e-01" nType="0">
          <Node pos="l" depth="2" NCoef="0" IVar="-1" Cut="0.0000000000000000e+00" cType="1" res="-8.5850143805146217e-03" rms="2.0263823866844177e-01" purity="1.7878127098083496e-01" nType="-99"/>
          <Node pos="r" depth="2" NCoef="0" IVar="-1" Cut="0.0000000000000000e+00" cType="1" res="4.2669631540775299e-02" rms="2.2360122203826904e-01" purity="4.0498778223991394e-01" nType="-99"/>
        </Node>
        <Node pos="r" depth="1" NCoef="0" IVar="23" Cut="1.9225023686885834e-01" cType="1" res="-2.5830944068729877e-03" rms="1.9561792910099030e-01" purity="5.6733864545822144e-01" nType="0">
          <Node pos="l" depth="2" NCoef="0" IVar="-1" Cut="0.0000000000000000e+00" cType="1" res="-2.2671358659863472e-02" rms="1.3571016490459442e-01" purity="5.5039707571268082e-02" nType="-99"/>
          <Node pos="r" depth="2" NCoef="0" IVar="-1" Cut="0.0000000000000000e+00" cType="1" res="-2.0187534391880035e-03" rms="1.9870255887508392e-01" purity="5.9901583194732666e-01" nType="-99"/>
        </Node>
      </Node>
    </BinaryTree>
    <BinaryTree type="DecisionTree" boostWeight="1.0000000000000000e+00" itree="451">
      <Node pos="s" depth="0" NCoef="0" IVar="10" Cut="6.7213597297668457e+00" cType="1" res="-4.7325843479484320e-04" rms="1.9946074485778809e-01" purity="5.0118976831436157e-01" nType="0">
        <Node pos="l" depth="1" NCoef="0" IVar="19" Cut="9.6157808303833008e+00" cType="1" res="-4.6554813161492348e-03" rms="1.9535614550113678e-01" purity="4.6958029270172119e-01" nType="0">
          <Node pos="l" depth="2" NCoef="0" IVar="-1" Cut="0.0000000000000000e+00" cType="1" res="-1.7326749861240387e-02" rms="1.9437068700790405e-01" purity="1.9301845133304596e-01" nType="-99"/>
          <Node pos="r" depth="2" NCoef="0" IVar="-1" Cut="0.0000000000000000e+00" cType="1" res="1.2866467295680195e-04" rms="1.9568473100662231e-01" purity="6.1054283380508423e-01" nType="-99"/>
        </Node>
        <Node pos="r" depth="1" NCoef="0" IVar="16" Cut="3.8482168316841125e-01" cType="1" res="1.6926096286624670e-03" rms="2.0151945948600769e-01" purity="5.1755946874618530e-01" nType="0">
          <Node pos="l" depth="2" NCoef="0" IVar="-1" Cut="0.0000000000000000e+00" cType="1" res="-2.3670506197959185e-03" rms="2.1711245179176331e-01" purity="3.3293673396110535e-01" nType="-99"/>
          <Node pos="r" depth="2" NCoef="0" IVar="-1" Cut="0.0000000000000000e+00" cType="1" res="9.2124603688716888e-03" rms="1.8028149008750916e-01" purity="7.4552339315414429e-01" nType="-99"/>
        </Node>
      </Node>
    </BinaryTree>
    <BinaryTree type="DecisionTree" boostWeight="1.0000000000000000e+00" itree="452">
      <Node pos="s" depth="0" NCoef="0" IVar="13" Cut="7.0678200721740723e+00" cType="1" res="-4.0692958282306790e-04" rms="1.9852364063262939e-01" purity="4.9591028690338135e-01" nType="0">
        <Node pos="l" depth="1" NCoef="0" IVar="-1" Cut="0.0000000000000000e+00" cType="1" res="1.6133280470967293e-02" rms="2.1396736800670624e-01" purity="3.6129507422447205e-01" nType="-99"/>
        <Node pos="r" depth="1" NCoef="0" IVar="12" Cut="6.7221012115478516e+00" cType="1" res="-9.8715804051607847e-04" rms="1.9787533581256866e-01" purity="5.0115090608596802e-01" nType="0">
          <Node pos="l" depth="2" NCoef="0" IVar="-1" Cut="0.0000000000000000e+00" cType="1" res="-9.1412160545587540e-03" rms="2.0604322850704193e-01" purity="3.1105250120162964e-01" nType="-99"/>
          <Node pos="r" depth="2" NCoef="0" IVar="-1" Cut="0.0000000000000000e+00" cType="1" res="4.4488880666904151e-04" rms="1.9640123844146729e-01" purity="5.3390103578567505e-01" nType="-99"/>
        </Node>
      </Node>
    </BinaryTree>
    <BinaryTree type="DecisionTree" boostWeight="1.0000000000000000e+00" itree="453">
      <Node pos="s" depth="0" NCoef="0" IVar="26" Cut="4.2801541090011597e-01" cType="1" res="-1.4942894922569394e-03" rms="1.9841660559177399e-01" purity="4.9981212615966797e-01" nType="0">
        <Node pos="l" depth="1" NCoef="0" IVar="18" Cut="-6.6127769470214844e+01" cType="1" res="-2.3976853117346764e-03" rms="1.9831834733486176e-01" purity="5.1761299371719360e-01" nType="0">
          <Node pos="l" depth="2" NCoef="0" IVar="-1" Cut="0.0000000000000000e+00" cType="1" res="2.6049466803669930e-02" rms="1.1235612630844116e-01" purity="9.5963865518569946e-01" nType="-99"/>
          <Node pos="r" depth="2" NCoef="0" IVar="-1" Cut="0.0000000000000000e+00" cType="1" res="-3.3056950196623802e-03" rms="2.0173422992229462e-01" purity="4.9487411975860596e-01" nType="-99"/>
        </Node>
        <Node pos="r" depth="1" NCoef="0" IVar="3" Cut="2.4215750694274902e+00" cType="1" res="1.1703985743224621e-02" rms="1.9938048720359802e-01" purity="2.3974785208702087e-01" nType="0">
          <Node pos="l" depth="2" NCoef="0" IVar="-1" Cut="0.0000000000000000e+00" cType="1" res="1.9990811124444008e-02" rms="2.6657372713088989e-01" purity="4.5573541522026062e-01" nType="-99"/>
          <Node pos="r" depth="2" NCoef="0" IVar="-1" Cut="0.0000000000000000e+00" cType="1" res="-4.6903830952942371e-03" rms="1.1130609363317490e-01" purity="5.3595967590808868e-02" nType="-99"/>
        </Node>
      </Node>
    </BinaryTree>
    <BinaryTree type="DecisionTree" boostWeight="1.0000000000000000e+00" itree="454">
      <Node pos="s" depth="0" NCoef="0" IVar="20" Cut="9.8924093246459961e+00" cType="1" res="-2.2539043857250363e-04" rms="2.0046716928482056e-01" purity="5.0268173217773438e-01" nType="0">
        <Node pos="l" depth="1" NCoef="0" IVar="27" Cut="2.8960567712783813e-01" cType="1" res="-9.3873444711789489e-04" rms="1.9869063794612885e-01" purity="5.1631700992584229e-01" nType="0">
          <Node pos="l" depth="2" NCoef="0" IVar="-1" Cut="0.0000000000000000e+00" cType="1" res="-3.7899941205978394e-02" rms="1.4520597457885742e-01" purity="7.8528925776481628e-02" nType="-99"/>
          <Node pos="r" depth="2" NCoef="0" IVar="-1" Cut="0.0000000000000000e+00" cType="1" res="-3.0850604525767267e-04" rms="2.0017366111278534e-01" purity="5.3072375059127808e-01" nType="-99"/>
        </Node>
        <Node pos="r" depth="1" NCoef="0" IVar="6" Cut="5.0673012733459473e+00" cType="1" res="1.1552435345947742e-02" rms="2.2748176753520966e-01" purity="2.7755275368690491e-01" nType="0">
          <Node pos="l" depth="2" NCoef="0" IVar="-1" Cut="0.0000000000000000e+00" cType="1" res="-1.4809011481702328e-02" rms="2.0486935973167419e-01" purity="2.0977565646171570e-01" nType="-99"/>
          <Node pos="r" depth="2" NCoef="0" IVar="-1" Cut="0.0000000000000000e+00" cType="1" res="3.0695868656039238e-02" rms="2.4251964688301086e-01" purity="3.3232295513153076e-01" nType="-99"/>
        </Node>
      </Node>
    </BinaryTree>
    <BinaryTree type="DecisionTree" boostWeight="1.0000000000000000e+00" itree="455">
      <Node pos="s" depth="0" NCoef="0" IVar="16" Cut="2.9611462354660034e-01" cType="1" res="-6.4238469349220395e-04" rms="1.9888877868652344e-01" purity="4.9943354725837708e-01" nType="0">
        <Node pos="l" depth="1" NCoef="0" IVar="16" Cut="2.7579388022422791e-01" cType="1" res="5.1518240943551064e-03" rms="2.0953059196472168e-01" purity="2.3494094610214233e-01" nType="0">
          <Node pos="l" depth="2" NCoef="0" IVar="-1" Cut="0.0000000000000000e+00" cType="1" res="-5.9459996409714222e-03" rms="2.0647963881492615e-01" purity="1.8750025331974030e-01" nType="-99"/>
          <Node pos="r" depth="2" NCoef="0" IVar="-1" Cut="0.0000000000000000e+00" cType="1" res="4.7942206263542175e-02" rms="2.1656216681003571e-01" purity="4.3876606225967407e-01" nType="-99"/>
        </Node>
        <Node pos="r" depth="1" NCoef="0" IVar="16" Cut="3.8245436549186707e-01" cType="1" res="-2.0873160101473331e-03" rms="1.9611838459968567e-01" purity="5.6539142131805420e-01" nType="0">
          <Node pos="l" depth="2" NCoef="0" IVar="-1" Cut="0.0000000000000000e+00" cType="1" res="-6.7290184088051319e-03" rms="2.1593952178955078e-01" purity="3.8155394792556763e-01" nType="-99"/>
          <Node pos="r" depth="2" NCoef="0" IVar="-1" Cut="0.0000000000000000e+00" cType="1" res="4.0547142270952463e-04" rms="1.8625505268573761e-01" purity="6.4987164735794067e-01" nType="-99"/>
        </Node>
      </Node>
    </BinaryTree>
    <BinaryTree type="DecisionTree" boostWeight="1.0000000000000000e+00" itree="456">
      <Node pos="s" depth="0" NCoef="0" IVar="27" Cut="5.2471542358398438e-01" cType="1" res="1.2701235245913267e-03" rms="2.0142394304275513e-01" purity="4.9972775578498840e-01" nType="0">
        <Node pos="l" depth="1" NCoef="0" IVar="17" Cut="8.5753383636474609e+00" cType="1" res="-7.2886571288108826e-03" rms="1.8425241112709045e-01" purity="1.7266888916492462e-01" nType="0">
          <Node pos="l" depth="2" NCoef="0" IVar="-1" Cut="0.0000000000000000e+00" cType="1" res="1.2924272567033768e-02" rms="1.5465420484542847e-01" purity="5.8799099177122116e-02" nType="-99"/>
          <Node pos="r" depth="2" NCoef="0" IVar="-1" Cut="0.0000000000000000e+00" cType="1" res="-1.5218902379274368e-02" rms="1.9730238616466522e-01" purity="2.3063522577285767e-01" nType="-99"/>
        </Node>
        <Node pos="r" depth="1" NCoef="0" IVar="23" Cut="8.5750323534011841e-01" cType="1" res="2.5094219017773867e-03" rms="2.0376066863536835e-01" purity="5.4708540439605713e-01" nType="0">
          <Node pos="l" depth="2" NCoef="0" IVar="-1" Cut="0.0000000000000000e+00" cType="1" res="5.2291830070316792e-03" rms="2.2988900542259216e-01" purity="2.3244036734104156e-01" nType="-99"/>
          <Node pos="r" depth="2" NCoef="0" IVar="-1" Cut="0.0000000000000000e+00" cType="1" res="-2.1095017436891794e-03" rms="1.7182688415050507e-01" purity="8.7936210632324219e-01" nType="-99"/>
        </Node>
      </Node>
    </BinaryTree>
    <BinaryTree type="DecisionTree" boostWeight="1.0000000000000000e+00" itree="457">
      <Node pos="s" depth="0" NCoef="0" IVar="30" Cut="1.9074920564889908e-02" cType="1" res="-1.3347365893423557e-04" rms="1.9938997924327850e-01" purity="4.9871551990509033e-01" nType="0">
        <Node pos="l" depth="1" NCoef="0" IVar="25" Cut="2.3062928020954132e-01" cType="1" res="2.7646545786410570e-03" rms="1.9432613253593445e-01" purity="6.4163154363632202e-01" nType="0">
          <Node pos="l" depth="2" NCoef="0" IVar="-1" Cut="0.0000000000000000e+00" cType="1" res="1.6046415548771620e-03" rms="1.9075809419155121e-01" purity="7.0872151851654053e-01" nType="-99"/>
          <Node pos="r" depth="2" NCoef="0" IVar="-1" Cut="0.0000000000000000e+00" cType="1" res="1.0799219831824303e-02" rms="2.1111904084682465e-01" purity="3.0618751049041748e-01" nType="-99"/>
        </Node>
        <Node pos="r" depth="1" NCoef="0" IVar="16" Cut="3.6133724451065063e-01" cType="1" res="-3.3362593967467546e-03" rms="2.0479287207126617e-01" purity="3.4077584743499756e-01" nType="0">
          <Node pos="l" depth="2" NCoef="0" IVar="-1" Cut="0.0000000000000000e+00" cType="1" res="1.3923101359978318e-03" rms="1.9917862117290497e-01" purity="1.7924964427947998e-01" nType="-99"/>
          <Node pos="r" depth="2" NCoef="0" IVar="-1" Cut="0.0000000000000000e+00" cType="1" res="-7.1281543932855129e-03" rms="2.0894783735275269e-01" purity="4.6526497602462769e-01" nType="-99"/>
        </Node>
      </Node>
    </BinaryTree>
    <BinaryTree type="DecisionTree" boostWeight="1.0000000000000000e+00" itree="458">
      <Node pos="s" depth="0" NCoef="0" IVar="10" Cut="7.3820095062255859e+00" cType="1" res="2.3124253493733704e-04" rms="2.0009112358093262e-01" purity="5.0077438354492188e-01" nType="0">
        <Node pos="l" depth="1" NCoef="0" IVar="6" Cut="4.3177285194396973e+00" cType="1" res="2.6099644601345062e-03" rms="1.9817157089710236e-01" purity="5.2672654390335083e-01" nType="0">
          <Node pos="l" depth="2" NCoef="0" IVar="-1" Cut="0.0000000000000000e+00" cType="1" res="-8.9141149073839188e-03" rms="1.9219140708446503e-01" purity="2.9133647680282593e-01" nType="-99"/>
          <Node pos="r" depth="2" NCoef="0" IVar="-1" Cut="0.0000000000000000e+00" cType="1" res="6.0002338141202927e-03" rms="1.9973368942737579e-01" purity="5.9286153316497803e-01" nType="-99"/>
        </Node>
        <Node pos="r" depth="1" NCoef="0" IVar="6" Cut="4.8856077194213867e+00" cType="1" res="-4.6760248951613903e-03" rms="2.0390644669532776e-01" purity="4.4723555445671082e-01" nType="0">
          <Node pos="l" depth="2" NCoef="0" IVar="-1" Cut="0.0000000000000000e+00" cType="1" res="1.3820177875459194e-02" rms="2.2002804279327393e-01" purity="5.0860857963562012e-01" nType="-99"/>
          <Node pos="r" depth="2" NCoef="0" IVar="-1" Cut="0.0000000000000000e+00" cType="1" res="-9.2891072854399681e-03" rms="2.0004767179489136e-01" purity="4.3399485945701599e-01" nType="-99"/>
        </Node>
      </Node>
    </BinaryTree>
    <BinaryTree type="DecisionTree" boostWeight="1.0000000000000000e+00" itree="459">
      <Node pos="s" depth="0" NCoef="0" IVar="28" Cut="2.8745684027671814e-01" cType="1" res="5.7364889653399587e-04" rms="2.0020638406276703e-01" purity="5.0305610895156860e-01" nType="0">
        <Node pos="l" depth="1" NCoef="0" IVar="0" Cut="8.8685083389282227e+00" cType="1" res="6.0807960107922554e-03" rms="2.1455256640911102e-01" purity="2.9989847540855408e-01" nType="0">
          <Node pos="l" depth="2" NCoef="0" IVar="-1" Cut="0.0000000000000000e+00" cType="1" res="1.4014263870194554e-03" rms="2.1037824451923370e-01" purity="2.9233539104461670e-01" nType="-99"/>
          <Node pos="r" depth="2" NCoef="0" IVar="-1" Cut="0.0000000000000000e+00" cType="1" res="1.5985969454050064e-02" rms="2.2226262092590332e-01" purity="3.1483769416809082e-01" nType="-99"/>
        </Node>
        <Node pos="r" depth="1" NCoef="0" IVar="14" Cut="7.9398899078369141e+00" cType="1" res="-5.1036814693361521e-04" rms="1.9724154472351074e-01" purity="5.4304522275924683e-01" nType="0">
          <Node pos="l" depth="2" NCoef="0" IVar="-1" Cut="0.0000000000000000e+00" cType="1" res="4.7911214642226696e-03" rms="2.0321482419967651e-01" purity="4.8667740821838379e-01" nType="-99"/>
          <Node pos="r" depth="2" NCoef="0" IVar="-1" Cut="0.0000000000000000e+00" cType="1" res="-2.4043931625783443e-03" rms="1.9521416723728180e-01" purity="5.6155651807785034e-01" nType="-99"/>
        </Node>
      </Node>
    </BinaryTree>
    <BinaryTree type="DecisionTree" boostWeight="1.0000000000000000e+00" itree="460">
      <Node pos="s" depth="0" NCoef="0" IVar="11" Cut="7.0704717636108398e+00" cType="1" res="-1.4506111619994044e-03" rms="1.9945062696933746e-01" purity="4.9712958931922913e-01" nType="0">
        <Node pos="l" depth="1" NCoef="0" IVar="15" Cut="7.1580138206481934e+00" cType="1" res="-3.5936783533543348e-03" rms="1.9889739155769348e-01" purity="5.1625919342041016e-01" nType="0">
          <Node pos="l" depth="2" NCoef="0" IVar="-1" Cut="0.0000000000000000e+00" cType="1" res="-1.7900603124871850e-03" rms="2.0173455774784088e-01" purity="5.0729185342788696e-01" nType="-99"/>
          <Node pos="r" depth="2" NCoef="0" IVar="-1" Cut="0.0000000000000000e+00" cType="1" res="-2.4456946179270744e-02" rms="1.7815130949020386e-01" purity="5.7636868953704834e-01" nType="-99"/>
        </Node>
        <Node pos="r" depth="1" NCoef="0" IVar="6" Cut="4.3221216201782227e+00" cType="1" res="2.3566856980323792e-03" rms="2.0037320256233215e-01" purity="4.6314463019371033e-01" nType="0">
          <Node pos="l" depth="2" NCoef="0" IVar="-1" Cut="0.0000000000000000e+00" cType="1" res="4.0694709867238998e-02" rms="2.4475370347499847e-01" purity="4.8574101924896240e-01" nType="-99"/>
          <Node pos="r" depth="2" NCoef="0" IVar="-1" Cut="0.0000000000000000e+00" cType="1" res="-3.4096222952939570e-04" rms="1.9629782438278198e-01" purity="4.6140903234481812e-01" nType="-99"/>
        </Node>
      </Node>
    </BinaryTree>
    <BinaryTree type="DecisionTree" boostWeight="1.0000000000000000e+00" itree="461">
      <Node pos="s" depth="0" NCoef="0" IVar="29" Cut="5.6035804748535156e-01" cType="1" res="5.4139370331540704e-04" rms="2.0149461925029755e-01" purity="5.0127917528152466e-01" nType="0">
        <Node pos="l" depth="1" NCoef="0" IVar="10" Cut="7.7128834724426270e+00" cType="1" res="-8.3427864592522383e-04" rms="1.9796088337898254e-01" purity="5.2801370620727539e-01" nType="0">
          <Node pos="l" depth="2" NCoef="0" IVar="-1" Cut="0.0000000000000000e+00" cType="1" res="-2.8886969666928053e-03" rms="1.9605500996112823e-01" purity="5.3329962491989136e-01" nType="-99"/>
          <Node pos="r" depth="2" NCoef="0" IVar="-1" Cut="0.0000000000000000e+00" cType="1" res="7.7872155234217644e-03" rms="2.0667190849781036e-01" purity="5.0266855955123901e-01" nType="-99"/>
        </Node>
        <Node pos="r" depth="1" NCoef="0" IVar="22" Cut="1.5432194471359253e+00" cType="1" res="9.2002768069505692e-03" rms="2.2225667536258698e-01" purity="3.3300435543060303e-01" nType="0">
          <Node pos="l" depth="2" NCoef="0" IVar="-1" Cut="0.0000000000000000e+00" cType="1" res="-1.8613458378240466e-03" rms="2.0342853665351868e-01" purity="2.5499552488327026e-01" nType="-99"/>
          <Node pos="r" depth="2" NCoef="0" IVar="-1" Cut="0.0000000000000000e+00" cType="1" res="1.5777518972754478e-02" rms="2.3444639146327972e-01" purity="3.8859671354293823e-01" nType="-99"/>
        </Node>
      </Node>
    </BinaryTree>
    <BinaryTree type="DecisionTree" boostWeight="1.0000000000000000e+00" itree="462">
      <Node pos="s" depth="0" NCoef="0" IVar="23" Cut="5.7234400510787964e-01" cType="1" res="-6.2105484539642930e-04" rms="1.9853532314300537e-01" purity="4.9403297901153564e-01" nType="0">
        <Node pos="l" depth="1" NCoef="0" IVar="3" Cut="1.4412596225738525e+00" cType="1" res="-5.8830049820244312e-03" rms="1.8181504309177399e-01" purity="9.7151406109333038e-02" nType="0">
          <Node pos="l" depth="2" NCoef="0" IVar="-1" Cut="0.0000000000000000e+00" cType="1" res="-9.9497707560658455e-03" rms="2.4505288898944855e-01" purity="2.1657566726207733e-01" nType="-99"/>
          <Node pos="r" depth="2" NCoef="0" IVar="-1" Cut="0.0000000000000000e+00" cType="1" res="-4.7869621776044369e-03" rms="1.5559090673923492e-01" purity="5.8183506131172180e-02" nType="-99"/>
        </Node>
        <Node pos="r" depth="1" NCoef="0" IVar="23" Cut="7.9636889696121216e-01" cType="1" res="1.6235149232670665e-03" rms="2.0521257817745209e-01" purity="6.6332924365997314e-01" nType="0">
          <Node pos="l" depth="2" NCoef="0" IVar="-1" Cut="0.0000000000000000e+00" cType="1" res="6.3856514170765877e-03" rms="2.4517197906970978e-01" purity="2.6987448334693909e-01" nType="-99"/>
          <Node pos="r" depth="2" NCoef="0" IVar="-1" Cut="0.0000000000000000e+00" cType="1" res="-1.0739724384620786e-03" rms="1.8813140690326691e-01" purity="8.0972892045974731e-01" nType="-99"/>
        </Node>
      </Node>
    </BinaryTree>
    <BinaryTree type="DecisionTree" boostWeight="1.0000000000000000e+00" itree="463">
      <Node pos="s" depth="0" NCoef="0" IVar="10" Cut="7.3821825981140137e+00" cType="1" res="6.7660992499440908e-04" rms="1.9809532165527344e-01" purity="4.9840506911277771e-01" nType="0">
        <Node pos="l" depth="1" NCoef="0" IVar="10" Cut="6.8506579399108887e+00" cType="1" res="2.5505998637527227e-03" rms="1.9476591050624847e-01" purity="5.2250772714614868e-01" nType="0">
          <Node pos="l" depth="2" NCoef="0" IVar="-1" Cut="0.0000000000000000e+00" cType="1" res="-8.1662548473104835e-04" rms="1.9411939382553101e-01" purity="4.8322251439094543e-01" nType="-99"/>
          <Node pos="r" depth="2" NCoef="0" IVar="-1" Cut="0.0000000000000000e+00" cType="1" res="8.3736693486571312e-03" rms="1.9565813243389130e-01" purity="5.8343505859375000e-01" nType="-99"/>
        </Node>
        <Node pos="r" depth="1" NCoef="0" IVar="15" Cut="6.9674620628356934e+00" cType="1" res="-3.2152927014976740e-03" rms="2.0478223264217377e-01" purity="4.4834855198860168e-01" nType="0">
          <Node pos="l" depth="2" NCoef="0" IVar="-1" Cut="0.0000000000000000e+00" cType="1" res="-9.0375151485204697e-03" rms="2.1382786333560944e-01" purity="3.7210407853126526e-01" nType="-99"/>
          <Node pos="r" depth="2" NCoef="0" IVar="-1" Cut="0.0000000000000000e+00" cType="1" res="7.0721041411161423e-03" rms="1.9007915258407593e-01" purity="5.6262671947479248e-01" nType="-99"/>
        </Node>
      </Node>
    </BinaryTree>
    <BinaryTree type="DecisionTree" boostWeight="1.0000000000000000e+00" itree="464">
      <Node pos="s" depth="0" NCoef="0" IVar="20" Cut="-8.0601429939270020e-01" cType="1" res="-7.6642597559839487e-04" rms="1.9974474608898163e-01" purity="4.9969670176506042e-01" nType="0">
        <Node pos="l" depth="1" NCoef="0" IVar="32" Cut="7.6174154877662659e-02" cType="1" res="-2.3042869288474321e-03" rms="1.9588781893253326e-01" purity="5.5684030055999756e-01" nType="0">
          <Node pos="l" depth="2" NCoef="0" IVar="-1" Cut="0.0000000000000000e+00" cType="1" res="-4.2024669237434864e-03" rms="1.9521811604499817e-01" purity="6.0611855983734131e-01" nType="-99"/>
          <Node pos="r" depth="2" NCoef="0" IVar="-1" Cut="0.0000000000000000e+00" cType="1" res="7.4353632517158985e-03" rms="1.9966104626655579e-01" purity="2.5997260212898254e-01" nType="-99"/>
        </Node>
        <Node pos="r" depth="1" NCoef="0" IVar="34" Cut="1.1907922029495239e+00" cType="1" res="3.6496580578386784e-03" rms="2.1036513149738312e-01" purity="3.3560463786125183e-01" nType="0">
          <Node pos="l" depth="2" NCoef="0" IVar="-1" Cut="0.0000000000000000e+00" cType="1" res="1.1294615454971790e-02" rms="2.1781457960605621e-01" purity="5.0912797451019287e-01" nType="-99"/>
          <Node pos="r" depth="2" NCoef="0" IVar="-1" Cut="0.0000000000000000e+00" cType="1" res="-7.0092017995193601e-04" rms="2.0644937455654144e-01" purity="2.4974994361400604e-01" nType="-99"/>
        </Node>
      </Node>
    </BinaryTree>
    <BinaryTree type="DecisionTree" boostWeight="1.0000000000000000e+00" itree="465">
      <Node pos="s" depth="0" NCoef="0" IVar="13" Cut="7.2355737686157227e+00" cType="1" res="-8.6401047883555293e-04" rms="1.9936352968215942e-01" purity="5.0022614002227783e-01" nType="0">
        <Node pos="l" depth="1" NCoef="0" IVar="11" Cut="6.0622301101684570e+00" cType="1" res="-9.0565243735909462e-03" rms="1.9303423166275024e-01" purity="3.4391945600509644e-01" nType="0">
          <Node pos="l" depth="2" NCoef="0" IVar="-1" Cut="0.0000000000000000e+00" cType="1" res="6.5033417195081711e-03" rms="1.9501039385795593e-01" purity="3.2434618473052979e-01" nType="-99"/>
          <Node pos="r" depth="2" NCoef="0" IVar="-1" Cut="0.0000000000000000e+00" cType="1" res="-2.2436454892158508e-02" rms="1.9112861156463623e-01" purity="3.5681149363517761e-01" nType="-99"/>
        </Node>
        <Node pos="r" depth="1" NCoef="0" IVar="7" Cut="2.9961276054382324e+00" cType="1" res="-1.7679276061244309e-04" rms="1.9987007975578308e-01" purity="5.1333779096603394e-01" nType="0">
          <Node pos="l" depth="2" NCoef="0" IVar="-1" Cut="0.0000000000000000e+00" cType="1" res="1.0908565018326044e-03" rms="2.0707604289054871e-01" purity="5.9171473979949951e-01" nType="-99"/>
          <Node pos="r" depth="2" NCoef="0" IVar="-1" Cut="0.0000000000000000e+00" cType="1" res="-1.0183459147810936e-02" rms="1.6271290183067322e-01" purity="1.5427744388580322e-01" nType="-99"/>
        </Node>
      </Node>
    </BinaryTree>
    <BinaryTree type="DecisionTree" boostWeight="1.0000000000000000e+00" itree="466">
      <Node pos="s" depth="0" NCoef="0" IVar="19" Cut="-1.1716958045959473e+01" cType="1" res="-4.4166095904074609e-04" rms="1.9975192844867706e-01" purity="4.9786818027496338e-01" nType="0">
        <Node pos="l" depth="1" NCoef="0" IVar="-1" Cut="0.0000000000000000e+00" cType="1" res="1.4886997640132904e-02" rms="2.0006953179836273e-01" purity="5.3918468952178955e-01" nType="-99"/>
        <Node pos="r" depth="1" NCoef="0" IVar="22" Cut="2.6124765396118164e+01" cType="1" res="-1.1173436651006341e-03" rms="1.9971238076686859e-01" purity="4.9567648768424988e-01" nType="0">
          <Node pos="l" depth="2" NCoef="0" IVar="-1" Cut="0.0000000000000000e+00" cType="1" res="-2.6362678036093712e-03" rms="2.0504854619503021e-01" purity="4.3995967507362366e-01" nType="-99"/>
          <Node pos="r" depth="2" NCoef="0" IVar="-1" Cut="0.0000000000000000e+00" cType="1" res="1.1045804247260094e-02" rms="1.6430182754993439e-01" purity="8.2625854015350342e-01" nType="-99"/>
        </Node>
      </Node>
    </BinaryTree>
    <BinaryTree type="DecisionTree" boostWeight="1.0000000000000000e+00" itree="467">
      <Node pos="s" depth="0" NCoef="0" IVar="18" Cut="2.3074920177459717e+00" cType="1" res="1.7145571764558554e-03" rms="1.9878114759922028e-01" purity="5.0070989131927490e-01" nType="0">
        <Node pos="l" depth="1" NCoef="0" IVar="11" Cut="6.1023688316345215e+00" cType="1" res="6.7261053482070565e-04" rms="1.9808645546436310e-01" purity="5.3560084104537964e-01" nType="0">
          <Node pos="l" depth="2" NCoef="0" IVar="-1" Cut="0.0000000000000000e+00" cType="1" res="-7.5880791991949081e-03" rms="1.9674724340438843e-01" purity="4.4261947274208069e-01" nType="-99"/>
          <Node pos="r" depth="2" NCoef="0" IVar="-1" Cut="0.0000000000000000e+00" cType="1" res="2.4070048239082098e-03" rms="1.9831612706184387e-01" purity="5.5384677648544312e-01" nType="-99"/>
        </Node>
        <Node pos="r" depth="1" NCoef="0" IVar="7" Cut="2.2166931629180908e+00" cType="1" res="8.6747193709015846e-03" rms="2.0322379469871521e-01" purity="2.6763978600502014e-01" nType="0">
          <Node pos="l" depth="2" NCoef="0" IVar="-1" Cut="0.0000000000000000e+00" cType="1" res="1.3869497925043106e-02" rms="2.5651434063911438e-01" purity="4.6811398863792419e-01" nType="-99"/>
          <Node pos="r" depth="2" NCoef="0" IVar="-1" Cut="0.0000000000000000e+00" cType="1" res="-2.1681599318981171e-03" rms="1.3237528502941132e-01" purity="7.4593529105186462e-02" nType="-99"/>
        </Node>
      </Node>
    </BinaryTree>
    <BinaryTree type="DecisionTree" boostWeight="1.0000000000000000e+00" itree="468">
      <Node pos="s" depth="0" NCoef="0" IVar="27" Cut="8.5697853565216064e-01" cType="1" res="3.5074850893579423e-04" rms="1.9808971881866455e-01" purity="5.0439041852951050e-01" nType="0">
        <Node pos="l" depth="1" NCoef="0" IVar="30" Cut="3.8187008351087570e-02" cType="1" res="-4.1581341065466404e-03" rms="1.9307684898376465e-01" purity="2.2247350215911865e-01" nType="0">
          <Node pos="l" depth="2" NCoef="0" IVar="-1" Cut="0.0000000000000000e+00" cType="1" res="-1.0419433005154133e-02" rms="1.9777566194534302e-01" purity="2.9269224405288696e-01" nType="-99"/>
          <Node pos="r" depth="2" NCoef="0" IVar="-1" Cut="0.0000000000000000e+00" cType="1" res="2.8324271552264690e-03" rms="1.8696479499340057e-01" purity="1.3631977140903473e-01" nType="-99"/>
        </Node>
        <Node pos="r" depth="1" NCoef="0" IVar="11" Cut="7.6625757217407227e+00" cType="1" res="2.3635115940123796e-03" rms="2.0025420188903809e-01" purity="6.3023799657821655e-01" nType="0">
          <Node pos="l" depth="2" NCoef="0" IVar="-1" Cut="0.0000000000000000e+00" cType="1" res="4.7426717355847359e-03" rms="2.0062886178493500e-01" purity="6.5215390920639038e-01" nType="-99"/>
          <Node pos="r" depth="2" NCoef="0" IVar="-1" Cut="0.0000000000000000e+00" cType="1" res="-1.1396556161344051e-02" rms="1.9692935049533844e-01" purity="4.6901935338973999e-01" nType="-99"/>
        </Node>
      </Node>
    </BinaryTree>
    <BinaryTree type="DecisionTree" boostWeight="1.0000000000000000e+00" itree="469">
      <Node pos="s" depth="0" NCoef="0" IVar="15" Cut="6.4451847076416016e+00" cType="1" res="6.8972888402640820e-04" rms="2.0095594227313995e-01" purity="4.9962323904037476e-01" nType="0">
        <Node pos="l" depth="1" NCoef="0" IVar="2" Cut="1.4479005813598633e+01" cType="1" res="-1.9554980099201202e-03" rms="2.0923283696174622e-01" purity="4.7217029333114624e-01" nType="0">
          <Node pos="l" depth="2" NCoef="0" IVar="-1" Cut="0.0000000000000000e+00" cType="1" res="-1.0815703717526048e-04" rms="2.1221378445625305e-01" purity="4.9753466248512268e-01" nType="-99"/>
          <Node pos="r" depth="2" NCoef="0" IVar="-1" Cut="0.0000000000000000e+00" cType="1" res="-1.9289398565888405e-02" rms="1.8206149339675903e-01" purity="2.6279386878013611e-01" nType="-99"/>
        </Node>
        <Node pos="r" depth="1" NCoef="0" IVar="7" Cut="3.3517553806304932e+00" cType="1" res="3.2572620548307896e-03" rms="1.9254750013351440e-01" purity="5.2626991271972656e-01" nType="0">
          <Node pos="l" depth="2" NCoef="0" IVar="-1" Cut="0.0000000000000000e+00" cType="1" res="6.9384491071105003e-03" rms="1.9717650115489960e-01" purity="5.9834802150726318e-01" nType="-99"/>
          <Node pos="r" depth="2" NCoef="0" IVar="-1" Cut="0.0000000000000000e+00" cType="1" res="-2.8839495033025742e-02" rms="1.5962833166122437e-01" purity="7.7749527990818024e-02" nType="-99"/>
        </Node>
      </Node>
    </BinaryTree>
    <BinaryTree type="DecisionTree" boostWeight="1.0000000000000000e+00" itree="470">
      <Node pos="s" depth="0" NCoef="0" IVar="23" Cut="3.3478495478630066e-01" cType="1" res="5.0495378673076630e-04" rms="1.9860562682151794e-01" purity="5.0116544961929321e-01" nType="0">
        <Node pos="l" depth="1" NCoef="0" IVar="7" Cut="2.6065874099731445e+00" cType="1" res="-6.8299658596515656e-03" rms="1.5623979270458221e-01" purity="5.9416219592094421e-02" nType="0">
          <Node pos="l" depth="2" NCoef="0" IVar="-1" Cut="0.0000000000000000e+00" cType="1" res="-1.4878534711897373e-02" rms="1.8233011662960052e-01" purity="8.6100615561008453e-02" nType="-99"/>
          <Node pos="r" depth="2" NCoef="0" IVar="-1" Cut="0.0000000000000000e+00" cType="1" res="1.6603585332632065e-02" rms="1.0878070443868637e-01" purity="2.1968852728605270e-02" nType="-99"/>
        </Node>
        <Node pos="r" depth="1" NCoef="0" IVar="25" Cut="4.6125581860542297e-01" cType="1" res="1.6903297509998083e-03" rms="2.0460592210292816e-01" purity="5.7255536317825317e-01" nType="0">
          <Node pos="l" depth="2" NCoef="0" IVar="-1" Cut="0.0000000000000000e+00" cType="1" res="2.9366167727857828e-03" rms="2.0582084357738495e-01" purity="6.1290919780731201e-01" nType="-99"/>
          <Node pos="r" depth="2" NCoef="0" IVar="-1" Cut="0.0000000000000000e+00" cType="1" res="-9.3646151944994926e-03" rms="1.9267699122428894e-01" purity="1.9698472321033478e-01" nType="-99"/>
        </Node>
      </Node>
    </BinaryTree>
    <BinaryTree type="DecisionTree" boostWeight="1.0000000000000000e+00" itree="471">
      <Node pos="s" depth="0" NCoef="0" IVar="20" Cut="1.0328104019165039e+01" cType="1" res="9.1339740902185440e-04" rms="1.9951583445072174e-01" purity="5.0113642215728760e-01" nType="0">
        <Node pos="l" depth="1" NCoef="0" IVar="23" Cut="1.9225357472896576e-01" cType="1" res="2.4388408928643912e-04" rms="1.9819688796997070e-01" purity="5.1284390687942505e-01" nType="0">
          <Node pos="l" depth="2" NCoef="0" IVar="-1" Cut="0.0000000000000000e+00" cType="1" res="-1.9314467906951904e-02" rms="1.3683298230171204e-01" purity="4.2964309453964233e-02" nType="-99"/>
          <Node pos="r" depth="2" NCoef="0" IVar="-1" Cut="0.0000000000000000e+00" cType="1" res="1.1262053158134222e-03" rms="2.0152899622917175e-01" purity="5.4350167512893677e-01" nType="-99"/>
        </Node>
        <Node pos="r" depth="1" NCoef="0" IVar="16" Cut="4.0308037400245667e-01" cType="1" res="1.2753805145621300e-02" rms="2.2121328115463257e-01" purity="2.9408797621726990e-01" nType="0">
          <Node pos="l" depth="2" NCoef="0" IVar="-1" Cut="0.0000000000000000e+00" cType="1" res="2.5797298178076744e-02" rms="2.2663211822509766e-01" purity="1.9391639530658722e-01" nType="-99"/>
          <Node pos="r" depth="2" NCoef="0" IVar="-1" Cut="0.0000000000000000e+00" cType="1" res="2.4891369976103306e-03" rms="2.1515379846096039e-01" purity="3.9442703127861023e-01" nType="-99"/>
        </Node>
      </Node>
    </BinaryTree>
    <BinaryTree type="DecisionTree" boostWeight="1.0000000000000000e+00" itree="472">
      <Node pos="s" depth="0" NCoef="0" IVar="30" Cut="1.9042098522186279e-01" cType="1" res="-1.2619646440725774e-04" rms="2.0067016780376434e-01" purity="4.9703979492187500e-01" nType="0">
        <Node pos="l" depth="1" NCoef="0" IVar="30" Cut="1.8155951052904129e-02" cType="1" res="-9.0219482081010938e-04" rms="2.0064036548137665e-01" purity="5.1804143190383911e-01" nType="0">
          <Node pos="l" depth="2" NCoef="0" IVar="-1" Cut="0.0000000000000000e+00" cType="1" res="1.9942119251936674e-03" rms="1.9526165723800659e-01" purity="6.4221608638763428e-01" nType="-99"/>
          <Node pos="r" depth="2" NCoef="0" IVar="-1" Cut="0.0000000000000000e+00" cType="1" res="-4.3382439762353897e-03" rms="2.0698519051074982e-01" purity="3.6616319417953491e-01" nType="-99"/>
        </Node>
        <Node pos="r" depth="1" NCoef="0" IVar="3" Cut="2.1533367633819580e+00" cType="1" res="9.8343295976519585e-03" rms="2.0078633725643158e-01" purity="2.2746770083904266e-01" nType="0">
          <Node pos="l" depth="2" NCoef="0" IVar="-1" Cut="0.0000000000000000e+00" cType="1" res="1.4328477904200554e-02" rms="2.6236930489540100e-01" purity="4.3850362300872803e-01" nType="-99"/>
          <Node pos="r" depth="2" NCoef="0" IVar="-1" Cut="0.0000000000000000e+00" cType="1" res="2.2933438885957003e-03" rms="1.3928809762001038e-01" purity="7.4087329208850861e-02" nType="-99"/>
        </Node>
      </Node>
    </BinaryTree>
    <BinaryTree type="DecisionTree" boostWeight="1.0000000000000000e+00" itree="473">
      <Node pos="s" depth="0" NCoef="0" IVar="19" Cut="5.0660163164138794e-01" cType="1" res="1.2707796413451433e-03" rms="1.9942693412303925e-01" purity="5.0113606452941895e-01" nType="0">
        <Node pos="l" depth="1" NCoef="0" IVar="25" Cut="4.6257331967353821e-01" cType="1" res="7.9643335193395615e-03" rms="1.9963160157203674e-01" purity="3.8547018170356750e-01" nType="0">
          <Node pos="l" depth="2" NCoef="0" IVar="-1" Cut="0.0000000000000000e+00" cType="1" res="1.6586257144808769e-02" rms="2.1394430100917816e-01" purity="5.0949358940124512e-01" nType="-99"/>
          <Node pos="r" depth="2" NCoef="0" IVar="-1" Cut="0.0000000000000000e+00" cType="1" res="-8.7088579311966896e-03" rms="1.6675944626331329e-01" purity="1.3874928653240204e-01" nType="-99"/>
        </Node>
        <Node pos="r" depth="1" NCoef="0" IVar="22" Cut="2.9152858734130859e+01" cType="1" res="5.8230602007824928e-05" rms="1.9936579465866089e-01" purity="5.2208912372589111e-01" nType="0">
          <Node pos="l" depth="2" NCoef="0" IVar="-1" Cut="0.0000000000000000e+00" cType="1" res="-1.2334646889939904e-03" rms="2.0433486998081207e-01" purity="4.7951790690422058e-01" nType="-99"/>
          <Node pos="r" depth="2" NCoef="0" IVar="-1" Cut="0.0000000000000000e+00" cType="1" res="1.8860969692468643e-02" rms="1.5206849575042725e-01" purity="8.7246268987655640e-01" nType="-99"/>
        </Node>
      </Node>
    </BinaryTree>
    <BinaryTree type="DecisionTree" boostWeight="1.0000000000000000e+00" itree="474">
      <Node pos="s" depth="0" NCoef="0" IVar="29" Cut="1.8678626418113708e-01" cType="1" res="-8.6540565825998783e-04" rms="1.9888111948966980e-01" purity="4.9970373511314392e-01" nType="0">
        <Node pos="l" depth="1" NCoef="0" IVar="6" Cut="5.6853432655334473e+00" cType="1" res="1.4605174073949456e-03" rms="1.9592165946960449e-01" purity="6.1725926399230957e-01" nType="0">
          <Node pos="l" depth="2" NCoef="0" IVar="-1" Cut="0.0000000000000000e+00" cType="1" res="-2.1614201832562685e-03" rms="2.0139314234256744e-01" purity="6.2061786651611328e-01" nType="-99"/>
          <Node pos="r" depth="2" NCoef="0" IVar="-1" Cut="0.0000000000000000e+00" cType="1" res="6.0292137786746025e-03" rms="1.8916089832782745e-01" purity="6.1327904462814331e-01" nType="-99"/>
        </Node>
        <Node pos="r" depth="1" NCoef="0" IVar="24" Cut="4.3029287457466125e-01" cType="1" res="-4.4741760939359665e-03" rms="2.0333495736122131e-01" purity="3.1731128692626953e-01" nType="0">
          <Node pos="l" depth="2" NCoef="0" IVar="-1" Cut="0.0000000000000000e+00" cType="1" res="9.3483161181211472e-03" rms="1.7674954235553741e-01" purity="1.0947252064943314e-01" nType="-99"/>
          <Node pos="r" depth="2" NCoef="0" IVar="-1" Cut="0.0000000000000000e+00" cType="1" res="-7.0972763933241367e-03" rms="2.0988166332244873e-01" purity="3.7366306781768799e-01" nType="-99"/>
        </Node>
      </Node>
    </BinaryTree>
    <BinaryTree type="DecisionTree" boostWeight="1.0000000000000000e+00" itree="475">
      <Node pos="s" depth="0" NCoef="0" IVar="15" Cut="6.1007566452026367e+00" cType="1" res="6.6018960205838084e-04" rms="2.0198886096477509e-01" purity="4.9891430139541626e-01" nType="0">
        <Node pos="l" depth="1" NCoef="0" IVar="6" Cut="4.6590900421142578e+00" cType="1" res="4.5466003939509392e-03" rms="2.1688005328178406e-01" purity="4.9526420235633850e-01" nType="0">
          <Node pos="l" depth="2" NCoef="0" IVar="-1" Cut="0.0000000000000000e+00" cType="1" res="1.3782521709799767e-02" rms="2.2458934783935547e-01" purity="3.9852765202522278e-01" nType="-99"/>
          <Node pos="r" depth="2" NCoef="0" IVar="-1" Cut="0.0000000000000000e+00" cType="1" res="7.8090856550261378e-04" rms="2.1336625516414642e-01" purity="5.3691315650939941e-01" nType="-99"/>
        </Node>
        <Node pos="r" depth="1" NCoef="0" IVar="11" Cut="7.7172079086303711e+00" cType="1" res="-1.1528546456247568e-03" rms="1.9462613761425018e-01" purity="5.0061708688735962e-01" nType="0">
          <Node pos="l" depth="2" NCoef="0" IVar="-1" Cut="0.0000000000000000e+00" cType="1" res="-3.0711356084793806e-03" rms="1.9430017471313477e-01" purity="5.1877135038375854e-01" nType="-99"/>
          <Node pos="r" depth="2" NCoef="0" IVar="-1" Cut="0.0000000000000000e+00" cType="1" res="8.4549468010663986e-03" rms="1.9640809297561646e-01" purity="3.8867038488388062e-01" nType="-99"/>
        </Node>
      </Node>
    </BinaryTree>
    <BinaryTree type="DecisionTree" boostWeight="1.0000000000000000e+00" itree="476">
      <Node pos="s" depth="0" NCoef="0" IVar="12" Cut="6.9167637825012207e+00" cType="1" res="4.0736119262874126e-04" rms="2.0033772289752960e-01" purity="5.0181388854980469e-01" nType="0">
        <Node pos="l" depth="1" NCoef="0" IVar="7" Cut="2.1506757736206055e+00" cType="1" res="-3.5858869086951017e-03" rms="2.0867577195167542e-01" purity="3.4999766945838928e-01" nType="0">
          <Node pos="l" depth="2" NCoef="0" IVar="-1" Cut="0.0000000000000000e+00" cType="1" res="-9.0200882405042648e-03" rms="2.4652934074401855e-01" purity="5.4874855279922485e-01" nType="-99"/>
          <Node pos="r" depth="2" NCoef="0" IVar="-1" Cut="0.0000000000000000e+00" cType="1" res="9.7466949373483658e-03" rms="1.5766160190105438e-01" purity="1.3620333373546600e-01" nType="-99"/>
        </Node>
        <Node pos="r" depth="1" NCoef="0" IVar="3" Cut="1.4426230192184448e+00" cType="1" res="1.8449084600433707e-03" rms="1.9723001122474670e-01" purity="5.5646681785583496e-01" nType="0">
          <Node pos="l" depth="2" NCoef="0" IVar="-1" Cut="0.0000000000000000e+00" cType="1" res="5.8948183432221413e-03" rms="2.0034788548946381e-01" purity="7.6315760612487793e-01" nType="-99"/>
          <Node pos="r" depth="2" NCoef="0" IVar="-1" Cut="0.0000000000000000e+00" cType="1" res="-8.8256376329809427e-04" rms="1.9506259262561798e-01" purity="4.1740241646766663e-01" nType="-99"/>
        </Node>
      </Node>
    </BinaryTree>
    <BinaryTree type="DecisionTree" boostWeight="1.0000000000000000e+00" itree="477">
      <Node pos="s" depth="0" NCoef="0" IVar="11" Cut="6.2959895133972168e+00" cType="1" res="-9.2310347827151418e-04" rms="1.9934424757957458e-01" purity="4.9609437584877014e-01" nType="0">
        <Node pos="l" depth="1" NCoef="0" IVar="26" Cut="9.2541627585887909e-02" cType="1" res="-5.0847171805799007e-03" rms="1.9957998394966125e-01" purity="4.2836642265319824e-01" nType="0">
          <Node pos="l" depth="2" NCoef="0" IVar="-1" Cut="0.0000000000000000e+00" cType="1" res="-1.0018691420555115e-02" rms="1.9942173361778259e-01" purity="4.7727149724960327e-01" nType="-99"/>
          <Node pos="r" depth="2" NCoef="0" IVar="-1" Cut="0.0000000000000000e+00" cType="1" res="6.6819577477872372e-03" rms="1.9965872168540955e-01" purity="2.8118026256561279e-01" nType="-99"/>
        </Node>
        <Node pos="r" depth="1" NCoef="0" IVar="16" Cut="3.3051595091819763e-01" cType="1" res="5.3923932136967778e-04" rms="1.9924071431159973e-01" purity="5.1989328861236572e-01" nType="0">
          <Node pos="l" depth="2" NCoef="0" IVar="-1" Cut="0.0000000000000000e+00" cType="1" res="-3.9330273866653442e-03" rms="2.1776886284351349e-01" purity="2.5817880034446716e-01" nType="-99"/>
          <Node pos="r" depth="2" NCoef="0" IVar="-1" Cut="0.0000000000000000e+00" cType="1" res="3.6760072689503431e-03" rms="1.8860149383544922e-01" purity="6.5909433364868164e-01" nType="-99"/>
        </Node>
      </Node>
    </BinaryTree>
    <BinaryTree type="DecisionTree" boostWeight="1.0000000000000000e+00" itree="478">
      <Node pos="s" depth="0" NCoef="0" IVar="6" Cut="3.6733765602111816e+00" cType="1" res="4.5337341725826263e-04" rms="1.9764412939548492e-01" purity="5.0123292207717896e-01" nType="0">
        <Node pos="l" depth="1" NCoef="0" IVar="2" Cut="3.6060571670532227e+00" cType="1" res="-9.5156179741024971e-03" rms="1.6994306445121765e-01" purity="1.1090725660324097e-01" nType="0">
          <Node pos="l" depth="2" NCoef="0" IVar="-1" Cut="0.0000000000000000e+00" cType="1" res="-2.5651004165410995e-02" rms="1.8127013742923737e-01" purity="1.2258429825305939e-01" nType="-99"/>
          <Node pos="r" depth="2" NCoef="0" IVar="-1" Cut="0.0000000000000000e+00" cType="1" res="2.0222554448992014e-03" rms="1.5492214262485504e-01" purity="9.7213797271251678e-02" nType="-99"/>
        </Node>
        <Node pos="r" depth="1" NCoef="0" IVar="11" Cut="6.1020622253417969e+00" cType="1" res="1.0386179201304913e-03" rms="1.9913515448570251e-01" purity="5.2414751052856445e-01" nType="0">
          <Node pos="l" depth="2" NCoef="0" IVar="-1" Cut="0.0000000000000000e+00" cType="1" res="7.4513652361929417e-03" rms="2.0967543125152588e-01" purity="4.6969419717788696e-01" nType="-99"/>
          <Node pos="r" depth="2" NCoef="0" IVar="-1" Cut="0.0000000000000000e+00" cType="1" res="-1.2449319183360785e-04" rms="1.9692942500114441e-01" purity="5.3508770465850830e-01" nType="-99"/>
        </Node>
      </Node>
    </BinaryTree>
    <BinaryTree type="DecisionTree" boostWeight="1.0000000000000000e+00" itree="479">
      <Node pos="s" depth="0" NCoef="0" IVar="20" Cut="-1.8330465316772461e+01" cType="1" res="-1.3657903764396906e-03" rms="1.9799157977104187e-01" purity="5.0036674737930298e-01" nType="0">
        <Node pos="l" depth="1" NCoef="0" IVar="32" Cut="7.5894422829151154e-02" cType="1" res="2.0674462430179119e-03" rms="1.8505480885505676e-01" purity="6.8876910209655762e-01" nType="0">
          <Node pos="l" depth="2" NCoef="0" IVar="-1" Cut="0.0000000000000000e+00" cType="1" res="9.9069124553352594e-04" rms="1.8432004749774933e-01" purity="7.1769887208938599e-01" nType="-99"/>
          <Node pos="r" depth="2" NCoef="0" IVar="-1" Cut="0.0000000000000000e+00" cType="1" res="1.7437849193811417e-02" rms="1.9236403703689575e-01" purity="3.7206494808197021e-01" nType="-99"/>
        </Node>
        <Node pos="r" depth="1" NCoef="0" IVar="31" Cut="9.5218166708946228e-02" cType="1" res="-3.6536068655550480e-03" rms="2.0613034069538116e-01" purity="3.7482038140296936e-01" nType="0">
          <Node pos="l" depth="2" NCoef="0" IVar="-1" Cut="0.0000000000000000e+00" cType="1" res="-5.6121540255844593e-03" rms="2.0825658738613129e-01" purity="4.2310300469398499e-01" nType="-99"/>
          <Node pos="r" depth="2" NCoef="0" IVar="-1" Cut="0.0000000000000000e+00" cType="1" res="4.7209677286446095e-03" rms="1.9677874445915222e-01" purity="1.7199552059173584e-01" nType="-99"/>
        </Node>
      </Node>
    </BinaryTree>
    <BinaryTree type="DecisionTree" boostWeight="1.0000000000000000e+00" itree="480">
      <Node pos="s" depth="0" NCoef="0" IVar="25" Cut="2.3137125372886658e-01" cType="1" res="-1.0174844646826386e-03" rms="1.9687969982624054e-01" purity="4.9903362989425659e-01" nType="0">
        <Node pos="l" depth="1" NCoef="0" IVar="11" Cut="6.2960352897644043e+00" cType="1" res="3.8784390198998153e-04" rms="1.9964194297790527e-01" purity="5.8326369524002075e-01" nType="0">
          <Node pos="l" depth="2" NCoef="0" IVar="-1" Cut="0.0000000000000000e+00" cType="1" res="-5.9065017849206924e-03" rms="2.0421278476715088e-01" purity="5.2963048219680786e-01" nType="-99"/>
          <Node pos="r" depth="2" NCoef="0" IVar="-1" Cut="0.0000000000000000e+00" cType="1" res="2.5857209693640471e-03" rms="1.9807341694831848e-01" purity="6.0094630718231201e-01" nType="-99"/>
        </Node>
        <Node pos="r" depth="1" NCoef="0" IVar="32" Cut="1.9049072638154030e-02" cType="1" res="-6.2507609836757183e-03" rms="1.8614013493061066e-01" purity="1.8537078797817230e-01" nType="0">
          <Node pos="l" depth="2" NCoef="0" IVar="-1" Cut="0.0000000000000000e+00" cType="1" res="-1.4949257485568523e-02" rms="2.0338527858257294e-01" purity="2.7103897929191589e-01" nType="-99"/>
          <Node pos="r" depth="2" NCoef="0" IVar="-1" Cut="0.0000000000000000e+00" cType="1" res="9.6715864492580295e-04" rms="1.6872528195381165e-01" purity="1.0780151933431625e-01" nType="-99"/>
        </Node>
      </Node>
    </BinaryTree>
    <BinaryTree type="DecisionTree" boostWeight="1.0000000000000000e+00" itree="481">
      <Node pos="s" depth="0" NCoef="0" IVar="31" Cut="1.7133450508117676e-01" cType="1" res="-9.3520054360851645e-04" rms="1.9780835509300232e-01" purity="4.9934953451156616e-01" nType="0">
        <Node pos="l" depth="1" NCoef="0" IVar="1" Cut="1.6407905578613281e+01" cType="1" res="-1.5740141679998487e-04" rms="1.9915875792503357e-01" purity="5.2604466676712036e-01" nType="0">
          <Node pos="l" depth="2" NCoef="0" IVar="-1" Cut="0.0000000000000000e+00" cType="1" res="1.2129038805142045e-03" rms="2.0263101160526276e-01" purity="5.3941512107849121e-01" nType="-99"/>
          <Node pos="r" depth="2" NCoef="0" IVar="-1" Cut="0.0000000000000000e+00" cType="1" res="-9.3030175194144249e-03" rms="1.7634908854961395e-01" purity="4.4459277391433716e-01" nType="-99"/>
        </Node>
        <Node pos="r" depth="1" NCoef="0" IVar="10" Cut="6.5243110656738281e+00" cType="1" res="-1.0055952705442905e-02" rms="1.8097448348999023e-01" purity="1.8631327152252197e-01" nType="0">
          <Node pos="l" depth="2" NCoef="0" IVar="-1" Cut="0.0000000000000000e+00" cType="1" res="-3.4733373671770096e-02" rms="1.5106004476547241e-01" purity="1.5343290567398071e-01" nType="-99"/>
          <Node pos="r" depth="2" NCoef="0" IVar="-1" Cut="0.0000000000000000e+00" cType="1" res="-1.7649759538471699e-03" rms="1.9632190465927124e-01" purity="2.0614002645015717e-01" nType="-99"/>
        </Node>
      </Node>
    </BinaryTree>
    <BinaryTree type="DecisionTree" boostWeight="1.0000000000000000e+00" itree="482">
      <Node pos="s" depth="0" NCoef="0" IVar="26" Cut="3.3271270990371704e-01" cType="1" res="-1.2959745945408940e-03" rms="1.9615788757801056e-01" purity="5.0142037868499756e-01" nType="0">
        <Node pos="l" depth="1" NCoef="0" IVar="11" Cut="6.7950873374938965e+00" cType="1" res="-1.9847452640533447e-03" rms="1.9544677436351776e-01" purity="5.2484786510467529e-01" nType="0">
          <Node pos="l" depth="2" NCoef="0" IVar="-1" Cut="0.0000000000000000e+00" cType="1" res="-5.3465794771909714e-03" rms="1.9470302760601044e-01" purity="5.2720272541046143e-01" nType="-99"/>
          <Node pos="r" depth="2" NCoef="0" IVar="-1" Cut="0.0000000000000000e+00" cType="1" res="7.7934405999258161e-04" rms="1.9617058336734772e-01" purity="5.2243280410766602e-01" nType="-99"/>
        </Node>
        <Node pos="r" depth="1" NCoef="0" IVar="27" Cut="2.3091208934783936e-01" cType="1" res="6.6666016355156898e-03" rms="2.0403037965297699e-01" purity="2.3058496415615082e-01" nType="0">
          <Node pos="l" depth="2" NCoef="0" IVar="-1" Cut="0.0000000000000000e+00" cType="1" res="-7.3283151723444462e-03" rms="1.8907062709331512e-01" purity="1.7642109096050262e-01" nType="-99"/>
          <Node pos="r" depth="2" NCoef="0" IVar="-1" Cut="0.0000000000000000e+00" cType="1" res="2.1609565243124962e-02" rms="2.1670982241630554e-01" purity="2.8240764141082764e-01" nType="-99"/>
        </Node>
      </Node>
    </BinaryTree>
    <BinaryTree type="DecisionTree" boostWeight="1.0000000000000000e+00" itree="483">
      <Node pos="s" depth="0" NCoef="0" IVar="13" Cut="8.0581874847412109e+00" cType="1" res="8.1657915143296123e-04" rms="2.0030193030834198e-01" purity="4.9862617254257202e-01" nType="0">
        <Node pos="l" depth="1" NCoef="0" IVar="16" Cut="3.6329138278961182e-01" cType="1" res="4.5130876824259758e-03" rms="2.0330783724784851e-01" purity="4.7411888837814331e-01" nType="0">
          <Node pos="l" depth="2" NCoef="0" IVar="-1" Cut="0.0000000000000000e+00" cType="1" res="1.7976600676774979e-02" rms="2.1934269368648529e-01" purity="3.1452119350433350e-01" nType="-99"/>
          <Node pos="r" depth="2" NCoef="0" IVar="-1" Cut="0.0000000000000000e+00" cType="1" res="-8.3787296898663044e-04" rms="1.9634257256984711e-01" purity="5.3739780187606812e-01" nType="-99"/>
        </Node>
        <Node pos="r" depth="1" NCoef="0" IVar="15" Cut="6.8444552421569824e+00" cType="1" res="-1.7372778384014964e-03" rms="1.9815830886363983e-01" purity="5.1555794477462769e-01" nType="0">
          <Node pos="l" depth="2" NCoef="0" IVar="-1" Cut="0.0000000000000000e+00" cType="1" res="-5.6139137595891953e-03" rms="2.0699094235897064e-01" purity="4.6179458498954773e-01" nType="-99"/>
          <Node pos="r" depth="2" NCoef="0" IVar="-1" Cut="0.0000000000000000e+00" cType="1" res="4.2268806137144566e-03" rms="1.8557408452033997e-01" purity="5.8747762441635132e-01" nType="-99"/>
        </Node>
      </Node>
    </BinaryTree>
    <BinaryTree type="DecisionTree" boostWeight="1.0000000000000000e+00" itree="484">
      <Node pos="s" depth="0" NCoef="0" IVar="4" Cut="6.9356880187988281e+00" cType="1" res="1.4666444621980190e-03" rms="2.0031751692295074e-01" purity="4.9969744682312012e-01" nType="0">
        <Node pos="l" depth="1" NCoef="0" IVar="1" Cut="3.2219715118408203e+01" cType="1" res="9.8077289294451475e-04" rms="2.0031477510929108e-01" purity="5.0527101755142212e-01" nType="0">
          <Node pos="l" depth="2" NCoef="0" IVar="-1" Cut="0.0000000000000000e+00" cType="1" res="1.5983643243089318e-03" rms="2.0161324739456177e-01" purity="5.1142150163650513e-01" nType="-99"/>
          <Node pos="r" depth="2" NCoef="0" IVar="-1" Cut="0.0000000000000000e+00" cType="1" res="-2.2597014904022217e-02" rms="1.4355546236038208e-01" purity="2.7842223644256592e-01" nType="-99"/>
        </Node>
        <Node pos="r" depth="1" NCoef="0" IVar="-1" Cut="0.0000000000000000e+00" cType="1" res="1.8536355346441269e-02" rms="1.9987417757511139e-01" purity="3.3636710047721863e-01" nType="-99"/>
      </Node>
    </BinaryTree>
    <BinaryTree type="DecisionTree" boostWeight="1.0000000000000000e+00" itree="485">
      <Node pos="s" depth="0" NCoef="0" IVar="12" Cut="7.3171873092651367e+00" cType="1" res="1.1270748218521476e-03" rms="1.9918426871299744e-01" purity="4.9852782487869263e-01" nType="0">
        <Node pos="l" depth="1" NCoef="0" IVar="11" Cut="7.3588147163391113e+00" cType="1" res="3.4093689173460007e-03" rms="2.0728667080402374e-01" purity="4.1362437605857849e-01" nType="0">
          <Node pos="l" depth="2" NCoef="0" IVar="-1" Cut="0.0000000000000000e+00" cType="1" res="6.6210292279720306e-03" rms="2.0602005720138550e-01" purity="4.5105496048927307e-01" nType="-99"/>
          <Node pos="r" depth="2" NCoef="0" IVar="-1" Cut="0.0000000000000000e+00" cType="1" res="-9.6409302204847336e-03" rms="2.1248754858970642e-01" purity="2.4305018782615662e-01" nType="-99"/>
        </Node>
        <Node pos="r" depth="1" NCoef="0" IVar="16" Cut="3.0213525891304016e-01" cType="1" res="-1.3453769497573376e-03" rms="1.8998637795448303e-01" purity="5.9050530195236206e-01" nType="0">
          <Node pos="l" depth="2" NCoef="0" IVar="-1" Cut="0.0000000000000000e+00" cType="1" res="1.7455618828535080e-02" rms="2.1225301921367645e-01" purity="3.0535036325454712e-01" nType="-99"/>
          <Node pos="r" depth="2" NCoef="0" IVar="-1" Cut="0.0000000000000000e+00" cType="1" res="-4.9353931099176407e-03" rms="1.8647232651710510e-01" purity="6.3094693422317505e-01" nType="-99"/>
        </Node>
      </Node>
    </BinaryTree>
    <BinaryTree type="DecisionTree" boostWeight="1.0000000000000000e+00" itree="486">
      <Node pos="s" depth="0" NCoef="0" IVar="28" Cut="7.1535158157348633e-01" cType="1" res="-2.4648261023685336e-04" rms="1.9796545803546906e-01" purity="4.9766531586647034e-01" nType="0">
        <Node pos="l" depth="1" NCoef="0" IVar="3" Cut="2.3870964050292969e+00" cType="1" res="3.0806865543127060e-03" rms="2.0938356220722198e-01" purity="3.4061610698699951e-01" nType="0">
          <Node pos="l" depth="2" NCoef="0" IVar="-1" Cut="0.0000000000000000e+00" cType="1" res="5.6250598281621933e-03" rms="2.4824500083923340e-01" purity="5.3273963928222656e-01" nType="-99"/>
          <Node pos="r" depth="2" NCoef="0" IVar="-1" Cut="0.0000000000000000e+00" cType="1" res="-5.9450338594615459e-03" rms="1.4246286451816559e-01" purity="8.6874075233936310e-02" nType="-99"/>
        </Node>
        <Node pos="r" depth="1" NCoef="0" IVar="16" Cut="3.2941326498985291e-01" cType="1" res="-3.2012904994189739e-03" rms="1.8719279766082764e-01" purity="6.3713836669921875e-01" nType="0">
          <Node pos="l" depth="2" NCoef="0" IVar="-1" Cut="0.0000000000000000e+00" cType="1" res="-9.6725244075059891e-03" rms="2.2213533520698547e-01" purity="3.7733516097068787e-01" nType="-99"/>
          <Node pos="r" depth="2" NCoef="0" IVar="-1" Cut="0.0000000000000000e+00" cType="1" res="-3.1751114875078201e-04" rms="1.7175579071044922e-01" purity="7.3720771074295044e-01" nType="-99"/>
        </Node>
      </Node>
    </BinaryTree>
    <BinaryTree type="DecisionTree" boostWeight="1.0000000000000000e+00" itree="487">
      <Node pos="s" depth="0" NCoef="0" IVar="23" Cut="4.7707825899124146e-01" cType="1" res="4.2415747884660959e-04" rms="1.9729223847389221e-01" purity="5.0180888175964355e-01" nType="0">
        <Node pos="l" depth="1" NCoef="0" IVar="25" Cut="4.6257246285676956e-02" cType="1" res="-4.5286179520189762e-03" rms="1.7468750476837158e-01" purity="8.2928486168384552e-02" nType="0">
          <Node pos="l" depth="2" NCoef="0" IVar="-1" Cut="0.0000000000000000e+00" cType="1" res="-1.1631932109594345e-02" rms="2.0918294787406921e-01" purity="1.4646722376346588e-01" nType="-99"/>
          <Node pos="r" depth="2" NCoef="0" IVar="-1" Cut="0.0000000000000000e+00" cType="1" res="2.5838695000857115e-03" rms="1.4764353632926941e-01" purity="4.1502393782138824e-02" nType="-99"/>
        </Node>
        <Node pos="r" depth="1" NCoef="0" IVar="13" Cut="7.5423750877380371e+00" cType="1" res="1.8920155707746744e-03" rms="2.0348671078681946e-01" purity="6.2595278024673462e-01" nType="0">
          <Node pos="l" depth="2" NCoef="0" IVar="-1" Cut="0.0000000000000000e+00" cType="1" res="-6.5498319454491138e-03" rms="1.9556914269924164e-01" purity="4.8364996910095215e-01" nType="-99"/>
          <Node pos="r" depth="2" NCoef="0" IVar="-1" Cut="0.0000000000000000e+00" cType="1" res="3.6305296234786510e-03" rms="2.0493054389953613e-01" purity="6.5310233831405640e-01" nType="-99"/>
        </Node>
      </Node>
    </BinaryTree>
    <BinaryTree type="DecisionTree" boostWeight="1.0000000000000000e+00" itree="488">
      <Node pos="s" depth="0" NCoef="0" IVar="6" Cut="6.7199349403381348e+00" cType="1" res="7.5204099994152784e-04" rms="1.9918473064899445e-01" purity="5.0640058517456055e-01" nType="0">
        <Node pos="l" depth="1" NCoef="0" IVar="1" Cut="3.9767484664916992e+00" cType="1" res="-4.0091050323098898e-04" rms="2.0292843878269196e-01" purity="5.2683693170547485e-01" nType="0">
          <Node pos="l" depth="2" NCoef="0" IVar="-1" Cut="0.0000000000000000e+00" cType="1" res="-9.3366922810673714e-03" rms="1.9836027920246124e-01" purity="3.6821928620338440e-01" nType="-99"/>
          <Node pos="r" depth="2" NCoef="0" IVar="-1" Cut="0.0000000000000000e+00" cType="1" res="2.1336076315492392e-03" rms="2.0420540869235992e-01" purity="5.7382911443710327e-01" nType="-99"/>
        </Node>
        <Node pos="r" depth="1" NCoef="0" IVar="23" Cut="8.5752004384994507e-01" cType="1" res="6.0963206924498081e-03" rms="1.8072602152824402e-01" purity="4.1167160868644714e-01" nType="0">
          <Node pos="l" depth="2" NCoef="0" IVar="-1" Cut="0.0000000000000000e+00" cType="1" res="-9.4924750737845898e-04" rms="1.7826612293720245e-01" purity="1.1049973964691162e-01" nType="-99"/>
          <Node pos="r" depth="2" NCoef="0" IVar="-1" Cut="0.0000000000000000e+00" cType="1" res="1.9869400188326836e-02" rms="1.8380627036094666e-01" purity="8.5227656364440918e-01" nType="-99"/>
        </Node>
      </Node>
    </BinaryTree>
    <BinaryTree type="DecisionTree" boostWeight="1.0000000000000000e+00" itree="489">
      <Node pos="s" depth="0" NCoef="0" IVar="29" Cut="6.5202200412750244e-01" cType="1" res="-9.2884030891582370e-04" rms="1.9774121046066284e-01" purity="5.0040930509567261e-01" nType="0">
        <Node pos="l" depth="1" NCoef="0" IVar="20" Cut="1.0744674682617188e+01" cType="1" res="-2.0726984366774559e-03" rms="1.9587604701519012e-01" purity="5.1491528749465942e-01" nType="0">
          <Node pos="l" depth="2" NCoef="0" IVar="-1" Cut="0.0000000000000000e+00" cType="1" res="-3.0810232274234295e-03" rms="1.9437345862388611e-01" purity="5.2660852670669556e-01" nType="-99"/>
          <Node pos="r" depth="2" NCoef="0" IVar="-1" Cut="0.0000000000000000e+00" cType="1" res="1.0287924669682980e-02" rms="2.2270591557025909e-01" purity="2.8830435872077942e-01" nType="-99"/>
        </Node>
        <Node pos="r" depth="1" NCoef="0" IVar="3" Cut="2.8654291629791260e+00" cType="1" res="1.0860793292522430e-02" rms="2.1567577123641968e-01" purity="3.5089793801307678e-01" nType="0">
          <Node pos="l" depth="2" NCoef="0" IVar="-1" Cut="0.0000000000000000e+00" cType="1" res="1.4006615616381168e-02" rms="2.5852096080780029e-01" purity="5.1007235050201416e-01" nType="-99"/>
          <Node pos="r" depth="2" NCoef="0" IVar="-1" Cut="0.0000000000000000e+00" cType="1" res="-4.4732365757226944e-02" rms="5.5173151195049286e-02" purity="1.3996494002640247e-02" nType="-99"/>
        </Node>
      </Node>
    </BinaryTree>
    <BinaryTree type="DecisionTree" boostWeight="1.0000000000000000e+00" itree="490">
      <Node pos="s" depth="0" NCoef="0" IVar="27" Cut="8.5690039396286011e-01" cType="1" res="1.6271489439532161e-03" rms="2.0312912762165070e-01" purity="5.0463664531707764e-01" nType="0">
        <Node pos="l" depth="1" NCoef="0" IVar="11" Cut="7.6513643264770508e+00" cType="1" res="-2.4114220868796110e-03" rms="2.0422376692295074e-01" purity="2.3084726929664612e-01" nType="0">
          <Node pos="l" depth="2" NCoef="0" IVar="-1" Cut="0.0000000000000000e+00" cType="1" res="-5.8390209451317787e-03" rms="2.0561118423938751e-01" purity="2.4045386910438538e-01" nType="-99"/>
          <Node pos="r" depth="2" NCoef="0" IVar="-1" Cut="0.0000000000000000e+00" cType="1" res="1.8723826855421066e-02" rms="1.9522878527641296e-01" purity="1.7488224804401398e-01" nType="-99"/>
        </Node>
        <Node pos="r" depth="1" NCoef="0" IVar="20" Cut="-4.9433579444885254e+00" cType="1" res="3.4387803170830011e-03" rms="2.0261001586914062e-01" purity="6.2745368480682373e-01" nType="0">
          <Node pos="l" depth="2" NCoef="0" IVar="-1" Cut="0.0000000000000000e+00" cType="1" res="1.4153738738968968e-03" rms="1.9759243726730347e-01" purity="6.4458715915679932e-01" nType="-99"/>
          <Node pos="r" depth="2" NCoef="0" IVar="-1" Cut="0.0000000000000000e+00" cType="1" res="1.2101878412067890e-02" rms="2.2196315228939056e-01" purity="5.5646282434463501e-01" nType="-99"/>
        </Node>
      </Node>
    </BinaryTree>
    <BinaryTree type="DecisionTree" boostWeight="1.0000000000000000e+00" itree="491">
      <Node pos="s" depth="0" NCoef="0" IVar="33" Cut="2.0952281355857849e-01" cType="1" res="-8.5197930457070470e-04" rms="1.9829083979129791e-01" purity="5.0112533569335938e-01" nType="0">
        <Node pos="l" depth="1" NCoef="0" IVar="33" Cut="1.5962095558643341e-01" cType="1" res="-1.4757221797481179e-03" rms="1.9796529412269592e-01" purity="5.1990890502929688e-01" nType="0">
          <Node pos="l" depth="2" NCoef="0" IVar="-1" Cut="0.0000000000000000e+00" cType="1" res="-8.8837399380281568e-04" rms="1.9845029711723328e-01" purity="5.3133118152618408e-01" nType="-99"/>
          <Node pos="r" depth="2" NCoef="0" IVar="-1" Cut="0.0000000000000000e+00" cType="1" res="-2.2346658632159233e-02" rms="1.8508985638618469e-01" purity="2.4446079134941101e-01" nType="-99"/>
        </Node>
        <Node pos="r" depth="1" NCoef="0" IVar="13" Cut="7.9139237403869629e+00" cType="1" res="7.0087853819131851e-03" rms="2.0218376815319061e-01" purity="2.6440426707267761e-01" nType="0">
          <Node pos="l" depth="2" NCoef="0" IVar="-1" Cut="0.0000000000000000e+00" cType="1" res="-7.8703798353672028e-03" rms="1.8579623103141785e-01" purity="2.1908377110958099e-01" nType="-99"/>
          <Node pos="r" depth="2" NCoef="0" IVar="-1" Cut="0.0000000000000000e+00" cType="1" res="1.7148986458778381e-02" rms="2.1190901100635529e-01" purity="2.9449272155761719e-01" nType="-99"/>
        </Node>
      </Node>
    </BinaryTree>
    <BinaryTree type="DecisionTree" boostWeight="1.0000000000000000e+00" itree="492">
      <Node pos="s" depth="0" NCoef="0" IVar="20" Cut="-2.4983513355255127e+00" cType="1" res="1.7452511237934232e-03" rms="1.9855359196662903e-01" purity="5.0114822387695312e-01" nType="0">
        <Node pos="l" depth="1" NCoef="0" IVar="16" Cut="2.5938639044761658e-01" cType="1" res="-6.4847513567656279e-04" rms="1.9508069753646851e-01" purity="5.6717813014984131e-01" nType="0">
          <Node pos="l" depth="2" NCoef="0" IVar="-1" Cut="0.0000000000000000e+00" cType="1" res="9.6329385414719582e-03" rms="2.0089533925056458e-01" purity="2.3286132514476776e-01" nType="-99"/>
          <Node pos="r" depth="2" NCoef="0" IVar="-1" Cut="0.0000000000000000e+00" cType="1" res="-2.1964567713439465e-03" rms="1.9424450397491455e-01" purity="6.1259192228317261e-01" nType="-99"/>
        </Node>
        <Node pos="r" depth="1" NCoef="0" IVar="19" Cut="2.6450727462768555e+01" cType="1" res="7.3419022373855114e-03" rms="2.0633716881275177e-01" purity="3.4676685929298401e-01" nType="0">
          <Node pos="l" depth="2" NCoef="0" IVar="-1" Cut="0.0000000000000000e+00" cType="1" res="4.8398142680525780e-03" rms="2.0655947923660278e-01" purity="2.8769454360008240e-01" nType="-99"/>
          <Node pos="r" depth="2" NCoef="0" IVar="-1" Cut="0.0000000000000000e+00" cType="1" res="2.7083747088909149e-02" rms="2.0398162305355072e-01" purity="7.0698922872543335e-01" nType="-99"/>
        </Node>
      </Node>
    </BinaryTree>
    <BinaryTree type="DecisionTree" boostWeight="1.0000000000000000e+00" itree="493">
      <Node pos="s" depth="0" NCoef="0" IVar="22" Cut="8.5187425613403320e+00" cType="1" res="1.5499634901061654e-03" rms="1.9891634583473206e-01" purity="5.0360697507858276e-01" nType="0">
        <Node pos="l" depth="1" NCoef="0" IVar="31" Cut="1.9053881987929344e-02" cType="1" res="-1.8860595300793648e-03" rms="2.0223402976989746e-01" purity="3.3611595630645752e-01" nType="0">
          <Node pos="l" depth="2" NCoef="0" IVar="-1" Cut="0.0000000000000000e+00" cType="1" res="-7.3355208151042461e-03" rms="2.0590680837631226e-01" purity="4.5956361293792725e-01" nType="-99"/>
          <Node pos="r" depth="2" NCoef="0" IVar="-1" Cut="0.0000000000000000e+00" cType="1" res="4.1309432126581669e-03" rms="1.9838646054267883e-01" purity="2.1372346580028534e-01" nType="-99"/>
        </Node>
        <Node pos="r" depth="1" NCoef="0" IVar="29" Cut="2.8587275743484497e-01" cType="1" res="3.4090105909854174e-03" rms="1.9707307219505310e-01" purity="5.9422731399536133e-01" nType="0">
          <Node pos="l" depth="2" NCoef="0" IVar="-1" Cut="0.0000000000000000e+00" cType="1" res="2.5911661796271801e-03" rms="1.9528995454311371e-01" purity="6.1137080192565918e-01" nType="-99"/>
          <Node pos="r" depth="2" NCoef="0" IVar="-1" Cut="0.0000000000000000e+00" cType="1" res="1.4306331053376198e-02" rms="2.1340860426425934e-01" purity="4.2635941505432129e-01" nType="-99"/>
        </Node>
      </Node>
    </BinaryTree>
    <BinaryTree type="DecisionTree" boostWeight="1.0000000000000000e+00" itree="494">
      <Node pos="s" depth="0" NCoef="0" IVar="15" Cut="5.6983275413513184e+00" cType="1" res="-3.4000340383499861e-04" rms="1.9753597676753998e-01" purity="5.0189751386642456e-01" nType="0">
        <Node pos="l" depth="1" NCoef="0" IVar="16" Cut="3.2277792692184448e-01" cType="1" res="-5.6945905089378357e-03" rms="2.0523753762245178e-01" purity="5.5141693353652954e-01" nType="0">
          <Node pos="l" depth="2" NCoef="0" IVar="-1" Cut="0.0000000000000000e+00" cType="1" res="-1.4831141568720341e-02" rms="2.2992049157619476e-01" purity="2.6447615027427673e-01" nType="-99"/>
          <Node pos="r" depth="2" NCoef="0" IVar="-1" Cut="0.0000000000000000e+00" cType="1" res="-1.9907848909497261e-03" rms="1.9609518349170685e-01" purity="6.4782732725143433e-01" nType="-99"/>
        </Node>
        <Node pos="r" depth="1" NCoef="0" IVar="19" Cut="1.6437566757202148e+01" cType="1" res="5.1850301679223776e-04" rms="1.9625948369503021e-01" purity="4.9395796656608582e-01" nType="0">
          <Node pos="l" depth="2" NCoef="0" IVar="-1" Cut="0.0000000000000000e+00" cType="1" res="3.2294483389705420e-03" rms="2.0451764762401581e-01" purity="3.5511004924774170e-01" nType="-99"/>
          <Node pos="r" depth="2" NCoef="0" IVar="-1" Cut="0.0000000000000000e+00" cType="1" res="-2.9933645855635405e-03" rms="1.8501493334770203e-01" purity="6.7314857244491577e-01" nType="-99"/>
        </Node>
      </Node>
    </BinaryTree>
    <BinaryTree type="DecisionTree" boostWeight="1.0000000000000000e+00" itree="495">
      <Node pos="s" depth="0" NCoef="0" IVar="31" Cut="2.6650100946426392e-01" cType="1" res="-6.5366324270144105e-04" rms="1.9943021237850189e-01" purity="5.0082963705062866e-01" nType="0">
        <Node pos="l" depth="1" NCoef="0" IVar="27" Cut="8.5686391592025757e-01" cType="1" res="-2.2297276882454753e-04" rms="2.0008996129035950e-01" purity="5.1207858324050903e-01" nType="0">
          <Node pos="l" depth="2" NCoef="0" IVar="-1" Cut="0.0000000000000000e+00" cType="1" res="-4.3129916302859783e-03" rms="1.9663895666599274e-01" purity="2.3071801662445068e-01" nType="-99"/>
          <Node pos="r" depth="2" NCoef="0" IVar="-1" Cut="0.0000000000000000e+00" cType="1" res="1.3794577680528164e-03" rms="2.0155856013298035e-01" purity="6.3474673032760620e-01" nType="-99"/>
        </Node>
        <Node pos="r" depth="1" NCoef="0" IVar="-1" Cut="0.0000000000000000e+00" cType="1" res="-1.8513049930334091e-02" rms="1.7849983274936676e-01" purity="1.7031110823154449e-01" nType="-99"/>
      </Node>
    </BinaryTree>
    <BinaryTree type="DecisionTree" boostWeight="1.0000000000000000e+00" itree="496">
      <Node pos="s" depth="0" NCoef="0" IVar="16" Cut="2.5936755537986755e-01" cType="1" res="-7.4532389407977462e-04" rms="1.9912026822566986e-01" purity="5.0054323673248291e-01" nType="0">
        <Node pos="l" depth="1" NCoef="0" IVar="16" Cut="2.3395302891731262e-01" cType="1" res="5.5818655528128147e-03" rms="2.0091308653354645e-01" purity="1.8247243762016296e-01" nType="0">
          <Node pos="l" depth="2" NCoef="0" IVar="-1" Cut="0.0000000000000000e+00" cType="1" res="-1.0872164741158485e-02" rms="1.7641617357730865e-01" purity="1.2552189826965332e-01" nType="-99"/>
          <Node pos="r" depth="2" NCoef="0" IVar="-1" Cut="0.0000000000000000e+00" cType="1" res="2.8340889140963554e-02" rms="2.3375333845615387e-01" purity="2.7503964304924011e-01" nType="-99"/>
        </Node>
        <Node pos="r" depth="1" NCoef="0" IVar="26" Cut="1.4266489446163177e-01" cType="1" res="-1.5667745610699058e-03" rms="1.9887156784534454e-01" purity="5.4183793067932129e-01" nType="0">
          <Node pos="l" depth="2" NCoef="0" IVar="-1" Cut="0.0000000000000000e+00" cType="1" res="-2.9444820247590542e-03" rms="1.9666905701160431e-01" purity="5.8121162652969360e-01" nType="-99"/>
          <Node pos="r" depth="2" NCoef="0" IVar="-1" Cut="0.0000000000000000e+00" cType="1" res="5.5681150406599045e-03" rms="2.1247398853302002e-01" purity="2.8660035133361816e-01" nType="-99"/>
        </Node>
      </Node>
    </BinaryTree>
    <BinaryTree type="DecisionTree" boostWeight="1.0000000000000000e+00" itree="497">
      <Node pos="s" depth="0" NCoef="0" IVar="13" Cut="7.0725946426391602e+00" cType="1" res="5.7852463214658201e-05" rms="1.9687047600746155e-01" purity="4.9935585260391235e-01" nType="0">
        <Node pos="l" depth="1" NCoef="0" IVar="-1" Cut="0.0000000000000000e+00" cType="1" res="1.8352815881371498e-02" rms="2.0646208524703979e-01" purity="3.5045576095581055e-01" nType="-99"/>
        <Node pos="r" depth="1" NCoef="0" IVar="27" Cut="8.5690063238143921e-01" cType="1" res="-5.4228561930358410e-04" rms="1.9644841551780701e-01" purity="5.0538927316665649e-01" nType="0">
          <Node pos="l" depth="2" NCoef="0" IVar="-1" Cut="0.0000000000000000e+00" cType="1" res="-6.0196178965270519e-03" rms="1.9402562081813812e-01" purity="2.2766366600990295e-01" nType="-99"/>
          <Node pos="r" depth="2" NCoef="0" IVar="-1" Cut="0.0000000000000000e+00" cType="1" res="1.5907312044873834e-03" rms="1.9748547673225403e-01" purity="6.2906676530838013e-01" nType="-99"/>
        </Node>
      </Node>
    </BinaryTree>
    <BinaryTree type="DecisionTree" boostWeight="1.0000000000000000e+00" itree="498">
      <Node pos="s" depth="0" NCoef="0" IVar="1" Cut="1.5921719551086426e+01" cType="1" res="-4.0064853965304792e-04" rms="1.9941060245037079e-01" purity="5.0062841176986694e-01" nType="0">
        <Node pos="l" depth="1" NCoef="0" IVar="1" Cut="4.0524749755859375e+00" cType="1" res="5.6208594469353557e-04" rms="2.0218554139137268e-01" purity="5.0939309597015381e-01" nType="0">
          <Node pos="l" depth="2" NCoef="0" IVar="-1" Cut="0.0000000000000000e+00" cType="1" res="-7.5085191056132317e-03" rms="1.9722378253936768e-01" purity="3.6918127536773682e-01" nType="-99"/>
          <Node pos="r" depth="2" NCoef="0" IVar="-1" Cut="0.0000000000000000e+00" cType="1" res="3.1632217578589916e-03" rms="2.0369237661361694e-01" purity="5.5412316322326660e-01" nType="-99"/>
        </Node>
        <Node pos="r" depth="1" NCoef="0" IVar="16" Cut="3.9628279209136963e-01" cType="1" res="-5.9149772860109806e-03" rms="1.8260842561721802e-01" purity="4.5042601227760315e-01" nType="0">
          <Node pos="l" depth="2" NCoef="0" IVar="-1" Cut="0.0000000000000000e+00" cType="1" res="-1.6550708562135696e-02" rms="1.7896397411823273e-01" purity="1.9903871417045593e-01" nType="-99"/>
          <Node pos="r" depth="2" NCoef="0" IVar="-1" Cut="0.0000000000000000e+00" cType="1" res="6.0834111645817757e-03" rms="1.8649142980575562e-01" purity="7.6140165328979492e-01" nType="-99"/>
        </Node>
      </Node>
    </BinaryTree>
    <BinaryTree type="DecisionTree" boostWeight="1.0000000000000000e+00" itree="499">
      <Node pos="s" depth="0" NCoef="0" IVar="33" Cut="3.0475220084190369e-01" cType="1" res="1.0369365190854296e-04" rms="1.9892299175262451e-01" purity="5.0151211023330688e-01" nType="0">
        <Node pos="l" depth="1" NCoef="0" IVar="17" Cut="1.1254184722900391e+01" cType="1" res="-3.6186364013701677e-04" rms="1.9833631813526154e-01" purity="5.0759690999984741e-01" nType="0">
          <Node pos="l" depth="2" NCoef="0" IVar="-1" Cut="0.0000000000000000e+00" cType="1" res="5.0234962254762650e-03" rms="1.9805987179279327e-01" purity="2.1426692605018616e-01" nType="-99"/>
          <Node pos="r" depth="2" NCoef="0" IVar="-1" Cut="0.0000000000000000e+00" cType="1" res="-2.2219510283321142e-03" rms="1.9841647148132324e-01" purity="6.1929380893707275e-01" nType="-99"/>
        </Node>
        <Node pos="r" depth="1" NCoef="0" IVar="-1" Cut="0.0000000000000000e+00" cType="1" res="1.7947752028703690e-02" rms="2.1793134510517120e-01" purity="2.8743723034858704e-01" nType="-99"/>
      </Node>
    </BinaryTree>
    <BinaryTree type="DecisionTree" boostWeight="1.0000000000000000e+00" itree="500">
      <Node pos="s" depth="0" NCoef="0" IVar="31" Cut="7.6150290668010712e-02" cType="1" res="5.8255175827071071e-04" rms="2.0138245820999146e-01" purity="5.0212019681930542e-01" nType="0">
        <Node pos="l" depth="1" NCoef="0" IVar="34" Cut="2.3811771869659424e+00" cType="1" res="2.0598759874701500e-03" rms="2.0167104899883270e-01" purity="5.6688398122787476e-01" nType="0">
          <Node pos="l" depth="2" NCoef="0" IVar="-1" Cut="0.0000000000000000e+00" cType="1" res="-6.5034377621486783e-04" rms="1.9517101347446442e-01" purity="6.6273766756057739e-01" nType="-99"/>
          <Node pos="r" depth="2" NCoef="0" IVar="-1" Cut="0.0000000000000000e+00" cType="1" res="8.0954376608133316e-03" rms="2.1439494192600250e-01" purity="3.6852645874023438e-01" nType="-99"/>
        </Node>
        <Node pos="r" depth="1" NCoef="0" IVar="23" Cut="7.1504300832748413e-01" cType="1" res="-5.9622596018016338e-03" rms="1.9996774196624756e-01" purity="2.1520523726940155e-01" nType="0">
          <Node pos="l" depth="2" NCoef="0" IVar="-1" Cut="0.0000000000000000e+00" cType="1" res="1.0238757822662592e-03" rms="1.6627010703086853e-01" purity="5.7764854282140732e-02" nType="-99"/>
          <Node pos="r" depth="2" NCoef="0" IVar="-1" Cut="0.0000000000000000e+00" cType="1" res="-1.3212977908551693e-02" rms="2.4215663969516754e-01" purity="4.5528131723403931e-01" nType="-99"/>
        </Node>
      </Node>
    </BinaryTree>
    <BinaryTree type="DecisionTree" boostWeight="1.0000000000000000e+00" itree="501">
      <Node pos="s" depth="0" NCoef="0" IVar="31" Cut="1.9041195511817932e-02" cType="1" res="3.2745595672167838e-04" rms="2.0092517137527466e-01" purity="5.0010716915130615e-01" nType="0">
        <Node pos="l" depth="1" NCoef="0" IVar="31" Cut="1.1787222698330879e-02" cType="1" res="-2.3544095456600189e-03" rms="1.9261804223060608e-01" purity="6.3868939876556396e-01" nType="0">
          <Node pos="l" depth="2" NCoef="0" IVar="-1" Cut="0.0000000000000000e+00" cType="1" res="1.4076482329983264e-04" rms="1.9038483500480652e-01" purity="6.6504478454589844e-01" nType="-99"/>
          <Node pos="r" depth="2" NCoef="0" IVar="-1" Cut="0.0000000000000000e+00" cType="1" res="-1.7189500853419304e-02" rms="2.0444473624229431e-01" purity="4.8664176464080811e-01" nType="-99"/>
        </Node>
        <Node pos="r" depth="1" NCoef="0" IVar="27" Cut="4.7760161757469177e-01" cType="1" res="3.9501530118286610e-03" rms="2.1157546341419220e-01" purity="3.1290853023529053e-01" nType="0">
          <Node pos="l" depth="2" NCoef="0" IVar="-1" Cut="0.0000000000000000e+00" cType="1" res="-1.0496109724044800e-02" rms="1.6320559382438660e-01" purity="1.0275700688362122e-01" nType="-99"/>
          <Node pos="r" depth="2" NCoef="0" IVar="-1" Cut="0.0000000000000000e+00" cType="1" res="5.9130047447979450e-03" rms="2.1887163817882538e-01" purity="3.4955376386642456e-01" nType="-99"/>
        </Node>
      </Node>
    </BinaryTree>
    <BinaryTree type="DecisionTree" boostWeight="1.0000000000000000e+00" itree="502">
      <Node pos="s" depth="0" NCoef="0" IVar="16" Cut="4.7369509935379028e-01" cType="1" res="-1.4650828670710325e-03" rms="1.9754524528980255e-01" purity="5.0085347890853882e-01" nType="0">
        <Node pos="l" depth="1" NCoef="0" IVar="16" Cut="3.5175371170043945e-01" cType="1" res="-3.2747264485806227e-03" rms="2.0725069940090179e-01" purity="4.1227883100509644e-01" nType="0">
          <Node pos="l" depth="2" NCoef="0" IVar="-1" Cut="0.0000000000000000e+00" cType="1" res="1.3239096151664853e-03" rms="2.1459494531154633e-01" purity="2.9559603333473206e-01" nType="-99"/>
          <Node pos="r" depth="2" NCoef="0" IVar="-1" Cut="0.0000000000000000e+00" cType="1" res="-9.9792946130037308e-03" rms="1.9800439476966858e-01" purity="5.5130958557128906e-01" nType="-99"/>
        </Node>
        <Node pos="r" depth="1" NCoef="0" IVar="1" Cut="8.0370683670043945e+00" cType="1" res="1.9385770428925753e-03" rms="1.7781184613704681e-01" purity="6.6744863986968994e-01" nType="0">
          <Node pos="l" depth="2" NCoef="0" IVar="-1" Cut="0.0000000000000000e+00" cType="1" res="-4.6912236139178276e-03" rms="1.8472154438495636e-01" purity="5.8006131649017334e-01" nType="-99"/>
          <Node pos="r" depth="2" NCoef="0" IVar="-1" Cut="0.0000000000000000e+00" cType="1" res="1.4286866411566734e-02" rms="1.6692838072776794e-01" purity="7.9468131065368652e-01" nType="-99"/>
        </Node>
      </Node>
    </BinaryTree>
    <BinaryTree type="DecisionTree" boostWeight="1.0000000000000000e+00" itree="503">
      <Node pos="s" depth="0" NCoef="0" IVar="28" Cut="1.4499127864837646e-01" cType="1" res="-3.7111484562046826e-04" rms="1.9767405092716217e-01" purity="5.0269746780395508e-01" nType="0">
        <Node pos="l" depth="1" NCoef="0" IVar="-1" Cut="0.0000000000000000e+00" cType="1" res="1.2175970710813999e-02" rms="2.0931752026081085e-01" purity="3.1814968585968018e-01" nType="-99"/>
        <Node pos="r" depth="1" NCoef="0" IVar="22" Cut="4.3851799964904785e+00" cType="1" res="-9.2170335119590163e-04" rms="1.9704431295394897e-01" purity="5.1213502883911133e-01" nType="0">
          <Node pos="l" depth="2" NCoef="0" IVar="-1" Cut="0.0000000000000000e+00" cType="1" res="-1.0080125182867050e-02" rms="1.9731335341930389e-01" purity="3.2454457879066467e-01" nType="-99"/>
          <Node pos="r" depth="2" NCoef="0" IVar="-1" Cut="0.0000000000000000e+00" cType="1" res="7.7112548751756549e-04" rms="1.9695107638835907e-01" purity="5.5115687847137451e-01" nType="-99"/>
        </Node>
      </Node>
    </BinaryTree>
    <BinaryTree type="DecisionTree" boostWeight="1.0000000000000000e+00" itree="504">
      <Node pos="s" depth="0" NCoef="0" IVar="10" Cut="6.5115327835083008e+00" cType="1" res="-3.0959799187257886e-04" rms="2.0116145908832550e-01" purity="5.0195467472076416e-01" nType="0">
        <Node pos="l" depth="1" NCoef="0" IVar="19" Cut="3.9155666828155518e+00" cType="1" res="-5.9272525832056999e-03" rms="1.9328992068767548e-01" purity="4.3931555747985840e-01" nType="0">
          <Node pos="l" depth="2" NCoef="0" IVar="-1" Cut="0.0000000000000000e+00" cType="1" res="-3.4443613141775131e-02" rms="1.7069864273071289e-01" purity="9.2164486646652222e-02" nType="-99"/>
          <Node pos="r" depth="2" NCoef="0" IVar="-1" Cut="0.0000000000000000e+00" cType="1" res="-4.0684719569981098e-03" rms="1.9649007916450500e-01" purity="4.9398291110992432e-01" nType="-99"/>
        </Node>
        <Node pos="r" depth="1" NCoef="0" IVar="27" Cut="9.5214259624481201e-01" cType="1" res="1.4028912410140038e-03" rms="2.0346961915493011e-01" purity="5.2104961872100830e-01" nType="0">
          <Node pos="l" depth="2" NCoef="0" IVar="-1" Cut="0.0000000000000000e+00" cType="1" res="5.7120895944535732e-03" rms="2.1164482831954956e-01" purity="3.1789895892143250e-01" nType="-99"/>
          <Node pos="r" depth="2" NCoef="0" IVar="-1" Cut="0.0000000000000000e+00" cType="1" res="-2.8095694724470377e-03" rms="1.9504757225513458e-01" purity="7.2020787000656128e-01" nType="-99"/>
        </Node>
      </Node>
    </BinaryTree>
    <BinaryTree type="DecisionTree" boostWeight="1.0000000000000000e+00" itree="505">
      <Node pos="s" depth="0" NCoef="0" IVar="7" Cut="5.1390510797500610e-01" cType="1" res="-3.6254464066587389e-04" rms="1.9770380854606628e-01" purity="4.9913510680198669e-01" nType="0">
        <Node pos="l" depth="1" NCoef="0" IVar="16" Cut="3.8992103934288025e-01" cType="1" res="-6.7453351803123951e-03" rms="1.9285428524017334e-01" purity="7.6658970117568970e-01" nType="0">
          <Node pos="l" depth="2" NCoef="0" IVar="-1" Cut="0.0000000000000000e+00" cType="1" res="-1.5471117570996284e-02" rms="2.3493152856826782e-01" purity="5.6574243307113647e-01" nType="-99"/>
          <Node pos="r" depth="2" NCoef="0" IVar="-1" Cut="0.0000000000000000e+00" cType="1" res="6.2778163701295853e-03" rms="1.5306071937084198e-01" purity="9.1738790273666382e-01" nType="-99"/>
        </Node>
        <Node pos="r" depth="1" NCoef="0" IVar="31" Cut="1.7134831845760345e-01" cType="1" res="1.0034500155597925e-03" rms="1.9869966804981232e-01" purity="4.4189652800559998e-01" nType="0">
          <Node pos="l" depth="2" NCoef="0" IVar="-1" Cut="0.0000000000000000e+00" cType="1" res="2.4121755268424749e-03" rms="2.0199993252754211e-01" purity="4.6949723362922668e-01" nType="-99"/>
          <Node pos="r" depth="2" NCoef="0" IVar="-1" Cut="0.0000000000000000e+00" cType="1" res="-1.7006482928991318e-02" rms="1.5891258418560028e-01" purity="1.4820225536823273e-01" nType="-99"/>
        </Node>
      </Node>
    </BinaryTree>
    <BinaryTree type="DecisionTree" boostWeight="1.0000000000000000e+00" itree="506">
      <Node pos="s" depth="0" NCoef="0" IVar="25" Cut="3.6900475621223450e-01" cType="1" res="2.6755596627481282e-04" rms="1.9823810458183289e-01" purity="5.0011831521987915e-01" nType="0">
        <Node pos="l" depth="1" NCoef="0" IVar="17" Cut="7.3650288581848145e+00" cType="1" res="1.3214321807026863e-03" rms="2.0166116952896118e-01" purity="5.5595308542251587e-01" nType="0">
          <Node pos="l" depth="2" NCoef="0" IVar="-1" Cut="0.0000000000000000e+00" cType="1" res="1.5291630290448666e-02" rms="2.0042495429515839e-01" purity="1.6883882880210876e-01" nType="-99"/>
          <Node pos="r" depth="2" NCoef="0" IVar="-1" Cut="0.0000000000000000e+00" cType="1" res="7.6419342076405883e-04" rms="2.0172648131847382e-01" purity="5.8139961957931519e-01" nType="-99"/>
        </Node>
        <Node pos="r" depth="1" NCoef="0" IVar="16" Cut="3.6770105361938477e-01" cType="1" res="-6.0592382214963436e-03" rms="1.7616395652294159e-01" purity="1.6492202877998352e-01" nType="0">
          <Node pos="l" depth="2" NCoef="0" IVar="-1" Cut="0.0000000000000000e+00" cType="1" res="4.6236203052103519e-03" rms="1.5692634880542755e-01" purity="1.0259161144495010e-01" nType="-99"/>
          <Node pos="r" depth="2" NCoef="0" IVar="-1" Cut="0.0000000000000000e+00" cType="1" res="-1.5344758518040180e-02" rms="1.9078630208969116e-01" purity="2.1825626492500305e-01" nType="-99"/>
        </Node>
      </Node>
    </BinaryTree>
    <BinaryTree type="DecisionTree" boostWeight="1.0000000000000000e+00" itree="507">
      <Node pos="s" depth="0" NCoef="0" IVar="20" Cut="1.0410048484802246e+01" cType="1" res="7.6331826858222485e-04" rms="1.9840928912162781e-01" purity="5.0028806924819946e-01" nType="0">
        <Node pos="l" depth="1" NCoef="0" IVar="27" Cut="6.6719090938568115e-01" cType="1" res="7.8698103607166559e-05" rms="1.9729138910770416e-01" purity="5.1170635223388672e-01" nType="0">
          <Node pos="l" depth="2" NCoef="0" IVar="-1" Cut="0.0000000000000000e+00" cType="1" res="-1.0100523941218853e-02" rms="1.7749071121215820e-01" purity="1.6242352128028870e-01" nType="-99"/>
          <Node pos="r" depth="2" NCoef="0" IVar="-1" Cut="0.0000000000000000e+00" cType="1" res="1.4850284205749631e-03" rms="2.0028987526893616e-01" purity="5.6834805011749268e-01" nType="-99"/>
        </Node>
        <Node pos="r" depth="1" NCoef="0" IVar="23" Cut="6.6910821199417114e-01" cType="1" res="1.2716412544250488e-02" rms="2.1665275096893311e-01" purity="3.0093035101890564e-01" nType="0">
          <Node pos="l" depth="2" NCoef="0" IVar="-1" Cut="0.0000000000000000e+00" cType="1" res="3.5888895392417908e-02" rms="2.1022735536098480e-01" purity="8.6549170315265656e-02" nType="-99"/>
          <Node pos="r" depth="2" NCoef="0" IVar="-1" Cut="0.0000000000000000e+00" cType="1" res="1.4162340667098761e-03" rms="2.2255080938339233e-01" purity="5.2228444814682007e-01" nType="-99"/>
        </Node>
      </Node>
    </BinaryTree>
    <BinaryTree type="DecisionTree" boostWeight="1.0000000000000000e+00" itree="508">
      <Node pos="s" depth="0" NCoef="0" IVar="13" Cut="8.5511779785156250e+00" cType="1" res="-2.2953473671805114e-04" rms="1.9872784614562988e-01" purity="4.9761825799942017e-01" nType="0">
        <Node pos="l" depth="1" NCoef="0" IVar="10" Cut="5.7878851890563965e+00" cType="1" res="-1.9030724652111530e-03" rms="2.0012135803699493e-01" purity="4.8344066739082336e-01" nType="0">
          <Node pos="l" depth="2" NCoef="0" IVar="-1" Cut="0.0000000000000000e+00" cType="1" res="2.1701011806726456e-02" rms="2.1530590951442719e-01" purity="3.5409083962440491e-01" nType="-99"/>
          <Node pos="r" depth="2" NCoef="0" IVar="-1" Cut="0.0000000000000000e+00" cType="1" res="-3.0976380221545696e-03" rms="1.9944299757480621e-01" purity="4.8859483003616333e-01" nType="-99"/>
        </Node>
        <Node pos="r" depth="1" NCoef="0" IVar="27" Cut="9.5224142074584961e-01" cType="1" res="4.7106812708079815e-03" rms="1.9447201490402222e-01" purity="5.3946995735168457e-01" nType="0">
          <Node pos="l" depth="2" NCoef="0" IVar="-1" Cut="0.0000000000000000e+00" cType="1" res="1.4342955313622952e-02" rms="2.0487552881240845e-01" purity="3.3505082130432129e-01" nType="-99"/>
          <Node pos="r" depth="2" NCoef="0" IVar="-1" Cut="0.0000000000000000e+00" cType="1" res="-3.0356184579432011e-03" rms="1.8352280557155609e-01" purity="7.3822486400604248e-01" nType="-99"/>
        </Node>
      </Node>
    </BinaryTree>
    <BinaryTree type="DecisionTree" boostWeight="1.0000000000000000e+00" itree="509">
      <Node pos="s" depth="0" NCoef="0" IVar="10" Cut="7.8407258987426758e+00" cType="1" res="-2.5294028455391526e-04" rms="1.9695903360843658e-01" purity="5.0276118516921997e-01" nType="0">
        <Node pos="l" depth="1" NCoef="0" IVar="33" Cut="2.0951031148433685e-01" cType="1" res="-1.2210790300741792e-03" rms="1.9569250941276550e-01" purity="5.0906902551651001e-01" nType="0">
          <Node pos="l" depth="2" NCoef="0" IVar="-1" Cut="0.0000000000000000e+00" cType="1" res="-2.4583786725997925e-03" rms="1.9485467672348022e-01" purity="5.2783948183059692e-01" nType="-99"/>
          <Node pos="r" depth="2" NCoef="0" IVar="-1" Cut="0.0000000000000000e+00" cType="1" res="1.1332047171890736e-02" rms="2.0521913468837738e-01" purity="2.8217145800590515e-01" nType="-99"/>
        </Node>
        <Node pos="r" depth="1" NCoef="0" IVar="16" Cut="3.4104281663894653e-01" cType="1" res="6.4728488214313984e-03" rms="2.0541656017303467e-01" purity="4.5893949270248413e-01" nType="0">
          <Node pos="l" depth="2" NCoef="0" IVar="-1" Cut="0.0000000000000000e+00" cType="1" res="1.6987098380923271e-02" rms="2.1596714854240417e-01" purity="3.3113208413124084e-01" nType="-99"/>
          <Node pos="r" depth="2" NCoef="0" IVar="-1" Cut="0.0000000000000000e+00" cType="1" res="-1.3478481210768223e-02" rms="1.8613143265247345e-01" purity="6.6425675153732300e-01" nType="-99"/>
        </Node>
      </Node>
    </BinaryTree>
    <BinaryTree type="DecisionTree" boostWeight="1.0000000000000000e+00" itree="510">
      <Node pos="s" depth="0" NCoef="0" IVar="20" Cut="1.2029615640640259e+00" cType="1" res="1.1625575134530663e-03" rms="1.9744738936424255e-01" purity="5.0014865398406982e-01" nType="0">
        <Node pos="l" depth="1" NCoef="0" IVar="16" Cut="4.6484705805778503e-01" cType="1" res="-4.2908074101433158e-04" rms="1.9468748569488525e-01" purity="5.4802405834197998e-01" nType="0">
          <Node pos="l" depth="2" NCoef="0" IVar="-1" Cut="0.0000000000000000e+00" cType="1" res="-2.8901156038045883e-03" rms="2.0640201866626740e-01" purity="4.5227923989295959e-01" nType="-99"/>
          <Node pos="r" depth="2" NCoef="0" IVar="-1" Cut="0.0000000000000000e+00" cType="1" res="5.8608995750546455e-03" rms="1.7065563797950745e-01" purity="7.2632145881652832e-01" nType="-99"/>
        </Node>
        <Node pos="r" depth="1" NCoef="0" IVar="17" Cut="2.7910467147827148e+01" cType="1" res="7.1030524559319019e-03" rms="2.0731626451015472e-01" purity="3.2146263122558594e-01" nType="0">
          <Node pos="l" depth="2" NCoef="0" IVar="-1" Cut="0.0000000000000000e+00" cType="1" res="2.1493248641490936e-03" rms="2.0209369063377380e-01" purity="2.2203987836837769e-01" nType="-99"/>
          <Node pos="r" depth="2" NCoef="0" IVar="-1" Cut="0.0000000000000000e+00" cType="1" res="2.3780569434165955e-02" rms="2.2320474684238434e-01" purity="6.5931743383407593e-01" nType="-99"/>
        </Node>
      </Node>
    </BinaryTree>
    <BinaryTree type="DecisionTree" boostWeight="1.0000000000000000e+00" itree="511">
      <Node pos="s" depth="0" NCoef="0" IVar="31" Cut="9.5193117856979370e-02" cType="1" res="5.6345434859395027e-04" rms="1.9832612574100494e-01" purity="4.9729859828948975e-01" nType="0">
        <Node pos="l" depth="1" NCoef="0" IVar="30" Cut="7.6208993792533875e-02" cType="1" res="1.5989940147846937e-03" rms="1.9849210977554321e-01" purity="5.5115044116973877e-01" nType="0">
          <Node pos="l" depth="2" NCoef="0" IVar="-1" Cut="0.0000000000000000e+00" cType="1" res="3.6462123971432447e-03" rms="1.9765917956829071e-01" purity="6.1184751987457275e-01" nType="-99"/>
          <Node pos="r" depth="2" NCoef="0" IVar="-1" Cut="0.0000000000000000e+00" cType="1" res="-5.3985090926289558e-03" rms="2.0189474523067474e-01" purity="2.9041886329650879e-01" nType="-99"/>
        </Node>
        <Node pos="r" depth="1" NCoef="0" IVar="23" Cut="7.6291894912719727e-01" cType="1" res="-5.1185018382966518e-03" rms="1.9731622934341431e-01" purity="2.0181621611118317e-01" nType="0">
          <Node pos="l" depth="2" NCoef="0" IVar="-1" Cut="0.0000000000000000e+00" cType="1" res="2.0615239627659321e-03" rms="1.7300303280353546e-01" purity="6.4976312220096588e-02" nType="-99"/>
          <Node pos="r" depth="2" NCoef="0" IVar="-1" Cut="0.0000000000000000e+00" cType="1" res="-1.4692154712975025e-02" rms="2.3601052165031433e-01" purity="4.6002715826034546e-01" nType="-99"/>
        </Node>
      </Node>
    </BinaryTree>
    <BinaryTree type="DecisionTree" boostWeight="1.0000000000000000e+00" itree="512">
      <Node pos="s" depth="0" NCoef="0" IVar="1" Cut="1.7907733917236328e+01" cType="1" res="2.6496047212276608e-05" rms="1.9925244152545929e-01" purity="4.9972623586654663e-01" nType="0">
        <Node pos="l" depth="1" NCoef="0" IVar="30" Cut="9.5233686268329620e-02" cType="1" res="1.2443788582459092e-03" rms="2.0220918953418732e-01" purity="5.1126152276992798e-01" nType="0">
          <Node pos="l" depth="2" NCoef="0" IVar="-1" Cut="0.0000000000000000e+00" cType="1" res="3.0444315634667873e-03" rms="2.0222909748554230e-01" purity="5.6881099939346313e-01" nType="-99"/>
          <Node pos="r" depth="2" NCoef="0" IVar="-1" Cut="0.0000000000000000e+00" cType="1" res="-6.1253537423908710e-03" rms="2.0197878777980804e-01" purity="2.3812374472618103e-01" nType="-99"/>
        </Node>
        <Node pos="r" depth="1" NCoef="0" IVar="16" Cut="3.8653290271759033e-01" cType="1" res="-9.2468215152621269e-03" rms="1.7483110725879669e-01" purity="4.1189342737197876e-01" nType="0">
          <Node pos="l" depth="2" NCoef="0" IVar="-1" Cut="0.0000000000000000e+00" cType="1" res="-2.0933186635375023e-02" rms="1.6671259701251984e-01" purity="1.4958231151103973e-01" nType="-99"/>
          <Node pos="r" depth="2" NCoef="0" IVar="-1" Cut="0.0000000000000000e+00" cType="1" res="1.2881549773737788e-03" rms="1.8402597308158875e-01" purity="7.4188810586929321e-01" nType="-99"/>
        </Node>
      </Node>
    </BinaryTree>
    <BinaryTree type="DecisionTree" boostWeight="1.0000000000000000e+00" itree="513">
      <Node pos="s" depth="0" NCoef="0" IVar="17" Cut="5.7895011901855469e+01" cType="1" res="-5.6404469069093466e-04" rms="1.9686758518218994e-01" purity="4.9885502457618713e-01" nType="0">
        <Node pos="l" depth="1" NCoef="0" IVar="30" Cut="3.8107782602310181e-02" cType="1" res="-1.0860004695132375e-03" rms="2.0040847361087799e-01" purity="4.7361630201339722e-01" nType="0">
          <Node pos="l" depth="2" NCoef="0" IVar="-1" Cut="0.0000000000000000e+00" cType="1" res="-3.3770217560231686e-03" rms="1.9259215891361237e-01" purity="5.7394605875015259e-01" nType="-99"/>
          <Node pos="r" depth="2" NCoef="0" IVar="-1" Cut="0.0000000000000000e+00" cType="1" res="2.5149693246930838e-03" rms="2.1398705244064331e-01" purity="2.8924578428268433e-01" nType="-99"/>
        </Node>
        <Node pos="r" depth="1" NCoef="0" IVar="-1" Cut="0.0000000000000000e+00" cType="1" res="2.1170897409319878e-02" rms="1.1568932980298996e-01" purity="9.5241987705230713e-01" nType="-99"/>
      </Node>
    </BinaryTree>
    <BinaryTree type="DecisionTree" boostWeight="1.0000000000000000e+00" itree="514">
      <Node pos="s" depth="0" NCoef="0" IVar="14" Cut="8.2796611785888672e+00" cType="1" res="1.4675191778223962e-04" rms="1.9543088972568512e-01" purity="5.0189399719238281e-01" nType="0">
        <Node pos="l" depth="1" NCoef="0" IVar="27" Cut="9.0456056594848633e-01" cType="1" res="3.6062067374587059e-03" rms="2.0408296585083008e-01" purity="4.7810438275337219e-01" nType="0">
          <Node pos="l" depth="2" NCoef="0" IVar="-1" Cut="0.0000000000000000e+00" cType="1" res="-3.4717412199825048e-03" rms="1.9925272464752197e-01" purity="2.3270699381828308e-01" nType="-99"/>
          <Node pos="r" depth="2" NCoef="0" IVar="-1" Cut="0.0000000000000000e+00" cType="1" res="8.5779950022697449e-03" rms="2.0733620226383209e-01" purity="6.5343117713928223e-01" nType="-99"/>
        </Node>
        <Node pos="r" depth="1" NCoef="0" IVar="6" Cut="4.3430285453796387e+00" cType="1" res="-2.7029411867260933e-03" rms="1.8795716762542725e-01" purity="5.2149045467376709e-01" nType="0">
          <Node pos="l" depth="2" NCoef="0" IVar="-1" Cut="0.0000000000000000e+00" cType="1" res="2.2414088249206543e-02" rms="2.1020779013633728e-01" purity="5.4743725061416626e-01" nType="-99"/>
          <Node pos="r" depth="2" NCoef="0" IVar="-1" Cut="0.0000000000000000e+00" cType="1" res="-4.9993447028100491e-03" rms="1.8616570532321930e-01" purity="5.1962518692016602e-01" nType="-99"/>
        </Node>
      </Node>
    </BinaryTree>
    <BinaryTree type="DecisionTree" boostWeight="1.0000000000000000e+00" itree="515">
      <Node pos="s" depth="0" NCoef="0" IVar="33" Cut="1.9044435024261475e-01" cType="1" res="4.5361419324763119e-04" rms="1.9905957579612732e-01" purity="5.0067329406738281e-01" nType="0">
        <Node pos="l" depth="1" NCoef="0" IVar="32" Cut="2.8564128279685974e-01" cType="1" res="1.4628864591941237e-03" rms="2.0020213723182678e-01" purity="5.2466994524002075e-01" nType="0">
          <Node pos="l" depth="2" NCoef="0" IVar="-1" Cut="0.0000000000000000e+00" cType="1" res="1.1007254943251610e-03" rms="2.0034754276275635e-01" purity="5.3383874893188477e-01" nType="-99"/>
          <Node pos="r" depth="2" NCoef="0" IVar="-1" Cut="0.0000000000000000e+00" cType="1" res="2.5395864620804787e-02" rms="1.9416294991970062e-01" purity="2.0013923943042755e-01" nType="-99"/>
        </Node>
        <Node pos="r" depth="1" NCoef="0" IVar="19" Cut="1.6024400711059570e+01" cType="1" res="-1.0602786205708981e-02" rms="1.8572537600994110e-01" purity="2.3779511451721191e-01" nType="0">
          <Node pos="l" depth="2" NCoef="0" IVar="-1" Cut="0.0000000000000000e+00" cType="1" res="-2.3740824311971664e-02" rms="1.6702342033386230e-01" purity="1.3286904990673065e-01" nType="-99"/>
          <Node pos="r" depth="2" NCoef="0" IVar="-1" Cut="0.0000000000000000e+00" cType="1" res="2.5264776777476072e-03" rms="2.1517172455787659e-01" purity="4.2983794212341309e-01" nType="-99"/>
        </Node>
      </Node>
    </BinaryTree>
    <BinaryTree type="DecisionTree" boostWeight="1.0000000000000000e+00" itree="516">
      <Node pos="s" depth="0" NCoef="0" IVar="15" Cut="5.4940690994262695e+00" cType="1" res="1.9179417286068201e-03" rms="1.9833990931510925e-01" purity="5.0193870067596436e-01" nType="0">
        <Node pos="l" depth="1" NCoef="0" IVar="33" Cut="3.8166500627994537e-02" cType="1" res="1.1724173091351986e-02" rms="2.1301250159740448e-01" purity="5.8674788475036621e-01" nType="0">
          <Node pos="l" depth="2" NCoef="0" IVar="-1" Cut="0.0000000000000000e+00" cType="1" res="3.1421429011970758e-03" rms="1.8710389733314514e-01" purity="6.7739754915237427e-01" nType="-99"/>
          <Node pos="r" depth="2" NCoef="0" IVar="-1" Cut="0.0000000000000000e+00" cType="1" res="1.9050963222980499e-02" rms="2.3862074315547943e-01" purity="4.8392951488494873e-01" nType="-99"/>
        </Node>
        <Node pos="r" depth="1" NCoef="0" IVar="27" Cut="1.4324791729450226e-01" cType="1" res="1.1133162770420313e-03" rms="1.9706583023071289e-01" purity="4.9497994780540466e-01" nType="0">
          <Node pos="l" depth="2" NCoef="0" IVar="-1" Cut="0.0000000000000000e+00" cType="1" res="-2.1990463137626648e-02" rms="1.6796147823333740e-01" purity="1.5513068437576294e-01" nType="-99"/>
          <Node pos="r" depth="2" NCoef="0" IVar="-1" Cut="0.0000000000000000e+00" cType="1" res="1.9805107731372118e-03" rms="1.9801615178585052e-01" purity="5.0732684135437012e-01" nType="-99"/>
        </Node>
      </Node>
    </BinaryTree>
    <BinaryTree type="DecisionTree" boostWeight="1.0000000000000000e+00" itree="517">
      <Node pos="s" depth="0" NCoef="0" IVar="14" Cut="7.6729278564453125e+00" cType="1" res="5.6172616314142942e-04" rms="1.9970609247684479e-01" purity="5.0177866220474243e-01" nType="0">
        <Node pos="l" depth="1" NCoef="0" IVar="11" Cut="5.8085737228393555e+00" cType="1" res="7.3370370082557201e-03" rms="1.9962969422340393e-01" purity="4.1807585954666138e-01" nType="0">
          <Node pos="l" depth="2" NCoef="0" IVar="-1" Cut="0.0000000000000000e+00" cType="1" res="2.9777048155665398e-02" rms="2.2177813947200775e-01" purity="3.4635969996452332e-01" nType="-99"/>
          <Node pos="r" depth="2" NCoef="0" IVar="-1" Cut="0.0000000000000000e+00" cType="1" res="3.7274784408509731e-03" rms="1.9460795819759369e-01" purity="4.3249189853668213e-01" nType="-99"/>
        </Node>
        <Node pos="r" depth="1" NCoef="0" IVar="34" Cut="5.9522466659545898e+00" cType="1" res="-7.4528995901346207e-04" rms="1.9969438016414642e-01" purity="5.1792562007904053e-01" nType="0">
          <Node pos="l" depth="2" NCoef="0" IVar="-1" Cut="0.0000000000000000e+00" cType="1" res="1.3299712918524165e-05" rms="2.0103822648525238e-01" purity="5.4086387157440186e-01" nType="-99"/>
          <Node pos="r" depth="2" NCoef="0" IVar="-1" Cut="0.0000000000000000e+00" cType="1" res="-2.2003112360835075e-02" rms="1.7425236105918884e-01" purity="1.2043472379446030e-01" nType="-99"/>
        </Node>
      </Node>
    </BinaryTree>
    <BinaryTree type="DecisionTree" boostWeight="1.0000000000000000e+00" itree="518">
      <Node pos="s" depth="0" NCoef="0" IVar="27" Cut="2.3841200768947601e-01" cType="1" res="-4.0131129208020866e-04" rms="1.9800335168838501e-01" purity="5.0142765045166016e-01" nType="0">
        <Node pos="l" depth="1" NCoef="0" IVar="24" Cut="7.6238048076629639e-01" cType="1" res="-1.1521389707922935e-02" rms="1.8125137686729431e-01" purity="1.3926924765110016e-01" nType="0">
          <Node pos="l" depth="2" NCoef="0" IVar="-1" Cut="0.0000000000000000e+00" cType="1" res="9.5480767777189612e-04" rms="1.5537433326244354e-01" purity="5.1599491387605667e-02" nType="-99"/>
          <Node pos="r" depth="2" NCoef="0" IVar="-1" Cut="0.0000000000000000e+00" cType="1" res="-2.4323107674717903e-02" rms="2.0191474258899689e-01" purity="2.2157253324985504e-01" nType="-99"/>
        </Node>
        <Node pos="r" depth="1" NCoef="0" IVar="12" Cut="7.4920392036437988e+00" cType="1" res="2.7117389254271984e-04" rms="1.9895127415657043e-01" purity="5.2332913875579834e-01" nType="0">
          <Node pos="l" depth="2" NCoef="0" IVar="-1" Cut="0.0000000000000000e+00" cType="1" res="2.2896653972566128e-03" rms="2.0687794685363770e-01" purity="4.5481258630752563e-01" nType="-99"/>
          <Node pos="r" depth="2" NCoef="0" IVar="-1" Cut="0.0000000000000000e+00" cType="1" res="-3.9215632714331150e-03" rms="1.8433435261249542e-01" purity="6.4229243993759155e-01" nType="-99"/>
        </Node>
      </Node>
    </BinaryTree>
    <BinaryTree type="DecisionTree" boostWeight="1.0000000000000000e+00" itree="519">
      <Node pos="s" depth="0" NCoef="0" IVar="23" Cut="9.5240515470504761e-01" cType="1" res="-6.8476144224405289e-04" rms="1.9564943015575409e-01" purity="4.9960833787918091e-01" nType="0">
        <Node pos="l" depth="1" NCoef="0" IVar="16" Cut="4.0166431665420532e-01" cType="1" res="-2.7762679383158684e-03" rms="2.1793915331363678e-01" purity="2.8515902161598206e-01" nType="0">
          <Node pos="l" depth="2" NCoef="0" IVar="-1" Cut="0.0000000000000000e+00" cType="1" res="-5.4245544597506523e-03" rms="2.1829970180988312e-01" purity="2.0694284141063690e-01" nType="-99"/>
          <Node pos="r" depth="2" NCoef="0" IVar="-1" Cut="0.0000000000000000e+00" cType="1" res="1.6261886339634657e-03" rms="2.1731783449649811e-01" purity="4.0273594856262207e-01" nType="-99"/>
        </Node>
        <Node pos="r" depth="1" NCoef="0" IVar="23" Cut="9.7730654478073120e-01" cType="1" res="3.5136283840984106e-03" rms="1.4052391052246094e-01" purity="9.3008375167846680e-01" nType="0">
          <Node pos="l" depth="2" NCoef="0" IVar="-1" Cut="0.0000000000000000e+00" cType="1" res="-1.5668002888560295e-02" rms="1.9482062757015228e-01" purity="8.4406679868698120e-01" nType="-99"/>
          <Node pos="r" depth="2" NCoef="0" IVar="-1" Cut="0.0000000000000000e+00" cType="1" res="1.8440002575516701e-02" rms="1.2169191241264343e-01" purity="9.5307695865631104e-01" nType="-99"/>
        </Node>
      </Node>
    </BinaryTree>
    <BinaryTree type="DecisionTree" boostWeight="1.0000000000000000e+00" itree="520">
      <Node pos="s" depth="0" NCoef="0" IVar="12" Cut="7.5073952674865723e+00" cType="1" res="1.6296605463139713e-04" rms="1.9948570430278778e-01" purity="5.0013422966003418e-01" nType="0">
        <Node pos="l" depth="1" NCoef="0" IVar="16" Cut="3.5116457939147949e-01" cType="1" res="1.6686953604221344e-03" rms="2.0611105859279633e-01" purity="4.3555945158004761e-01" nType="0">
          <Node pos="l" depth="2" NCoef="0" IVar="-1" Cut="0.0000000000000000e+00" cType="1" res="6.8086115643382072e-03" rms="2.2107514739036560e-01" purity="2.8175660967826843e-01" nType="-99"/>
          <Node pos="r" depth="2" NCoef="0" IVar="-1" Cut="0.0000000000000000e+00" cType="1" res="-2.6625439058989286e-03" rms="1.9392816722393036e-01" purity="5.5194854736328125e-01" nType="-99"/>
        </Node>
        <Node pos="r" depth="1" NCoef="0" IVar="16" Cut="4.7905001044273376e-01" cType="1" res="-2.6456560008227825e-03" rms="1.8646708130836487e-01" purity="6.2058484554290771e-01" nType="0">
          <Node pos="l" depth="2" NCoef="0" IVar="-1" Cut="0.0000000000000000e+00" cType="1" res="-9.0152118355035782e-03" rms="1.9504867494106293e-01" purity="5.1023685932159424e-01" nType="-99"/>
          <Node pos="r" depth="2" NCoef="0" IVar="-1" Cut="0.0000000000000000e+00" cType="1" res="4.4594272039830685e-03" rms="1.7615003883838654e-01" purity="7.4463379383087158e-01" nType="-99"/>
        </Node>
      </Node>
    </BinaryTree>
    <BinaryTree type="DecisionTree" boostWeight="1.0000000000000000e+00" itree="521">
      <Node pos="s" depth="0" NCoef="0" IVar="22" Cut="1.7314298152923584e+00" cType="1" res="-1.0489131454960443e-05" rms="1.9780012965202332e-01" purity="4.9902558326721191e-01" nType="0">
        <Node pos="l" depth="1" NCoef="0" IVar="13" Cut="8.7103357315063477e+00" cType="1" res="7.1981679648160934e-03" rms="2.0274914801120758e-01" purity="3.4731462597846985e-01" nType="0">
          <Node pos="l" depth="2" NCoef="0" IVar="-1" Cut="0.0000000000000000e+00" cType="1" res="2.0806253887712955e-03" rms="2.0385119318962097e-01" purity="3.0194166302680969e-01" nType="-99"/>
          <Node pos="r" depth="2" NCoef="0" IVar="-1" Cut="0.0000000000000000e+00" cType="1" res="3.5629097372293472e-02" rms="1.9771447777748108e-01" purity="5.0516426563262939e-01" nType="-99"/>
        </Node>
        <Node pos="r" depth="1" NCoef="0" IVar="11" Cut="7.8449544906616211e+00" cType="1" res="-1.0385734494775534e-03" rms="1.9706270098686218e-01" purity="5.2066230773925781e-01" nType="0">
          <Node pos="l" depth="2" NCoef="0" IVar="-1" Cut="0.0000000000000000e+00" cType="1" res="-5.2296112698968500e-05" rms="1.9729837775230408e-01" purity="5.3460532426834106e-01" nType="-99"/>
          <Node pos="r" depth="2" NCoef="0" IVar="-1" Cut="0.0000000000000000e+00" cType="1" res="-1.5292443335056305e-02" rms="1.9351936876773834e-01" purity="3.3982488512992859e-01" nType="-99"/>
        </Node>
      </Node>
    </BinaryTree>
    <BinaryTree type="DecisionTree" boostWeight="1.0000000000000000e+00" itree="522">
      <Node pos="s" depth="0" NCoef="0" IVar="10" Cut="5.9350481033325195e+00" cType="1" res="9.1538601554930210e-04" rms="1.9990406930446625e-01" purity="5.0021398067474365e-01" nType="0">
        <Node pos="l" depth="1" NCoef="0" IVar="16" Cut="4.9584898352622986e-01" cType="1" res="1.2718315236270428e-02" rms="2.0714192092418671e-01" purity="3.7378326058387756e-01" nType="0">
          <Node pos="l" depth="2" NCoef="0" IVar="-1" Cut="0.0000000000000000e+00" cType="1" res="3.1742863357067108e-02" rms="2.1316821873188019e-01" purity="3.2055839896202087e-01" nType="-99"/>
          <Node pos="r" depth="2" NCoef="0" IVar="-1" Cut="0.0000000000000000e+00" cType="1" res="1.9208792946301401e-04" rms="2.0089295506477356e-01" purity="4.2025265097618103e-01" nType="-99"/>
        </Node>
        <Node pos="r" depth="1" NCoef="0" IVar="28" Cut="9.0498477220535278e-01" cType="1" res="2.1192629355937243e-04" rms="1.9944234192371368e-01" purity="5.0774937868118286e-01" nType="0">
          <Node pos="l" depth="2" NCoef="0" IVar="-1" Cut="0.0000000000000000e+00" cType="1" res="2.0667109638452530e-03" rms="2.0950688421726227e-01" purity="3.9559185504913330e-01" nType="-99"/>
          <Node pos="r" depth="2" NCoef="0" IVar="-1" Cut="0.0000000000000000e+00" cType="1" res="-4.7172028571367264e-03" rms="1.7744944989681244e-01" purity="7.3311167955398560e-01" nType="-99"/>
        </Node>
      </Node>
    </BinaryTree>
    <BinaryTree type="DecisionTree" boostWeight="1.0000000000000000e+00" itree="523">
      <Node pos="s" depth="0" NCoef="0" IVar="11" Cut="6.8092112541198730e+00" cType="1" res="-5.4388903663493693e-05" rms="1.9777597486972809e-01" purity="5.0129932165145874e-01" nType="0">
        <Node pos="l" depth="1" NCoef="0" IVar="1" Cut="7.7160677909851074e+00" cType="1" res="-2.9256874695420265e-03" rms="1.9682779908180237e-01" purity="5.0450402498245239e-01" nType="0">
          <Node pos="l" depth="2" NCoef="0" IVar="-1" Cut="0.0000000000000000e+00" cType="1" res="-1.0146195068955421e-02" rms="1.9720803201198578e-01" purity="4.3671435117721558e-01" nType="-99"/>
          <Node pos="r" depth="2" NCoef="0" IVar="-1" Cut="0.0000000000000000e+00" cType="1" res="9.7802253440022469e-03" rms="1.9554318487644196e-01" purity="6.4183807373046875e-01" nType="-99"/>
        </Node>
        <Node pos="r" depth="1" NCoef="0" IVar="6" Cut="4.7983045578002930e+00" cType="1" res="3.0713099986314774e-03" rms="1.9875586032867432e-01" purity="4.9781069159507751e-01" nType="0">
          <Node pos="l" depth="2" NCoef="0" IVar="-1" Cut="0.0000000000000000e+00" cType="1" res="1.8228989094495773e-02" rms="2.1996343135833740e-01" purity="5.3914052248001099e-01" nType="-99"/>
          <Node pos="r" depth="2" NCoef="0" IVar="-1" Cut="0.0000000000000000e+00" cType="1" res="1.6125892580021173e-04" rms="1.9342859089374542e-01" purity="4.8830029368400574e-01" nType="-99"/>
        </Node>
      </Node>
    </BinaryTree>
    <BinaryTree type="DecisionTree" boostWeight="1.0000000000000000e+00" itree="524">
      <Node pos="s" depth="0" NCoef="0" IVar="23" Cut="7.6213532686233521e-01" cType="1" res="5.7576393010094762e-04" rms="1.9908826053142548e-01" purity="5.0216370820999146e-01" nType="0">
        <Node pos="l" depth="1" NCoef="0" IVar="16" Cut="4.0203693509101868e-01" cType="1" res="3.1602906528860331e-03" rms="2.0765253901481628e-01" purity="1.5606945753097534e-01" nType="0">
          <Node pos="l" depth="2" NCoef="0" IVar="-1" Cut="0.0000000000000000e+00" cType="1" res="-1.2938244035467505e-03" rms="2.0286163687705994e-01" purity="1.0661223530769348e-01" nType="-99"/>
          <Node pos="r" depth="2" NCoef="0" IVar="-1" Cut="0.0000000000000000e+00" cType="1" res="9.7507825121283531e-03" rms="2.1585728228092194e-01" purity="2.4584707617759705e-01" nType="-99"/>
        </Node>
        <Node pos="r" depth="1" NCoef="0" IVar="23" Cut="9.7729796171188354e-01" cType="1" res="-1.5673770103603601e-03" rms="1.9167019426822662e-01" purity="7.8915190696716309e-01" nType="0">
          <Node pos="l" depth="2" NCoef="0" IVar="-1" Cut="0.0000000000000000e+00" cType="1" res="-5.9929415583610535e-03" rms="2.3823654651641846e-01" purity="6.4171242713928223e-01" nType="-99"/>
          <Node pos="r" depth="2" NCoef="0" IVar="-1" Cut="0.0000000000000000e+00" cType="1" res="1.1646098457276821e-02" rms="1.2069924920797348e-01" purity="9.5191228389739990e-01" nType="-99"/>
        </Node>
      </Node>
    </BinaryTree>
    <BinaryTree type="DecisionTree" boostWeight="1.0000000000000000e+00" itree="525">
      <Node pos="s" depth="0" NCoef="0" IVar="34" Cut="3.9683609008789062e+00" cType="1" res="1.4342978829517961e-03" rms="2.0115929841995239e-01" purity="5.0494664907455444e-01" nType="0">
        <Node pos="l" depth="1" NCoef="0" IVar="27" Cut="2.8794082999229431e-01" cType="1" res="7.2800498855940532e-06" rms="2.0135237276554108e-01" purity="5.7410544157028198e-01" nType="0">
          <Node pos="l" depth="2" NCoef="0" IVar="-1" Cut="0.0000000000000000e+00" cType="1" res="-1.6162334010004997e-02" rms="1.8693698942661285e-01" purity="2.0136970281600952e-01" nType="-99"/>
          <Node pos="r" depth="2" NCoef="0" IVar="-1" Cut="0.0000000000000000e+00" cType="1" res="9.3217933317646384e-04" rms="2.0217326283454895e-01" purity="5.9697866439819336e-01" nType="-99"/>
        </Node>
        <Node pos="r" depth="1" NCoef="0" IVar="21" Cut="1.2683873176574707e+01" cType="1" res="7.5287180952727795e-03" rms="2.0021817088127136e-01" purity="2.0958748459815979e-01" nType="0">
          <Node pos="l" depth="2" NCoef="0" IVar="-1" Cut="0.0000000000000000e+00" cType="1" res="5.4014741908758879e-04" rms="1.8124115467071533e-01" purity="1.1514227837324142e-01" nType="-99"/>
          <Node pos="r" depth="2" NCoef="0" IVar="-1" Cut="0.0000000000000000e+00" cType="1" res="1.9317079335451126e-02" rms="2.2443017363548279e-01" purity="3.4609794616699219e-01" nType="-99"/>
        </Node>
      </Node>
    </BinaryTree>
    <BinaryTree type="DecisionTree" boostWeight="1.0000000000000000e+00" itree="526">
      <Node pos="s" depth="0" NCoef="0" IVar="3" Cut="3.0978677272796631e+00" cType="1" res="1.0400835890322924e-03" rms="1.9906565546989441e-01" purity="5.0246107578277588e-01" nType="0">
        <Node pos="l" depth="1" NCoef="0" IVar="20" Cut="8.2852287292480469e+00" cType="1" res="2.1473346278071404e-03" rms="2.2393397986888885e-01" purity="6.3628405332565308e-01" nType="0">
          <Node pos="l" depth="2" NCoef="0" IVar="-1" Cut="0.0000000000000000e+00" cType="1" res="1.2491892557591200e-03" rms="2.2099007666110992e-01" purity="6.4992672204971313e-01" nType="-99"/>
          <Node pos="r" depth="2" NCoef="0" IVar="-1" Cut="0.0000000000000000e+00" cType="1" res="1.0162517428398132e-02" rms="2.6284745335578918e-01" purity="4.3745982646942139e-01" nType="-99"/>
        </Node>
        <Node pos="r" depth="1" NCoef="0" IVar="17" Cut="2.5059049606323242e+01" cType="1" res="-3.1172803137451410e-03" rms="1.0428957641124725e-02" purity="0.0000000000000000e+00" nType="0">
          <Node pos="l" depth="2" NCoef="0" IVar="-1" Cut="0.0000000000000000e+00" cType="1" res="-5.0971198827028275e-02" rms="6.2333676032721996e-03" purity="0.0000000000000000e+00" nType="-99"/>
          <Node pos="r" depth="2" NCoef="0" IVar="-1" Cut="0.0000000000000000e+00" cType="1" res="-5.3785871714353561e-02" rms="2.1729571744799614e-02" purity="0.0000000000000000e+00" nType="-99"/>
        </Node>
      </Node>
    </BinaryTree>
    <BinaryTree type="DecisionTree" boostWeight="1.0000000000000000e+00" itree="527">
      <Node pos="s" depth="0" NCoef="0" IVar="34" Cut="7.1425781250000000e+00" cType="1" res="5.3618842503055930e-04" rms="1.9984561204910278e-01" purity="4.9724757671356201e-01" nType="0">
        <Node pos="l" depth="1" NCoef="0" IVar="34" Cut="2.3809332847595215e+00" cType="1" res="9.6950604347512126e-04" rms="2.0115777850151062e-01" purity="5.0931125879287720e-01" nType="0">
          <Node pos="l" depth="2" NCoef="0" IVar="-1" Cut="0.0000000000000000e+00" cType="1" res="-1.4260605676099658e-03" rms="1.9571781158447266e-01" purity="6.1030614376068115e-01" nType="-99"/>
          <Node pos="r" depth="2" NCoef="0" IVar="-1" Cut="0.0000000000000000e+00" cType="1" res="5.9330910444259644e-03" rms="2.1095313131809235e-01" purity="3.1921097636222839e-01" nType="-99"/>
        </Node>
        <Node pos="r" depth="1" NCoef="0" IVar="-1" Cut="0.0000000000000000e+00" cType="1" res="-2.9237177222967148e-02" rms="1.4365682005882263e-01" purity="6.0534935444593430e-02" nType="-99"/>
      </Node>
    </BinaryTree>
    <BinaryTree type="DecisionTree" boostWeight="1.0000000000000000e+00" itree="528">
      <Node pos="s" depth="0" NCoef="0" IVar="16" Cut="3.2866787910461426e-01" cType="1" res="-1.0128117864951491e-03" rms="1.9679202139377594e-01" purity="5.0009799003601074e-01" nType="0">
        <Node pos="l" depth="1" NCoef="0" IVar="23" Cut="9.5235556364059448e-01" cType="1" res="-6.2224497087299824e-03" rms="2.1288807690143585e-01" purity="2.5078356266021729e-01" nType="0">
          <Node pos="l" depth="2" NCoef="0" IVar="-1" Cut="0.0000000000000000e+00" cType="1" res="-1.0154644027352333e-02" rms="2.1726648509502411e-01" purity="1.5285216271877289e-01" nType="-99"/>
          <Node pos="r" depth="2" NCoef="0" IVar="-1" Cut="0.0000000000000000e+00" cType="1" res="2.2472351789474487e-02" rms="1.7898252606391907e-01" purity="8.9950102567672729e-01" nType="-99"/>
        </Node>
        <Node pos="r" depth="1" NCoef="0" IVar="11" Cut="7.5342326164245605e+00" cType="1" res="1.2264840770512819e-03" rms="1.8940953910350800e-01" purity="6.0726261138916016e-01" nType="0">
          <Node pos="l" depth="2" NCoef="0" IVar="-1" Cut="0.0000000000000000e+00" cType="1" res="-5.9179251547902822e-04" rms="1.9003435969352722e-01" purity="6.0973203182220459e-01" nType="-99"/>
          <Node pos="r" depth="2" NCoef="0" IVar="-1" Cut="0.0000000000000000e+00" cType="1" res="1.8934903666377068e-02" rms="1.8342897295951843e-01" purity="5.8645343780517578e-01" nType="-99"/>
        </Node>
      </Node>
    </BinaryTree>
    <BinaryTree type="DecisionTree" boostWeight="1.0000000000000000e+00" itree="529">
      <Node pos="s" depth="0" NCoef="0" IVar="12" Cut="6.3151984214782715e+00" cType="1" res="3.2653301605023444e-04" rms="1.9614942371845245e-01" purity="4.9712797999382019e-01" nType="0">
        <Node pos="l" depth="1" NCoef="0" IVar="-1" Cut="0.0000000000000000e+00" cType="1" res="1.3532112352550030e-02" rms="2.0791904628276825e-01" purity="2.9408708214759827e-01" nType="-99"/>
        <Node pos="r" depth="1" NCoef="0" IVar="30" Cut="2.0947724580764771e-01" cType="1" res="-2.8584970277734101e-04" rms="1.9554960727691650e-01" purity="5.0680691003799438e-01" nType="0">
          <Node pos="l" depth="2" NCoef="0" IVar="-1" Cut="0.0000000000000000e+00" cType="1" res="-1.0577576467767358e-03" rms="1.9518555700778961e-01" purity="5.2464419603347778e-01" nType="-99"/>
          <Node pos="r" depth="2" NCoef="0" IVar="-1" Cut="0.0000000000000000e+00" cType="1" res="1.0919592343270779e-02" rms="2.0103305578231812e-01" purity="2.2075679898262024e-01" nType="-99"/>
        </Node>
      </Node>
    </BinaryTree>
    <BinaryTree type="DecisionTree" boostWeight="1.0000000000000000e+00" itree="530">
      <Node pos="s" depth="0" NCoef="0" IVar="15" Cut="6.2041168212890625e+00" cType="1" res="-5.2625843090936542e-04" rms="1.9575397670269012e-01" purity="4.9989941716194153e-01" nType="0">
        <Node pos="l" depth="1" NCoef="0" IVar="2" Cut="9.5905838012695312e+00" cType="1" res="2.8501157648861408e-03" rms="2.0651520788669586e-01" purity="4.9062040448188782e-01" nType="0">
          <Node pos="l" depth="2" NCoef="0" IVar="-1" Cut="0.0000000000000000e+00" cType="1" res="6.1894706450402737e-03" rms="2.0724280178546906e-01" purity="5.2250421047210693e-01" nType="-99"/>
          <Node pos="r" depth="2" NCoef="0" IVar="-1" Cut="0.0000000000000000e+00" cType="1" res="-7.1170879527926445e-03" rms="2.0384180545806885e-01" purity="3.8749983906745911e-01" nType="-99"/>
        </Node>
        <Node pos="r" depth="1" NCoef="0" IVar="7" Cut="3.1226065158843994e+00" cType="1" res="-2.5138345081359148e-03" rms="1.8910486996173859e-01" purity="5.0536167621612549e-01" nType="0">
          <Node pos="l" depth="2" NCoef="0" IVar="-1" Cut="0.0000000000000000e+00" cType="1" res="-1.0934035526588559e-03" rms="1.9403897225856781e-01" purity="5.8504903316497803e-01" nType="-99"/>
          <Node pos="r" depth="2" NCoef="0" IVar="-1" Cut="0.0000000000000000e+00" cType="1" res="-1.9655333831906319e-02" rms="1.6102957725524902e-01" purity="9.4275429844856262e-02" nType="-99"/>
        </Node>
      </Node>
    </BinaryTree>
    <BinaryTree type="DecisionTree" boostWeight="1.0000000000000000e+00" itree="531">
      <Node pos="s" depth="0" NCoef="0" IVar="10" Cut="6.1214947700500488e+00" cType="1" res="2.2877223091199994e-04" rms="1.9920322299003601e-01" purity="5.0194972753524780e-01" nType="0">
        <Node pos="l" depth="1" NCoef="0" IVar="24" Cut="4.3642035126686096e-01" cType="1" res="-5.8595309965312481e-03" rms="1.9362714886665344e-01" purity="3.8051837682723999e-01" nType="0">
          <Node pos="l" depth="2" NCoef="0" IVar="-1" Cut="0.0000000000000000e+00" cType="1" res="8.4484983235597610e-03" rms="1.8561370670795441e-01" purity="1.6814692318439484e-01" nType="-99"/>
          <Node pos="r" depth="2" NCoef="0" IVar="-1" Cut="0.0000000000000000e+00" cType="1" res="-1.5695123001933098e-02" rms="1.9809424877166748e-01" purity="5.1313096284866333e-01" nType="-99"/>
        </Node>
        <Node pos="r" depth="1" NCoef="0" IVar="13" Cut="8.0581636428833008e+00" cType="1" res="9.1495574451982975e-04" rms="1.9981028139591217e-01" purity="5.1563566923141479e-01" nType="0">
          <Node pos="l" depth="2" NCoef="0" IVar="-1" Cut="0.0000000000000000e+00" cType="1" res="5.2457307465374470e-03" rms="1.9934320449829102e-01" purity="5.0909382104873657e-01" nType="-99"/>
          <Node pos="r" depth="2" NCoef="0" IVar="-1" Cut="0.0000000000000000e+00" cType="1" res="-1.5118282753974199e-03" rms="2.0004160702228546e-01" purity="5.1935499906539917e-01" nType="-99"/>
        </Node>
      </Node>
    </BinaryTree>
    <BinaryTree type="DecisionTree" boostWeight="1.0000000000000000e+00" itree="532">
      <Node pos="s" depth="0" NCoef="0" IVar="12" Cut="7.1181640625000000e+00" cType="1" res="-4.2731105349957943e-04" rms="1.9892701506614685e-01" purity="5.0020521879196167e-01" nType="0">
        <Node pos="l" depth="1" NCoef="0" IVar="10" Cut="6.8684182167053223e+00" cType="1" res="-2.9275668784976006e-03" rms="2.0884589850902557e-01" purity="3.7981098890304565e-01" nType="0">
          <Node pos="l" depth="2" NCoef="0" IVar="-1" Cut="0.0000000000000000e+00" cType="1" res="-1.0004247538745403e-02" rms="1.9924907386302948e-01" purity="3.7149578332901001e-01" nType="-99"/>
          <Node pos="r" depth="2" NCoef="0" IVar="-1" Cut="0.0000000000000000e+00" cType="1" res="2.8186973650008440e-03" rms="2.1822369098663330e-01" purity="3.8845321536064148e-01" nType="-99"/>
        </Node>
        <Node pos="r" depth="1" NCoef="0" IVar="16" Cut="3.0199155211448669e-01" cType="1" res="1.1730397818610072e-03" rms="1.9229277968406677e-01" purity="5.7726651430130005e-01" nType="0">
          <Node pos="l" depth="2" NCoef="0" IVar="-1" Cut="0.0000000000000000e+00" cType="1" res="1.2483598664402962e-02" rms="2.1236784756183624e-01" purity="3.0231890082359314e-01" nType="-99"/>
          <Node pos="r" depth="2" NCoef="0" IVar="-1" Cut="0.0000000000000000e+00" cType="1" res="-8.0184900434687734e-04" rms="1.8865519762039185e-01" purity="6.2338536977767944e-01" nType="-99"/>
        </Node>
      </Node>
    </BinaryTree>
    <BinaryTree type="DecisionTree" boostWeight="1.0000000000000000e+00" itree="533">
      <Node pos="s" depth="0" NCoef="0" IVar="6" Cut="7.1605591773986816e+00" cType="1" res="-1.5577574959024787e-03" rms="1.9480964541435242e-01" purity="4.9930578470230103e-01" nType="0">
        <Node pos="l" depth="1" NCoef="0" IVar="9" Cut="2.0209232330322266e+01" cType="1" res="-2.4116355925798416e-03" rms="1.9757063686847687e-01" purity="5.1747769117355347e-01" nType="0">
          <Node pos="l" depth="2" NCoef="0" IVar="-1" Cut="0.0000000000000000e+00" cType="1" res="-1.1091502383351326e-03" rms="1.9971181452274323e-01" purity="5.1933282613754272e-01" nType="-99"/>
          <Node pos="r" depth="2" NCoef="0" IVar="-1" Cut="0.0000000000000000e+00" cType="1" res="-1.1375192552804947e-02" rms="1.8586574494838715e-01" purity="5.0783705711364746e-01" nType="-99"/>
        </Node>
        <Node pos="r" depth="1" NCoef="0" IVar="23" Cut="4.7829452157020569e-01" cType="1" res="5.1889377646148205e-03" rms="1.7128813266754150e-01" purity="3.5572510957717896e-01" nType="0">
          <Node pos="l" depth="2" NCoef="0" IVar="-1" Cut="0.0000000000000000e+00" cType="1" res="-2.3977465927600861e-02" rms="1.0397325456142426e-01" purity="2.4931434541940689e-02" nType="-99"/>
          <Node pos="r" depth="2" NCoef="0" IVar="-1" Cut="0.0000000000000000e+00" cType="1" res="1.3063733465969563e-02" rms="1.9488525390625000e-01" purity="5.1260852813720703e-01" nType="-99"/>
        </Node>
      </Node>
    </BinaryTree>
    <BinaryTree type="DecisionTree" boostWeight="1.0000000000000000e+00" itree="534">
      <Node pos="s" depth="0" NCoef="0" IVar="30" Cut="2.6657477021217346e-01" cType="1" res="1.5552398981526494e-03" rms="1.9891266524791718e-01" purity="5.0123709440231323e-01" nType="0">
        <Node pos="l" depth="1" NCoef="0" IVar="28" Cut="1.9385764002799988e-01" cType="1" res="9.4726547831669450e-04" rms="1.9852210581302643e-01" purity="5.1117980480194092e-01" nType="0">
          <Node pos="l" depth="2" NCoef="0" IVar="-1" Cut="0.0000000000000000e+00" cType="1" res="-9.2985527589917183e-03" rms="2.0172435045242310e-01" purity="3.0207985639572144e-01" nType="-99"/>
          <Node pos="r" depth="2" NCoef="0" IVar="-1" Cut="0.0000000000000000e+00" cType="1" res="2.0993025973439217e-03" rms="1.9819307327270508e-01" purity="5.3106325864791870e-01" nType="-99"/>
        </Node>
        <Node pos="r" depth="1" NCoef="0" IVar="-1" Cut="0.0000000000000000e+00" cType="1" res="2.0603666082024574e-02" rms="2.0846472680568695e-01" purity="2.3427180945873260e-01" nType="-99"/>
      </Node>
    </BinaryTree>
    <BinaryTree type="DecisionTree" boostWeight="1.0000000000000000e+00" itree="535">
      <Node pos="s" depth="0" NCoef="0" IVar="32" Cut="3.8090746849775314e-02" cType="1" res="-1.2806688027922064e-04" rms="1.9551275670528412e-01" purity="5.0378519296646118e-01" nType="0">
        <Node pos="l" depth="1" NCoef="0" IVar="32" Cut="1.8196209566667676e-03" cType="1" res="-1.6632297774776816e-03" rms="1.9257001578807831e-01" purity="6.0072827339172363e-01" nType="0">
          <Node pos="l" depth="2" NCoef="0" IVar="-1" Cut="0.0000000000000000e+00" cType="1" res="6.8361484445631504e-03" rms="1.6994172334671021e-01" purity="7.4777275323867798e-01" nType="-99"/>
          <Node pos="r" depth="2" NCoef="0" IVar="-1" Cut="0.0000000000000000e+00" cType="1" res="-4.9124434590339661e-03" rms="2.0139828324317932e-01" purity="5.3790205717086792e-01" nType="-99"/>
        </Node>
        <Node pos="r" depth="1" NCoef="0" IVar="11" Cut="5.8792233467102051e+00" cType="1" res="3.8316575810313225e-03" rms="2.0285260677337646e-01" purity="2.5373464822769165e-01" nType="0">
          <Node pos="l" depth="2" NCoef="0" IVar="-1" Cut="0.0000000000000000e+00" cType="1" res="-1.3169375248253345e-02" rms="1.9236747920513153e-01" purity="1.7461256682872772e-01" nType="-99"/>
          <Node pos="r" depth="2" NCoef="0" IVar="-1" Cut="0.0000000000000000e+00" cType="1" res="7.1127070114016533e-03" rms="2.0438735187053680e-01" purity="2.6638036966323853e-01" nType="-99"/>
        </Node>
      </Node>
    </BinaryTree>
    <BinaryTree type="DecisionTree" boostWeight="1.0000000000000000e+00" itree="536">
      <Node pos="s" depth="0" NCoef="0" IVar="16" Cut="2.5873729586601257e-01" cType="1" res="-2.2384447220247239e-04" rms="1.9856181740760803e-01" purity="4.9739736318588257e-01" nType="0">
        <Node pos="l" depth="1" NCoef="0" IVar="3" Cut="1.4662452936172485e+00" cType="1" res="8.9470790699124336e-03" rms="2.0170772075653076e-01" purity="1.9596245884895325e-01" nType="0">
          <Node pos="l" depth="2" NCoef="0" IVar="-1" Cut="0.0000000000000000e+00" cType="1" res="2.0912131294608116e-02" rms="2.8850278258323669e-01" purity="4.5488697290420532e-01" nType="-99"/>
          <Node pos="r" depth="2" NCoef="0" IVar="-1" Cut="0.0000000000000000e+00" cType="1" res="2.8041563928127289e-03" rms="1.6435089707374573e-01" purity="1.1414172500371933e-01" nType="-99"/>
        </Node>
        <Node pos="r" depth="1" NCoef="0" IVar="16" Cut="2.8890171647071838e-01" cType="1" res="-1.4084737049415708e-03" rms="1.9812084734439850e-01" purity="5.3633433580398560e-01" nType="0">
          <Node pos="l" depth="2" NCoef="0" IVar="-1" Cut="0.0000000000000000e+00" cType="1" res="-1.2074756436049938e-02" rms="2.1772773563861847e-01" purity="2.6793020963668823e-01" nType="-99"/>
          <Node pos="r" depth="2" NCoef="0" IVar="-1" Cut="0.0000000000000000e+00" cType="1" res="-4.6219964860938489e-04" rms="1.9630841910839081e-01" purity="5.5944257974624634e-01" nType="-99"/>
        </Node>
      </Node>
    </BinaryTree>
    <BinaryTree type="DecisionTree" boostWeight="1.0000000000000000e+00" itree="537">
      <Node pos="s" depth="0" NCoef="0" IVar="30" Cut="9.5253020524978638e-02" cType="1" res="7.8708300134167075e-04" rms="2.0104590058326721e-01" purity="5.0039643049240112e-01" nType="0">
        <Node pos="l" depth="1" NCoef="0" IVar="12" Cut="7.3153319358825684e+00" cType="1" res="2.1345478016883135e-03" rms="2.0211578905582428e-01" purity="5.5460262298583984e-01" nType="0">
          <Node pos="l" depth="2" NCoef="0" IVar="-1" Cut="0.0000000000000000e+00" cType="1" res="6.0850526206195354e-03" rms="2.1293479204177856e-01" purity="4.7900909185409546e-01" nType="-99"/>
          <Node pos="r" depth="2" NCoef="0" IVar="-1" Cut="0.0000000000000000e+00" cType="1" res="-2.0163140725344419e-03" rms="1.9067415595054626e-01" purity="6.2979125976562500e-01" nType="-99"/>
        </Node>
        <Node pos="r" depth="1" NCoef="0" IVar="6" Cut="5.2693252563476562e+00" cType="1" res="-5.6573660112917423e-03" rms="1.9571992754936218e-01" purity="2.4114745855331421e-01" nType="0">
          <Node pos="l" depth="2" NCoef="0" IVar="-1" Cut="0.0000000000000000e+00" cType="1" res="-1.9663518294692039e-02" rms="1.9404992461204529e-01" purity="2.0378813147544861e-01" nType="-99"/>
          <Node pos="r" depth="2" NCoef="0" IVar="-1" Cut="0.0000000000000000e+00" cType="1" res="4.3390817008912563e-03" rms="1.9675943255424500e-01" purity="2.7581146359443665e-01" nType="-99"/>
        </Node>
      </Node>
    </BinaryTree>
    <BinaryTree type="DecisionTree" boostWeight="1.0000000000000000e+00" itree="538">
      <Node pos="s" depth="0" NCoef="0" IVar="12" Cut="6.9167637825012207e+00" cType="1" res="4.9766828306019306e-04" rms="1.9752681255340576e-01" purity="5.0189197063446045e-01" nType="0">
        <Node pos="l" depth="1" NCoef="0" IVar="11" Cut="7.3340983390808105e+00" cType="1" res="-4.3629957363009453e-03" rms="2.0543138682842255e-01" purity="3.4764799475669861e-01" nType="0">
          <Node pos="l" depth="2" NCoef="0" IVar="-1" Cut="0.0000000000000000e+00" cType="1" res="-9.3044905224815011e-04" rms="2.0836278796195984e-01" purity="3.7888005375862122e-01" nType="-99"/>
          <Node pos="r" depth="2" NCoef="0" IVar="-1" Cut="0.0000000000000000e+00" cType="1" res="-2.5349777191877365e-02" rms="1.8763504922389984e-01" purity="1.7843900620937347e-01" nType="-99"/>
        </Node>
        <Node pos="r" depth="1" NCoef="0" IVar="30" Cut="1.7131313681602478e-01" cType="1" res="2.2242271807044744e-03" rms="1.9461254775524139e-01" purity="5.5668103694915771e-01" nType="0">
          <Node pos="l" depth="2" NCoef="0" IVar="-1" Cut="0.0000000000000000e+00" cType="1" res="1.5720552764832973e-03" rms="1.9233630597591400e-01" purity="5.7713454961776733e-01" nType="-99"/>
          <Node pos="r" depth="2" NCoef="0" IVar="-1" Cut="0.0000000000000000e+00" cType="1" res="1.4512112364172935e-02" rms="2.2163221240043640e-01" purity="2.9191219806671143e-01" nType="-99"/>
        </Node>
      </Node>
    </BinaryTree>
    <BinaryTree type="DecisionTree" boostWeight="1.0000000000000000e+00" itree="539">
      <Node pos="s" depth="0" NCoef="0" IVar="29" Cut="9.3393526971340179e-02" cType="1" res="5.5441894801333547e-04" rms="1.9644238054752350e-01" purity="4.9965983629226685e-01" nType="0">
        <Node pos="l" depth="1" NCoef="0" IVar="30" Cut="3.8090232759714127e-02" cType="1" res="3.3006719313561916e-03" rms="1.8731427192687988e-01" purity="6.6367834806442261e-01" nType="0">
          <Node pos="l" depth="2" NCoef="0" IVar="-1" Cut="0.0000000000000000e+00" cType="1" res="1.2113136472180486e-03" rms="1.7293088138103485e-01" purity="7.4274110794067383e-01" nType="-99"/>
          <Node pos="r" depth="2" NCoef="0" IVar="-1" Cut="0.0000000000000000e+00" cType="1" res="9.6970079466700554e-03" rms="2.2117547690868378e-01" purity="4.5172861218452454e-01" nType="-99"/>
        </Node>
        <Node pos="r" depth="1" NCoef="0" IVar="21" Cut="9.9100666046142578e+00" cType="1" res="-2.2332626394927502e-03" rms="2.0525595545768738e-01" purity="3.3316695690155029e-01" nType="0">
          <Node pos="l" depth="2" NCoef="0" IVar="-1" Cut="0.0000000000000000e+00" cType="1" res="3.0972197419032454e-04" rms="2.0501194894313812e-01" purity="3.0630680918693542e-01" nType="-99"/>
          <Node pos="r" depth="2" NCoef="0" IVar="-1" Cut="0.0000000000000000e+00" cType="1" res="-9.7116138786077499e-03" rms="2.0576891303062439e-01" purity="4.0750643610954285e-01" nType="-99"/>
        </Node>
      </Node>
    </BinaryTree>
    <BinaryTree type="DecisionTree" boostWeight="1.0000000000000000e+00" itree="540">
      <Node pos="s" depth="0" NCoef="0" IVar="14" Cut="7.0721268653869629e+00" cType="1" res="-6.9280671596061438e-05" rms="1.9598707556724548e-01" purity="5.0606584548950195e-01" nType="0">
        <Node pos="l" depth="1" NCoef="0" IVar="-1" Cut="0.0000000000000000e+00" cType="1" res="-1.6737591475248337e-02" rms="1.8041051924228668e-01" purity="3.4614235162734985e-01" nType="-99"/>
        <Node pos="r" depth="1" NCoef="0" IVar="0" Cut="2.2686634063720703e+01" cType="1" res="3.1965150265023112e-04" rms="1.9640003144741058e-01" purity="5.1063442230224609e-01" nType="0">
          <Node pos="l" depth="2" NCoef="0" IVar="-1" Cut="0.0000000000000000e+00" cType="1" res="9.5526571385562420e-04" rms="1.9722051918506622e-01" purity="5.1906657218933105e-01" nType="-99"/>
          <Node pos="r" depth="2" NCoef="0" IVar="-1" Cut="0.0000000000000000e+00" cType="1" res="-1.3084796257317066e-02" rms="1.7864887416362762e-01" purity="3.3972820639610291e-01" nType="-99"/>
        </Node>
      </Node>
    </BinaryTree>
    <BinaryTree type="DecisionTree" boostWeight="1.0000000000000000e+00" itree="541">
      <Node pos="s" depth="0" NCoef="0" IVar="10" Cut="6.7095131874084473e+00" cType="1" res="-1.4554217923432589e-03" rms="1.9721792638301849e-01" purity="4.9789685010910034e-01" nType="0">
        <Node pos="l" depth="1" NCoef="0" IVar="33" Cut="1.9045987725257874e-01" cType="1" res="-5.4676784202456474e-03" rms="1.8825376033782959e-01" purity="4.6868017315864563e-01" nType="0">
          <Node pos="l" depth="2" NCoef="0" IVar="-1" Cut="0.0000000000000000e+00" cType="1" res="-4.4239452108740807e-03" rms="1.8875481188297272e-01" purity="4.9516442418098450e-01" nType="-99"/>
          <Node pos="r" depth="2" NCoef="0" IVar="-1" Cut="0.0000000000000000e+00" cType="1" res="-2.9835311695933342e-02" rms="1.8231035768985748e-01" purity="2.1354831755161285e-01" nType="-99"/>
        </Node>
        <Node pos="r" depth="1" NCoef="0" IVar="33" Cut="2.0952281355857849e-01" cType="1" res="5.8918050490319729e-04" rms="2.0160202682018280e-01" purity="5.1278537511825562e-01" nType="0">
          <Node pos="l" depth="2" NCoef="0" IVar="-1" Cut="0.0000000000000000e+00" cType="1" res="-5.3497892804443836e-04" rms="2.0030477643013000e-01" purity="5.2888095378875732e-01" nType="-99"/>
          <Node pos="r" depth="2" NCoef="0" IVar="-1" Cut="0.0000000000000000e+00" cType="1" res="1.4315649867057800e-02" rms="2.1738626062870026e-01" purity="3.0228164792060852e-01" nType="-99"/>
        </Node>
      </Node>
    </BinaryTree>
    <BinaryTree type="DecisionTree" boostWeight="1.0000000000000000e+00" itree="542">
      <Node pos="s" depth="0" NCoef="0" IVar="26" Cut="2.8534409403800964e-01" cType="1" res="-5.2049214718863368e-04" rms="1.9849967956542969e-01" purity="4.9755060672760010e-01" nType="0">
        <Node pos="l" depth="1" NCoef="0" IVar="12" Cut="7.4731669425964355e+00" cType="1" res="-1.3173822080716491e-03" rms="1.9809186458587646e-01" purity="5.2262538671493530e-01" nType="0">
          <Node pos="l" depth="2" NCoef="0" IVar="-1" Cut="0.0000000000000000e+00" cType="1" res="7.6563644688576460e-04" rms="2.0675297081470490e-01" purity="4.5489451289176941e-01" nType="-99"/>
          <Node pos="r" depth="2" NCoef="0" IVar="-1" Cut="0.0000000000000000e+00" cType="1" res="-6.2942872755229473e-03" rms="1.8276545405387878e-01" purity="6.3502490520477295e-01" nType="-99"/>
        </Node>
        <Node pos="r" depth="1" NCoef="0" IVar="11" Cut="6.2956709861755371e+00" cType="1" res="7.5091202743351460e-03" rms="2.0238798856735229e-01" purity="2.4489243328571320e-01" nType="0">
          <Node pos="l" depth="2" NCoef="0" IVar="-1" Cut="0.0000000000000000e+00" cType="1" res="2.5372643023729324e-02" rms="2.2119054198265076e-01" purity="3.1277579069137573e-01" nType="-99"/>
          <Node pos="r" depth="2" NCoef="0" IVar="-1" Cut="0.0000000000000000e+00" cType="1" res="-1.4675009297206998e-03" rms="1.9106881320476532e-01" purity="2.0877945423126221e-01" nType="-99"/>
        </Node>
      </Node>
    </BinaryTree>
    <BinaryTree type="DecisionTree" boostWeight="1.0000000000000000e+00" itree="543">
      <Node pos="s" depth="0" NCoef="0" IVar="18" Cut="-4.4585826873779297e+01" cType="1" res="-6.3543487340211868e-04" rms="1.9922235608100891e-01" purity="5.0082963705062866e-01" nType="0">
        <Node pos="l" depth="1" NCoef="0" IVar="1" Cut="7.4843363761901855e+00" cType="1" res="5.0700111314654350e-03" rms="1.5070071816444397e-01" purity="8.8488048315048218e-01" nType="0">
          <Node pos="l" depth="2" NCoef="0" IVar="-1" Cut="0.0000000000000000e+00" cType="1" res="2.7109505608677864e-02" rms="1.3819760084152222e-01" purity="9.3555361032485962e-01" nType="-99"/>
          <Node pos="r" depth="2" NCoef="0" IVar="-1" Cut="0.0000000000000000e+00" cType="1" res="-2.6625040918588638e-03" rms="1.6024114191532135e-01" purity="8.4189349412918091e-01" nType="-99"/>
        </Node>
        <Node pos="r" depth="1" NCoef="0" IVar="20" Cut="-2.0414527893066406e+01" cType="1" res="-1.5786279691383243e-03" rms="2.0613132417201996e-01" purity="4.3734046816825867e-01" nType="0">
          <Node pos="l" depth="2" NCoef="0" IVar="-1" Cut="0.0000000000000000e+00" cType="1" res="-6.3841887749731541e-03" rms="1.9587445259094238e-01" purity="5.9255445003509521e-01" nType="-99"/>
          <Node pos="r" depth="2" NCoef="0" IVar="-1" Cut="0.0000000000000000e+00" cType="1" res="-1.0722602746682242e-04" rms="2.0954032242298126e-01" purity="3.8367843627929688e-01" nType="-99"/>
        </Node>
      </Node>
    </BinaryTree>
    <BinaryTree type="DecisionTree" boostWeight="1.0000000000000000e+00" itree="544">
      <Node pos="s" depth="0" NCoef="0" IVar="15" Cut="6.1710019111633301e+00" cType="1" res="1.2303984258323908e-03" rms="1.9793310761451721e-01" purity="5.0113534927368164e-01" nType="0">
        <Node pos="l" depth="1" NCoef="0" IVar="7" Cut="3.4236230850219727e+00" cType="1" res="4.9693668261170387e-03" rms="2.0704481005668640e-01" purity="4.9407628178596497e-01" nType="0">
          <Node pos="l" depth="2" NCoef="0" IVar="-1" Cut="0.0000000000000000e+00" cType="1" res="3.1158551573753357e-03" rms="2.0684462785720825e-01" purity="5.0673890113830566e-01" nType="-99"/>
          <Node pos="r" depth="2" NCoef="0" IVar="-1" Cut="0.0000000000000000e+00" cType="1" res="2.3072773590683937e-02" rms="2.0801703631877899e-01" purity="3.8815936446189880e-01" nType="-99"/>
        </Node>
        <Node pos="r" depth="1" NCoef="0" IVar="6" Cut="5.6853432655334473e+00" cType="1" res="-8.1042089732363820e-04" rms="1.9274753332138062e-01" purity="5.0498831272125244e-01" nType="0">
          <Node pos="l" depth="2" NCoef="0" IVar="-1" Cut="0.0000000000000000e+00" cType="1" res="-5.2993758581578732e-03" rms="1.9754844903945923e-01" purity="5.0833863019943237e-01" nType="-99"/>
          <Node pos="r" depth="2" NCoef="0" IVar="-1" Cut="0.0000000000000000e+00" cType="1" res="3.9900313131511211e-03" rms="1.8695886433124542e-01" purity="5.0111407041549683e-01" nType="-99"/>
        </Node>
      </Node>
    </BinaryTree>
    <BinaryTree type="DecisionTree" boostWeight="1.0000000000000000e+00" itree="545">
      <Node pos="s" depth="0" NCoef="0" IVar="13" Cut="7.0716667175292969e+00" cType="1" res="5.7175377150997519e-04" rms="1.9772273302078247e-01" purity="4.9852254986763000e-01" nType="0">
        <Node pos="l" depth="1" NCoef="0" IVar="-1" Cut="0.0000000000000000e+00" cType="1" res="1.8438488245010376e-02" rms="2.1806582808494568e-01" purity="3.3316311240196228e-01" nType="-99"/>
        <Node pos="r" depth="1" NCoef="0" IVar="32" Cut="3.8090828806161880e-02" cType="1" res="-2.8191027013235725e-05" rms="1.9686551392078400e-01" purity="5.0494694709777832e-01" nType="0">
          <Node pos="l" depth="2" NCoef="0" IVar="-1" Cut="0.0000000000000000e+00" cType="1" res="1.7589387716725469e-03" rms="1.9829323887825012e-01" purity="6.0318344831466675e-01" nType="-99"/>
          <Node pos="r" depth="2" NCoef="0" IVar="-1" Cut="0.0000000000000000e+00" cType="1" res="-4.9321986734867096e-03" rms="1.9298493862152100e-01" purity="2.4562752246856689e-01" nType="-99"/>
        </Node>
      </Node>
    </BinaryTree>
    <BinaryTree type="DecisionTree" boostWeight="1.0000000000000000e+00" itree="546">
      <Node pos="s" depth="0" NCoef="0" IVar="21" Cut="4.0794498443603516e+01" cType="1" res="-1.4501869445666671e-03" rms="1.9767864048480988e-01" purity="4.9840798974037170e-01" nType="0">
        <Node pos="l" depth="1" NCoef="0" IVar="13" Cut="8.2225494384765625e+00" cType="1" res="-2.1735187619924545e-03" rms="2.0284494757652283e-01" purity="4.6002340316772461e-01" nType="0">
          <Node pos="l" depth="2" NCoef="0" IVar="-1" Cut="0.0000000000000000e+00" cType="1" res="-4.9600210040807724e-03" rms="2.0289440453052521e-01" purity="4.5193043351173401e-01" nType="-99"/>
          <Node pos="r" depth="2" NCoef="0" IVar="-1" Cut="0.0000000000000000e+00" cType="1" res="6.4065289916470647e-04" rms="2.0275287330150604e-01" purity="4.6941307187080383e-01" nType="-99"/>
        </Node>
        <Node pos="r" depth="1" NCoef="0" IVar="3" Cut="1.4573156833648682e+00" cType="1" res="6.7084426991641521e-03" rms="1.2516002357006073e-01" purity="9.3135720491409302e-01" nType="0">
          <Node pos="l" depth="2" NCoef="0" IVar="-1" Cut="0.0000000000000000e+00" cType="1" res="4.3974616564810276e-03" rms="9.7301945090293884e-02" purity="9.7123295068740845e-01" nType="-99"/>
          <Node pos="r" depth="2" NCoef="0" IVar="-1" Cut="0.0000000000000000e+00" cType="1" res="2.5580918416380882e-02" rms="1.5048304200172424e-01" purity="8.8598066568374634e-01" nType="-99"/>
        </Node>
      </Node>
    </BinaryTree>
    <BinaryTree type="DecisionTree" boostWeight="1.0000000000000000e+00" itree="547">
      <Node pos="s" depth="0" NCoef="0" IVar="16" Cut="2.2250784933567047e-01" cType="1" res="7.2682416066527367e-04" rms="1.9869023561477661e-01" purity="4.9809977412223816e-01" nType="0">
        <Node pos="l" depth="1" NCoef="0" IVar="-1" Cut="0.0000000000000000e+00" cType="1" res="-2.0523268729448318e-02" rms="1.5630704164505005e-01" purity="1.0367158800363541e-01" nType="-99"/>
        <Node pos="r" depth="1" NCoef="0" IVar="16" Cut="3.4894371032714844e-01" cType="1" res="1.3844385975971818e-03" rms="2.0066833496093750e-01" purity="5.1903390884399414e-01" nType="0">
          <Node pos="l" depth="2" NCoef="0" IVar="-1" Cut="0.0000000000000000e+00" cType="1" res="6.9640842266380787e-03" rms="2.2443030774593353e-01" purity="3.2133859395980835e-01" nType="-99"/>
          <Node pos="r" depth="2" NCoef="0" IVar="-1" Cut="0.0000000000000000e+00" cType="1" res="-1.8127245130017400e-03" rms="1.8863333761692047e-01" purity="6.1023652553558350e-01" nType="-99"/>
        </Node>
      </Node>
    </BinaryTree>
    <BinaryTree type="DecisionTree" boostWeight="1.0000000000000000e+00" itree="548">
      <Node pos="s" depth="0" NCoef="0" IVar="20" Cut="-2.0222532272338867e+01" cType="1" res="-1.7452114261686802e-03" rms="1.9541586935520172e-01" purity="4.9857360124588013e-01" nType="0">
        <Node pos="l" depth="1" NCoef="0" IVar="16" Cut="3.1892636418342590e-01" cType="1" res="1.9411697285249829e-03" rms="1.7787705361843109e-01" purity="7.1030020713806152e-01" nType="0">
          <Node pos="l" depth="2" NCoef="0" IVar="-1" Cut="0.0000000000000000e+00" cType="1" res="-5.6025721132755280e-03" rms="2.2501043975353241e-01" purity="4.0956428647041321e-01" nType="-99"/>
          <Node pos="r" depth="2" NCoef="0" IVar="-1" Cut="0.0000000000000000e+00" cType="1" res="7.7488427050411701e-03" rms="1.5696039795875549e-01" purity="8.2064586877822876e-01" nType="-99"/>
        </Node>
        <Node pos="r" depth="1" NCoef="0" IVar="23" Cut="6.6720670461654663e-01" cType="1" res="-3.9245155639946461e-03" rms="2.0504897832870483e-01" purity="3.7340560555458069e-01" nType="0">
          <Node pos="l" depth="2" NCoef="0" IVar="-1" Cut="0.0000000000000000e+00" cType="1" res="1.0446627857163548e-03" rms="1.8533088266849518e-01" purity="9.2075154185295105e-02" nType="-99"/>
          <Node pos="r" depth="2" NCoef="0" IVar="-1" Cut="0.0000000000000000e+00" cType="1" res="-7.7496571466326714e-03" rms="2.1986797451972961e-01" purity="6.0476320981979370e-01" nType="-99"/>
        </Node>
      </Node>
    </BinaryTree>
    <BinaryTree type="DecisionTree" boostWeight="1.0000000000000000e+00" itree="549">
      <Node pos="s" depth="0" NCoef="0" IVar="13" Cut="7.7087664604187012e+00" cType="1" res="-2.2159067448228598e-03" rms="1.9852839410305023e-01" purity="4.9867367744445801e-01" nType="0">
        <Node pos="l" depth="1" NCoef="0" IVar="16" Cut="3.9279311895370483e-01" cType="1" res="3.2771853730082512e-03" rms="2.0405763387680054e-01" purity="4.2494437098503113e-01" nType="0">
          <Node pos="l" depth="2" NCoef="0" IVar="-1" Cut="0.0000000000000000e+00" cType="1" res="1.8512316048145294e-02" rms="2.1946676075458527e-01" purity="3.2083541154861450e-01" nType="-99"/>
          <Node pos="r" depth="2" NCoef="0" IVar="-1" Cut="0.0000000000000000e+00" cType="1" res="-3.1958997715264559e-03" rms="1.9642710685729980e-01" purity="4.7188016772270203e-01" nType="-99"/>
        </Node>
        <Node pos="r" depth="1" NCoef="0" IVar="6" Cut="6.1499462127685547e+00" cType="1" res="-3.8761538453400135e-03" rms="1.9679649174213409e-01" purity="5.2095776796340942e-01" nType="0">
          <Node pos="l" depth="2" NCoef="0" IVar="-1" Cut="0.0000000000000000e+00" cType="1" res="-7.0421486161649227e-03" rms="2.0019890367984772e-01" purity="5.6116116046905518e-01" nType="-99"/>
          <Node pos="r" depth="2" NCoef="0" IVar="-1" Cut="0.0000000000000000e+00" cType="1" res="4.7091010492295027e-04" rms="1.9055041670799255e-01" purity="4.4979864358901978e-01" nType="-99"/>
        </Node>
      </Node>
    </BinaryTree>
    <BinaryTree type="DecisionTree" boostWeight="1.0000000000000000e+00" itree="550">
      <Node pos="s" depth="0" NCoef="0" IVar="18" Cut="-1.7796558380126953e+01" cType="1" res="-2.1518560970434919e-05" rms="1.9730369746685028e-01" purity="4.9797630310058594e-01" nType="0">
        <Node pos="l" depth="1" NCoef="0" IVar="16" Cut="3.8691574335098267e-01" cType="1" res="-2.7132658287882805e-03" rms="1.8270522356033325e-01" purity="6.7324924468994141e-01" nType="0">
          <Node pos="l" depth="2" NCoef="0" IVar="-1" Cut="0.0000000000000000e+00" cType="1" res="-8.9186606928706169e-03" rms="2.1762266755104065e-01" purity="4.6918264031410217e-01" nType="-99"/>
          <Node pos="r" depth="2" NCoef="0" IVar="-1" Cut="0.0000000000000000e+00" cType="1" res="6.4399517141282558e-03" rms="1.4518034458160400e-01" purity="8.5168135166168213e-01" nType="-99"/>
        </Node>
        <Node pos="r" depth="1" NCoef="0" IVar="16" Cut="4.0251189470291138e-01" cType="1" res="2.0137345418334007e-03" rms="2.0763832330703735e-01" purity="3.6545103788375854e-01" nType="0">
          <Node pos="l" depth="2" NCoef="0" IVar="-1" Cut="0.0000000000000000e+00" cType="1" res="6.7654056474566460e-03" rms="2.0889227092266083e-01" purity="2.2156293690204620e-01" nType="-99"/>
          <Node pos="r" depth="2" NCoef="0" IVar="-1" Cut="0.0000000000000000e+00" cType="1" res="-2.1727848798036575e-03" rms="2.0635490119457245e-01" purity="5.0299334526062012e-01" nType="-99"/>
        </Node>
      </Node>
    </BinaryTree>
    <BinaryTree type="DecisionTree" boostWeight="1.0000000000000000e+00" itree="551">
      <Node pos="s" depth="0" NCoef="0" IVar="12" Cut="6.7197985649108887e+00" cType="1" res="-5.6486016546841711e-05" rms="1.9779783487319946e-01" purity="5.0023627281188965e-01" nType="0">
        <Node pos="l" depth="1" NCoef="0" IVar="10" Cut="7.0541419982910156e+00" cType="1" res="-5.8838338591158390e-03" rms="2.0781087875366211e-01" purity="3.1427031755447388e-01" nType="0">
          <Node pos="l" depth="2" NCoef="0" IVar="-1" Cut="0.0000000000000000e+00" cType="1" res="-1.4989466406404972e-02" rms="1.9906984269618988e-01" purity="3.1264972686767578e-01" nType="-99"/>
          <Node pos="r" depth="2" NCoef="0" IVar="-1" Cut="0.0000000000000000e+00" cType="1" res="7.6407412998378277e-03" rms="2.2216609120368958e-01" purity="3.1721284985542297e-01" nType="-99"/>
        </Node>
        <Node pos="r" depth="1" NCoef="0" IVar="18" Cut="1.0297342300415039e+01" cType="1" res="1.0406647343188524e-03" rms="1.9583596289157867e-01" purity="5.3524917364120483e-01" nType="0">
          <Node pos="l" depth="2" NCoef="0" IVar="-1" Cut="0.0000000000000000e+00" cType="1" res="1.8560433527454734e-03" rms="1.9614449143409729e-01" purity="5.4564446210861206e-01" nType="-99"/>
          <Node pos="r" depth="2" NCoef="0" IVar="-1" Cut="0.0000000000000000e+00" cType="1" res="-1.6393925994634628e-02" rms="1.8587028980255127e-01" purity="2.2985327243804932e-01" nType="-99"/>
        </Node>
      </Node>
    </BinaryTree>
    <BinaryTree type="DecisionTree" boostWeight="1.0000000000000000e+00" itree="552">
      <Node pos="s" depth="0" NCoef="0" IVar="16" Cut="2.5947535037994385e-01" cType="1" res="-1.1686659854603931e-04" rms="1.9845458865165710e-01" purity="4.9881967902183533e-01" nType="0">
        <Node pos="l" depth="1" NCoef="0" IVar="24" Cut="6.2172281742095947e-01" cType="1" res="6.4314012415707111e-03" rms="1.9954037666320801e-01" purity="1.8853203952312469e-01" nType="0">
          <Node pos="l" depth="2" NCoef="0" IVar="-1" Cut="0.0000000000000000e+00" cType="1" res="-3.2747600227594376e-02" rms="1.1744424700737000e-01" purity="2.2134413942694664e-02" nType="-99"/>
          <Node pos="r" depth="2" NCoef="0" IVar="-1" Cut="0.0000000000000000e+00" cType="1" res="1.4255128800868988e-02" rms="2.2660245001316071e-01" purity="2.6359176635742188e-01" nType="-99"/>
        </Node>
        <Node pos="r" depth="1" NCoef="0" IVar="25" Cut="4.6275362372398376e-02" cType="1" res="-9.7200099844485521e-04" rms="1.9829639792442322e-01" purity="5.3933995962142944e-01" nType="0">
          <Node pos="l" depth="2" NCoef="0" IVar="-1" Cut="0.0000000000000000e+00" cType="1" res="-3.7910640239715576e-03" rms="1.8844224512577057e-01" purity="7.0315843820571899e-01" nType="-99"/>
          <Node pos="r" depth="2" NCoef="0" IVar="-1" Cut="0.0000000000000000e+00" cType="1" res="2.2947585675865412e-03" rms="2.1139119565486908e-01" purity="3.0803829431533813e-01" nType="-99"/>
        </Node>
      </Node>
    </BinaryTree>
    <BinaryTree type="DecisionTree" boostWeight="1.0000000000000000e+00" itree="553">
      <Node pos="s" depth="0" NCoef="0" IVar="16" Cut="4.6948620676994324e-01" cType="1" res="5.1267578965052962e-04" rms="1.9597549736499786e-01" purity="5.0139820575714111e-01" nType="0">
        <Node pos="l" depth="1" NCoef="0" IVar="1" Cut="8.6818914413452148e+00" cType="1" res="-2.0972946658730507e-03" rms="2.0482985675334930e-01" purity="4.0842556953430176e-01" nType="0">
          <Node pos="l" depth="2" NCoef="0" IVar="-1" Cut="0.0000000000000000e+00" cType="1" res="3.2016399782150984e-03" rms="2.0840787887573242e-01" purity="4.3448883295059204e-01" nType="-99"/>
          <Node pos="r" depth="2" NCoef="0" IVar="-1" Cut="0.0000000000000000e+00" cType="1" res="-1.0115021839737892e-02" rms="1.9898532330989838e-01" purity="3.6853554844856262e-01" nType="-99"/>
        </Node>
        <Node pos="r" depth="1" NCoef="0" IVar="23" Cut="9.0509384870529175e-01" cType="1" res="5.2443845197558403e-03" rms="1.7871139943599701e-01" purity="6.6995155811309814e-01" nType="0">
          <Node pos="l" depth="2" NCoef="0" IVar="-1" Cut="0.0000000000000000e+00" cType="1" res="1.2427435256540775e-02" rms="2.1790656447410583e-01" purity="3.4639585018157959e-01" nType="-99"/>
          <Node pos="r" depth="2" NCoef="0" IVar="-1" Cut="0.0000000000000000e+00" cType="1" res="-2.1837772801518440e-03" rms="1.4308027923107147e-01" purity="9.0668988227844238e-01" nType="-99"/>
        </Node>
      </Node>
    </BinaryTree>
    <BinaryTree type="DecisionTree" boostWeight="1.0000000000000000e+00" itree="554">
      <Node pos="s" depth="0" NCoef="0" IVar="3" Cut="2.1486804485321045e+00" cType="1" res="3.8822479837108403e-05" rms="1.9578129053115845e-01" purity="4.9768117070198059e-01" nType="0">
        <Node pos="l" depth="1" NCoef="0" IVar="7" Cut="3.3595864772796631e+00" cType="1" res="2.0652646198868752e-03" rms="2.1382042765617371e-01" purity="6.9649994373321533e-01" nType="0">
          <Node pos="l" depth="2" NCoef="0" IVar="-1" Cut="0.0000000000000000e+00" cType="1" res="6.0272688278928399e-04" rms="2.0833097398281097e-01" purity="7.1457046270370483e-01" nType="-99"/>
          <Node pos="r" depth="2" NCoef="0" IVar="-1" Cut="0.0000000000000000e+00" cType="1" res="1.4561234042048454e-02" rms="2.7360576391220093e-01" purity="4.6640262007713318e-01" nType="-99"/>
        </Node>
        <Node pos="r" depth="1" NCoef="0" IVar="34" Cut="3.5729637145996094e+00" cType="1" res="-2.9213961679488420e-03" rms="1.6589733958244324e-01" purity="2.0724745094776154e-01" nType="0">
          <Node pos="l" depth="2" NCoef="0" IVar="-1" Cut="0.0000000000000000e+00" cType="1" res="-1.0161037556827068e-02" rms="1.7517541348934174e-01" purity="2.7012756466865540e-01" nType="-99"/>
          <Node pos="r" depth="2" NCoef="0" IVar="-1" Cut="0.0000000000000000e+00" cType="1" res="1.2117823585867882e-02" rms="1.4608557522296906e-01" purity="8.6267612874507904e-02" nType="-99"/>
        </Node>
      </Node>
    </BinaryTree>
    <BinaryTree type="DecisionTree" boostWeight="1.0000000000000000e+00" itree="555">
      <Node pos="s" depth="0" NCoef="0" IVar="10" Cut="6.1192369461059570e+00" cType="1" res="5.3348171059042215e-04" rms="1.9905334711074829e-01" purity="5.0062578916549683e-01" nType="0">
        <Node pos="l" depth="1" NCoef="0" IVar="3" Cut="2.8821303844451904e+00" cType="1" res="7.8538786619901657e-03" rms="2.0303730666637421e-01" purity="3.8581886887550354e-01" nType="0">
          <Node pos="l" depth="2" NCoef="0" IVar="-1" Cut="0.0000000000000000e+00" cType="1" res="1.2103572487831116e-02" rms="2.4817192554473877e-01" purity="5.9852343797683716e-01" nType="-99"/>
          <Node pos="r" depth="2" NCoef="0" IVar="-1" Cut="0.0000000000000000e+00" cType="1" res="-2.6849120855331421e-02" rms="7.3657669126987457e-02" purity="1.4162560924887657e-02" nType="-99"/>
        </Node>
        <Node pos="r" depth="1" NCoef="0" IVar="12" Cut="6.5171771049499512e+00" cType="1" res="-2.5915191508829594e-04" rms="1.9860099256038666e-01" purity="5.1305681467056274e-01" nType="0">
          <Node pos="l" depth="2" NCoef="0" IVar="-1" Cut="0.0000000000000000e+00" cType="1" res="1.0665583424270153e-02" rms="2.1026338636875153e-01" purity="3.4750565886497498e-01" nType="-99"/>
          <Node pos="r" depth="2" NCoef="0" IVar="-1" Cut="0.0000000000000000e+00" cType="1" res="-1.4736452139914036e-03" rms="1.9741076231002808e-01" purity="5.2901530265808105e-01" nType="-99"/>
        </Node>
      </Node>
    </BinaryTree>
    <BinaryTree type="DecisionTree" boostWeight="1.0000000000000000e+00" itree="556">
      <Node pos="s" depth="0" NCoef="0" IVar="10" Cut="7.7211341857910156e+00" cType="1" res="5.9885327937081456e-04" rms="1.9355082511901855e-01" purity="5.0463598966598511e-01" nType="0">
        <Node pos="l" depth="1" NCoef="0" IVar="15" Cut="7.5950751304626465e+00" cType="1" res="-3.4549486008472741e-04" rms="1.9213220477104187e-01" purity="5.1250284910202026e-01" nType="0">
          <Node pos="l" depth="2" NCoef="0" IVar="-1" Cut="0.0000000000000000e+00" cType="1" res="5.7363900123164058e-04" rms="1.9359071552753448e-01" purity="5.1159942150115967e-01" nType="-99"/>
          <Node pos="r" depth="2" NCoef="0" IVar="-1" Cut="0.0000000000000000e+00" cType="1" res="-3.1002117320895195e-02" rms="1.5878169238567352e-01" purity="5.3080070018768311e-01" nType="-99"/>
        </Node>
        <Node pos="r" depth="1" NCoef="0" IVar="12" Cut="7.1922397613525391e+00" cType="1" res="5.3670485503971577e-03" rms="2.0049260556697845e-01" purity="4.6491494774818420e-01" nType="0">
          <Node pos="l" depth="2" NCoef="0" IVar="-1" Cut="0.0000000000000000e+00" cType="1" res="2.0753147080540657e-02" rms="2.2236441075801849e-01" purity="2.7832642197608948e-01" nType="-99"/>
          <Node pos="r" depth="2" NCoef="0" IVar="-1" Cut="0.0000000000000000e+00" cType="1" res="1.4772949507459998e-03" rms="1.9332383573055267e-01" purity="5.2036702632904053e-01" nType="-99"/>
        </Node>
      </Node>
    </BinaryTree>
    <BinaryTree type="DecisionTree" boostWeight="1.0000000000000000e+00" itree="557">
      <Node pos="s" depth="0" NCoef="0" IVar="30" Cut="7.6208993792533875e-02" cType="1" res="1.5987279766704887e-04" rms="1.9537605345249176e-01" purity="5.0130558013916016e-01" nType="0">
        <Node pos="l" depth="1" NCoef="0" IVar="6" Cut="3.7852423191070557e+00" cType="1" res="1.5484330942854285e-03" rms="1.9590868055820465e-01" purity="5.6854259967803955e-01" nType="0">
          <Node pos="l" depth="2" NCoef="0" IVar="-1" Cut="0.0000000000000000e+00" cType="1" res="1.6438746824860573e-02" rms="2.1326161921024323e-01" purity="2.1203398704528809e-01" nType="-99"/>
          <Node pos="r" depth="2" NCoef="0" IVar="-1" Cut="0.0000000000000000e+00" cType="1" res="9.4701902708038688e-04" rms="1.9479300081729889e-01" purity="5.8996134996414185e-01" nType="-99"/>
        </Node>
        <Node pos="r" depth="1" NCoef="0" IVar="31" Cut="1.9047306850552559e-02" cType="1" res="-5.1065743900835514e-03" rms="1.9325193762779236e-01" purity="2.4629305303096771e-01" nType="0">
          <Node pos="l" depth="2" NCoef="0" IVar="-1" Cut="0.0000000000000000e+00" cType="1" res="-1.1861703358590603e-02" rms="2.0780056715011597e-01" purity="3.6282002925872803e-01" nType="-99"/>
          <Node pos="r" depth="2" NCoef="0" IVar="-1" Cut="0.0000000000000000e+00" cType="1" res="8.7841018103063107e-04" rms="1.8067777156829834e-01" purity="1.5388207137584686e-01" nType="-99"/>
        </Node>
      </Node>
    </BinaryTree>
    <BinaryTree type="DecisionTree" boostWeight="1.0000000000000000e+00" itree="558">
      <Node pos="s" depth="0" NCoef="0" IVar="7" Cut="-7.9442888498306274e-01" cType="1" res="-2.6493371115066111e-04" rms="1.9703887403011322e-01" purity="5.0150394439697266e-01" nType="0">
        <Node pos="l" depth="1" NCoef="0" IVar="-1" Cut="0.0000000000000000e+00" cType="1" res="-1.9736075773835182e-02" rms="1.7196881771087646e-01" purity="8.0417263507843018e-01" nType="-99"/>
        <Node pos="r" depth="1" NCoef="0" IVar="29" Cut="1.8327794969081879e-01" cType="1" res="2.9203799203969538e-04" rms="1.9794382154941559e-01" purity="4.8954263329505920e-01" nType="0">
          <Node pos="l" depth="2" NCoef="0" IVar="-1" Cut="0.0000000000000000e+00" cType="1" res="2.7660585474222898e-03" rms="1.9360005855560303e-01" purity="6.0534530878067017e-01" nType="-99"/>
          <Node pos="r" depth="2" NCoef="0" IVar="-1" Cut="0.0000000000000000e+00" cType="1" res="-2.9997271485626698e-03" rms="2.0426473021507263e-01" purity="3.1539592146873474e-01" nType="-99"/>
        </Node>
      </Node>
    </BinaryTree>
    <BinaryTree type="DecisionTree" boostWeight="1.0000000000000000e+00" itree="559">
      <Node pos="s" depth="0" NCoef="0" IVar="13" Cut="7.2365036010742188e+00" cType="1" res="8.6950854165479541e-04" rms="1.9819939136505127e-01" purity="5.0185430049896240e-01" nType="0">
        <Node pos="l" depth="1" NCoef="0" IVar="23" Cut="7.6256775856018066e-01" cType="1" res="-7.0755770429968834e-03" rms="1.9930915534496307e-01" purity="3.4585753083229065e-01" nType="0">
          <Node pos="l" depth="2" NCoef="0" IVar="-1" Cut="0.0000000000000000e+00" cType="1" res="1.3500620843842626e-04" rms="1.9911900162696838e-01" purity="1.6375073790550232e-01" nType="-99"/>
          <Node pos="r" depth="2" NCoef="0" IVar="-1" Cut="0.0000000000000000e+00" cType="1" res="-2.1995091810822487e-02" rms="1.9908908009529114e-01" purity="6.2902861833572388e-01" nType="-99"/>
        </Node>
        <Node pos="r" depth="1" NCoef="0" IVar="28" Cut="7.6233994960784912e-01" cType="1" res="1.5266771661117673e-03" rms="1.9809305667877197e-01" purity="5.1475745439529419e-01" nType="0">
          <Node pos="l" depth="2" NCoef="0" IVar="-1" Cut="0.0000000000000000e+00" cType="1" res="4.2659789323806763e-03" rms="2.0962326228618622e-01" purity="3.6011534929275513e-01" nType="-99"/>
          <Node pos="r" depth="2" NCoef="0" IVar="-1" Cut="0.0000000000000000e+00" cType="1" res="-1.2562845367938280e-03" rms="1.8587487936019897e-01" purity="6.6866332292556763e-01" nType="-99"/>
        </Node>
      </Node>
    </BinaryTree>
    <BinaryTree type="DecisionTree" boostWeight="1.0000000000000000e+00" itree="560">
      <Node pos="s" depth="0" NCoef="0" IVar="29" Cut="6.0544908046722412e-01" cType="1" res="9.3318070867098868e-05" rms="1.9560022652149200e-01" purity="5.0265246629714966e-01" nType="0">
        <Node pos="l" depth="1" NCoef="0" IVar="21" Cut="4.3788337707519531e+01" cType="1" res="-9.0994365746155381e-04" rms="1.9294624030590057e-01" purity="5.2364766597747803e-01" nType="0">
          <Node pos="l" depth="2" NCoef="0" IVar="-1" Cut="0.0000000000000000e+00" cType="1" res="-1.7290433170273900e-03" rms="1.9834955036640167e-01" purity="4.8907378315925598e-01" nType="-99"/>
          <Node pos="r" depth="2" NCoef="0" IVar="-1" Cut="0.0000000000000000e+00" cType="1" res="2.1664608269929886e-02" rms="1.0752719640731812e-01" purity="9.4227612018585205e-01" nType="-99"/>
        </Node>
        <Node pos="r" depth="1" NCoef="0" IVar="22" Cut="3.3179523944854736e+00" cType="1" res="7.9992804676294327e-03" rms="2.1520945429801941e-01" purity="3.3720505237579346e-01" nType="0">
          <Node pos="l" depth="2" NCoef="0" IVar="-1" Cut="0.0000000000000000e+00" cType="1" res="-6.1587226809933782e-04" rms="2.0801591873168945e-01" purity="2.9180833697319031e-01" nType="-99"/>
          <Node pos="r" depth="2" NCoef="0" IVar="-1" Cut="0.0000000000000000e+00" cType="1" res="2.2184956818819046e-02" rms="2.2687390446662903e-01" purity="4.1966190934181213e-01" nType="-99"/>
        </Node>
      </Node>
    </BinaryTree>
    <BinaryTree type="DecisionTree" boostWeight="1.0000000000000000e+00" itree="561">
      <Node pos="s" depth="0" NCoef="0" IVar="21" Cut="3.4822700500488281e+01" cType="1" res="-6.7759008379653096e-04" rms="1.9605900347232819e-01" purity="4.9944421648979187e-01" nType="0">
        <Node pos="l" depth="1" NCoef="0" IVar="24" Cut="1.9172511994838715e-01" cType="1" res="-1.6268125036731362e-03" rms="2.0248398184776306e-01" purity="4.4683566689491272e-01" nType="0">
          <Node pos="l" depth="2" NCoef="0" IVar="-1" Cut="0.0000000000000000e+00" cType="1" res="1.5429958701133728e-02" rms="1.8737864494323730e-01" purity="1.0146971791982651e-01" nType="-99"/>
          <Node pos="r" depth="2" NCoef="0" IVar="-1" Cut="0.0000000000000000e+00" cType="1" res="-2.3617497645318508e-03" rms="2.0328183472156525e-01" purity="4.6620640158653259e-01" nType="-99"/>
        </Node>
        <Node pos="r" depth="1" NCoef="0" IVar="34" Cut="1.9718884229660034e+00" cType="1" res="6.3773673027753830e-03" rms="1.3910843431949615e-01" purity="8.9044964313507080e-01" nType="0">
          <Node pos="l" depth="2" NCoef="0" IVar="-1" Cut="0.0000000000000000e+00" cType="1" res="4.1856453754007816e-03" rms="1.1144262552261353e-01" purity="9.2415857315063477e-01" nType="-99"/>
          <Node pos="r" depth="2" NCoef="0" IVar="-1" Cut="0.0000000000000000e+00" cType="1" res="2.4723261594772339e-02" rms="1.8804857134819031e-01" purity="8.1174457073211670e-01" nType="-99"/>
        </Node>
      </Node>
    </BinaryTree>
    <BinaryTree type="DecisionTree" boostWeight="1.0000000000000000e+00" itree="562">
      <Node pos="s" depth="0" NCoef="0" IVar="26" Cut="7.1335077285766602e-01" cType="1" res="-8.7117752991616726e-04" rms="1.9792142510414124e-01" purity="4.9600642919540405e-01" nType="0">
        <Node pos="l" depth="1" NCoef="0" IVar="16" Cut="6.8707633018493652e-01" cType="1" res="-1.3145628618076444e-03" rms="1.9783002138137817e-01" purity="5.0513446331024170e-01" nType="0">
          <Node pos="l" depth="2" NCoef="0" IVar="-1" Cut="0.0000000000000000e+00" cType="1" res="-2.1517642308026552e-03" rms="1.9887644052505493e-01" purity="4.9985679984092712e-01" nType="-99"/>
          <Node pos="r" depth="2" NCoef="0" IVar="-1" Cut="0.0000000000000000e+00" cType="1" res="1.5304726548492908e-02" rms="1.7359885573387146e-01" purity="6.1759883165359497e-01" nType="-99"/>
        </Node>
        <Node pos="r" depth="1" NCoef="0" IVar="-1" Cut="0.0000000000000000e+00" cType="1" res="1.6021126881241798e-02" rms="2.0039182901382446e-01" purity="1.9045843183994293e-01" nType="-99"/>
      </Node>
    </BinaryTree>
    <BinaryTree type="DecisionTree" boostWeight="1.0000000000000000e+00" itree="563">
      <Node pos="s" depth="0" NCoef="0" IVar="25" Cut="6.4783775806427002e-01" cType="1" res="3.6009954783366993e-05" rms="1.9718238711357117e-01" purity="5.0198727846145630e-01" nType="0">
        <Node pos="l" depth="1" NCoef="0" IVar="3" Cut="1.4379273653030396e+00" cType="1" res="4.7729839570820332e-04" rms="1.9837866723537445e-01" purity="5.1922500133514404e-01" nType="0">
          <Node pos="l" depth="2" NCoef="0" IVar="-1" Cut="0.0000000000000000e+00" cType="1" res="-2.2772334050387144e-03" rms="2.0102977752685547e-01" purity="7.4228459596633911e-01" nType="-99"/>
          <Node pos="r" depth="2" NCoef="0" IVar="-1" Cut="0.0000000000000000e+00" cType="1" res="2.5716109666973352e-03" rms="1.9674216210842133e-01" purity="3.8450133800506592e-01" nType="-99"/>
        </Node>
        <Node pos="r" depth="1" NCoef="0" IVar="-1" Cut="0.0000000000000000e+00" cType="1" res="-1.2798937037587166e-02" rms="1.7071336507797241e-01" purity="1.5035617351531982e-01" nType="-99"/>
      </Node>
    </BinaryTree>
    <BinaryTree type="DecisionTree" boostWeight="1.0000000000000000e+00" itree="564">
      <Node pos="s" depth="0" NCoef="0" IVar="18" Cut="1.1269483566284180e+01" cType="1" res="-1.6111939912661910e-03" rms="1.9646248221397400e-01" purity="4.9781107902526855e-01" nType="0">
        <Node pos="l" depth="1" NCoef="0" IVar="13" Cut="7.0716667175292969e+00" cType="1" res="-1.1919339885935187e-03" rms="1.9700823724269867e-01" purity="5.0710898637771606e-01" nType="0">
          <Node pos="l" depth="2" NCoef="0" IVar="-1" Cut="0.0000000000000000e+00" cType="1" res="1.3976315967738628e-02" rms="2.0769181847572327e-01" purity="3.7957930564880371e-01" nType="-99"/>
          <Node pos="r" depth="2" NCoef="0" IVar="-1" Cut="0.0000000000000000e+00" cType="1" res="-1.9984715618193150e-03" rms="1.9655115902423859e-01" purity="5.1219451427459717e-01" nType="-99"/>
        </Node>
        <Node pos="r" depth="1" NCoef="0" IVar="-1" Cut="0.0000000000000000e+00" cType="1" res="-1.8788972869515419e-02" rms="1.7666865885257721e-01" purity="1.8678757548332214e-01" nType="-99"/>
      </Node>
    </BinaryTree>
    <BinaryTree type="DecisionTree" boostWeight="1.0000000000000000e+00" itree="565">
      <Node pos="s" depth="0" NCoef="0" IVar="33" Cut="3.8101755082607269e-02" cType="1" res="-4.3375685345381498e-04" rms="1.9668929278850555e-01" purity="4.9879202246665955e-01" nType="0">
        <Node pos="l" depth="1" NCoef="0" IVar="22" Cut="7.7449307441711426e+00" cType="1" res="1.3860786566510797e-03" rms="1.9332705438137054e-01" purity="6.0051465034484863e-01" nType="0">
          <Node pos="l" depth="2" NCoef="0" IVar="-1" Cut="0.0000000000000000e+00" cType="1" res="-7.4072466231882572e-03" rms="2.0603753626346588e-01" purity="3.9698088169097900e-01" nType="-99"/>
          <Node pos="r" depth="2" NCoef="0" IVar="-1" Cut="0.0000000000000000e+00" cType="1" res="5.8686267584562302e-03" rms="1.8790663778781891e-01" purity="6.8179982900619507e-01" nType="-99"/>
        </Node>
        <Node pos="r" depth="1" NCoef="0" IVar="22" Cut="1.6200834274291992e+01" cType="1" res="-3.8660052232444286e-03" rms="2.0283454656600952e-01" purity="3.0694106221199036e-01" nType="0">
          <Node pos="l" depth="2" NCoef="0" IVar="-1" Cut="0.0000000000000000e+00" cType="1" res="1.0940222273347899e-04" rms="2.0354945957660675e-01" purity="2.6604506373405457e-01" nType="-99"/>
          <Node pos="r" depth="2" NCoef="0" IVar="-1" Cut="0.0000000000000000e+00" cType="1" res="-1.6172705218195915e-02" rms="2.0033566653728485e-01" purity="4.2423179745674133e-01" nType="-99"/>
        </Node>
      </Node>
    </BinaryTree>
    <BinaryTree type="DecisionTree" boostWeight="1.0000000000000000e+00" itree="566">
      <Node pos="s" depth="0" NCoef="0" IVar="10" Cut="6.8690905570983887e+00" cType="1" res="1.2444296153262258e-03" rms="1.9788420200347900e-01" purity="4.9957346916198730e-01" nType="0">
        <Node pos="l" depth="1" NCoef="0" IVar="16" Cut="2.7342402935028076e-01" cType="1" res="-2.1651370916515589e-03" rms="1.9163890182971954e-01" purity="4.8097953200340271e-01" nType="0">
          <Node pos="l" depth="2" NCoef="0" IVar="-1" Cut="0.0000000000000000e+00" cType="1" res="-3.4297082573175430e-02" rms="1.6866424679756165e-01" purity="1.0864154994487762e-01" nType="-99"/>
          <Node pos="r" depth="2" NCoef="0" IVar="-1" Cut="0.0000000000000000e+00" cType="1" res="-6.4453121740370989e-04" rms="1.9318649172782898e-01" purity="5.0945079326629639e-01" nType="-99"/>
        </Node>
        <Node pos="r" depth="1" NCoef="0" IVar="19" Cut="8.1315021514892578e+00" cType="1" res="3.6492103245109320e-03" rms="2.0213846862316132e-01" purity="5.1268786191940308e-01" nType="0">
          <Node pos="l" depth="2" NCoef="0" IVar="-1" Cut="0.0000000000000000e+00" cType="1" res="9.7715333104133606e-03" rms="2.0543314516544342e-01" purity="3.9113274216651917e-01" nType="-99"/>
          <Node pos="r" depth="2" NCoef="0" IVar="-1" Cut="0.0000000000000000e+00" cType="1" res="1.2432439252734184e-03" rms="2.0029509067535400e-01" purity="5.7823759317398071e-01" nType="-99"/>
        </Node>
      </Node>
    </BinaryTree>
    <BinaryTree type="DecisionTree" boostWeight="1.0000000000000000e+00" itree="567">
      <Node pos="s" depth="0" NCoef="0" IVar="6" Cut="6.7296957969665527e+00" cType="1" res="1.0097272461280227e-03" rms="1.9774313271045685e-01" purity="5.0214314460754395e-01" nType="0">
        <Node pos="l" depth="1" NCoef="0" IVar="2" Cut="4.1290316581726074e+00" cType="1" res="-2.7825019787997007e-04" rms="2.0122785866260529e-01" purity="5.2376407384872437e-01" nType="0">
          <Node pos="l" depth="2" NCoef="0" IVar="-1" Cut="0.0000000000000000e+00" cType="1" res="-6.9454153999686241e-03" rms="1.9427727162837982e-01" purity="4.5826521515846252e-01" nType="-99"/>
          <Node pos="r" depth="2" NCoef="0" IVar="-1" Cut="0.0000000000000000e+00" cType="1" res="2.0967014133930206e-03" rms="2.0385153591632843e-01" purity="5.4947966337203979e-01" nType="-99"/>
        </Node>
        <Node pos="r" depth="1" NCoef="0" IVar="14" Cut="9.0584383010864258e+00" cType="1" res="7.0363054983317852e-03" rms="1.8042418360710144e-01" purity="4.0097686648368835e-01" nType="0">
          <Node pos="l" depth="2" NCoef="0" IVar="-1" Cut="0.0000000000000000e+00" cType="1" res="3.5266135819256306e-03" rms="1.7839017510414124e-01" purity="3.8119766116142273e-01" nType="-99"/>
          <Node pos="r" depth="2" NCoef="0" IVar="-1" Cut="0.0000000000000000e+00" cType="1" res="3.5991799086332321e-02" rms="1.8779595196247101e-01" purity="4.8494619131088257e-01" nType="-99"/>
        </Node>
      </Node>
    </BinaryTree>
    <BinaryTree type="DecisionTree" boostWeight="1.0000000000000000e+00" itree="568">
      <Node pos="s" depth="0" NCoef="0" IVar="10" Cut="5.9173731803894043e+00" cType="1" res="1.1614816030487418e-03" rms="1.9842700660228729e-01" purity="4.9896535277366638e-01" nType="0">
        <Node pos="l" depth="1" NCoef="0" IVar="9" Cut="9.5188808441162109e+00" cType="1" res="1.3162928633391857e-02" rms="1.9695501029491425e-01" purity="3.5711294412612915e-01" nType="0">
          <Node pos="l" depth="2" NCoef="0" IVar="-1" Cut="0.0000000000000000e+00" cType="1" res="-6.5261153504252434e-03" rms="1.8344780802726746e-01" purity="2.1970607340335846e-01" nType="-99"/>
          <Node pos="r" depth="2" NCoef="0" IVar="-1" Cut="0.0000000000000000e+00" cType="1" res="3.2515786588191986e-02" rms="2.0760294795036316e-01" purity="4.8800271749496460e-01" nType="-99"/>
        </Node>
        <Node pos="r" depth="1" NCoef="0" IVar="15" Cut="6.6439194679260254e+00" cType="1" res="5.0120765808969736e-04" rms="1.9848661124706268e-01" purity="5.0676947832107544e-01" nType="0">
          <Node pos="l" depth="2" NCoef="0" IVar="-1" Cut="0.0000000000000000e+00" cType="1" res="-2.0555178634822369e-03" rms="2.0753310620784760e-01" purity="4.7664412856101990e-01" nType="-99"/>
          <Node pos="r" depth="2" NCoef="0" IVar="-1" Cut="0.0000000000000000e+00" cType="1" res="5.0889053381979465e-03" rms="1.8483467400074005e-01" purity="5.4952144622802734e-01" nType="-99"/>
        </Node>
      </Node>
    </BinaryTree>
    <BinaryTree type="DecisionTree" boostWeight="1.0000000000000000e+00" itree="569">
      <Node pos="s" depth="0" NCoef="0" IVar="6" Cut="6.6865630149841309e+00" cType="1" res="2.4408205354120582e-04" rms="1.9810719788074493e-01" purity="5.0041824579238892e-01" nType="0">
        <Node pos="l" depth="1" NCoef="0" IVar="14" Cut="8.8841705322265625e+00" cType="1" res="-8.1161997513845563e-04" rms="2.0115190744400024e-01" purity="5.1950091123580933e-01" nType="0">
          <Node pos="l" depth="2" NCoef="0" IVar="-1" Cut="0.0000000000000000e+00" cType="1" res="7.7610119478777051e-04" rms="2.0474620163440704e-01" purity="5.0799858570098877e-01" nType="-99"/>
          <Node pos="r" depth="2" NCoef="0" IVar="-1" Cut="0.0000000000000000e+00" cType="1" res="-1.5204082243144512e-02" rms="1.7532034218311310e-01" purity="5.9526240825653076e-01" nType="-99"/>
        </Node>
        <Node pos="r" depth="1" NCoef="0" IVar="31" Cut="9.5176056027412415e-02" cType="1" res="4.8961415886878967e-03" rms="1.8401937186717987e-01" purity="4.1632834076881409e-01" nType="0">
          <Node pos="l" depth="2" NCoef="0" IVar="-1" Cut="0.0000000000000000e+00" cType="1" res="2.4237877223640680e-03" rms="1.8210515379905701e-01" purity="4.4987016916275024e-01" nType="-99"/>
          <Node pos="r" depth="2" NCoef="0" IVar="-1" Cut="0.0000000000000000e+00" cType="1" res="3.2325115054845810e-02" rms="1.9449082016944885e-01" purity="2.0861136913299561e-01" nType="-99"/>
        </Node>
      </Node>
    </BinaryTree>
    <BinaryTree type="DecisionTree" boostWeight="1.0000000000000000e+00" itree="570">
      <Node pos="s" depth="0" NCoef="0" IVar="31" Cut="2.8557649254798889e-01" cType="1" res="-6.1020208522677422e-04" rms="1.9883282482624054e-01" purity="4.9947625398635864e-01" nType="0">
        <Node pos="l" depth="1" NCoef="0" IVar="12" Cut="7.1106319427490234e+00" cType="1" res="-7.7453871199395508e-05" rms="1.9960397481918335e-01" purity="5.0849211215972900e-01" nType="0">
          <Node pos="l" depth="2" NCoef="0" IVar="-1" Cut="0.0000000000000000e+00" cType="1" res="-3.9532342925667763e-03" rms="2.0717598497867584e-01" purity="3.8295099139213562e-01" nType="-99"/>
          <Node pos="r" depth="2" NCoef="0" IVar="-1" Cut="0.0000000000000000e+00" cType="1" res="2.6434967294335365e-03" rms="1.9475647807121277e-01" purity="5.8586561679840088e-01" nType="-99"/>
        </Node>
        <Node pos="r" depth="1" NCoef="0" IVar="-1" Cut="0.0000000000000000e+00" cType="1" res="-2.5760183110833168e-02" rms="1.6703361272811890e-01" purity="1.6954526305198669e-01" nType="-99"/>
      </Node>
    </BinaryTree>
    <BinaryTree type="DecisionTree" boostWeight="1.0000000000000000e+00" itree="571">
      <Node pos="s" depth="0" NCoef="0" IVar="32" Cut="1.9048467278480530e-02" cType="1" res="-6.8561738589778543e-04" rms="1.9852507114410400e-01" purity="4.9831512570381165e-01" nType="0">
        <Node pos="l" depth="1" NCoef="0" IVar="32" Cut="5.4468037560582161e-03" cType="1" res="-2.9369916301220655e-03" rms="1.9335545599460602e-01" purity="6.3234680891036987e-01" nType="0">
          <Node pos="l" depth="2" NCoef="0" IVar="-1" Cut="0.0000000000000000e+00" cType="1" res="9.1488851467147470e-04" rms="1.8544746935367584e-01" purity="6.9733816385269165e-01" nType="-99"/>
          <Node pos="r" depth="2" NCoef="0" IVar="-1" Cut="0.0000000000000000e+00" cType="1" res="-1.0490343905985355e-02" rms="2.0733067393302917e-01" purity="5.0926226377487183e-01" nType="-99"/>
        </Node>
        <Node pos="r" depth="1" NCoef="0" IVar="11" Cut="6.7752013206481934e+00" cType="1" res="2.8943954966962337e-03" rms="2.0642858743667603e-01" purity="2.8518530726432800e-01" nType="0">
          <Node pos="l" depth="2" NCoef="0" IVar="-1" Cut="0.0000000000000000e+00" cType="1" res="-3.0605909414589405e-03" rms="2.0237541198730469e-01" purity="2.7753672003746033e-01" nType="-99"/>
          <Node pos="r" depth="2" NCoef="0" IVar="-1" Cut="0.0000000000000000e+00" cType="1" res="1.0220688767731190e-02" rms="2.1070526540279388e-01" purity="2.9376658797264099e-01" nType="-99"/>
        </Node>
      </Node>
    </BinaryTree>
    <BinaryTree type="DecisionTree" boostWeight="1.0000000000000000e+00" itree="572">
      <Node pos="s" depth="0" NCoef="0" IVar="4" Cut="7.2013635635375977e+00" cType="1" res="-6.2857277225703001e-04" rms="1.9629436731338501e-01" purity="5.0036209821701050e-01" nType="0">
        <Node pos="l" depth="1" NCoef="0" IVar="29" Cut="6.5375065803527832e-01" cType="1" res="-1.1516906088218093e-03" rms="1.9606329500675201e-01" purity="5.0561630725860596e-01" nType="0">
          <Node pos="l" depth="2" NCoef="0" IVar="-1" Cut="0.0000000000000000e+00" cType="1" res="-2.1503199823200703e-03" rms="1.9411754608154297e-01" purity="5.2122610807418823e-01" nType="-99"/>
          <Node pos="r" depth="2" NCoef="0" IVar="-1" Cut="0.0000000000000000e+00" cType="1" res="6.5727448090910912e-03" rms="2.1574912965297699e-01" purity="3.3770573139190674e-01" nType="-99"/>
        </Node>
        <Node pos="r" depth="1" NCoef="0" IVar="-1" Cut="0.0000000000000000e+00" cType="1" res="1.7955340445041656e-02" rms="2.0254947245121002e-01" purity="3.4063938260078430e-01" nType="-99"/>
      </Node>
    </BinaryTree>
    <BinaryTree type="DecisionTree" boostWeight="1.0000000000000000e+00" itree="573">
      <Node pos="s" depth="0" NCoef="0" IVar="23" Cut="5.7188332080841064e-01" cType="1" res="3.6674560396932065e-04" rms="1.9790042936801910e-01" purity="4.9918350577354431e-01" nType="0">
        <Node pos="l" depth="1" NCoef="0" IVar="12" Cut="7.1086215972900391e+00" cType="1" res="-3.0694818124175072e-03" rms="1.8661615252494812e-01" purity="1.0197017341852188e-01" nType="0">
          <Node pos="l" depth="2" NCoef="0" IVar="-1" Cut="0.0000000000000000e+00" cType="1" res="5.1795784384012222e-03" rms="1.9831562042236328e-01" purity="1.2157072126865387e-01" nType="-99"/>
          <Node pos="r" depth="2" NCoef="0" IVar="-1" Cut="0.0000000000000000e+00" cType="1" res="-1.2025792151689529e-02" rms="1.7498925328254700e-01" purity="8.4069736301898956e-02" nType="-99"/>
        </Node>
        <Node pos="r" depth="1" NCoef="0" IVar="30" Cut="1.5232905745506287e-01" cType="1" res="1.8402161076664925e-03" rms="2.0252881944179535e-01" purity="6.6951048374176025e-01" nType="0">
          <Node pos="l" depth="2" NCoef="0" IVar="-1" Cut="0.0000000000000000e+00" cType="1" res="8.8457431411370635e-04" rms="2.0006537437438965e-01" purity="6.9033896923065186e-01" nType="-99"/>
          <Node pos="r" depth="2" NCoef="0" IVar="-1" Cut="0.0000000000000000e+00" cType="1" res="1.3483535498380661e-02" rms="2.3142248392105103e-01" purity="4.0198826789855957e-01" nType="-99"/>
        </Node>
      </Node>
    </BinaryTree>
    <BinaryTree type="DecisionTree" boostWeight="1.0000000000000000e+00" itree="574">
      <Node pos="s" depth="0" NCoef="0" IVar="15" Cut="6.1712861061096191e+00" cType="1" res="1.1265494395047426e-03" rms="1.9776977598667145e-01" purity="5.0132209062576294e-01" nType="0">
        <Node pos="l" depth="1" NCoef="0" IVar="2" Cut="1.4835902214050293e+01" cType="1" res="4.6096686273813248e-03" rms="2.0919646322727203e-01" purity="4.9683654308319092e-01" nType="0">
          <Node pos="l" depth="2" NCoef="0" IVar="-1" Cut="0.0000000000000000e+00" cType="1" res="6.3995295204222202e-03" rms="2.1078346669673920e-01" purity="5.2159190177917480e-01" nType="-99"/>
          <Node pos="r" depth="2" NCoef="0" IVar="-1" Cut="0.0000000000000000e+00" cType="1" res="-1.1164953000843525e-02" rms="1.9335231184959412e-01" purity="2.6876294612884521e-01" nType="-99"/>
        </Node>
        <Node pos="r" depth="1" NCoef="0" IVar="7" Cut="3.2873148918151855e+00" cType="1" res="-7.7282125130295753e-04" rms="1.9122456014156342e-01" purity="5.0376820564270020e-01" nType="0">
          <Node pos="l" depth="2" NCoef="0" IVar="-1" Cut="0.0000000000000000e+00" cType="1" res="7.9167977673932910e-04" rms="1.9562412798404694e-01" purity="5.6823772192001343e-01" nType="-99"/>
          <Node pos="r" depth="2" NCoef="0" IVar="-1" Cut="0.0000000000000000e+00" cType="1" res="-1.8411155790090561e-02" rms="1.6060224175453186e-01" purity="9.9307648837566376e-02" nType="-99"/>
        </Node>
      </Node>
    </BinaryTree>
    <BinaryTree type="DecisionTree" boostWeight="1.0000000000000000e+00" itree="575">
      <Node pos="s" depth="0" NCoef="0" IVar="34" Cut="1.1909580230712891e+00" cType="1" res="-6.6262477776035666e-04" rms="1.9480745494365692e-01" purity="4.9590316414833069e-01" nType="0">
        <Node pos="l" depth="1" NCoef="0" IVar="9" Cut="1.4808549880981445e+01" cType="1" res="3.1161247752606869e-03" rms="1.9028499722480774e-01" purity="6.3646900653839111e-01" nType="0">
          <Node pos="l" depth="2" NCoef="0" IVar="-1" Cut="0.0000000000000000e+00" cType="1" res="1.1044682003557682e-02" rms="1.9717182219028473e-01" purity="7.1990483999252319e-01" nType="-99"/>
          <Node pos="r" depth="2" NCoef="0" IVar="-1" Cut="0.0000000000000000e+00" cType="1" res="-3.4330275375396013e-03" rms="1.8348787724971771e-01" purity="5.5940502882003784e-01" nType="-99"/>
        </Node>
        <Node pos="r" depth="1" NCoef="0" IVar="16" Cut="4.0313589572906494e-01" cType="1" res="-3.1748572364449501e-03" rms="1.9771695137023926e-01" purity="4.0245056152343750e-01" nType="0">
          <Node pos="l" depth="2" NCoef="0" IVar="-1" Cut="0.0000000000000000e+00" cType="1" res="2.5671068578958511e-03" rms="2.0112115144729614e-01" purity="2.8800660371780396e-01" nType="-99"/>
          <Node pos="r" depth="2" NCoef="0" IVar="-1" Cut="0.0000000000000000e+00" cType="1" res="-1.0658234357833862e-02" rms="1.9403178989887238e-01" purity="5.1883471012115479e-01" nType="-99"/>
        </Node>
      </Node>
    </BinaryTree>
    <BinaryTree type="DecisionTree" boostWeight="1.0000000000000000e+00" itree="576">
      <Node pos="s" depth="0" NCoef="0" IVar="10" Cut="8.3104610443115234e+00" cType="1" res="3.7767962203361094e-04" rms="1.9828583300113678e-01" purity="5.0004005432128906e-01" nType="0">
        <Node pos="l" depth="1" NCoef="0" IVar="10" Cut="7.7791996002197266e+00" cType="1" res="9.0420863125473261e-04" rms="1.9878625869750977e-01" purity="5.0340896844863892e-01" nType="0">
          <Node pos="l" depth="2" NCoef="0" IVar="-1" Cut="0.0000000000000000e+00" cType="1" res="3.7938989407848567e-05" rms="1.9795432686805725e-01" purity="5.0880438089370728e-01" nType="-99"/>
          <Node pos="r" depth="2" NCoef="0" IVar="-1" Cut="0.0000000000000000e+00" cType="1" res="8.5543254390358925e-03" rms="2.0482517778873444e-01" purity="4.6276766061782837e-01" nType="-99"/>
        </Node>
        <Node pos="r" depth="1" NCoef="0" IVar="-1" Cut="0.0000000000000000e+00" cType="1" res="-2.2514447569847107e-02" rms="1.8054755032062531e-01" purity="3.9116737246513367e-01" nType="-99"/>
      </Node>
    </BinaryTree>
    <BinaryTree type="DecisionTree" boostWeight="1.0000000000000000e+00" itree="577">
      <Node pos="s" depth="0" NCoef="0" IVar="34" Cut="3.5715837478637695e+00" cType="1" res="-2.4394647334702313e-04" rms="1.9729034602642059e-01" purity="5.0140357017517090e-01" nType="0">
        <Node pos="l" depth="1" NCoef="0" IVar="27" Cut="3.8239496946334839e-01" cType="1" res="-1.7581799766048789e-03" rms="1.9803813099861145e-01" purity="5.8352357149124146e-01" nType="0">
          <Node pos="l" depth="2" NCoef="0" IVar="-1" Cut="0.0000000000000000e+00" cType="1" res="-1.7519354820251465e-02" rms="1.8137112259864807e-01" purity="2.1095219254493713e-01" nType="-99"/>
          <Node pos="r" depth="2" NCoef="0" IVar="-1" Cut="0.0000000000000000e+00" cType="1" res="-7.6143443584442139e-04" rms="1.9930267333984375e-01" purity="6.1403834819793701e-01" nType="-99"/>
        </Node>
        <Node pos="r" depth="1" NCoef="0" IVar="21" Cut="1.4508905410766602e+01" cType="1" res="4.9515408463776112e-03" rms="1.9461321830749512e-01" purity="2.1964173018932343e-01" nType="0">
          <Node pos="l" depth="2" NCoef="0" IVar="-1" Cut="0.0000000000000000e+00" cType="1" res="-1.6925827367231250e-03" rms="1.8033552169799805e-01" purity="1.2879188358783722e-01" nType="-99"/>
          <Node pos="r" depth="2" NCoef="0" IVar="-1" Cut="0.0000000000000000e+00" cType="1" res="1.7375538125634193e-02" rms="2.1765282750129700e-01" purity="3.8403168320655823e-01" nType="-99"/>
        </Node>
      </Node>
    </BinaryTree>
    <BinaryTree type="DecisionTree" boostWeight="1.0000000000000000e+00" itree="578">
      <Node pos="s" depth="0" NCoef="0" IVar="6" Cut="4.3177285194396973e+00" cType="1" res="-9.8699587397277355e-05" rms="1.9612140953540802e-01" purity="5.0062841176986694e-01" nType="0">
        <Node pos="l" depth="1" NCoef="0" IVar="13" Cut="8.1006994247436523e+00" cType="1" res="-5.3649856708943844e-03" rms="1.9524246454238892e-01" purity="3.0088731646537781e-01" nType="0">
          <Node pos="l" depth="2" NCoef="0" IVar="-1" Cut="0.0000000000000000e+00" cType="1" res="-1.4775316230952740e-02" rms="1.8895632028579712e-01" purity="2.3440641164779663e-01" nType="-99"/>
          <Node pos="r" depth="2" NCoef="0" IVar="-1" Cut="0.0000000000000000e+00" cType="1" res="2.1188948303461075e-02" rms="2.1603044867515564e-01" purity="5.5523020029067993e-01" nType="-99"/>
        </Node>
        <Node pos="r" depth="1" NCoef="0" IVar="13" Cut="8.0295324325561523e+00" cType="1" res="9.5742649864405394e-04" rms="1.9628019630908966e-01" purity="5.4068547487258911e-01" nType="0">
          <Node pos="l" depth="2" NCoef="0" IVar="-1" Cut="0.0000000000000000e+00" cType="1" res="9.4872368499636650e-03" rms="2.0307599008083344e-01" purity="5.9166938066482544e-01" nType="-99"/>
          <Node pos="r" depth="2" NCoef="0" IVar="-1" Cut="0.0000000000000000e+00" cType="1" res="-3.1109822448343039e-03" rms="1.9295905530452728e-01" purity="5.1717686653137207e-01" nType="-99"/>
        </Node>
      </Node>
    </BinaryTree>
    <BinaryTree type="DecisionTree" boostWeight="1.0000000000000000e+00" itree="579">
      <Node pos="s" depth="0" NCoef="0" IVar="16" Cut="4.3723851442337036e-01" cType="1" res="8.6832049419172108e-05" rms="1.9715771079063416e-01" purity="5.0109469890594482e-01" nType="0">
        <Node pos="l" depth="1" NCoef="0" IVar="16" Cut="2.7461311221122742e-01" cType="1" res="2.2142108064144850e-03" rms="2.0814108848571777e-01" purity="3.8741311430931091e-01" nType="0">
          <Node pos="l" depth="2" NCoef="0" IVar="-1" Cut="0.0000000000000000e+00" cType="1" res="-8.4182396531105042e-03" rms="2.0071206986904144e-01" purity="1.8662089109420776e-01" nType="-99"/>
          <Node pos="r" depth="2" NCoef="0" IVar="-1" Cut="0.0000000000000000e+00" cType="1" res="5.8802608400583267e-03" rms="2.1082223951816559e-01" purity="4.6478635072708130e-01" nType="-99"/>
        </Node>
        <Node pos="r" depth="1" NCoef="0" IVar="1" Cut="8.2423439025878906e+00" cType="1" res="-2.8214105404913425e-03" rms="1.8102762103080750e-01" purity="6.5650361776351929e-01" nType="0">
          <Node pos="l" depth="2" NCoef="0" IVar="-1" Cut="0.0000000000000000e+00" cType="1" res="-1.0007055476307869e-02" rms="1.8815113604068756e-01" purity="5.7669204473495483e-01" nType="-99"/>
          <Node pos="r" depth="2" NCoef="0" IVar="-1" Cut="0.0000000000000000e+00" cType="1" res="6.6888751462101936e-03" rms="1.6906282305717468e-01" purity="7.8087621927261353e-01" nType="-99"/>
        </Node>
      </Node>
    </BinaryTree>
    <BinaryTree type="DecisionTree" boostWeight="1.0000000000000000e+00" itree="580">
      <Node pos="s" depth="0" NCoef="0" IVar="10" Cut="6.7168431282043457e+00" cType="1" res="-5.3419085452333093e-04" rms="1.9742240011692047e-01" purity="4.9752849340438843e-01" nType="0">
        <Node pos="l" depth="1" NCoef="0" IVar="19" Cut="8.9908523559570312e+00" cType="1" res="-3.8385514635592699e-03" rms="1.8619157373905182e-01" purity="4.5954105257987976e-01" nType="0">
          <Node pos="l" depth="2" NCoef="0" IVar="-1" Cut="0.0000000000000000e+00" cType="1" res="-2.1265033632516861e-02" rms="1.8190304934978485e-01" purity="1.7660842835903168e-01" nType="-99"/>
          <Node pos="r" depth="2" NCoef="0" IVar="-1" Cut="0.0000000000000000e+00" cType="1" res="2.0171317737549543e-03" rms="1.8786188960075378e-01" purity="5.8911603689193726e-01" nType="-99"/>
        </Node>
        <Node pos="r" depth="1" NCoef="0" IVar="19" Cut="7.3398017883300781e+00" cType="1" res="1.1494468199089170e-03" rms="2.0288512110710144e-01" purity="5.1688385009765625e-01" nType="0">
          <Node pos="l" depth="2" NCoef="0" IVar="-1" Cut="0.0000000000000000e+00" cType="1" res="7.3826722800731659e-03" rms="2.0483528077602386e-01" purity="3.9180848002433777e-01" nType="-99"/>
          <Node pos="r" depth="2" NCoef="0" IVar="-1" Cut="0.0000000000000000e+00" cType="1" res="-1.3326494954526424e-03" rms="2.0191158354282379e-01" purity="5.7609874010086060e-01" nType="-99"/>
        </Node>
      </Node>
    </BinaryTree>
    <BinaryTree type="DecisionTree" boostWeight="1.0000000000000000e+00" itree="581">
      <Node pos="s" depth="0" NCoef="0" IVar="20" Cut="-3.3598908782005310e-01" cType="1" res="1.5838049584999681e-03" rms="1.9734223186969757e-01" purity="4.9912270903587341e-01" nType="0">
        <Node pos="l" depth="1" NCoef="0" IVar="27" Cut="7.1463066339492798e-01" cType="1" res="-1.7299498722422868e-05" rms="1.9385874271392822e-01" purity="5.5374139547348022e-01" nType="0">
          <Node pos="l" depth="2" NCoef="0" IVar="-1" Cut="0.0000000000000000e+00" cType="1" res="-2.0954113453626633e-02" rms="1.4915193617343903e-01" purity="1.1663901805877686e-01" nType="-99"/>
          <Node pos="r" depth="2" NCoef="0" IVar="-1" Cut="0.0000000000000000e+00" cType="1" res="1.1880293022841215e-03" rms="1.9716826081275940e-01" purity="5.9103804826736450e-01" nType="-99"/>
        </Node>
        <Node pos="r" depth="1" NCoef="0" IVar="0" Cut="7.8466849327087402e+00" cType="1" res="6.4423815347254276e-03" rms="2.0747973024845123e-01" purity="3.3338144421577454e-01" nType="0">
          <Node pos="l" depth="2" NCoef="0" IVar="-1" Cut="0.0000000000000000e+00" cType="1" res="1.4123753644526005e-02" rms="2.1188339591026306e-01" purity="3.2279467582702637e-01" nType="-99"/>
          <Node pos="r" depth="2" NCoef="0" IVar="-1" Cut="0.0000000000000000e+00" cType="1" res="-4.2806398123502731e-03" rms="1.9917820394039154e-01" purity="3.5177743434906006e-01" nType="-99"/>
        </Node>
      </Node>
    </BinaryTree>
    <BinaryTree type="DecisionTree" boostWeight="1.0000000000000000e+00" itree="582">
      <Node pos="s" depth="0" NCoef="0" IVar="18" Cut="5.9204304218292236e-01" cType="1" res="-1.8635217566043139e-04" rms="1.9562979042530060e-01" purity="4.9801558256149292e-01" nType="0">
        <Node pos="l" depth="1" NCoef="0" IVar="23" Cut="5.7188773155212402e-01" cType="1" res="-1.6057359753176570e-03" rms="1.9482159614562988e-01" purity="5.4181325435638428e-01" nType="0">
          <Node pos="l" depth="2" NCoef="0" IVar="-1" Cut="0.0000000000000000e+00" cType="1" res="-8.6395554244518280e-03" rms="1.8695783615112305e-01" purity="1.0867887735366821e-01" nType="-99"/>
          <Node pos="r" depth="2" NCoef="0" IVar="-1" Cut="0.0000000000000000e+00" cType="1" res="6.7347311414778233e-04" rms="1.9767501950263977e-01" purity="7.0591247081756592e-01" nType="-99"/>
        </Node>
        <Node pos="r" depth="1" NCoef="0" IVar="7" Cut="1.8325390815734863e+00" cType="1" res="6.9548790343105793e-03" rms="1.9949324429035187e-01" purity="2.7765965461730957e-01" nType="0">
          <Node pos="l" depth="2" NCoef="0" IVar="-1" Cut="0.0000000000000000e+00" cType="1" res="1.3799566775560379e-02" rms="2.5441384315490723e-01" purity="5.2853131294250488e-01" nType="-99"/>
          <Node pos="r" depth="2" NCoef="0" IVar="-1" Cut="0.0000000000000000e+00" cType="1" res="-6.6410028375685215e-04" rms="1.5675114095211029e-01" purity="1.2586003541946411e-01" nType="-99"/>
        </Node>
      </Node>
    </BinaryTree>
    <BinaryTree type="DecisionTree" boostWeight="1.0000000000000000e+00" itree="583">
      <Node pos="s" depth="0" NCoef="0" IVar="11" Cut="6.0704321861267090e+00" cType="1" res="1.1283824278507382e-04" rms="1.9653491675853729e-01" purity="4.9811810255050659e-01" nType="0">
        <Node pos="l" depth="1" NCoef="0" IVar="16" Cut="3.3174160122871399e-01" cType="1" res="6.4055128023028374e-03" rms="2.1043530106544495e-01" purity="4.0281400084495544e-01" nType="0">
          <Node pos="l" depth="2" NCoef="0" IVar="-1" Cut="0.0000000000000000e+00" cType="1" res="2.4148134514689445e-02" rms="2.1005770564079285e-01" purity="2.1451574563980103e-01" nType="-99"/>
          <Node pos="r" depth="2" NCoef="0" IVar="-1" Cut="0.0000000000000000e+00" cType="1" res="3.4139307681471109e-03" rms="2.1037383377552032e-01" purity="4.4583219289779663e-01" nType="-99"/>
        </Node>
        <Node pos="r" depth="1" NCoef="0" IVar="6" Cut="6.0943546295166016e+00" cType="1" res="-1.1265216162428260e-03" rms="1.9365553557872772e-01" purity="5.1688855886459351e-01" nType="0">
          <Node pos="l" depth="2" NCoef="0" IVar="-1" Cut="0.0000000000000000e+00" cType="1" res="-4.0996018797159195e-03" rms="1.9830873608589172e-01" purity="5.4428058862686157e-01" nType="-99"/>
          <Node pos="r" depth="2" NCoef="0" IVar="-1" Cut="0.0000000000000000e+00" cType="1" res="4.0976530872285366e-03" rms="1.8448202311992645e-01" purity="4.6527302265167236e-01" nType="-99"/>
        </Node>
      </Node>
    </BinaryTree>
    <BinaryTree type="DecisionTree" boostWeight="1.0000000000000000e+00" itree="584">
      <Node pos="s" depth="0" NCoef="0" IVar="18" Cut="-9.1770973205566406e+00" cType="1" res="1.4914716593921185e-03" rms="1.9725564122200012e-01" purity="5.0028854608535767e-01" nType="0">
        <Node pos="l" depth="1" NCoef="0" IVar="27" Cut="8.0982679128646851e-01" cType="1" res="3.7663611583411694e-03" rms="1.9162297248840332e-01" purity="6.1358946561813354e-01" nType="0">
          <Node pos="l" depth="2" NCoef="0" IVar="-1" Cut="0.0000000000000000e+00" cType="1" res="-1.5672141686081886e-02" rms="1.6414517164230347e-01" purity="1.8595013022422791e-01" nType="-99"/>
          <Node pos="r" depth="2" NCoef="0" IVar="-1" Cut="0.0000000000000000e+00" cType="1" res="5.6830351240932941e-03" rms="1.9347862899303436e-01" purity="6.4563804864883423e-01" nType="-99"/>
        </Node>
        <Node pos="r" depth="1" NCoef="0" IVar="11" Cut="7.6513338088989258e+00" cType="1" res="-1.8304758705198765e-03" rms="2.0515798032283783e-01" purity="3.3483892679214478e-01" nType="0">
          <Node pos="l" depth="2" NCoef="0" IVar="-1" Cut="0.0000000000000000e+00" cType="1" res="-4.6838400885462761e-03" rms="2.0464742183685303e-01" purity="3.5016787052154541e-01" nType="-99"/>
          <Node pos="r" depth="2" NCoef="0" IVar="-1" Cut="0.0000000000000000e+00" cType="1" res="2.8600219637155533e-02" rms="2.0857253670692444e-01" purity="1.9259460270404816e-01" nType="-99"/>
        </Node>
      </Node>
    </BinaryTree>
    <BinaryTree type="DecisionTree" boostWeight="1.0000000000000000e+00" itree="585">
      <Node pos="s" depth="0" NCoef="0" IVar="25" Cut="1.8450286984443665e-01" cType="1" res="-1.2552016414701939e-04" rms="1.9595097005367279e-01" purity="5.0413197278976440e-01" nType="0">
        <Node pos="l" depth="1" NCoef="0" IVar="16" Cut="2.2261796891689301e-01" cType="1" res="1.0893464786931872e-03" rms="1.9725328683853149e-01" purity="6.0142523050308228e-01" nType="0">
          <Node pos="l" depth="2" NCoef="0" IVar="-1" Cut="0.0000000000000000e+00" cType="1" res="2.0641572773456573e-02" rms="2.1818634867668152e-01" purity="1.7747583985328674e-01" nType="-99"/>
          <Node pos="r" depth="2" NCoef="0" IVar="-1" Cut="0.0000000000000000e+00" cType="1" res="5.6838901946321130e-04" rms="1.9639042019844055e-01" purity="6.1753523349761963e-01" nType="-99"/>
        </Node>
        <Node pos="r" depth="1" NCoef="0" IVar="17" Cut="1.0118228912353516e+01" cType="1" res="-3.8404280785471201e-03" rms="1.9186611473560333e-01" purity="2.0662154257297516e-01" nType="0">
          <Node pos="l" depth="2" NCoef="0" IVar="-1" Cut="0.0000000000000000e+00" cType="1" res="-3.1904299976304173e-04" rms="1.8894334137439728e-01" purity="1.8776033818721771e-01" nType="-99"/>
          <Node pos="r" depth="2" NCoef="0" IVar="-1" Cut="0.0000000000000000e+00" cType="1" res="-2.6124015450477600e-02" rms="2.0694388449192047e-01" purity="3.1739953160285950e-01" nType="-99"/>
        </Node>
      </Node>
    </BinaryTree>
    <BinaryTree type="DecisionTree" boostWeight="1.0000000000000000e+00" itree="586">
      <Node pos="s" depth="0" NCoef="0" IVar="11" Cut="7.8449544906616211e+00" cType="1" res="4.1394727304577827e-04" rms="1.9658225774765015e-01" purity="5.0245296955108643e-01" nType="0">
        <Node pos="l" depth="1" NCoef="0" IVar="5" Cut="8.4846048355102539e+00" cType="1" res="1.2871726648882031e-03" rms="1.9814920425415039e-01" purity="5.1579117774963379e-01" nType="0">
          <Node pos="l" depth="2" NCoef="0" IVar="-1" Cut="0.0000000000000000e+00" cType="1" res="2.1483034361153841e-03" rms="1.9925701618194580e-01" purity="5.3239691257476807e-01" nType="-99"/>
          <Node pos="r" depth="2" NCoef="0" IVar="-1" Cut="0.0000000000000000e+00" cType="1" res="-2.2376418113708496e-02" rms="1.6803465783596039e-01" purity="1.0830352455377579e-01" nType="-99"/>
        </Node>
        <Node pos="r" depth="1" NCoef="0" IVar="12" Cut="7.5508875846862793e+00" cType="1" res="-1.0027545504271984e-02" rms="1.7643830180168152e-01" purity="3.4296327829360962e-01" nType="0">
          <Node pos="l" depth="2" NCoef="0" IVar="-1" Cut="0.0000000000000000e+00" cType="1" res="-2.8007386252284050e-02" rms="1.8281689286231995e-01" purity="1.9558215141296387e-01" nType="-99"/>
          <Node pos="r" depth="2" NCoef="0" IVar="-1" Cut="0.0000000000000000e+00" cType="1" res="-2.2362498566508293e-03" rms="1.7171105742454529e-01" purity="4.3744879961013794e-01" nType="-99"/>
        </Node>
      </Node>
    </BinaryTree>
    <BinaryTree type="DecisionTree" boostWeight="1.0000000000000000e+00" itree="587">
      <Node pos="s" depth="0" NCoef="0" IVar="3" Cut="1.9092152118682861e+00" cType="1" res="-1.1784224770963192e-03" rms="1.9402393698692322e-01" purity="4.9894058704376221e-01" nType="0">
        <Node pos="l" depth="1" NCoef="0" IVar="23" Cut="9.0497267246246338e-01" cType="1" res="-3.2654032111167908e-03" rms="2.0712184906005859e-01" purity="7.1107101440429688e-01" nType="0">
          <Node pos="l" depth="2" NCoef="0" IVar="-1" Cut="0.0000000000000000e+00" cType="1" res="-5.7974439114332199e-03" rms="2.6664415001869202e-01" purity="4.1465023159980774e-01" nType="-99"/>
          <Node pos="r" depth="2" NCoef="0" IVar="-1" Cut="0.0000000000000000e+00" cType="1" res="4.7468454577028751e-03" rms="1.3704346120357513e-01" purity="9.6392071247100830e-01" nType="-99"/>
        </Node>
        <Node pos="r" depth="1" NCoef="0" IVar="3" Cut="2.9394960403442383e+00" cType="1" res="1.1035054922103882e-03" rms="1.7857867479324341e-01" purity="2.6699483394622803e-01" nType="0">
          <Node pos="l" depth="2" NCoef="0" IVar="-1" Cut="0.0000000000000000e+00" cType="1" res="4.9913730472326279e-03" rms="2.4113260209560394e-01" purity="5.0667941570281982e-01" nType="-99"/>
          <Node pos="r" depth="2" NCoef="0" IVar="-1" Cut="0.0000000000000000e+00" cType="1" res="-2.8739536181092262e-02" rms="6.5816611051559448e-02" purity="1.5883095562458038e-02" nType="-99"/>
        </Node>
      </Node>
    </BinaryTree>
    <BinaryTree type="DecisionTree" boostWeight="1.0000000000000000e+00" itree="588">
      <Node pos="s" depth="0" NCoef="0" IVar="6" Cut="8.3443775177001953e+00" cType="1" res="-1.2810827465727925e-03" rms="1.9745585322380066e-01" purity="4.9986699223518372e-01" nType="0">
        <Node pos="l" depth="1" NCoef="0" IVar="0" Cut="5.1423602104187012e+00" cType="1" res="-8.9080526959151030e-04" rms="1.9857674837112427e-01" purity="5.0892364978790283e-01" nType="0">
          <Node pos="l" depth="2" NCoef="0" IVar="-1" Cut="0.0000000000000000e+00" cType="1" res="3.7790399510413408e-03" rms="2.0355105400085449e-01" purity="4.6961888670921326e-01" nType="-99"/>
          <Node pos="r" depth="2" NCoef="0" IVar="-1" Cut="0.0000000000000000e+00" cType="1" res="-3.7031292449682951e-03" rms="1.9567351043224335e-01" purity="5.3111743927001953e-01" nType="-99"/>
        </Node>
        <Node pos="r" depth="1" NCoef="0" IVar="-1" Cut="0.0000000000000000e+00" cType="1" res="-2.5440612807869911e-02" rms="1.5014980733394623e-01" purity="1.6864912211894989e-01" nType="-99"/>
      </Node>
    </BinaryTree>
    <BinaryTree type="DecisionTree" boostWeight="1.0000000000000000e+00" itree="589">
      <Node pos="s" depth="0" NCoef="0" IVar="25" Cut="6.9411242008209229e-01" cType="1" res="1.0561478557065129e-03" rms="1.9785234332084656e-01" purity="5.0035578012466431e-01" nType="0">
        <Node pos="l" depth="1" NCoef="0" IVar="17" Cut="7.8464436531066895e+00" cType="1" res="1.4891568571329117e-03" rms="1.9884844124317169e-01" purity="5.1396834850311279e-01" nType="0">
          <Node pos="l" depth="2" NCoef="0" IVar="-1" Cut="0.0000000000000000e+00" cType="1" res="1.2822571210563183e-02" rms="1.9959689676761627e-01" purity="1.7317375540733337e-01" nType="-99"/>
          <Node pos="r" depth="2" NCoef="0" IVar="-1" Cut="0.0000000000000000e+00" cType="1" res="-3.0943872843636200e-05" rms="1.9866947829723358e-01" purity="5.7882606983184814e-01" nType="-99"/>
        </Node>
        <Node pos="r" depth="1" NCoef="0" IVar="-1" Cut="0.0000000000000000e+00" cType="1" res="-1.8377656117081642e-02" rms="1.6641777753829956e-01" purity="1.1135257035493851e-01" nType="-99"/>
      </Node>
    </BinaryTree>
    <BinaryTree type="DecisionTree" boostWeight="1.0000000000000000e+00" itree="590">
      <Node pos="s" depth="0" NCoef="0" IVar="20" Cut="7.5857520103454590e+00" cType="1" res="-1.1294699506834149e-03" rms="1.9756527245044708e-01" purity="4.9851655960083008e-01" nType="0">
        <Node pos="l" depth="1" NCoef="0" IVar="34" Cut="1.1907922029495239e+00" cType="1" res="-1.8450788920745254e-03" rms="1.9625170528888702e-01" purity="5.1867383718490601e-01" nType="0">
          <Node pos="l" depth="2" NCoef="0" IVar="-1" Cut="0.0000000000000000e+00" cType="1" res="1.5673801535740495e-03" rms="1.9008572399616241e-01" purity="6.5768378973007202e-01" nType="-99"/>
          <Node pos="r" depth="2" NCoef="0" IVar="-1" Cut="0.0000000000000000e+00" cType="1" res="-4.6579660847783089e-03" rms="2.0030306279659271e-01" purity="4.2424485087394714e-01" nType="-99"/>
        </Node>
        <Node pos="r" depth="1" NCoef="0" IVar="26" Cut="1.4240507781505585e-01" cType="1" res="6.5023670904338360e-03" rms="2.1091528236865997e-01" purity="2.8354334831237793e-01" nType="0">
          <Node pos="l" depth="2" NCoef="0" IVar="-1" Cut="0.0000000000000000e+00" cType="1" res="-8.5595324635505676e-03" rms="2.0369620621204376e-01" purity="3.3386412262916565e-01" nType="-99"/>
          <Node pos="r" depth="2" NCoef="0" IVar="-1" Cut="0.0000000000000000e+00" cType="1" res="1.4630740508437157e-02" rms="2.1409414708614349e-01" purity="2.5849685072898865e-01" nType="-99"/>
        </Node>
      </Node>
    </BinaryTree>
    <BinaryTree type="DecisionTree" boostWeight="1.0000000000000000e+00" itree="591">
      <Node pos="s" depth="0" NCoef="0" IVar="20" Cut="8.1125383377075195e+00" cType="1" res="6.4889370696619153e-04" rms="1.9596204161643982e-01" purity="5.0450366735458374e-01" nType="0">
        <Node pos="l" depth="1" NCoef="0" IVar="15" Cut="6.6222500801086426e+00" cType="1" res="-2.9106647707521915e-04" rms="1.9452531635761261e-01" purity="5.2226316928863525e-01" nType="0">
          <Node pos="l" depth="2" NCoef="0" IVar="-1" Cut="0.0000000000000000e+00" cType="1" res="-2.4582957848906517e-03" rms="2.0110635459423065e-01" purity="4.9118015170097351e-01" nType="-99"/>
          <Node pos="r" depth="2" NCoef="0" IVar="-1" Cut="0.0000000000000000e+00" cType="1" res="3.2774715218693018e-03" rms="1.8504121899604797e-01" purity="5.6508117914199829e-01" nType="-99"/>
        </Node>
        <Node pos="r" depth="1" NCoef="0" IVar="25" Cut="9.2311099171638489e-02" cType="1" res="1.1619272641837597e-02" rms="2.1170325577259064e-01" purity="2.9723063111305237e-01" nType="0">
          <Node pos="l" depth="2" NCoef="0" IVar="-1" Cut="0.0000000000000000e+00" cType="1" res="2.0748795941472054e-02" rms="2.3787036538124084e-01" purity="4.3730226159095764e-01" nType="-99"/>
          <Node pos="r" depth="2" NCoef="0" IVar="-1" Cut="0.0000000000000000e+00" cType="1" res="-3.9066565223038197e-03" rms="1.7220972478389740e-01" purity="1.2100698053836823e-01" nType="-99"/>
        </Node>
      </Node>
    </BinaryTree>
    <BinaryTree type="DecisionTree" boostWeight="1.0000000000000000e+00" itree="592">
      <Node pos="s" depth="0" NCoef="0" IVar="29" Cut="4.6101760864257812e-01" cType="1" res="8.4185379091650248e-04" rms="1.9809675216674805e-01" purity="5.0026381015777588e-01" nType="0">
        <Node pos="l" depth="1" NCoef="0" IVar="17" Cut="3.7957332611083984e+01" cType="1" res="-4.4507047277875245e-04" rms="1.9438153505325317e-01" purity="5.4402518272399902e-01" nType="0">
          <Node pos="l" depth="2" NCoef="0" IVar="-1" Cut="0.0000000000000000e+00" cType="1" res="-1.7382912337779999e-03" rms="2.0148470997810364e-01" purity="4.6484869718551636e-01" nType="-99"/>
          <Node pos="r" depth="2" NCoef="0" IVar="-1" Cut="0.0000000000000000e+00" cType="1" res="6.4427340403199196e-03" rms="1.6210030019283295e-01" purity="8.6732971668243408e-01" nType="-99"/>
        </Node>
        <Node pos="r" depth="1" NCoef="0" IVar="25" Cut="4.6128641813993454e-02" cType="1" res="6.1185462400317192e-03" rms="2.1257096529006958e-01" purity="3.2083213329315186e-01" nType="0">
          <Node pos="l" depth="2" NCoef="0" IVar="-1" Cut="0.0000000000000000e+00" cType="1" res="1.1957139708101749e-02" rms="2.2718617320060730e-01" purity="4.9669787287712097e-01" nType="-99"/>
          <Node pos="r" depth="2" NCoef="0" IVar="-1" Cut="0.0000000000000000e+00" cType="1" res="3.6358436773298308e-05" rms="1.9940440356731415e-01" purity="1.7464287579059601e-01" nType="-99"/>
        </Node>
      </Node>
    </BinaryTree>
    <BinaryTree type="DecisionTree" boostWeight="1.0000000000000000e+00" itree="593">
      <Node pos="s" depth="0" NCoef="0" IVar="29" Cut="3.7258449196815491e-01" cType="1" res="-1.0291626676917076e-03" rms="1.9562780857086182e-01" purity="5.0125616788864136e-01" nType="0">
        <Node pos="l" depth="1" NCoef="0" IVar="12" Cut="6.6713271141052246e+00" cType="1" res="5.5898563005030155e-04" rms="1.9498385488986969e-01" purity="5.6906479597091675e-01" nType="0">
          <Node pos="l" depth="2" NCoef="0" IVar="-1" Cut="0.0000000000000000e+00" cType="1" res="-6.8717277608811855e-03" rms="2.0412981510162354e-01" purity="3.6889693140983582e-01" nType="-99"/>
          <Node pos="r" depth="2" NCoef="0" IVar="-1" Cut="0.0000000000000000e+00" cType="1" res="1.9532646983861923e-03" rms="1.9359037280082703e-01" purity="5.9827494621276855e-01" nType="-99"/>
        </Node>
        <Node pos="r" depth="1" NCoef="0" IVar="13" Cut="8.3199653625488281e+00" cType="1" res="-5.8215586468577385e-03" rms="1.9748084247112274e-01" purity="2.9663708806037903e-01" nType="0">
          <Node pos="l" depth="2" NCoef="0" IVar="-1" Cut="0.0000000000000000e+00" cType="1" res="-2.4765650741755962e-03" rms="2.0342470705509186e-01" purity="3.2621034979820251e-01" nType="-99"/>
          <Node pos="r" depth="2" NCoef="0" IVar="-1" Cut="0.0000000000000000e+00" cType="1" res="-1.5782753005623817e-02" rms="1.8458390235900879e-01" purity="2.3641903698444366e-01" nType="-99"/>
        </Node>
      </Node>
    </BinaryTree>
    <BinaryTree type="DecisionTree" boostWeight="1.0000000000000000e+00" itree="594">
      <Node pos="s" depth="0" NCoef="0" IVar="26" Cut="7.1335208415985107e-01" cType="1" res="5.7504854339640588e-05" rms="1.9538198411464691e-01" purity="5.0411999225616455e-01" nType="0">
        <Node pos="l" depth="1" NCoef="0" IVar="11" Cut="6.7752013206481934e+00" cType="1" res="5.0189002649858594e-04" rms="1.9599789381027222e-01" purity="5.1366043090820312e-01" nType="0">
          <Node pos="l" depth="2" NCoef="0" IVar="-1" Cut="0.0000000000000000e+00" cType="1" res="-2.5625112466514111e-03" rms="1.9587211310863495e-01" purity="5.1496499776840210e-01" nType="-99"/>
          <Node pos="r" depth="2" NCoef="0" IVar="-1" Cut="0.0000000000000000e+00" cType="1" res="3.6288967821747065e-03" rms="1.9608870148658752e-01" purity="5.1234108209609985e-01" nType="-99"/>
        </Node>
        <Node pos="r" depth="1" NCoef="0" IVar="-1" Cut="0.0000000000000000e+00" cType="1" res="-2.0657939836382866e-02" rms="1.7204828560352325e-01" purity="1.7439989745616913e-01" nType="-99"/>
      </Node>
    </BinaryTree>
    <BinaryTree type="DecisionTree" boostWeight="1.0000000000000000e+00" itree="595">
      <Node pos="s" depth="0" NCoef="0" IVar="19" Cut="9.2456617355346680e+00" cType="1" res="-1.4409024734050035e-03" rms="1.9540603458881378e-01" purity="4.9666059017181396e-01" nType="0">
        <Node pos="l" depth="1" NCoef="0" IVar="11" Cut="6.8768820762634277e+00" cType="1" res="-6.4076120033860207e-03" rms="1.9213134050369263e-01" purity="3.0750524997711182e-01" nType="0">
          <Node pos="l" depth="2" NCoef="0" IVar="-1" Cut="0.0000000000000000e+00" cType="1" res="-1.5094470232725143e-02" rms="1.8729674816131592e-01" purity="2.9588246345520020e-01" nType="-99"/>
          <Node pos="r" depth="2" NCoef="0" IVar="-1" Cut="0.0000000000000000e+00" cType="1" res="1.3394375564530492e-03" rms="1.9792412221431732e-01" purity="3.2244259119033813e-01" nType="-99"/>
        </Node>
        <Node pos="r" depth="1" NCoef="0" IVar="12" Cut="6.3151984214782715e+00" cType="1" res="1.1513035278767347e-03" rms="1.9704383611679077e-01" purity="5.9538382291793823e-01" nType="0">
          <Node pos="l" depth="2" NCoef="0" IVar="-1" Cut="0.0000000000000000e+00" cType="1" res="1.9927542656660080e-02" rms="2.2553841769695282e-01" purity="4.3659812211990356e-01" nType="-99"/>
          <Node pos="r" depth="2" NCoef="0" IVar="-1" Cut="0.0000000000000000e+00" cType="1" res="2.0791251154150814e-04" rms="1.9557258486747742e-01" purity="6.0272037982940674e-01" nType="-99"/>
        </Node>
      </Node>
    </BinaryTree>
    <BinaryTree type="DecisionTree" boostWeight="1.0000000000000000e+00" itree="596">
      <Node pos="s" depth="0" NCoef="0" IVar="26" Cut="6.6579633951187134e-01" cType="1" res="-1.8123535846825689e-04" rms="1.9732204079627991e-01" purity="5.0117564201354980e-01" nType="0">
        <Node pos="l" depth="1" NCoef="0" IVar="18" Cut="6.3580622673034668e+00" cType="1" res="2.1064738393761218e-04" rms="1.9812667369842529e-01" purity="5.1203250885009766e-01" nType="0">
          <Node pos="l" depth="2" NCoef="0" IVar="-1" Cut="0.0000000000000000e+00" cType="1" res="-2.8420184389688075e-04" rms="1.9725227355957031e-01" purity="5.2164238691329956e-01" nType="-99"/>
          <Node pos="r" depth="2" NCoef="0" IVar="-1" Cut="0.0000000000000000e+00" cType="1" res="1.2914472259581089e-02" rms="2.1890366077423096e-01" purity="2.6726445555686951e-01" nType="-99"/>
        </Node>
        <Node pos="r" depth="1" NCoef="0" IVar="-1" Cut="0.0000000000000000e+00" cType="1" res="-1.6424929723143578e-02" rms="1.7171676456928253e-01" purity="1.8340145051479340e-01" nType="-99"/>
      </Node>
    </BinaryTree>
    <BinaryTree type="DecisionTree" boostWeight="1.0000000000000000e+00" itree="597">
      <Node pos="s" depth="0" NCoef="0" IVar="12" Cut="6.6915898323059082e+00" cType="1" res="3.2625743187963963e-04" rms="1.9612640142440796e-01" purity="5.0076377391815186e-01" nType="0">
        <Node pos="l" depth="1" NCoef="0" IVar="7" Cut="3.0007734298706055e+00" cType="1" res="-6.5880226902663708e-03" rms="2.0110003650188446e-01" purity="3.0239927768707275e-01" nType="0">
          <Node pos="l" depth="2" NCoef="0" IVar="-1" Cut="0.0000000000000000e+00" cType="1" res="-9.9146636202931404e-03" rms="2.1641065180301666e-01" purity="3.6561167240142822e-01" nType="-99"/>
          <Node pos="r" depth="2" NCoef="0" IVar="-1" Cut="0.0000000000000000e+00" cType="1" res="1.2919284403324127e-02" rms="1.4394082129001617e-01" purity="1.0937000066041946e-01" nType="-99"/>
        </Node>
        <Node pos="r" depth="1" NCoef="0" IVar="16" Cut="2.9921343922615051e-01" cType="1" res="1.5072698006406426e-03" rms="1.9523972272872925e-01" purity="5.3464597463607788e-01" nType="0">
          <Node pos="l" depth="2" NCoef="0" IVar="-1" Cut="0.0000000000000000e+00" cType="1" res="8.3880946040153503e-03" rms="2.0584735274314880e-01" purity="2.7658671140670776e-01" nType="-99"/>
          <Node pos="r" depth="2" NCoef="0" IVar="-1" Cut="0.0000000000000000e+00" cType="1" res="2.2814080875832587e-04" rms="1.9285996258258820e-01" purity="5.9006822109222412e-01" nType="-99"/>
        </Node>
      </Node>
    </BinaryTree>
    <BinaryTree type="DecisionTree" boostWeight="1.0000000000000000e+00" itree="598">
      <Node pos="s" depth="0" NCoef="0" IVar="1" Cut="3.2219715118408203e+01" cType="1" res="8.3099806215614080e-04" rms="1.9616743922233582e-01" purity="4.9806573987007141e-01" nType="0">
        <Node pos="l" depth="1" NCoef="0" IVar="6" Cut="6.8881888389587402e+00" cType="1" res="1.2046992778778076e-03" rms="1.9710704684257507e-01" purity="5.0472211837768555e-01" nType="0">
          <Node pos="l" depth="2" NCoef="0" IVar="-1" Cut="0.0000000000000000e+00" cType="1" res="2.3374805095954798e-05" rms="1.9851055741310120e-01" purity="5.1964312791824341e-01" nType="-99"/>
          <Node pos="r" depth="2" NCoef="0" IVar="-1" Cut="0.0000000000000000e+00" cType="1" res="1.1477770283818245e-02" rms="1.8691255152225494e-01" purity="4.0158233046531677e-01" nType="-99"/>
        </Node>
        <Node pos="r" depth="1" NCoef="0" IVar="-1" Cut="0.0000000000000000e+00" cType="1" res="-1.9536767154932022e-02" rms="1.5705627202987671e-01" purity="2.5271871685981750e-01" nType="-99"/>
      </Node>
    </BinaryTree>
    <BinaryTree type="DecisionTree" boostWeight="1.0000000000000000e+00" itree="599">
      <Node pos="s" depth="0" NCoef="0" IVar="1" Cut="1.0770468711853027e+01" cType="1" res="9.9497963674366474e-04" rms="1.9714297354221344e-01" purity="5.0193995237350464e-01" nType="0">
        <Node pos="l" depth="1" NCoef="0" IVar="1" Cut="3.7038722038269043e+00" cType="1" res="2.5682065170258284e-03" rms="2.0285944640636444e-01" purity="5.0385898351669312e-01" nType="0">
          <Node pos="l" depth="2" NCoef="0" IVar="-1" Cut="0.0000000000000000e+00" cType="1" res="-8.2409260794520378e-03" rms="1.9433219730854034e-01" purity="3.5577943921089172e-01" nType="-99"/>
          <Node pos="r" depth="2" NCoef="0" IVar="-1" Cut="0.0000000000000000e+00" cType="1" res="5.8168605901300907e-03" rms="2.0503161847591400e-01" purity="5.4393804073333740e-01" nType="-99"/>
        </Node>
        <Node pos="r" depth="1" NCoef="0" IVar="16" Cut="3.7163531780242920e-01" cType="1" res="-2.8982488438487053e-03" rms="1.8216881155967712e-01" purity="4.9719092249870300e-01" nType="0">
          <Node pos="l" depth="2" NCoef="0" IVar="-1" Cut="0.0000000000000000e+00" cType="1" res="-1.7051350325345993e-02" rms="1.8831364810466766e-01" purity="2.1238081157207489e-01" nType="-99"/>
          <Node pos="r" depth="2" NCoef="0" IVar="-1" Cut="0.0000000000000000e+00" cType="1" res="1.2118946760892868e-02" rms="1.7548981308937073e-01" purity="7.5926434993743896e-01" nType="-99"/>
        </Node>
      </Node>
    </BinaryTree>
    <BinaryTree type="DecisionTree" boostWeight="1.0000000000000000e+00" itree="600">
      <Node pos="s" depth="0" NCoef="0" IVar="20" Cut="-3.3598908782005310e-01" cType="1" res="3.3435728255426511e-05" rms="1.9596315920352936e-01" purity="4.9970188736915588e-01" nType="0">
        <Node pos="l" depth="1" NCoef="0" IVar="16" Cut="4.9784451723098755e-01" cType="1" res="-1.4568674378097057e-03" rms="1.9256590306758881e-01" purity="5.5321526527404785e-01" nType="0">
          <Node pos="l" depth="2" NCoef="0" IVar="-1" Cut="0.0000000000000000e+00" cType="1" res="-3.3143877517431974e-03" rms="2.0067298412322998e-01" purity="4.8324134945869446e-01" nType="-99"/>
          <Node pos="r" depth="2" NCoef="0" IVar="-1" Cut="0.0000000000000000e+00" cType="1" res="4.1314535774290562e-03" rms="1.6944628953933716e-01" purity="7.3639154434204102e-01" nType="-99"/>
        </Node>
        <Node pos="r" depth="1" NCoef="0" IVar="17" Cut="2.6093645095825195e+01" cType="1" res="4.6446002088487148e-03" rms="2.0605203509330750e-01" purity="3.3412575721740723e-01" nType="0">
          <Node pos="l" depth="2" NCoef="0" IVar="-1" Cut="0.0000000000000000e+00" cType="1" res="-1.3596230419352651e-03" rms="1.9776253402233124e-01" purity="2.3354896903038025e-01" nType="-99"/>
          <Node pos="r" depth="2" NCoef="0" IVar="-1" Cut="0.0000000000000000e+00" cType="1" res="2.0175399258732796e-02" rms="2.2765797376632690e-01" purity="6.2704902887344360e-01" nType="-99"/>
        </Node>
      </Node>
    </BinaryTree>
    <BinaryTree type="DecisionTree" boostWeight="1.0000000000000000e+00" itree="601">
      <Node pos="s" depth="0" NCoef="0" IVar="23" Cut="7.6213532686233521e-01" cType="1" res="1.7053257906809449e-03" rms="1.9718393683433533e-01" purity="4.9864569306373596e-01" nType="0">
        <Node pos="l" depth="1" NCoef="0" IVar="30" Cut="1.9113395363092422e-02" cType="1" res="5.0563081167638302e-03" rms="2.0614661276340485e-01" purity="1.5709972381591797e-01" nType="0">
          <Node pos="l" depth="2" NCoef="0" IVar="-1" Cut="0.0000000000000000e+00" cType="1" res="1.0408764705061913e-02" rms="2.2945317625999451e-01" purity="2.2679828107357025e-01" nType="-99"/>
          <Node pos="r" depth="2" NCoef="0" IVar="-1" Cut="0.0000000000000000e+00" cType="1" res="1.1225468479096889e-03" rms="1.9029808044433594e-01" purity="1.1427105218172073e-01" nType="-99"/>
        </Node>
        <Node pos="r" depth="1" NCoef="0" IVar="23" Cut="9.8862159252166748e-01" cType="1" res="-1.1308836983516812e-03" rms="1.8922038376331329e-01" purity="7.8772389888763428e-01" nType="0">
          <Node pos="l" depth="2" NCoef="0" IVar="-1" Cut="0.0000000000000000e+00" cType="1" res="-4.2568924836814404e-03" rms="2.2115512192249298e-01" purity="6.8870568275451660e-01" nType="-99"/>
          <Node pos="r" depth="2" NCoef="0" IVar="-1" Cut="0.0000000000000000e+00" cType="1" res="1.4108909294009209e-02" rms="1.1287569254636765e-01" purity="9.6159011125564575e-01" nType="-99"/>
        </Node>
      </Node>
    </BinaryTree>
    <BinaryTree type="DecisionTree" boostWeight="1.0000000000000000e+00" itree="602">
      <Node pos="s" depth="0" NCoef="0" IVar="31" Cut="1.5229555964469910e-01" cType="1" res="-6.6127406898885965e-04" rms="1.9650498032569885e-01" purity="4.9688652157783508e-01" nType="0">
        <Node pos="l" depth="1" NCoef="0" IVar="13" Cut="7.7295665740966797e+00" cType="1" res="-1.4807706465944648e-03" rms="1.9665071368217468e-01" purity="5.2827471494674683e-01" nType="0">
          <Node pos="l" depth="2" NCoef="0" IVar="-1" Cut="0.0000000000000000e+00" cType="1" res="3.8247255142778158e-03" rms="1.9639608263969421e-01" purity="4.6942126750946045e-01" nType="-99"/>
          <Node pos="r" depth="2" NCoef="0" IVar="-1" Cut="0.0000000000000000e+00" cType="1" res="-3.2861074432730675e-03" rms="1.9670458137989044e-01" purity="5.4578059911727905e-01" nType="-99"/>
        </Node>
        <Node pos="r" depth="1" NCoef="0" IVar="3" Cut="2.3923156261444092e+00" cType="1" res="7.2066681459546089e-03" rms="1.9492509961128235e-01" purity="1.9553026556968689e-01" nType="0">
          <Node pos="l" depth="2" NCoef="0" IVar="-1" Cut="0.0000000000000000e+00" cType="1" res="1.6309479251503944e-02" rms="2.6200658082962036e-01" purity="3.7548434734344482e-01" nType="-99"/>
          <Node pos="r" depth="2" NCoef="0" IVar="-1" Cut="0.0000000000000000e+00" cType="1" res="-1.7465986311435699e-02" rms="1.0684642195701599e-01" purity="4.1383203119039536e-02" nType="-99"/>
        </Node>
      </Node>
    </BinaryTree>
    <BinaryTree type="DecisionTree" boostWeight="1.0000000000000000e+00" itree="603">
      <Node pos="s" depth="0" NCoef="0" IVar="19" Cut="6.0985717773437500e+00" cType="1" res="9.1495172819122672e-04" rms="1.9667670130729675e-01" purity="5.0087976455688477e-01" nType="0">
        <Node pos="l" depth="1" NCoef="0" IVar="31" Cut="1.9030988216400146e-02" cType="1" res="-3.8823063950985670e-03" rms="1.9035269320011139e-01" purity="3.1709939241409302e-01" nType="0">
          <Node pos="l" depth="2" NCoef="0" IVar="-1" Cut="0.0000000000000000e+00" cType="1" res="-1.3342844322323799e-02" rms="1.8826831877231598e-01" purity="4.2818078398704529e-01" nType="-99"/>
          <Node pos="r" depth="2" NCoef="0" IVar="-1" Cut="0.0000000000000000e+00" cType="1" res="5.1855402998626232e-03" rms="1.9214434921741486e-01" purity="2.0424354076385498e-01" nType="-99"/>
        </Node>
        <Node pos="r" depth="1" NCoef="0" IVar="31" Cut="3.8090150803327560e-02" cType="1" res="2.5849263183772564e-03" rms="1.9880381226539612e-01" purity="5.6485563516616821e-01" nType="0">
          <Node pos="l" depth="2" NCoef="0" IVar="-1" Cut="0.0000000000000000e+00" cType="1" res="5.4589542560279369e-03" rms="1.9644817709922791e-01" purity="6.6636383533477783e-01" nType="-99"/>
          <Node pos="r" depth="2" NCoef="0" IVar="-1" Cut="0.0000000000000000e+00" cType="1" res="-3.4667504951357841e-03" rms="2.0468312501907349e-01" purity="3.0124050378799438e-01" nType="-99"/>
        </Node>
      </Node>
    </BinaryTree>
    <BinaryTree type="DecisionTree" boostWeight="1.0000000000000000e+00" itree="604">
      <Node pos="s" depth="0" NCoef="0" IVar="22" Cut="8.4609270095825195e+00" cType="1" res="-1.0472505819052458e-03" rms="1.9678202271461487e-01" purity="4.9751654267311096e-01" nType="0">
        <Node pos="l" depth="1" NCoef="0" IVar="33" Cut="3.8112353533506393e-02" cType="1" res="-4.1247336193919182e-03" rms="2.0273678004741669e-01" purity="3.2288801670074463e-01" nType="0">
          <Node pos="l" depth="2" NCoef="0" IVar="-1" Cut="0.0000000000000000e+00" cType="1" res="-9.8147122189402580e-03" rms="2.0364932715892792e-01" purity="3.9131164550781250e-01" nType="-99"/>
          <Node pos="r" depth="2" NCoef="0" IVar="-1" Cut="0.0000000000000000e+00" cType="1" res="3.3313287422060966e-03" rms="2.0128834247589111e-01" purity="2.2998671233654022e-01" nType="-99"/>
        </Node>
        <Node pos="r" depth="1" NCoef="0" IVar="27" Cut="8.5684561729431152e-01" cType="1" res="5.6876376038417220e-04" rms="1.9356220960617065e-01" purity="5.8921551704406738e-01" nType="0">
          <Node pos="l" depth="2" NCoef="0" IVar="-1" Cut="0.0000000000000000e+00" cType="1" res="-5.7808537967503071e-03" rms="2.0647023618221283e-01" purity="2.8135174512863159e-01" nType="-99"/>
          <Node pos="r" depth="2" NCoef="0" IVar="-1" Cut="0.0000000000000000e+00" cType="1" res="3.2119511160999537e-03" rms="1.8865625560283661e-01" purity="7.0006114244461060e-01" nType="-99"/>
        </Node>
      </Node>
    </BinaryTree>
    <BinaryTree type="DecisionTree" boostWeight="1.0000000000000000e+00" itree="605">
      <Node pos="s" depth="0" NCoef="0" IVar="24" Cut="4.2939281463623047e-01" cType="1" res="1.1839472426800057e-04" rms="1.9542558491230011e-01" purity="5.0011378526687622e-01" nType="0">
        <Node pos="l" depth="1" NCoef="0" IVar="14" Cut="7.8839583396911621e+00" cType="1" res="7.8016379848122597e-03" rms="1.8568302690982819e-01" purity="1.4554969966411591e-01" nType="0">
          <Node pos="l" depth="2" NCoef="0" IVar="-1" Cut="0.0000000000000000e+00" cType="1" res="3.1128376722335815e-02" rms="1.9976282119750977e-01" purity="1.5056449174880981e-01" nType="-99"/>
          <Node pos="r" depth="2" NCoef="0" IVar="-1" Cut="0.0000000000000000e+00" cType="1" res="9.1312680160626769e-04" rms="1.7696073651313782e-01" purity="1.4276143908500671e-01" nType="-99"/>
        </Node>
        <Node pos="r" depth="1" NCoef="0" IVar="27" Cut="9.0481406450271606e-01" cType="1" res="-1.3174214400351048e-03" rms="1.9715966284275055e-01" purity="5.6637334823608398e-01" nType="0">
          <Node pos="l" depth="2" NCoef="0" IVar="-1" Cut="0.0000000000000000e+00" cType="1" res="-6.1201862990856171e-03" rms="2.0813155174255371e-01" purity="3.0599555373191833e-01" nType="-99"/>
          <Node pos="r" depth="2" NCoef="0" IVar="-1" Cut="0.0000000000000000e+00" cType="1" res="1.1737730819731951e-03" rms="1.9107380509376526e-01" purity="7.0380067825317383e-01" nType="-99"/>
        </Node>
      </Node>
    </BinaryTree>
    <BinaryTree type="DecisionTree" boostWeight="1.0000000000000000e+00" itree="606">
      <Node pos="s" depth="0" NCoef="0" IVar="34" Cut="2.3808674812316895e+00" cType="1" res="-7.4247265001758933e-04" rms="1.9322539865970612e-01" purity="5.0277239084243774e-01" nType="0">
        <Node pos="l" depth="1" NCoef="0" IVar="6" Cut="4.5511636734008789e+00" cType="1" res="1.2708915164694190e-03" rms="1.9606688618659973e-01" purity="6.1866682767868042e-01" nType="0">
          <Node pos="l" depth="2" NCoef="0" IVar="-1" Cut="0.0000000000000000e+00" cType="1" res="1.4271443709731102e-02" rms="2.1025550365447998e-01" purity="6.3639336824417114e-01" nType="-99"/>
          <Node pos="r" depth="2" NCoef="0" IVar="-1" Cut="0.0000000000000000e+00" cType="1" res="-9.4355887267738581e-04" rms="1.9349429011344910e-01" purity="6.1567854881286621e-01" nType="-99"/>
        </Node>
        <Node pos="r" depth="1" NCoef="0" IVar="3" Cut="2.3965129852294922e+00" cType="1" res="-4.3496931903064251e-03" rms="1.8797320127487183e-01" purity="2.9513150453567505e-01" nType="0">
          <Node pos="l" depth="2" NCoef="0" IVar="-1" Cut="0.0000000000000000e+00" cType="1" res="-7.2136758826673031e-03" rms="2.3316496610641479e-01" purity="5.0534665584564209e-01" nType="-99"/>
          <Node pos="r" depth="2" NCoef="0" IVar="-1" Cut="0.0000000000000000e+00" cType="1" res="7.4439530726522207e-04" rms="1.2529550492763519e-01" purity="7.8719936311244965e-02" nType="-99"/>
        </Node>
      </Node>
    </BinaryTree>
    <BinaryTree type="DecisionTree" boostWeight="1.0000000000000000e+00" itree="607">
      <Node pos="s" depth="0" NCoef="0" IVar="15" Cut="5.2513842582702637e+00" cType="1" res="1.0442213533679023e-04" rms="1.9629751145839691e-01" purity="4.9549436569213867e-01" nType="0">
        <Node pos="l" depth="1" NCoef="0" IVar="-1" Cut="0.0000000000000000e+00" cType="1" res="1.8621060997247696e-02" rms="2.1256773173809052e-01" purity="5.9648948907852173e-01" nType="-99"/>
        <Node pos="r" depth="1" NCoef="0" IVar="12" Cut="6.7174797058105469e+00" cType="1" res="-4.3310809996910393e-04" rms="1.9578535854816437e-01" purity="4.9260330200195312e-01" nType="0">
          <Node pos="l" depth="2" NCoef="0" IVar="-1" Cut="0.0000000000000000e+00" cType="1" res="-8.2561010494828224e-03" rms="1.9582496583461761e-01" purity="3.0028006434440613e-01" nType="-99"/>
          <Node pos="r" depth="2" NCoef="0" IVar="-1" Cut="0.0000000000000000e+00" cType="1" res="1.0792512912303209e-03" rms="1.9574886560440063e-01" purity="5.2852368354797363e-01" nType="-99"/>
        </Node>
      </Node>
    </BinaryTree>
    <BinaryTree type="DecisionTree" boostWeight="1.0000000000000000e+00" itree="608">
      <Node pos="s" depth="0" NCoef="0" IVar="10" Cut="7.4542098045349121e+00" cType="1" res="3.0366310966201127e-04" rms="1.9736422598361969e-01" purity="5.0234848260879517e-01" nType="0">
        <Node pos="l" depth="1" NCoef="0" IVar="15" Cut="7.5949330329895020e+00" cType="1" res="2.3927965667098761e-03" rms="1.9535176455974579e-01" purity="5.2429711818695068e-01" nType="0">
          <Node pos="l" depth="2" NCoef="0" IVar="-1" Cut="0.0000000000000000e+00" cType="1" res="3.5792493727058172e-03" rms="1.9638909399509430e-01" purity="5.2459830045700073e-01" nType="-99"/>
          <Node pos="r" depth="2" NCoef="0" IVar="-1" Cut="0.0000000000000000e+00" cType="1" res="-2.1462665870785713e-02" rms="1.6788388788700104e-01" purity="5.1709771156311035e-01" nType="-99"/>
        </Node>
        <Node pos="r" depth="1" NCoef="0" IVar="19" Cut="1.0717399597167969e+01" cType="1" res="-4.9031088128685951e-03" rms="2.0219884812831879e-01" purity="4.4764584302902222e-01" nType="0">
          <Node pos="l" depth="2" NCoef="0" IVar="-1" Cut="0.0000000000000000e+00" cType="1" res="2.9886343982070684e-03" rms="1.9901354610919952e-01" purity="3.9467692375183105e-01" nType="-99"/>
          <Node pos="r" depth="2" NCoef="0" IVar="-1" Cut="0.0000000000000000e+00" cType="1" res="-1.4498146250844002e-02" rms="2.0550565421581268e-01" purity="5.0899785757064819e-01" nType="-99"/>
        </Node>
      </Node>
    </BinaryTree>
    <BinaryTree type="DecisionTree" boostWeight="1.0000000000000000e+00" itree="609">
      <Node pos="s" depth="0" NCoef="0" IVar="16" Cut="3.2941326498985291e-01" cType="1" res="-1.0989575457642786e-05" rms="1.9674393534660339e-01" purity="4.9838316440582275e-01" nType="0">
        <Node pos="l" depth="1" NCoef="0" IVar="16" Cut="2.7081394195556641e-01" cType="1" res="-3.6630216054618359e-03" rms="2.1282613277435303e-01" purity="2.4955074489116669e-01" nType="0">
          <Node pos="l" depth="2" NCoef="0" IVar="-1" Cut="0.0000000000000000e+00" cType="1" res="-1.3998365029692650e-02" rms="2.0168553292751312e-01" purity="1.7280587553977966e-01" nType="-99"/>
          <Node pos="r" depth="2" NCoef="0" IVar="-1" Cut="0.0000000000000000e+00" cType="1" res="4.2644534260034561e-03" rms="2.2311195731163025e-01" purity="3.2638466358184814e-01" nType="-99"/>
        </Node>
        <Node pos="r" depth="1" NCoef="0" IVar="6" Cut="4.4235172271728516e+00" cType="1" res="1.5959164593368769e-03" rms="1.8921288847923279e-01" purity="6.0787022113800049e-01" nType="0">
          <Node pos="l" depth="2" NCoef="0" IVar="-1" Cut="0.0000000000000000e+00" cType="1" res="-8.8195204734802246e-03" rms="2.0156849920749664e-01" purity="3.6484098434448242e-01" nType="-99"/>
          <Node pos="r" depth="2" NCoef="0" IVar="-1" Cut="0.0000000000000000e+00" cType="1" res="4.6872547827661037e-03" rms="1.8574605882167816e-01" purity="6.7210364341735840e-01" nType="-99"/>
        </Node>
      </Node>
    </BinaryTree>
    <BinaryTree type="DecisionTree" boostWeight="1.0000000000000000e+00" itree="610">
      <Node pos="s" depth="0" NCoef="0" IVar="27" Cut="1.9244739413261414e-01" cType="1" res="5.4947595344856381e-04" rms="1.9582790136337280e-01" purity="4.9977472424507141e-01" nType="0">
        <Node pos="l" depth="1" NCoef="0" IVar="-1" Cut="0.0000000000000000e+00" cType="1" res="-1.6749355942010880e-02" rms="1.6682957112789154e-01" purity="1.3803036510944366e-01" nType="-99"/>
        <Node pos="r" depth="1" NCoef="0" IVar="26" Cut="3.7874320149421692e-01" cType="1" res="1.0894681327044964e-03" rms="1.9707284867763519e-01" purity="5.1682305335998535e-01" nType="0">
          <Node pos="l" depth="2" NCoef="0" IVar="-1" Cut="0.0000000000000000e+00" cType="1" res="6.6447589779272676e-04" rms="1.9669991731643677e-01" purity="5.2642500400543213e-01" nType="-99"/>
          <Node pos="r" depth="2" NCoef="0" IVar="-1" Cut="0.0000000000000000e+00" cType="1" res="1.5480224974453449e-02" rms="2.0526330173015594e-01" purity="2.9132464528083801e-01" nType="-99"/>
        </Node>
      </Node>
    </BinaryTree>
    <BinaryTree type="DecisionTree" boostWeight="1.0000000000000000e+00" itree="611">
      <Node pos="s" depth="0" NCoef="0" IVar="23" Cut="4.2980685830116272e-01" cType="1" res="-5.3983728867024183e-04" rms="1.9729390740394592e-01" purity="4.9784055352210999e-01" nType="0">
        <Node pos="l" depth="1" NCoef="0" IVar="12" Cut="7.1160478591918945e+00" cType="1" res="4.3106954544782639e-03" rms="1.8418876826763153e-01" purity="8.8980861008167267e-02" nType="0">
          <Node pos="l" depth="2" NCoef="0" IVar="-1" Cut="0.0000000000000000e+00" cType="1" res="1.7518457025289536e-02" rms="1.9842603802680969e-01" purity="1.0584496706724167e-01" nType="-99"/>
          <Node pos="r" depth="2" NCoef="0" IVar="-1" Cut="0.0000000000000000e+00" cType="1" res="-3.3849088940769434e-03" rms="1.7074029147624969e-01" purity="7.4506834149360657e-02" nType="-99"/>
        </Node>
        <Node pos="r" depth="1" NCoef="0" IVar="23" Cut="9.7279059886932373e-01" cType="1" res="-1.7469816375523806e-03" rms="2.0040398836135864e-01" purity="5.9959280490875244e-01" nType="0">
          <Node pos="l" depth="2" NCoef="0" IVar="-1" Cut="0.0000000000000000e+00" cType="1" res="-3.4915106371045113e-03" rms="2.2998963296413422e-01" purity="4.1959267854690552e-01" nType="-99"/>
          <Node pos="r" depth="2" NCoef="0" IVar="-1" Cut="0.0000000000000000e+00" cType="1" res="6.9200140424072742e-03" rms="1.2508192658424377e-01" purity="9.4573295116424561e-01" nType="-99"/>
        </Node>
      </Node>
    </BinaryTree>
    <BinaryTree type="DecisionTree" boostWeight="1.0000000000000000e+00" itree="612">
      <Node pos="s" depth="0" NCoef="0" IVar="34" Cut="1.9845370054244995e+00" cType="1" res="-1.2104111956432462e-03" rms="1.9385655224323273e-01" purity="4.9780136346817017e-01" nType="0">
        <Node pos="l" depth="1" NCoef="0" IVar="6" Cut="4.9280672073364258e+00" cType="1" res="9.4409479061141610e-04" rms="1.9194249808788300e-01" purity="6.2399166822433472e-01" nType="0">
          <Node pos="l" depth="2" NCoef="0" IVar="-1" Cut="0.0000000000000000e+00" cType="1" res="9.0950373560190201e-03" rms="2.0069034397602081e-01" purity="6.9502031803131104e-01" nType="-99"/>
          <Node pos="r" depth="2" NCoef="0" IVar="-1" Cut="0.0000000000000000e+00" cType="1" res="-1.4839376090094447e-03" rms="1.8907459080219269e-01" purity="6.0182094573974609e-01" nType="-99"/>
        </Node>
        <Node pos="r" depth="1" NCoef="0" IVar="11" Cut="7.6513557434082031e+00" cType="1" res="-4.1638249531388283e-03" rms="1.9641165435314178e-01" purity="3.2481867074966431e-01" nType="0">
          <Node pos="l" depth="2" NCoef="0" IVar="-1" Cut="0.0000000000000000e+00" cType="1" res="-7.3733124881982803e-03" rms="1.9756704568862915e-01" purity="3.2847687602043152e-01" nType="-99"/>
          <Node pos="r" depth="2" NCoef="0" IVar="-1" Cut="0.0000000000000000e+00" cType="1" res="1.5443501994013786e-02" rms="1.8606118857860565e-01" purity="2.9518124461174011e-01" nType="-99"/>
        </Node>
      </Node>
    </BinaryTree>
    <BinaryTree type="DecisionTree" boostWeight="1.0000000000000000e+00" itree="613">
      <Node pos="s" depth="0" NCoef="0" IVar="17" Cut="1.1174528121948242e+01" cType="1" res="2.2364568430930376e-03" rms="1.9644433259963989e-01" purity="4.9937391281127930e-01" nType="0">
        <Node pos="l" depth="1" NCoef="0" IVar="3" Cut="2.1544208526611328e+00" cType="1" res="7.0452494546771049e-03" rms="1.9748669862747192e-01" purity="2.0923736691474915e-01" nType="0">
          <Node pos="l" depth="2" NCoef="0" IVar="-1" Cut="0.0000000000000000e+00" cType="1" res="1.1144828982651234e-02" rms="2.5729945302009583e-01" purity="4.2690065503120422e-01" nType="-99"/>
          <Node pos="r" depth="2" NCoef="0" IVar="-1" Cut="0.0000000000000000e+00" cType="1" res="4.3254005722701550e-03" rms="1.4322662353515625e-01" purity="6.1899647116661072e-02" nType="-99"/>
        </Node>
        <Node pos="r" depth="1" NCoef="0" IVar="11" Cut="6.6832709312438965e+00" cType="1" res="3.7828920176252723e-04" rms="1.9600845873355865e-01" purity="6.1148571968078613e-01" nType="0">
          <Node pos="l" depth="2" NCoef="0" IVar="-1" Cut="0.0000000000000000e+00" cType="1" res="-4.4505097903311253e-03" rms="1.9630302488803864e-01" purity="6.1685186624526978e-01" nType="-99"/>
          <Node pos="r" depth="2" NCoef="0" IVar="-1" Cut="0.0000000000000000e+00" cType="1" res="4.2680632323026657e-03" rms="1.9571042060852051e-01" purity="6.0727059841156006e-01" nType="-99"/>
        </Node>
      </Node>
    </BinaryTree>
    <BinaryTree type="DecisionTree" boostWeight="1.0000000000000000e+00" itree="614">
      <Node pos="s" depth="0" NCoef="0" IVar="33" Cut="1.7142958939075470e-01" cType="1" res="5.1770947175100446e-04" rms="1.9738827645778656e-01" purity="4.9810975790023804e-01" nType="0">
        <Node pos="l" depth="1" NCoef="0" IVar="20" Cut="-8.0601429939270020e-01" cType="1" res="1.3791684759780765e-03" rms="1.9868882000446320e-01" purity="5.2529561519622803e-01" nType="0">
          <Node pos="l" depth="2" NCoef="0" IVar="-1" Cut="0.0000000000000000e+00" cType="1" res="-4.8283702926710248e-04" rms="1.9228845834732056e-01" purity="5.7991683483123779e-01" nType="-99"/>
          <Node pos="r" depth="2" NCoef="0" IVar="-1" Cut="0.0000000000000000e+00" cType="1" res="7.1394178085029125e-03" rms="2.1640324592590332e-01" purity="3.6397823691368103e-01" nType="-99"/>
        </Node>
        <Node pos="r" depth="1" NCoef="0" IVar="6" Cut="4.7606739997863770e+00" cType="1" res="-7.0325382985174656e-03" rms="1.8542897701263428e-01" purity="2.5983980298042297e-01" nType="0">
          <Node pos="l" depth="2" NCoef="0" IVar="-1" Cut="0.0000000000000000e+00" cType="1" res="-2.8793739154934883e-02" rms="1.6666017472743988e-01" purity="1.7322771251201630e-01" nType="-99"/>
          <Node pos="r" depth="2" NCoef="0" IVar="-1" Cut="0.0000000000000000e+00" cType="1" res="-2.2527684632223099e-04" rms="1.9404979050159454e-01" purity="3.0451703071594238e-01" nType="-99"/>
        </Node>
      </Node>
    </BinaryTree>
    <BinaryTree type="DecisionTree" boostWeight="1.0000000000000000e+00" itree="615">
      <Node pos="s" depth="0" NCoef="0" IVar="25" Cut="9.2252239584922791e-02" cType="1" res="-7.0944847539067268e-04" rms="1.9722983241081238e-01" purity="5.0216495990753174e-01" nType="0">
        <Node pos="l" depth="1" NCoef="0" IVar="32" Cut="1.1425813287496567e-01" cType="1" res="1.7110698390752077e-03" rms="1.9857811927795410e-01" purity="6.4130413532257080e-01" nType="0">
          <Node pos="l" depth="2" NCoef="0" IVar="-1" Cut="0.0000000000000000e+00" cType="1" res="5.5812537902966142e-04" rms="1.9482205808162689e-01" purity="6.7267656326293945e-01" nType="-99"/>
          <Node pos="r" depth="2" NCoef="0" IVar="-1" Cut="0.0000000000000000e+00" cType="1" res="1.2464817613363266e-02" rms="2.3016382753849030e-01" purity="3.5074272751808167e-01" nType="-99"/>
        </Node>
        <Node pos="r" depth="1" NCoef="0" IVar="17" Cut="9.6242856979370117e+00" cType="1" res="-5.3694411180913448e-03" rms="1.9452300667762756e-01" purity="2.3429344594478607e-01" nType="0">
          <Node pos="l" depth="2" NCoef="0" IVar="-1" Cut="0.0000000000000000e+00" cType="1" res="-1.7496106447651982e-03" rms="1.9148904085159302e-01" purity="1.8278983235359192e-01" nType="-99"/>
          <Node pos="r" depth="2" NCoef="0" IVar="-1" Cut="0.0000000000000000e+00" cType="1" res="-1.4154270291328430e-02" rms="1.9999279081821442e-01" purity="3.3329865336418152e-01" nType="-99"/>
        </Node>
      </Node>
    </BinaryTree>
    <BinaryTree type="DecisionTree" boostWeight="1.0000000000000000e+00" itree="616">
      <Node pos="s" depth="0" NCoef="0" IVar="30" Cut="1.9047687947750092e-01" cType="1" res="7.2012648161035031e-05" rms="1.9581139087677002e-01" purity="4.9937316775321960e-01" nType="0">
        <Node pos="l" depth="1" NCoef="0" IVar="26" Cut="4.7566037625074387e-02" cType="1" res="-8.1863044761121273e-04" rms="1.9498966634273529e-01" purity="5.1991844177246094e-01" nType="0">
          <Node pos="l" depth="2" NCoef="0" IVar="-1" Cut="0.0000000000000000e+00" cType="1" res="-2.6762478519231081e-03" rms="1.9339790940284729e-01" purity="5.8432984352111816e-01" nType="-99"/>
          <Node pos="r" depth="2" NCoef="0" IVar="-1" Cut="0.0000000000000000e+00" cType="1" res="5.0949794240295887e-03" rms="2.0050923526287079e-01" purity="2.8896772861480713e-01" nType="-99"/>
        </Node>
        <Node pos="r" depth="1" NCoef="0" IVar="3" Cut="1.9157452583312988e+00" cType="1" res="1.1778583750128746e-02" rms="2.0595030486583710e-01" purity="2.2932668030261993e-01" nType="0">
          <Node pos="l" depth="2" NCoef="0" IVar="-1" Cut="0.0000000000000000e+00" cType="1" res="2.1245913580060005e-02" rms="2.7436795830726624e-01" purity="4.6593859791755676e-01" nType="-99"/>
          <Node pos="r" depth="2" NCoef="0" IVar="-1" Cut="0.0000000000000000e+00" cType="1" res="9.4262044876813889e-04" rms="1.5242898464202881e-01" purity="9.3743659555912018e-02" nType="-99"/>
        </Node>
      </Node>
    </BinaryTree>
    <BinaryTree type="DecisionTree" boostWeight="1.0000000000000000e+00" itree="617">
      <Node pos="s" depth="0" NCoef="0" IVar="6" Cut="6.6865630149841309e+00" cType="1" res="-1.4065592549741268e-03" rms="1.9668038189411163e-01" purity="4.9926206469535828e-01" nType="0">
        <Node pos="l" depth="1" NCoef="0" IVar="0" Cut="7.0623168945312500e+00" cType="1" res="-2.7740257792174816e-03" rms="1.9897209107875824e-01" purity="5.1848286390304565e-01" nType="0">
          <Node pos="l" depth="2" NCoef="0" IVar="-1" Cut="0.0000000000000000e+00" cType="1" res="3.6215764703229070e-04" rms="2.0103223621845245e-01" purity="4.9396419525146484e-01" nType="-99"/>
          <Node pos="r" depth="2" NCoef="0" IVar="-1" Cut="0.0000000000000000e+00" cType="1" res="-8.9108664542436600e-03" rms="1.9543440639972687e-01" purity="5.5876469612121582e-01" nType="-99"/>
        </Node>
        <Node pos="r" depth="1" NCoef="0" IVar="34" Cut="3.1726388931274414e+00" cType="1" res="4.5800395309925079e-03" rms="1.8619789183139801e-01" purity="4.1511556506156921e-01" nType="0">
          <Node pos="l" depth="2" NCoef="0" IVar="-1" Cut="0.0000000000000000e+00" cType="1" res="1.4374777674674988e-03" rms="1.8524114787578583e-01" purity="4.4840878248214722e-01" nType="-99"/>
          <Node pos="r" depth="2" NCoef="0" IVar="-1" Cut="0.0000000000000000e+00" cType="1" res="2.9267886653542519e-02" rms="1.8981944024562836e-01" purity="2.5688734650611877e-01" nType="-99"/>
        </Node>
      </Node>
    </BinaryTree>
    <BinaryTree type="DecisionTree" boostWeight="1.0000000000000000e+00" itree="618">
      <Node pos="s" depth="0" NCoef="0" IVar="14" Cut="7.0534777641296387e+00" cType="1" res="-7.7906210208311677e-04" rms="1.9558580219745636e-01" purity="5.0084549188613892e-01" nType="0">
        <Node pos="l" depth="1" NCoef="0" IVar="-1" Cut="0.0000000000000000e+00" cType="1" res="1.7080435529351234e-02" rms="2.0443989336490631e-01" purity="3.6228957772254944e-01" nType="-99"/>
        <Node pos="r" depth="1" NCoef="0" IVar="17" Cut="6.7278861999511719e+00" cType="1" res="-1.1972165666520596e-03" rms="1.9532243907451630e-01" purity="5.0461471080780029e-01" nType="0">
          <Node pos="l" depth="2" NCoef="0" IVar="-1" Cut="0.0000000000000000e+00" cType="1" res="5.7960432022809982e-03" rms="1.8269349634647369e-01" purity="1.5714187920093536e-01" nType="-99"/>
          <Node pos="r" depth="2" NCoef="0" IVar="-1" Cut="0.0000000000000000e+00" cType="1" res="-2.4504936300218105e-03" rms="1.9751562178134918e-01" purity="5.6775474548339844e-01" nType="-99"/>
        </Node>
      </Node>
    </BinaryTree>
    <BinaryTree type="DecisionTree" boostWeight="1.0000000000000000e+00" itree="619">
      <Node pos="s" depth="0" NCoef="0" IVar="16" Cut="2.9496631026268005e-01" cType="1" res="-5.5986220104387030e-05" rms="1.9498629868030548e-01" purity="5.0008010864257812e-01" nType="0">
        <Node pos="l" depth="1" NCoef="0" IVar="16" Cut="2.7494087815284729e-01" cType="1" res="4.7610988840460777e-03" rms="2.0413024723529816e-01" purity="2.3565779626369476e-01" nType="0">
          <Node pos="l" depth="2" NCoef="0" IVar="-1" Cut="0.0000000000000000e+00" cType="1" res="-3.6724198143929243e-03" rms="2.0588548481464386e-01" purity="1.8921533226966858e-01" nType="-99"/>
          <Node pos="r" depth="2" NCoef="0" IVar="-1" Cut="0.0000000000000000e+00" cType="1" res="4.0046472102403641e-02" rms="1.9267316162586212e-01" purity="4.3579882383346558e-01" nType="-99"/>
        </Node>
        <Node pos="r" depth="1" NCoef="0" IVar="30" Cut="1.7139585316181183e-01" cType="1" res="-1.2415300589054823e-03" rms="1.9265085458755493e-01" purity="5.6515765190124512e-01" nType="0">
          <Node pos="l" depth="2" NCoef="0" IVar="-1" Cut="0.0000000000000000e+00" cType="1" res="-2.0054384367540479e-04" rms="1.9245719909667969e-01" purity="5.9173017740249634e-01" nType="-99"/>
          <Node pos="r" depth="2" NCoef="0" IVar="-1" Cut="0.0000000000000000e+00" cType="1" res="-1.5483186580240726e-02" rms="1.9448281824588776e-01" purity="2.4945327639579773e-01" nType="-99"/>
        </Node>
      </Node>
    </BinaryTree>
    <BinaryTree type="DecisionTree" boostWeight="1.0000000000000000e+00" itree="620">
      <Node pos="s" depth="0" NCoef="0" IVar="12" Cut="6.3189110755920410e+00" cType="1" res="1.5145551878958941e-04" rms="1.9691494107246399e-01" purity="5.0285696983337402e-01" nType="0">
        <Node pos="l" depth="1" NCoef="0" IVar="-1" Cut="0.0000000000000000e+00" cType="1" res="-1.4690298587083817e-02" rms="1.9027806818485260e-01" purity="2.6702511310577393e-01" nType="-99"/>
        <Node pos="r" depth="1" NCoef="0" IVar="1" Cut="1.7500480651855469e+01" cType="1" res="7.5783178908750415e-04" rms="1.9720323383808136e-01" purity="5.1403027772903442e-01" nType="0">
          <Node pos="l" depth="2" NCoef="0" IVar="-1" Cut="0.0000000000000000e+00" cType="1" res="1.9999139476567507e-03" rms="2.0037351548671722e-01" purity="5.2606654167175293e-01" nType="-99"/>
          <Node pos="r" depth="2" NCoef="0" IVar="-1" Cut="0.0000000000000000e+00" cType="1" res="-8.2052145153284073e-03" rms="1.7295785248279572e-01" purity="4.2884272336959839e-01" nType="-99"/>
        </Node>
      </Node>
    </BinaryTree>
    <BinaryTree type="DecisionTree" boostWeight="1.0000000000000000e+00" itree="621">
      <Node pos="s" depth="0" NCoef="0" IVar="30" Cut="9.5253020524978638e-02" cType="1" res="-4.9994318942481186e-06" rms="1.9449374079704285e-01" purity="5.0265431404113770e-01" nType="0">
        <Node pos="l" depth="1" NCoef="0" IVar="25" Cut="9.2549659311771393e-02" cType="1" res="1.4061259571462870e-03" rms="1.9421809911727905e-01" purity="5.5764865875244141e-01" nType="0">
          <Node pos="l" depth="2" NCoef="0" IVar="-1" Cut="0.0000000000000000e+00" cType="1" res="4.0448042564094067e-03" rms="1.9218002259731293e-01" purity="6.8223476409912109e-01" nType="-99"/>
          <Node pos="r" depth="2" NCoef="0" IVar="-1" Cut="0.0000000000000000e+00" cType="1" res="-3.4991970751434565e-03" rms="1.9858601689338684e-01" purity="2.8168648481369019e-01" nType="-99"/>
        </Node>
        <Node pos="r" depth="1" NCoef="0" IVar="22" Cut="1.6311355590820312e+01" cType="1" res="-6.9080595858395100e-03" rms="1.9568993151187897e-01" purity="2.3362852632999420e-01" nType="0">
          <Node pos="l" depth="2" NCoef="0" IVar="-1" Cut="0.0000000000000000e+00" cType="1" res="-3.2106130383908749e-03" rms="1.9185811281204224e-01" purity="1.8618133664131165e-01" nType="-99"/>
          <Node pos="r" depth="2" NCoef="0" IVar="-1" Cut="0.0000000000000000e+00" cType="1" res="-2.0494835451245308e-02" rms="2.0572504401206970e-01" purity="3.6868083477020264e-01" nType="-99"/>
        </Node>
      </Node>
    </BinaryTree>
    <BinaryTree type="DecisionTree" boostWeight="1.0000000000000000e+00" itree="622">
      <Node pos="s" depth="0" NCoef="0" IVar="3" Cut="3.0979743003845215e+00" cType="1" res="2.2110075224190950e-03" rms="1.9484476745128632e-01" purity="5.0328707695007324e-01" nType="0">
        <Node pos="l" depth="1" NCoef="0" IVar="21" Cut="1.8801687240600586e+01" cType="1" res="3.4674594644457102e-03" rms="2.1910709142684937e-01" purity="6.3677662611007690e-01" nType="0">
          <Node pos="l" depth="2" NCoef="0" IVar="-1" Cut="0.0000000000000000e+00" cType="1" res="4.9180751666426659e-03" rms="2.3907920718193054e-01" purity="5.1823270320892334e-01" nType="-99"/>
          <Node pos="r" depth="2" NCoef="0" IVar="-1" Cut="0.0000000000000000e+00" cType="1" res="-7.1503553772345185e-04" rms="1.8408410251140594e-01" purity="8.1935560703277588e-01" nType="-99"/>
        </Node>
        <Node pos="r" depth="1" NCoef="0" IVar="17" Cut="2.1142467498779297e+01" cType="1" res="-2.5261144619435072e-03" rms="8.3644026890397072e-03" purity="0.0000000000000000e+00" nType="0">
          <Node pos="l" depth="2" NCoef="0" IVar="-1" Cut="0.0000000000000000e+00" cType="1" res="-5.0857704132795334e-02" rms="5.1509477198123932e-03" purity="0.0000000000000000e+00" nType="-99"/>
          <Node pos="r" depth="2" NCoef="0" IVar="-1" Cut="0.0000000000000000e+00" cType="1" res="-5.2413694560527802e-02" rms="1.4646130613982677e-02" purity="0.0000000000000000e+00" nType="-99"/>
        </Node>
      </Node>
    </BinaryTree>
    <BinaryTree type="DecisionTree" boostWeight="1.0000000000000000e+00" itree="623">
      <Node pos="s" depth="0" NCoef="0" IVar="10" Cut="7.4465732574462891e+00" cType="1" res="-7.2300032479688525e-04" rms="1.9543303549289703e-01" purity="4.9971434473991394e-01" nType="0">
        <Node pos="l" depth="1" NCoef="0" IVar="12" Cut="7.4383978843688965e+00" cType="1" res="1.0095931356772780e-03" rms="1.9505026936531067e-01" purity="5.2059310674667358e-01" nType="0">
          <Node pos="l" depth="2" NCoef="0" IVar="-1" Cut="0.0000000000000000e+00" cType="1" res="3.6101029254496098e-03" rms="2.0358556509017944e-01" purity="4.5365941524505615e-01" nType="-99"/>
          <Node pos="r" depth="2" NCoef="0" IVar="-1" Cut="0.0000000000000000e+00" cType="1" res="-4.2919144034385681e-03" rms="1.7761278152465820e-01" purity="6.4789301156997681e-01" nType="-99"/>
        </Node>
        <Node pos="r" depth="1" NCoef="0" IVar="19" Cut="8.1315021514892578e+00" cType="1" res="-4.9310708418488503e-03" rms="1.9629591703414917e-01" purity="4.4900465011596680e-01" nType="0">
          <Node pos="l" depth="2" NCoef="0" IVar="-1" Cut="0.0000000000000000e+00" cType="1" res="4.4909324496984482e-03" rms="1.9673655927181244e-01" purity="4.0957498550415039e-01" nType="-99"/>
          <Node pos="r" depth="2" NCoef="0" IVar="-1" Cut="0.0000000000000000e+00" cType="1" res="-1.4407779090106487e-02" rms="1.9548609852790833e-01" purity="4.8805719614028931e-01" nType="-99"/>
        </Node>
      </Node>
    </BinaryTree>
    <BinaryTree type="DecisionTree" boostWeight="1.0000000000000000e+00" itree="624">
      <Node pos="s" depth="0" NCoef="0" IVar="2" Cut="1.0585239410400391e+01" cType="1" res="3.8935069460421801e-04" rms="1.9765922427177429e-01" purity="5.0099110603332520e-01" nType="0">
        <Node pos="l" depth="1" NCoef="0" IVar="2" Cut="3.7059226036071777e+00" cType="1" res="1.9282512366771698e-03" rms="1.9877877831459045e-01" purity="5.3486430644989014e-01" nType="0">
          <Node pos="l" depth="2" NCoef="0" IVar="-1" Cut="0.0000000000000000e+00" cType="1" res="-5.6807785294950008e-03" rms="1.9991551339626312e-01" purity="4.3388655781745911e-01" nType="-99"/>
          <Node pos="r" depth="2" NCoef="0" IVar="-1" Cut="0.0000000000000000e+00" cType="1" res="4.2703785002231598e-03" rms="1.9843575358390808e-01" purity="5.6190985441207886e-01" nType="-99"/>
        </Node>
        <Node pos="r" depth="1" NCoef="0" IVar="6" Cut="6.5940899848937988e+00" cType="1" res="-4.8633846454322338e-03" rms="1.9369708001613617e-01" purity="3.8537171483039856e-01" nType="0">
          <Node pos="l" depth="2" NCoef="0" IVar="-1" Cut="0.0000000000000000e+00" cType="1" res="-1.2023552320897579e-02" rms="2.1086838841438293e-01" purity="4.3655395507812500e-01" nType="-99"/>
          <Node pos="r" depth="2" NCoef="0" IVar="-1" Cut="0.0000000000000000e+00" cType="1" res="-3.4960336051881313e-05" rms="1.7953430116176605e-01" purity="3.4682768583297729e-01" nType="-99"/>
        </Node>
      </Node>
    </BinaryTree>
    <BinaryTree type="DecisionTree" boostWeight="1.0000000000000000e+00" itree="625">
      <Node pos="s" depth="0" NCoef="0" IVar="34" Cut="4.7619152069091797e+00" cType="1" res="4.5794868492521346e-04" rms="1.9573713839054108e-01" purity="4.9849438667297363e-01" nType="0">
        <Node pos="l" depth="1" NCoef="0" IVar="19" Cut="1.8297010660171509e+00" cType="1" res="1.8921840237453580e-03" rms="1.9891262054443359e-01" purity="5.5454045534133911e-01" nType="0">
          <Node pos="l" depth="2" NCoef="0" IVar="-1" Cut="0.0000000000000000e+00" cType="1" res="1.1225091293454170e-02" rms="2.0780028402805328e-01" purity="4.2206859588623047e-01" nType="-99"/>
          <Node pos="r" depth="2" NCoef="0" IVar="-1" Cut="0.0000000000000000e+00" cType="1" res="2.7598420274443924e-04" rms="1.9688563048839569e-01" purity="5.8338660001754761e-01" nType="-99"/>
        </Node>
        <Node pos="r" depth="1" NCoef="0" IVar="3" Cut="1.7020382881164551e+00" cType="1" res="-8.7064895778894424e-03" rms="1.7380505800247192e-01" purity="1.4037266373634338e-01" nType="0">
          <Node pos="l" depth="2" NCoef="0" IVar="-1" Cut="0.0000000000000000e+00" cType="1" res="-2.3278180509805679e-02" rms="2.5328233838081360e-01" purity="3.2916864752769470e-01" nType="-99"/>
          <Node pos="r" depth="2" NCoef="0" IVar="-1" Cut="0.0000000000000000e+00" cType="1" res="-2.9862141236662865e-03" rms="1.3851605355739594e-01" purity="8.0321468412876129e-02" nType="-99"/>
        </Node>
      </Node>
    </BinaryTree>
    <BinaryTree type="DecisionTree" boostWeight="1.0000000000000000e+00" itree="626">
      <Node pos="s" depth="0" NCoef="0" IVar="25" Cut="1.8509733676910400e-01" cType="1" res="6.1785720754414797e-04" rms="1.9497522711753845e-01" purity="5.0482374429702759e-01" nType="0">
        <Node pos="l" depth="1" NCoef="0" IVar="16" Cut="6.4245599508285522e-01" cType="1" res="1.8587943632155657e-03" rms="1.9787591695785522e-01" purity="6.0226845741271973e-01" nType="0">
          <Node pos="l" depth="2" NCoef="0" IVar="-1" Cut="0.0000000000000000e+00" cType="1" res="9.7735633607953787e-04" rms="2.0063188672065735e-01" purity="5.8808916807174683e-01" nType="-99"/>
          <Node pos="r" depth="2" NCoef="0" IVar="-1" Cut="0.0000000000000000e+00" cType="1" res="2.1155161783099174e-02" rms="1.5980224311351776e-01" purity="7.7607357501983643e-01" nType="-99"/>
        </Node>
        <Node pos="r" depth="1" NCoef="0" IVar="17" Cut="5.6919002532958984e+00" cType="1" res="-3.2525698188692331e-03" rms="1.8558391928672791e-01" purity="2.0089833438396454e-01" nType="0">
          <Node pos="l" depth="2" NCoef="0" IVar="-1" Cut="0.0000000000000000e+00" cType="1" res="3.5798654425889254e-03" rms="1.7703990638256073e-01" purity="1.3343447446823120e-01" nType="-99"/>
          <Node pos="r" depth="2" NCoef="0" IVar="-1" Cut="0.0000000000000000e+00" cType="1" res="-1.0493711568415165e-02" rms="1.9358697533607483e-01" purity="2.6828083395957947e-01" nType="-99"/>
        </Node>
      </Node>
    </BinaryTree>
    <BinaryTree type="DecisionTree" boostWeight="1.0000000000000000e+00" itree="627">
      <Node pos="s" depth="0" NCoef="0" IVar="23" Cut="7.6213532686233521e-01" cType="1" res="-5.2138359751552343e-04" rms="1.9794698059558868e-01" purity="5.0068706274032593e-01" nType="0">
        <Node pos="l" depth="1" NCoef="0" IVar="6" Cut="5.2331809997558594e+00" cType="1" res="2.2011108230799437e-03" rms="2.0722828805446625e-01" purity="1.5643414855003357e-01" nType="0">
          <Node pos="l" depth="2" NCoef="0" IVar="-1" Cut="0.0000000000000000e+00" cType="1" res="7.8663285821676254e-03" rms="2.1462662518024445e-01" purity="1.6539266705513000e-01" nType="-99"/>
          <Node pos="r" depth="2" NCoef="0" IVar="-1" Cut="0.0000000000000000e+00" cType="1" res="-1.7454129410907626e-03" rms="2.0153801143169403e-01" purity="1.4986073970794678e-01" nType="-99"/>
        </Node>
        <Node pos="r" depth="1" NCoef="0" IVar="23" Cut="9.8862230777740479e-01" cType="1" res="-2.7988087385892868e-03" rms="1.8980471789836884e-01" purity="7.8866201639175415e-01" nType="0">
          <Node pos="l" depth="2" NCoef="0" IVar="-1" Cut="0.0000000000000000e+00" cType="1" res="-6.1433813534677029e-03" rms="2.2264888882637024e-01" purity="6.8663448095321655e-01" nType="-99"/>
          <Node pos="r" depth="2" NCoef="0" IVar="-1" Cut="0.0000000000000000e+00" cType="1" res="1.0519322939217091e-02" rms="1.1170268058776855e-01" purity="9.6557873487472534e-01" nType="-99"/>
        </Node>
      </Node>
    </BinaryTree>
    <BinaryTree type="DecisionTree" boostWeight="1.0000000000000000e+00" itree="628">
      <Node pos="s" depth="0" NCoef="0" IVar="20" Cut="8.6612491607666016e+00" cType="1" res="-2.8992435545660555e-04" rms="1.9597487151622772e-01" purity="4.9828860163688660e-01" nType="0">
        <Node pos="l" depth="1" NCoef="0" IVar="20" Cut="1.3772478103637695e+00" cType="1" res="5.9313769452273846e-04" rms="1.9563807547092438e-01" purity="5.1651960611343384e-01" nType="0">
          <Node pos="l" depth="2" NCoef="0" IVar="-1" Cut="0.0000000000000000e+00" cType="1" res="2.1364374551922083e-03" rms="1.9563414156436920e-01" purity="5.4766345024108887e-01" nType="-99"/>
          <Node pos="r" depth="2" NCoef="0" IVar="-1" Cut="0.0000000000000000e+00" cType="1" res="-7.5635868124663830e-03" rms="1.9551116228103638e-01" purity="3.3424156904220581e-01" nType="-99"/>
        </Node>
        <Node pos="r" depth="1" NCoef="0" IVar="23" Cut="6.6783863306045532e-01" cType="1" res="-1.1663037352263927e-02" rms="1.9991362094879150e-01" purity="2.6348847150802612e-01" nType="0">
          <Node pos="l" depth="2" NCoef="0" IVar="-1" Cut="0.0000000000000000e+00" cType="1" res="4.8984983004629612e-03" rms="1.7417596280574799e-01" purity="6.6398344933986664e-02" nType="-99"/>
          <Node pos="r" depth="2" NCoef="0" IVar="-1" Cut="0.0000000000000000e+00" cType="1" res="-2.4193728342652321e-02" rms="2.2206230461597443e-01" purity="4.6403875946998596e-01" nType="-99"/>
        </Node>
      </Node>
    </BinaryTree>
    <BinaryTree type="DecisionTree" boostWeight="1.0000000000000000e+00" itree="629">
      <Node pos="s" depth="0" NCoef="0" IVar="23" Cut="6.1943858861923218e-01" cType="1" res="-1.3840870815329254e-04" rms="1.9740644097328186e-01" purity="4.9921408295631409e-01" nType="0">
        <Node pos="l" depth="1" NCoef="0" IVar="34" Cut="1.9847472906112671e+00" cType="1" res="-4.4223177246749401e-03" rms="1.8977989256381989e-01" purity="1.1344949156045914e-01" nType="0">
          <Node pos="l" depth="2" NCoef="0" IVar="-1" Cut="0.0000000000000000e+00" cType="1" res="-1.0325725190341473e-02" rms="2.0591089129447937e-01" purity="1.6244398057460785e-01" nType="-99"/>
          <Node pos="r" depth="2" NCoef="0" IVar="-1" Cut="0.0000000000000000e+00" cType="1" res="2.7237734757363796e-03" rms="1.7361977696418762e-01" purity="6.8962529301643372e-02" nType="-99"/>
        </Node>
        <Node pos="r" depth="1" NCoef="0" IVar="31" Cut="1.5229201316833496e-01" cType="1" res="2.0366453099995852e-03" rms="2.0113308727741241e-01" purity="6.9507700204849243e-01" nType="0">
          <Node pos="l" depth="2" NCoef="0" IVar="-1" Cut="0.0000000000000000e+00" cType="1" res="1.2507146457210183e-03" rms="1.9929589331150055e-01" purity="7.2042381763458252e-01" nType="-99"/>
          <Node pos="r" depth="2" NCoef="0" IVar="-1" Cut="0.0000000000000000e+00" cType="1" res="1.3373711146414280e-02" rms="2.2326977550983429e-01" purity="3.6557963490486145e-01" nType="-99"/>
        </Node>
      </Node>
    </BinaryTree>
    <BinaryTree type="DecisionTree" boostWeight="1.0000000000000000e+00" itree="630">
      <Node pos="s" depth="0" NCoef="0" IVar="3" Cut="7.2551512718200684e-01" cType="1" res="-6.2036066083237529e-04" rms="1.9812561571598053e-01" purity="4.9967426061630249e-01" nType="0">
        <Node pos="l" depth="1" NCoef="0" IVar="31" Cut="1.9067056477069855e-02" cType="1" res="7.8348042443394661e-03" rms="2.0419797301292419e-01" purity="7.5916504859924316e-01" nType="0">
          <Node pos="l" depth="2" NCoef="0" IVar="-1" Cut="0.0000000000000000e+00" cType="1" res="1.4608432538807392e-03" rms="1.8251974880695343e-01" purity="8.3813875913619995e-01" nType="-99"/>
          <Node pos="r" depth="2" NCoef="0" IVar="-1" Cut="0.0000000000000000e+00" cType="1" res="1.5913395211100578e-02" rms="2.4188867211341858e-01" purity="5.9821587800979614e-01" nType="-99"/>
        </Node>
        <Node pos="r" depth="1" NCoef="0" IVar="16" Cut="5.0990241765975952e-01" cType="1" res="-1.7701243050396442e-03" rms="1.9725744426250458e-01" purity="4.6438780426979065e-01" nType="0">
          <Node pos="l" depth="2" NCoef="0" IVar="-1" Cut="0.0000000000000000e+00" cType="1" res="-3.1106060487218201e-04" rms="1.9969601929187775e-01" purity="4.0825584530830383e-01" nType="-99"/>
          <Node pos="r" depth="2" NCoef="0" IVar="-1" Cut="0.0000000000000000e+00" cType="1" res="-8.1479866057634354e-03" rms="1.9033890962600708e-01" purity="6.1855334043502808e-01" nType="-99"/>
        </Node>
      </Node>
    </BinaryTree>
    <BinaryTree type="DecisionTree" boostWeight="1.0000000000000000e+00" itree="631">
      <Node pos="s" depth="0" NCoef="0" IVar="3" Cut="9.6063542366027832e-01" cType="1" res="-2.8257217491045594e-04" rms="1.9489689171314240e-01" purity="5.0086659193038940e-01" nType="0">
        <Node pos="l" depth="1" NCoef="0" IVar="17" Cut="9.5437431335449219e+00" cType="1" res="5.4414239712059498e-03" rms="2.0060694217681885e-01" purity="7.5290817022323608e-01" nType="0">
          <Node pos="l" depth="2" NCoef="0" IVar="-1" Cut="0.0000000000000000e+00" cType="1" res="1.6786236315965652e-02" rms="2.5102993845939636e-01" purity="4.9733558297157288e-01" nType="-99"/>
          <Node pos="r" depth="2" NCoef="0" IVar="-1" Cut="0.0000000000000000e+00" cType="1" res="2.9817603062838316e-03" rms="1.9118630886077881e-01" purity="7.9370361566543579e-01" nType="-99"/>
        </Node>
        <Node pos="r" depth="1" NCoef="0" IVar="22" Cut="1.9043680191040039e+01" cType="1" res="-1.6289211343973875e-03" rms="1.9350475072860718e-01" purity="4.4158354401588440e-01" nType="0">
          <Node pos="l" depth="2" NCoef="0" IVar="-1" Cut="0.0000000000000000e+00" cType="1" res="-3.5774284042418003e-03" rms="1.9713239371776581e-01" purity="3.4859019517898560e-01" nType="-99"/>
          <Node pos="r" depth="2" NCoef="0" IVar="-1" Cut="0.0000000000000000e+00" cType="1" res="2.8453697450459003e-03" rms="1.8353629112243652e-01" purity="6.8694311380386353e-01" nType="-99"/>
        </Node>
      </Node>
    </BinaryTree>
    <BinaryTree type="DecisionTree" boostWeight="1.0000000000000000e+00" itree="632">
      <Node pos="s" depth="0" NCoef="0" IVar="31" Cut="2.2846241295337677e-01" cType="1" res="1.1581009021028876e-03" rms="1.9743148982524872e-01" purity="5.0057137012481689e-01" nType="0">
        <Node pos="l" depth="1" NCoef="0" IVar="12" Cut="6.3151984214782715e+00" cType="1" res="1.8563522025942802e-03" rms="1.9894218444824219e-01" purity="5.1723027229309082e-01" nType="0">
          <Node pos="l" depth="2" NCoef="0" IVar="-1" Cut="0.0000000000000000e+00" cType="1" res="-9.1450316831469536e-03" rms="1.9434303045272827e-01" purity="2.8414031863212585e-01" nType="-99"/>
          <Node pos="r" depth="2" NCoef="0" IVar="-1" Cut="0.0000000000000000e+00" cType="1" res="2.6872337330132723e-03" rms="1.9913682341575623e-01" purity="5.2786749601364136e-01" nType="-99"/>
        </Node>
        <Node pos="r" depth="1" NCoef="0" IVar="-1" Cut="0.0000000000000000e+00" cType="1" res="-1.8441930413246155e-02" rms="1.6444668173789978e-01" purity="1.7397265136241913e-01" nType="-99"/>
      </Node>
    </BinaryTree>
    <BinaryTree type="DecisionTree" boostWeight="1.0000000000000000e+00" itree="633">
      <Node pos="s" depth="0" NCoef="0" IVar="25" Cut="5.0879585742950439e-01" cType="1" res="-1.3270656345412135e-03" rms="1.9404414296150208e-01" purity="4.9757066369056702e-01" nType="0">
        <Node pos="l" depth="1" NCoef="0" IVar="10" Cut="6.3137969970703125e+00" cType="1" res="-5.4863857803866267e-04" rms="1.9639603793621063e-01" purity="5.3222787380218506e-01" nType="0">
          <Node pos="l" depth="2" NCoef="0" IVar="-1" Cut="0.0000000000000000e+00" cType="1" res="8.3402842283248901e-03" rms="1.9524757564067841e-01" purity="4.6689757704734802e-01" nType="-99"/>
          <Node pos="r" depth="2" NCoef="0" IVar="-1" Cut="0.0000000000000000e+00" cType="1" res="-2.0230161026120186e-03" rms="1.9656065106391907e-01" purity="5.4310595989227295e-01" nType="-99"/>
        </Node>
        <Node pos="r" depth="1" NCoef="0" IVar="3" Cut="2.6439952850341797e+00" cType="1" res="-9.0884286910295486e-03" rms="1.6861517727375031e-01" purity="1.5201853215694427e-01" nType="0">
          <Node pos="l" depth="2" NCoef="0" IVar="-1" Cut="0.0000000000000000e+00" cType="1" res="-1.5939267352223396e-02" rms="2.2631490230560303e-01" purity="2.8634342551231384e-01" nType="-99"/>
          <Node pos="r" depth="2" NCoef="0" IVar="-1" Cut="0.0000000000000000e+00" cType="1" res="6.3123237341642380e-03" rms="8.0076560378074646e-02" purity="2.3457808420062065e-02" nType="-99"/>
        </Node>
      </Node>
    </BinaryTree>
    <BinaryTree type="DecisionTree" boostWeight="1.0000000000000000e+00" itree="634">
      <Node pos="s" depth="0" NCoef="0" IVar="16" Cut="2.9494175314903259e-01" cType="1" res="-1.0822014883160591e-03" rms="1.9533617794513702e-01" purity="4.9550348520278931e-01" nType="0">
        <Node pos="l" depth="1" NCoef="0" IVar="16" Cut="2.7461254596710205e-01" cType="1" res="4.2732995934784412e-03" rms="2.0305944979190826e-01" purity="2.2877760231494904e-01" nType="0">
          <Node pos="l" depth="2" NCoef="0" IVar="-1" Cut="0.0000000000000000e+00" cType="1" res="-3.4037176519632339e-03" rms="2.0222254097461700e-01" purity="1.8750108778476715e-01" nType="-99"/>
          <Node pos="r" depth="2" NCoef="0" IVar="-1" Cut="0.0000000000000000e+00" cType="1" res="3.6573812365531921e-02" rms="2.0364600419998169e-01" purity="4.1300314664840698e-01" nType="-99"/>
        </Node>
        <Node pos="r" depth="1" NCoef="0" IVar="18" Cut="-3.2077838897705078e+01" cType="1" res="-2.4177890736609697e-03" rms="1.9333894550800323e-01" purity="5.6202119588851929e-01" nType="0">
          <Node pos="l" depth="2" NCoef="0" IVar="-1" Cut="0.0000000000000000e+00" cType="1" res="5.6877294555306435e-03" rms="1.4868739247322083e-01" purity="8.6094427108764648e-01" nType="-99"/>
          <Node pos="r" depth="2" NCoef="0" IVar="-1" Cut="0.0000000000000000e+00" cType="1" res="-4.6836542896926403e-03" rms="2.0648068189620972e-01" purity="4.5890340209007263e-01" nType="-99"/>
        </Node>
      </Node>
    </BinaryTree>
    <BinaryTree type="DecisionTree" boostWeight="1.0000000000000000e+00" itree="635">
      <Node pos="s" depth="0" NCoef="0" IVar="14" Cut="7.2125124931335449e+00" cType="1" res="1.2792162597179413e-03" rms="1.9423425197601318e-01" purity="5.0059056282043457e-01" nType="0">
        <Node pos="l" depth="1" NCoef="0" IVar="-1" Cut="0.0000000000000000e+00" cType="1" res="-1.2201737612485886e-02" rms="1.9076864421367645e-01" purity="3.5031145811080933e-01" nType="-99"/>
        <Node pos="r" depth="1" NCoef="0" IVar="12" Cut="7.9721817970275879e+00" cType="1" res="1.8274316098541021e-03" rms="1.9438078999519348e-01" purity="5.0774914026260376e-01" nType="0">
          <Node pos="l" depth="2" NCoef="0" IVar="-1" Cut="0.0000000000000000e+00" cType="1" res="3.0848709866404533e-03" rms="1.9784030318260193e-01" purity="4.7598353028297424e-01" nType="-99"/>
          <Node pos="r" depth="2" NCoef="0" IVar="-1" Cut="0.0000000000000000e+00" cType="1" res="-7.0224432274699211e-03" rms="1.6812893748283386e-01" purity="7.2951042652130127e-01" nType="-99"/>
        </Node>
      </Node>
    </BinaryTree>
    <BinaryTree type="DecisionTree" boostWeight="1.0000000000000000e+00" itree="636">
      <Node pos="s" depth="0" NCoef="0" IVar="13" Cut="7.3876042366027832e+00" cType="1" res="-4.3690402526408434e-04" rms="1.9331066310405731e-01" purity="4.9861964583396912e-01" nType="0">
        <Node pos="l" depth="1" NCoef="0" IVar="3" Cut="2.6559216976165771e+00" cType="1" res="8.3356210961937904e-03" rms="1.9428727030754089e-01" purity="3.7944057583808899e-01" nType="0">
          <Node pos="l" depth="2" NCoef="0" IVar="-1" Cut="0.0000000000000000e+00" cType="1" res="1.3815483078360558e-02" rms="2.4121540784835815e-01" purity="6.2784439325332642e-01" nType="-99"/>
          <Node pos="r" depth="2" NCoef="0" IVar="-1" Cut="0.0000000000000000e+00" cType="1" res="-1.1351565830409527e-02" rms="9.9400468170642853e-02" purity="4.3410841375589371e-02" nType="-99"/>
        </Node>
        <Node pos="r" depth="1" NCoef="0" IVar="29" Cut="1.8440732359886169e-01" cType="1" res="-1.6623242991045117e-03" rms="1.9314213097095490e-01" purity="5.1526761054992676e-01" nType="0">
          <Node pos="l" depth="2" NCoef="0" IVar="-1" Cut="0.0000000000000000e+00" cType="1" res="1.2924851616844535e-03" rms="1.8603773415088654e-01" purity="6.2845712900161743e-01" nType="-99"/>
          <Node pos="r" depth="2" NCoef="0" IVar="-1" Cut="0.0000000000000000e+00" cType="1" res="-6.6610630601644516e-03" rms="2.0423229038715363e-01" purity="3.2876509428024292e-01" nType="-99"/>
        </Node>
      </Node>
    </BinaryTree>
    <BinaryTree type="DecisionTree" boostWeight="1.0000000000000000e+00" itree="637">
      <Node pos="s" depth="0" NCoef="0" IVar="30" Cut="1.9047687947750092e-01" cType="1" res="3.4222431713715196e-04" rms="1.9442385435104370e-01" purity="5.0000667572021484e-01" nType="0">
        <Node pos="l" depth="1" NCoef="0" IVar="27" Cut="6.1906832456588745e-01" cType="1" res="-3.3721761428751051e-04" rms="1.9396668672561646e-01" purity="5.2122855186462402e-01" nType="0">
          <Node pos="l" depth="2" NCoef="0" IVar="-1" Cut="0.0000000000000000e+00" cType="1" res="6.2904357910156250e-03" rms="1.8969890475273132e-01" purity="2.0361045002937317e-01" nType="-99"/>
          <Node pos="r" depth="2" NCoef="0" IVar="-1" Cut="0.0000000000000000e+00" cType="1" res="-1.4928980963304639e-03" rms="1.9471727311611176e-01" purity="5.7891988754272461e-01" nType="-99"/>
        </Node>
        <Node pos="r" depth="1" NCoef="0" IVar="1" Cut="8.1644954681396484e+00" cType="1" res="8.9049907401204109e-03" rms="1.9989809393882751e-01" purity="2.3255470395088196e-01" nType="0">
          <Node pos="l" depth="2" NCoef="0" IVar="-1" Cut="0.0000000000000000e+00" cType="1" res="5.3814874263480306e-04" rms="1.8744373321533203e-01" purity="1.8878646194934845e-01" nType="-99"/>
          <Node pos="r" depth="2" NCoef="0" IVar="-1" Cut="0.0000000000000000e+00" cType="1" res="2.2537406533956528e-02" rms="2.1903772652149200e-01" purity="3.0839255452156067e-01" nType="-99"/>
        </Node>
      </Node>
    </BinaryTree>
    <BinaryTree type="DecisionTree" boostWeight="1.0000000000000000e+00" itree="638">
      <Node pos="s" depth="0" NCoef="0" IVar="19" Cut="3.0185075759887695e+01" cType="1" res="-1.5449969796463847e-03" rms="1.9134819507598877e-01" purity="5.0020372867584229e-01" nType="0">
        <Node pos="l" depth="1" NCoef="0" IVar="10" Cut="7.3213973045349121e+00" cType="1" res="-2.5816187262535095e-03" rms="1.9606234133243561e-01" purity="4.4783213734626770e-01" nType="0">
          <Node pos="l" depth="2" NCoef="0" IVar="-1" Cut="0.0000000000000000e+00" cType="1" res="-6.6570559283718467e-04" rms="1.9468545913696289e-01" purity="4.6151596307754517e-01" nType="-99"/>
          <Node pos="r" depth="2" NCoef="0" IVar="-1" Cut="0.0000000000000000e+00" cType="1" res="-6.8338247947394848e-03" rms="1.9841001927852631e-01" purity="4.2378205060958862e-01" nType="-99"/>
        </Node>
        <Node pos="r" depth="1" NCoef="0" IVar="23" Cut="8.5942327976226807e-01" cType="1" res="5.5549014359712601e-03" rms="1.5507374703884125e-01" purity="8.5890096426010132e-01" nType="0">
          <Node pos="l" depth="2" NCoef="0" IVar="-1" Cut="0.0000000000000000e+00" cType="1" res="9.8609998822212219e-03" rms="2.6308593153953552e-01" purity="5.5237472057342529e-01" nType="-99"/>
          <Node pos="r" depth="2" NCoef="0" IVar="-1" Cut="0.0000000000000000e+00" cType="1" res="9.2903058975934982e-03" rms="8.3214893937110901e-02" purity="9.7480601072311401e-01" nType="-99"/>
        </Node>
      </Node>
    </BinaryTree>
    <BinaryTree type="DecisionTree" boostWeight="1.0000000000000000e+00" itree="639">
      <Node pos="s" depth="0" NCoef="0" IVar="16" Cut="4.7313177585601807e-01" cType="1" res="-4.8630294622853398e-04" rms="1.9559991359710693e-01" purity="5.0214821100234985e-01" nType="0">
        <Node pos="l" depth="1" NCoef="0" IVar="16" Cut="3.5124400258064270e-01" cType="1" res="-2.3636170662939548e-03" rms="2.0363271236419678e-01" purity="4.1632974147796631e-01" nType="0">
          <Node pos="l" depth="2" NCoef="0" IVar="-1" Cut="0.0000000000000000e+00" cType="1" res="1.5240864595398307e-03" rms="2.1281504631042480e-01" purity="2.9682382941246033e-01" nType="-99"/>
          <Node pos="r" depth="2" NCoef="0" IVar="-1" Cut="0.0000000000000000e+00" cType="1" res="-8.0568594858050346e-03" rms="1.9207869470119476e-01" purity="5.5800628662109375e-01" nType="-99"/>
        </Node>
        <Node pos="r" depth="1" NCoef="0" IVar="6" Cut="4.7438917160034180e+00" cType="1" res="3.0963795725256205e-03" rms="1.7921936511993408e-01" purity="6.6592478752136230e-01" nType="0">
          <Node pos="l" depth="2" NCoef="0" IVar="-1" Cut="0.0000000000000000e+00" cType="1" res="-8.5402876138687134e-03" rms="1.9244104623794556e-01" purity="4.4897493720054626e-01" nType="-99"/>
          <Node pos="r" depth="2" NCoef="0" IVar="-1" Cut="0.0000000000000000e+00" cType="1" res="1.0797683149576187e-02" rms="1.7287486791610718e-01" purity="7.6190358400344849e-01" nType="-99"/>
        </Node>
      </Node>
    </BinaryTree>
    <BinaryTree type="DecisionTree" boostWeight="1.0000000000000000e+00" itree="640">
      <Node pos="s" depth="0" NCoef="0" IVar="19" Cut="1.5398468017578125e+01" cType="1" res="7.9814129276201129e-04" rms="1.9592216610908508e-01" purity="4.9961036443710327e-01" nType="0">
        <Node pos="l" depth="1" NCoef="0" IVar="26" Cut="5.7062220573425293e-01" cType="1" res="3.1697817612439394e-03" rms="2.0344205200672150e-01" purity="3.5268348455429077e-01" nType="0">
          <Node pos="l" depth="2" NCoef="0" IVar="-1" Cut="0.0000000000000000e+00" cType="1" res="4.5940764248371124e-03" rms="2.0565082132816315e-01" purity="3.6683729290962219e-01" nType="-99"/>
          <Node pos="r" depth="2" NCoef="0" IVar="-1" Cut="0.0000000000000000e+00" cType="1" res="-2.0790290087461472e-02" rms="1.5806438028812408e-01" purity="1.0006757825613022e-01" nType="-99"/>
        </Node>
        <Node pos="r" depth="1" NCoef="0" IVar="31" Cut="1.9051712006330490e-02" cType="1" res="-1.8589615356177092e-03" rms="1.8710288405418396e-01" purity="6.6422206163406372e-01" nType="0">
          <Node pos="l" depth="2" NCoef="0" IVar="-1" Cut="0.0000000000000000e+00" cType="1" res="3.5441287327557802e-03" rms="1.7584927380084991e-01" purity="7.7487289905548096e-01" nType="-99"/>
          <Node pos="r" depth="2" NCoef="0" IVar="-1" Cut="0.0000000000000000e+00" cType="1" res="-1.1432061903178692e-02" rms="2.0738448202610016e-01" purity="4.4406828284263611e-01" nType="-99"/>
        </Node>
      </Node>
    </BinaryTree>
    <BinaryTree type="DecisionTree" boostWeight="1.0000000000000000e+00" itree="641">
      <Node pos="s" depth="0" NCoef="0" IVar="10" Cut="6.1192369461059570e+00" cType="1" res="-1.4238180592656136e-03" rms="1.9500006735324860e-01" purity="4.9876919388771057e-01" nType="0">
        <Node pos="l" depth="1" NCoef="0" IVar="31" Cut="1.9063252955675125e-02" cType="1" res="5.8615589514374733e-03" rms="2.0276421308517456e-01" purity="3.8233050704002380e-01" nType="0">
          <Node pos="l" depth="2" NCoef="0" IVar="-1" Cut="0.0000000000000000e+00" cType="1" res="-7.5582903809845448e-03" rms="1.9808849692344666e-01" purity="5.2883726358413696e-01" nType="-99"/>
          <Node pos="r" depth="2" NCoef="0" IVar="-1" Cut="0.0000000000000000e+00" cType="1" res="2.0129790529608727e-02" rms="2.0579980313777924e-01" purity="2.7041471004486084e-01" nType="-99"/>
        </Node>
        <Node pos="r" depth="1" NCoef="0" IVar="25" Cut="6.9411242008209229e-01" cType="1" res="-2.2288216277956963e-03" rms="1.9410634040832520e-01" purity="5.1163518428802490e-01" nType="0">
          <Node pos="l" depth="2" NCoef="0" IVar="-1" Cut="0.0000000000000000e+00" cType="1" res="-2.0487129222601652e-03" rms="1.9521255791187286e-01" purity="5.2315139770507812e-01" nType="-99"/>
          <Node pos="r" depth="2" NCoef="0" IVar="-1" Cut="0.0000000000000000e+00" cType="1" res="-3.1451784074306488e-02" rms="1.5120843052864075e-01" purity="1.2287551164627075e-01" nType="-99"/>
        </Node>
      </Node>
    </BinaryTree>
    <BinaryTree type="DecisionTree" boostWeight="1.0000000000000000e+00" itree="642">
      <Node pos="s" depth="0" NCoef="0" IVar="15" Cut="6.1712861061096191e+00" cType="1" res="1.5281506348401308e-03" rms="1.9586348533630371e-01" purity="5.0199645757675171e-01" nType="0">
        <Node pos="l" depth="1" NCoef="0" IVar="19" Cut="2.5161144256591797e+01" cType="1" res="-2.2252921480685472e-03" rms="2.0249810814857483e-01" purity="4.8957443237304688e-01" nType="0">
          <Node pos="l" depth="2" NCoef="0" IVar="-1" Cut="0.0000000000000000e+00" cType="1" res="-4.9731489270925522e-03" rms="2.0950075984001160e-01" purity="4.0295201539993286e-01" nType="-99"/>
          <Node pos="r" depth="2" NCoef="0" IVar="-1" Cut="0.0000000000000000e+00" cType="1" res="9.7925346344709396e-03" rms="1.7492200434207916e-01" purity="7.9858195781707764e-01" nType="-99"/>
        </Node>
        <Node pos="r" depth="1" NCoef="0" IVar="27" Cut="5.7256788015365601e-01" cType="1" res="3.5645328462123871e-03" rms="1.9213744997978210e-01" purity="5.0873589515686035e-01" nType="0">
          <Node pos="l" depth="2" NCoef="0" IVar="-1" Cut="0.0000000000000000e+00" cType="1" res="1.6732458025217056e-02" rms="1.9733253121376038e-01" purity="1.9003531336784363e-01" nType="-99"/>
          <Node pos="r" depth="2" NCoef="0" IVar="-1" Cut="0.0000000000000000e+00" cType="1" res="2.7984858024865389e-03" rms="1.9126693904399872e-01" purity="5.5944645404815674e-01" nType="-99"/>
        </Node>
      </Node>
    </BinaryTree>
    <BinaryTree type="DecisionTree" boostWeight="1.0000000000000000e+00" itree="643">
      <Node pos="s" depth="0" NCoef="0" IVar="34" Cut="6.3492937088012695e+00" cType="1" res="1.1479592649266124e-03" rms="1.9561345875263214e-01" purity="5.0052881240844727e-01" nType="0">
        <Node pos="l" depth="1" NCoef="0" IVar="32" Cut="5.7132042944431305e-02" cType="1" res="1.7819402273744345e-03" rms="1.9765181839466095e-01" purity="5.2348089218139648e-01" nType="0">
          <Node pos="l" depth="2" NCoef="0" IVar="-1" Cut="0.0000000000000000e+00" cType="1" res="3.7267203442752361e-03" rms="1.9827976822853088e-01" purity="5.9681123495101929e-01" nType="-99"/>
          <Node pos="r" depth="2" NCoef="0" IVar="-1" Cut="0.0000000000000000e+00" cType="1" res="-4.5925644226372242e-03" rms="1.9515226781368256e-01" purity="2.4579326808452606e-01" nType="-99"/>
        </Node>
        <Node pos="r" depth="1" NCoef="0" IVar="3" Cut="2.8828084468841553e+00" cType="1" res="-1.0509113781154156e-02" rms="1.5291157364845276e-01" purity="7.8506410121917725e-02" nType="0">
          <Node pos="l" depth="2" NCoef="0" IVar="-1" Cut="0.0000000000000000e+00" cType="1" res="-2.1734325215220451e-02" rms="2.0759384334087372e-01" purity="1.5034364163875580e-01" nType="-99"/>
          <Node pos="r" depth="2" NCoef="0" IVar="-1" Cut="0.0000000000000000e+00" cType="1" res="9.7120730206370354e-03" rms="5.7427331805229187e-02" purity="6.2173637561500072e-03" nType="-99"/>
        </Node>
      </Node>
    </BinaryTree>
    <BinaryTree type="DecisionTree" boostWeight="1.0000000000000000e+00" itree="644">
      <Node pos="s" depth="0" NCoef="0" IVar="30" Cut="2.0952112972736359e-01" cType="1" res="6.0678023146465421e-04" rms="1.9848378002643585e-01" purity="4.9911057949066162e-01" nType="0">
        <Node pos="l" depth="1" NCoef="0" IVar="27" Cut="6.1982947587966919e-01" cType="1" res="1.3330286601558328e-03" rms="1.9969531893730164e-01" purity="5.1882600784301758e-01" nType="0">
          <Node pos="l" depth="2" NCoef="0" IVar="-1" Cut="0.0000000000000000e+00" cType="1" res="1.0418551973998547e-02" rms="2.0376929640769958e-01" purity="2.1552504599094391e-01" nType="-99"/>
          <Node pos="r" depth="2" NCoef="0" IVar="-1" Cut="0.0000000000000000e+00" cType="1" res="6.4813000790309161e-05" rms="1.9891104102134705e-01" purity="5.7457190752029419e-01" nType="-99"/>
        </Node>
        <Node pos="r" depth="1" NCoef="0" IVar="3" Cut="2.3910045623779297e+00" cType="1" res="-1.0580045171082020e-02" rms="1.7841441929340363e-01" purity="1.9542257487773895e-01" nType="0">
          <Node pos="l" depth="2" NCoef="0" IVar="-1" Cut="0.0000000000000000e+00" cType="1" res="-1.6260119155049324e-02" rms="2.3235021531581879e-01" purity="3.8175025582313538e-01" nType="-99"/>
          <Node pos="r" depth="2" NCoef="0" IVar="-1" Cut="0.0000000000000000e+00" cType="1" res="-4.0428093634545803e-03" rms="1.1473727971315384e-01" purity="4.0083248168230057e-02" nType="-99"/>
        </Node>
      </Node>
    </BinaryTree>
    <BinaryTree type="DecisionTree" boostWeight="1.0000000000000000e+00" itree="645">
      <Node pos="s" depth="0" NCoef="0" IVar="19" Cut="-5.3169565200805664e+00" cType="1" res="2.3124423751141876e-04" rms="1.9306838512420654e-01" purity="5.0151622295379639e-01" nType="0">
        <Node pos="l" depth="1" NCoef="0" IVar="34" Cut="7.9574823379516602e-01" cType="1" res="8.1808278337121010e-03" rms="1.9209629297256470e-01" purity="4.4956517219543457e-01" nType="0">
          <Node pos="l" depth="2" NCoef="0" IVar="-1" Cut="0.0000000000000000e+00" cType="1" res="-2.4650888517498970e-02" rms="1.6981418430805206e-01" purity="5.3984421491622925e-01" nType="-99"/>
          <Node pos="r" depth="2" NCoef="0" IVar="-1" Cut="0.0000000000000000e+00" cType="1" res="2.5443179532885551e-02" rms="1.9949078559875488e-01" purity="4.1270661354064941e-01" nType="-99"/>
        </Node>
        <Node pos="r" depth="1" NCoef="0" IVar="27" Cut="7.6176309585571289e-01" cType="1" res="-5.8561126934364438e-04" rms="1.9314946234226227e-01" purity="5.0685441493988037e-01" nType="0">
          <Node pos="l" depth="2" NCoef="0" IVar="-1" Cut="0.0000000000000000e+00" cType="1" res="-7.9598985612392426e-03" rms="1.8356207013130188e-01" purity="2.0004944503307343e-01" nType="-99"/>
          <Node pos="r" depth="2" NCoef="0" IVar="-1" Cut="0.0000000000000000e+00" cType="1" res="1.1922515695914626e-03" rms="1.9580920040607452e-01" purity="5.9573328495025635e-01" nType="-99"/>
        </Node>
      </Node>
    </BinaryTree>
    <BinaryTree type="DecisionTree" boostWeight="1.0000000000000000e+00" itree="646">
      <Node pos="s" depth="0" NCoef="0" IVar="20" Cut="-5.6704948425292969e+01" cType="1" res="-1.1647538049146533e-03" rms="1.9436778128147125e-01" purity="4.9916031956672668e-01" nType="0">
        <Node pos="l" depth="1" NCoef="0" IVar="-1" Cut="0.0000000000000000e+00" cType="1" res="2.1507073193788528e-02" rms="1.0981868952512741e-01" purity="9.4980931282043457e-01" nType="-99"/>
        <Node pos="r" depth="1" NCoef="0" IVar="18" Cut="-1.4890342712402344e+01" cType="1" res="-1.6763666644692421e-03" rms="1.9837963581085205e-01" purity="4.7147226333618164e-01" nType="0">
          <Node pos="l" depth="2" NCoef="0" IVar="-1" Cut="0.0000000000000000e+00" cType="1" res="-4.9193007871508598e-03" rms="1.9420276582241058e-01" purity="6.1048424243927002e-01" nType="-99"/>
          <Node pos="r" depth="2" NCoef="0" IVar="-1" Cut="0.0000000000000000e+00" cType="1" res="3.6870827898383141e-04" rms="2.0161674916744232e-01" purity="3.6093649268150330e-01" nType="-99"/>
        </Node>
      </Node>
    </BinaryTree>
    <BinaryTree type="DecisionTree" boostWeight="1.0000000000000000e+00" itree="647">
      <Node pos="s" depth="0" NCoef="0" IVar="31" Cut="1.9047705456614494e-02" cType="1" res="1.3273927615955472e-03" rms="1.9717730581760406e-01" purity="4.9881458282470703e-01" nType="0">
        <Node pos="l" depth="1" NCoef="0" IVar="31" Cut="4.5443321578204632e-03" cType="1" res="-1.1502132983878255e-03" rms="1.9040815532207489e-01" purity="6.3916629552841187e-01" nType="0">
          <Node pos="l" depth="2" NCoef="0" IVar="-1" Cut="0.0000000000000000e+00" cType="1" res="3.3938793931156397e-03" rms="1.7687927186489105e-01" purity="7.0653110742568970e-01" nType="-99"/>
          <Node pos="r" depth="2" NCoef="0" IVar="-1" Cut="0.0000000000000000e+00" cType="1" res="-6.3934628851711750e-03" rms="2.0571941137313843e-01" purity="5.5641913414001465e-01" nType="-99"/>
        </Node>
        <Node pos="r" depth="1" NCoef="0" IVar="19" Cut="1.2481656074523926e+01" cType="1" res="4.7456310130655766e-03" rms="2.0610296726226807e-01" purity="3.0517780780792236e-01" nType="0">
          <Node pos="l" depth="2" NCoef="0" IVar="-1" Cut="0.0000000000000000e+00" cType="1" res="1.2324996292591095e-02" rms="2.0014190673828125e-01" purity="2.1692486107349396e-01" nType="-99"/>
          <Node pos="r" depth="2" NCoef="0" IVar="-1" Cut="0.0000000000000000e+00" cType="1" res="-6.2828965019434690e-04" rms="2.1241018176078796e-01" purity="4.0336987376213074e-01" nType="-99"/>
        </Node>
      </Node>
    </BinaryTree>
    <BinaryTree type="DecisionTree" boostWeight="1.0000000000000000e+00" itree="648">
      <Node pos="s" depth="0" NCoef="0" IVar="34" Cut="3.1750636100769043e+00" cType="1" res="-3.4567702095955610e-04" rms="1.9668895006179810e-01" purity="4.9725896120071411e-01" nType="0">
        <Node pos="l" depth="1" NCoef="0" IVar="16" Cut="3.6969164013862610e-01" cType="1" res="-1.9369572401046753e-03" rms="1.9632510840892792e-01" purity="5.8964550495147705e-01" nType="0">
          <Node pos="l" depth="2" NCoef="0" IVar="-1" Cut="0.0000000000000000e+00" cType="1" res="-5.6248842738568783e-03" rms="2.1689546108245850e-01" purity="3.4608274698257446e-01" nType="-99"/>
          <Node pos="r" depth="2" NCoef="0" IVar="-1" Cut="0.0000000000000000e+00" cType="1" res="1.5867537586018443e-03" rms="1.7941410839557648e-01" purity="7.7108216285705566e-01" nType="-99"/>
        </Node>
        <Node pos="r" depth="1" NCoef="0" IVar="11" Cut="7.4540429115295410e+00" cType="1" res="4.1067572310566902e-03" rms="1.9763536751270294e-01" purity="2.3875932395458221e-01" nType="0">
          <Node pos="l" depth="2" NCoef="0" IVar="-1" Cut="0.0000000000000000e+00" cType="1" res="1.7985618906095624e-03" rms="1.9711089134216309e-01" purity="2.3710347712039948e-01" nType="-99"/>
          <Node pos="r" depth="2" NCoef="0" IVar="-1" Cut="0.0000000000000000e+00" cType="1" res="2.5678284466266632e-02" rms="1.9995304942131042e-01" purity="2.4838164448738098e-01" nType="-99"/>
        </Node>
      </Node>
    </BinaryTree>
    <BinaryTree type="DecisionTree" boostWeight="1.0000000000000000e+00" itree="649">
      <Node pos="s" depth="0" NCoef="0" IVar="34" Cut="3.9684844017028809e+00" cType="1" res="1.6305337194353342e-03" rms="1.9810728728771210e-01" purity="5.0205588340759277e-01" nType="0">
        <Node pos="l" depth="1" NCoef="0" IVar="10" Cut="7.3147802352905273e+00" cType="1" res="3.0376383801922202e-04" rms="1.9785577058792114e-01" purity="5.7466238737106323e-01" nType="0">
          <Node pos="l" depth="2" NCoef="0" IVar="-1" Cut="0.0000000000000000e+00" cType="1" res="-2.3315288126468658e-03" rms="1.9249828159809113e-01" purity="6.1397403478622437e-01" nType="-99"/>
          <Node pos="r" depth="2" NCoef="0" IVar="-1" Cut="0.0000000000000000e+00" cType="1" res="4.3509644456207752e-03" rms="2.0625643432140350e-01" purity="5.1042115688323975e-01" nType="-99"/>
        </Node>
        <Node pos="r" depth="1" NCoef="0" IVar="30" Cut="1.5242221951484680e-01" cType="1" res="7.2119012475013733e-03" rms="1.9906499981880188e-01" purity="1.9661960005760193e-01" nType="0">
          <Node pos="l" depth="2" NCoef="0" IVar="-1" Cut="0.0000000000000000e+00" cType="1" res="1.2955080717802048e-02" rms="2.0780935883522034e-01" purity="2.2339881956577301e-01" nType="-99"/>
          <Node pos="r" depth="2" NCoef="0" IVar="-1" Cut="0.0000000000000000e+00" cType="1" res="-2.0066613331437111e-02" rms="1.4129073917865753e-01" purity="5.0853271037340164e-02" nType="-99"/>
        </Node>
      </Node>
    </BinaryTree>
    <BinaryTree type="DecisionTree" boostWeight="1.0000000000000000e+00" itree="650">
      <Node pos="s" depth="0" NCoef="0" IVar="2" Cut="1.8886655807495117e+01" cType="1" res="4.8506146413274109e-04" rms="1.9575484097003937e-01" purity="4.9912741780281067e-01" nType="0">
        <Node pos="l" depth="1" NCoef="0" IVar="2" Cut="3.7558827400207520e+00" cType="1" res="-3.1815559486858547e-04" rms="1.9696579873561859e-01" purity="5.1776850223541260e-01" nType="0">
          <Node pos="l" depth="2" NCoef="0" IVar="-1" Cut="0.0000000000000000e+00" cType="1" res="-8.2175349816679955e-03" rms="1.9284492731094360e-01" purity="4.4526454806327820e-01" nType="-99"/>
          <Node pos="r" depth="2" NCoef="0" IVar="-1" Cut="0.0000000000000000e+00" cType="1" res="1.3046478852629662e-03" rms="1.9787405431270599e-01" purity="5.3445655107498169e-01" nType="-99"/>
        </Node>
        <Node pos="r" depth="1" NCoef="0" IVar="11" Cut="6.7885975837707520e+00" cType="1" res="1.1411899700760841e-02" rms="1.7810714244842529e-01" purity="2.4553753435611725e-01" nType="0">
          <Node pos="l" depth="2" NCoef="0" IVar="-1" Cut="0.0000000000000000e+00" cType="1" res="2.7308134362101555e-02" rms="2.0547094941139221e-01" purity="3.3993965387344360e-01" nType="-99"/>
          <Node pos="r" depth="2" NCoef="0" IVar="-1" Cut="0.0000000000000000e+00" cType="1" res="3.2371606212109327e-03" rms="1.5830567479133606e-01" purity="1.8769854307174683e-01" nType="-99"/>
        </Node>
      </Node>
    </BinaryTree>
    <BinaryTree type="DecisionTree" boostWeight="1.0000000000000000e+00" itree="651">
      <Node pos="s" depth="0" NCoef="0" IVar="25" Cut="5.0738179683685303e-01" cType="1" res="3.8368595414794981e-04" rms="1.9473020732402802e-01" purity="5.0161945819854736e-01" nType="0">
        <Node pos="l" depth="1" NCoef="0" IVar="28" Cut="6.1988425254821777e-01" cType="1" res="1.1301656486466527e-03" rms="1.9707718491554260e-01" purity="5.3686922788619995e-01" nType="0">
          <Node pos="l" depth="2" NCoef="0" IVar="-1" Cut="0.0000000000000000e+00" cType="1" res="4.7239358536899090e-03" rms="2.0679268240928650e-01" purity="3.6880186200141907e-01" nType="-99"/>
          <Node pos="r" depth="2" NCoef="0" IVar="-1" Cut="0.0000000000000000e+00" cType="1" res="-1.2539663584902883e-03" rms="1.9060035049915314e-01" purity="6.4391672611236572e-01" nType="-99"/>
        </Node>
        <Node pos="r" depth="1" NCoef="0" IVar="10" Cut="6.5551743507385254e+00" cType="1" res="-7.1940254420042038e-03" rms="1.6888473927974701e-01" purity="1.4378985762596130e-01" nType="0">
          <Node pos="l" depth="2" NCoef="0" IVar="-1" Cut="0.0000000000000000e+00" cType="1" res="-2.0704654976725578e-02" rms="1.7343102395534515e-01" purity="1.2609463930130005e-01" nType="-99"/>
          <Node pos="r" depth="2" NCoef="0" IVar="-1" Cut="0.0000000000000000e+00" cType="1" res="-2.4898857809603214e-03" rms="1.6510194540023804e-01" purity="1.5734428167343140e-01" nType="-99"/>
        </Node>
      </Node>
    </BinaryTree>
    <BinaryTree type="DecisionTree" boostWeight="1.0000000000000000e+00" itree="652">
      <Node pos="s" depth="0" NCoef="0" IVar="11" Cut="6.8091807365417480e+00" cType="1" res="8.4794143913313746e-04" rms="1.9715285301208496e-01" purity="5.0028198957443237e-01" nType="0">
        <Node pos="l" depth="1" NCoef="0" IVar="34" Cut="3.1748065948486328e+00" cType="1" res="-1.5758196823298931e-03" rms="1.9423261284828186e-01" purity="5.0137794017791748e-01" nType="0">
          <Node pos="l" depth="2" NCoef="0" IVar="-1" Cut="0.0000000000000000e+00" cType="1" res="1.5608135145157576e-03" rms="1.9715277850627899e-01" purity="6.4391881227493286e-01" nType="-99"/>
          <Node pos="r" depth="2" NCoef="0" IVar="-1" Cut="0.0000000000000000e+00" cType="1" res="-1.0113753378391266e-02" rms="1.8768365681171417e-01" purity="1.9661165773868561e-01" nType="-99"/>
        </Node>
        <Node pos="r" depth="1" NCoef="0" IVar="33" Cut="2.2853769361972809e-01" cType="1" res="3.4758483525365591e-03" rms="2.0023779571056366e-01" purity="4.9909380078315735e-01" nType="0">
          <Node pos="l" depth="2" NCoef="0" IVar="-1" Cut="0.0000000000000000e+00" cType="1" res="2.6760203763842583e-03" rms="1.9885288178920746e-01" purity="5.1311767101287842e-01" nType="-99"/>
          <Node pos="r" depth="2" NCoef="0" IVar="-1" Cut="0.0000000000000000e+00" cType="1" res="2.3993609473109245e-02" rms="2.2042091190814972e-01" purity="2.7488723397254944e-01" nType="-99"/>
        </Node>
      </Node>
    </BinaryTree>
    <BinaryTree type="DecisionTree" boostWeight="1.0000000000000000e+00" itree="653">
      <Node pos="s" depth="0" NCoef="0" IVar="34" Cut="3.9684946537017822e+00" cType="1" res="-5.8395209634909406e-05" rms="1.9454815983772278e-01" purity="5.0017631053924561e-01" nType="0">
        <Node pos="l" depth="1" NCoef="0" IVar="7" Cut="3.5979523658752441e+00" cType="1" res="-1.0761031880974770e-03" rms="1.9516995549201965e-01" purity="5.7296228408813477e-01" nType="0">
          <Node pos="l" depth="2" NCoef="0" IVar="-1" Cut="0.0000000000000000e+00" cType="1" res="8.7143898781505413e-06" rms="1.9737134873867035e-01" purity="6.1183869838714600e-01" nType="-99"/>
          <Node pos="r" depth="2" NCoef="0" IVar="-1" Cut="0.0000000000000000e+00" cType="1" res="-1.5613973140716553e-02" rms="1.7368908226490021e-01" purity="2.2130040824413300e-01" nType="-99"/>
        </Node>
        <Node pos="r" depth="1" NCoef="0" IVar="10" Cut="7.4089469909667969e+00" cType="1" res="4.2956694960594177e-03" rms="1.9180418550968170e-01" purity="1.8877562880516052e-01" nType="0">
          <Node pos="l" depth="2" NCoef="0" IVar="-1" Cut="0.0000000000000000e+00" cType="1" res="1.1011790484189987e-02" rms="1.9670587778091431e-01" purity="1.8338000774383545e-01" nType="-99"/>
          <Node pos="r" depth="2" NCoef="0" IVar="-1" Cut="0.0000000000000000e+00" cType="1" res="-1.1928978376090527e-02" rms="1.7375062406063080e-01" purity="2.0689582824707031e-01" nType="-99"/>
        </Node>
      </Node>
    </BinaryTree>
    <BinaryTree type="DecisionTree" boostWeight="1.0000000000000000e+00" itree="654">
      <Node pos="s" depth="0" NCoef="0" IVar="1" Cut="9.4500675201416016e+00" cType="1" res="8.7548681767657399e-04" rms="1.9647561013698578e-01" purity="5.0321727991104126e-01" nType="0">
        <Node pos="l" depth="1" NCoef="0" IVar="34" Cut="1.9849860668182373e+00" cType="1" res="3.1708234455436468e-03" rms="2.0105972886085510e-01" purity="4.9835571646690369e-01" nType="0">
          <Node pos="l" depth="2" NCoef="0" IVar="-1" Cut="0.0000000000000000e+00" cType="1" res="8.6671896278858185e-03" rms="2.0256306231021881e-01" purity="6.6851097345352173e-01" nType="-99"/>
          <Node pos="r" depth="2" NCoef="0" IVar="-1" Cut="0.0000000000000000e+00" cType="1" res="-2.4576755240559578e-03" rms="1.9920693337917328e-01" purity="3.0458515882492065e-01" nType="-99"/>
        </Node>
        <Node pos="r" depth="1" NCoef="0" IVar="16" Cut="3.3202952146530151e-01" cType="1" res="-3.5131692420691252e-03" rms="1.8732061982154846e-01" purity="5.1251262426376343e-01" nType="0">
          <Node pos="l" depth="2" NCoef="0" IVar="-1" Cut="0.0000000000000000e+00" cType="1" res="-1.3366551138460636e-02" rms="1.9651053845882416e-01" purity="1.8345870077610016e-01" nType="-99"/>
          <Node pos="r" depth="2" NCoef="0" IVar="-1" Cut="0.0000000000000000e+00" cType="1" res="1.2915771221742034e-03" rms="1.8240496516227722e-01" purity="6.7633026838302612e-01" nType="-99"/>
        </Node>
      </Node>
    </BinaryTree>
    <BinaryTree type="DecisionTree" boostWeight="1.0000000000000000e+00" itree="655">
      <Node pos="s" depth="0" NCoef="0" IVar="14" Cut="8.3292064666748047e+00" cType="1" res="-1.7610946670174599e-03" rms="1.9305381178855896e-01" purity="4.9608844518661499e-01" nType="0">
        <Node pos="l" depth="1" NCoef="0" IVar="16" Cut="3.6126002669334412e-01" cType="1" res="7.1457866579294205e-04" rms="1.9848899543285370e-01" purity="4.7552928328514099e-01" nType="0">
          <Node pos="l" depth="2" NCoef="0" IVar="-1" Cut="0.0000000000000000e+00" cType="1" res="7.2708004154264927e-03" rms="2.2113785147666931e-01" purity="2.9792207479476929e-01" nType="-99"/>
          <Node pos="r" depth="2" NCoef="0" IVar="-1" Cut="0.0000000000000000e+00" cType="1" res="-2.7393524069339037e-03" rms="1.8759079277515411e-01" purity="5.5362057685852051e-01" nType="-99"/>
        </Node>
        <Node pos="r" depth="1" NCoef="0" IVar="7" Cut="3.3369214534759521e+00" cType="1" res="-4.1247075423598289e-03" rms="1.8768739700317383e-01" purity="5.1571702957153320e-01" nType="0">
          <Node pos="l" depth="2" NCoef="0" IVar="-1" Cut="0.0000000000000000e+00" cType="1" res="-2.7423878200352192e-03" rms="1.9246962666511536e-01" purity="5.7751297950744629e-01" nType="-99"/>
          <Node pos="r" depth="2" NCoef="0" IVar="-1" Cut="0.0000000000000000e+00" cType="1" res="-3.0122362077236176e-02" rms="1.5211988985538483e-01" purity="1.1031527817249298e-01" nType="-99"/>
        </Node>
      </Node>
    </BinaryTree>
    <BinaryTree type="DecisionTree" boostWeight="1.0000000000000000e+00" itree="656">
      <Node pos="s" depth="0" NCoef="0" IVar="16" Cut="4.7252112627029419e-01" cType="1" res="-4.9498217413201928e-04" rms="1.9408451020717621e-01" purity="5.0037658214569092e-01" nType="0">
        <Node pos="l" depth="1" NCoef="0" IVar="16" Cut="2.7484583854675293e-01" cType="1" res="1.3852420961484313e-03" rms="2.0204718410968781e-01" purity="4.1604062914848328e-01" nType="0">
          <Node pos="l" depth="2" NCoef="0" IVar="-1" Cut="0.0000000000000000e+00" cType="1" res="-1.0634422302246094e-02" rms="2.0056016743183136e-01" purity="1.8684877455234528e-01" nType="-99"/>
          <Node pos="r" depth="2" NCoef="0" IVar="-1" Cut="0.0000000000000000e+00" cType="1" res="5.0297435373067856e-03" rms="2.0240956544876099e-01" purity="4.9030700325965881e-01" nType="-99"/>
        </Node>
        <Node pos="r" depth="1" NCoef="0" IVar="27" Cut="8.5731118917465210e-01" cType="1" res="-3.9950180798768997e-03" rms="1.7826469242572784e-01" purity="6.5736776590347290e-01" nType="0">
          <Node pos="l" depth="2" NCoef="0" IVar="-1" Cut="0.0000000000000000e+00" cType="1" res="-1.6772480681538582e-02" rms="2.0371167361736298e-01" purity="3.2649073004722595e-01" nType="-99"/>
          <Node pos="r" depth="2" NCoef="0" IVar="-1" Cut="0.0000000000000000e+00" cType="1" res="-1.3684613804798573e-04" rms="1.6767105460166931e-01" purity="7.8019553422927856e-01" nType="-99"/>
        </Node>
      </Node>
    </BinaryTree>
    <BinaryTree type="DecisionTree" boostWeight="1.0000000000000000e+00" itree="657">
      <Node pos="s" depth="0" NCoef="0" IVar="22" Cut="8.4526414871215820e+00" cType="1" res="1.1609186185523868e-03" rms="1.9590429961681366e-01" purity="4.9972510337829590e-01" nType="0">
        <Node pos="l" depth="1" NCoef="0" IVar="31" Cut="2.0930632948875427e-01" cType="1" res="-2.9467169661074877e-03" rms="1.9637264311313629e-01" purity="3.2756146788597107e-01" nType="0">
          <Node pos="l" depth="2" NCoef="0" IVar="-1" Cut="0.0000000000000000e+00" cType="1" res="-4.8639927990734577e-03" rms="1.9822923839092255e-01" purity="3.4283888339996338e-01" nType="-99"/>
          <Node pos="r" depth="2" NCoef="0" IVar="-1" Cut="0.0000000000000000e+00" cType="1" res="2.2650871425867081e-02" rms="1.7089885473251343e-01" purity="1.3922315835952759e-01" nType="-99"/>
        </Node>
        <Node pos="r" depth="1" NCoef="0" IVar="15" Cut="7.1988072395324707e+00" cType="1" res="3.3375907223671675e-03" rms="1.9562070071697235e-01" purity="5.9095609188079834e-01" nType="0">
          <Node pos="l" depth="2" NCoef="0" IVar="-1" Cut="0.0000000000000000e+00" cType="1" res="5.7010739110410213e-03" rms="2.0050531625747681e-01" purity="5.7845205068588257e-01" nType="-99"/>
          <Node pos="r" depth="2" NCoef="0" IVar="-1" Cut="0.0000000000000000e+00" cType="1" res="-6.4110537059605122e-03" rms="1.7061237990856171e-01" purity="6.4967262744903564e-01" nType="-99"/>
        </Node>
      </Node>
    </BinaryTree>
    <BinaryTree type="DecisionTree" boostWeight="1.0000000000000000e+00" itree="658">
      <Node pos="s" depth="0" NCoef="0" IVar="34" Cut="5.1586923599243164e+00" cType="1" res="-5.2995834266766906e-04" rms="1.9552190601825714e-01" purity="5.0100952386856079e-01" nType="0">
        <Node pos="l" depth="1" NCoef="0" IVar="17" Cut="6.0274051666259766e+01" cType="1" res="2.9800794436596334e-04" rms="1.9723473489284515e-01" purity="5.4557889699935913e-01" nType="0">
          <Node pos="l" depth="2" NCoef="0" IVar="-1" Cut="0.0000000000000000e+00" cType="1" res="-2.4734434555284679e-04" rms="2.0063447952270508e-01" purity="5.2439564466476440e-01" nType="-99"/>
          <Node pos="r" depth="2" NCoef="0" IVar="-1" Cut="0.0000000000000000e+00" cType="1" res="2.8988581150770187e-02" rms="1.0918335616588593e-01" purity="9.6635448932647705e-01" nType="-99"/>
        </Node>
        <Node pos="r" depth="1" NCoef="0" IVar="3" Cut="1.6989206075668335e+00" cType="1" res="-7.3148054070770741e-03" rms="1.8073309957981110e-01" purity="1.3578157126903534e-01" nType="0">
          <Node pos="l" depth="2" NCoef="0" IVar="-1" Cut="0.0000000000000000e+00" cType="1" res="-2.0435243844985962e-02" rms="2.5587770342826843e-01" purity="2.9642242193222046e-01" nType="-99"/>
          <Node pos="r" depth="2" NCoef="0" IVar="-1" Cut="0.0000000000000000e+00" cType="1" res="-1.7913839546963573e-03" rms="1.4949601888656616e-01" purity="8.6152881383895874e-02" nType="-99"/>
        </Node>
      </Node>
    </BinaryTree>
    <BinaryTree type="DecisionTree" boostWeight="1.0000000000000000e+00" itree="659">
      <Node pos="s" depth="0" NCoef="0" IVar="16" Cut="3.2725459337234497e-01" cType="1" res="-8.5619615856558084e-04" rms="1.9359211623668671e-01" purity="5.0102329254150391e-01" nType="0">
        <Node pos="l" depth="1" NCoef="0" IVar="28" Cut="8.1017369031906128e-01" cType="1" res="-5.0882543437182903e-03" rms="2.0930212736129761e-01" purity="2.5431218743324280e-01" nType="0">
          <Node pos="l" depth="2" NCoef="0" IVar="-1" Cut="0.0000000000000000e+00" cType="1" res="2.3326994851231575e-03" rms="1.9827134907245636e-01" purity="1.5617077052593231e-01" nType="-99"/>
          <Node pos="r" depth="2" NCoef="0" IVar="-1" Cut="0.0000000000000000e+00" cType="1" res="-1.4555887319147587e-02" rms="2.2545731067657471e-01" purity="4.1219025850296021e-01" nType="-99"/>
        </Node>
        <Node pos="r" depth="1" NCoef="0" IVar="7" Cut="1.1390072107315063e+00" cType="1" res="9.7018020460382104e-04" rms="1.8637412786483765e-01" purity="6.0749334096908569e-01" nType="0">
          <Node pos="l" depth="2" NCoef="0" IVar="-1" Cut="0.0000000000000000e+00" cType="1" res="8.3737419918179512e-03" rms="1.7778296768665314e-01" purity="8.5326302051544189e-01" nType="-99"/>
          <Node pos="r" depth="2" NCoef="0" IVar="-1" Cut="0.0000000000000000e+00" cType="1" res="-2.2833228576928377e-03" rms="1.9072878360748291e-01" purity="4.7666907310485840e-01" nType="-99"/>
        </Node>
      </Node>
    </BinaryTree>
    <BinaryTree type="DecisionTree" boostWeight="1.0000000000000000e+00" itree="660">
      <Node pos="s" depth="0" NCoef="0" IVar="16" Cut="2.5852438807487488e-01" cType="1" res="-1.1244833003729582e-03" rms="1.9347497820854187e-01" purity="4.9780344963073730e-01" nType="0">
        <Node pos="l" depth="1" NCoef="0" IVar="16" Cut="2.3344592750072479e-01" cType="1" res="5.6210309267044067e-03" rms="1.9179737567901611e-01" purity="1.8048700690269470e-01" nType="0">
          <Node pos="l" depth="2" NCoef="0" IVar="-1" Cut="0.0000000000000000e+00" cType="1" res="-6.6653685644268990e-03" rms="1.7251926660537720e-01" purity="1.1948519200086594e-01" nType="-99"/>
          <Node pos="r" depth="2" NCoef="0" IVar="-1" Cut="0.0000000000000000e+00" cType="1" res="2.5534860789775848e-02" rms="2.2021269798278809e-01" purity="2.8613704442977905e-01" nType="-99"/>
        </Node>
        <Node pos="r" depth="1" NCoef="0" IVar="16" Cut="3.7889334559440613e-01" cType="1" res="-1.9918263424187899e-03" rms="1.9367258250713348e-01" purity="5.3860419988632202e-01" nType="0">
          <Node pos="l" depth="2" NCoef="0" IVar="-1" Cut="0.0000000000000000e+00" cType="1" res="-5.4899542592465878e-03" rms="2.1405479311943054e-01" purity="3.5316771268844604e-01" nType="-99"/>
          <Node pos="r" depth="2" NCoef="0" IVar="-1" Cut="0.0000000000000000e+00" cType="1" res="3.8570087053813040e-04" rms="1.8045066297054291e-01" purity="6.4867377281188965e-01" nType="-99"/>
        </Node>
      </Node>
    </BinaryTree>
    <BinaryTree type="DecisionTree" boostWeight="1.0000000000000000e+00" itree="661">
      <Node pos="s" depth="0" NCoef="0" IVar="34" Cut="7.1425781250000000e+00" cType="1" res="-3.7337443791329861e-04" rms="1.9674542546272278e-01" purity="4.9937799572944641e-01" nType="0">
        <Node pos="l" depth="1" NCoef="0" IVar="12" Cut="7.3158540725708008e+00" cType="1" res="1.3746941931458423e-06" rms="1.9794707000255585e-01" purity="5.1139080524444580e-01" nType="0">
          <Node pos="l" depth="2" NCoef="0" IVar="-1" Cut="0.0000000000000000e+00" cType="1" res="2.4864729493856430e-03" rms="2.0716936886310577e-01" purity="4.2931503057479858e-01" nType="-99"/>
          <Node pos="r" depth="2" NCoef="0" IVar="-1" Cut="0.0000000000000000e+00" cType="1" res="-3.1776200048625469e-03" rms="1.8746776878833771e-01" purity="5.9985893964767456e-01" nType="-99"/>
        </Node>
        <Node pos="r" depth="1" NCoef="0" IVar="-1" Cut="0.0000000000000000e+00" cType="1" res="-2.9086254537105560e-02" rms="1.4494244754314423e-01" purity="5.6028366088867188e-02" nType="-99"/>
      </Node>
    </BinaryTree>
    <BinaryTree type="DecisionTree" boostWeight="1.0000000000000000e+00" itree="662">
      <Node pos="s" depth="0" NCoef="0" IVar="6" Cut="4.1764783859252930e+00" cType="1" res="-1.9375227857381105e-03" rms="1.9164106249809265e-01" purity="4.9943363666534424e-01" nType="0">
        <Node pos="l" depth="1" NCoef="0" IVar="13" Cut="7.9336748123168945e+00" cType="1" res="-8.5416231304407120e-03" rms="1.8446272611618042e-01" purity="2.5328812003135681e-01" nType="0">
          <Node pos="l" depth="2" NCoef="0" IVar="-1" Cut="0.0000000000000000e+00" cType="1" res="-2.0663890987634659e-02" rms="1.8091487884521484e-01" purity="1.8040977418422699e-01" nType="-99"/>
          <Node pos="r" depth="2" NCoef="0" IVar="-1" Cut="0.0000000000000000e+00" cType="1" res="1.3346206396818161e-02" rms="1.9357705116271973e-01" purity="4.7695028781890869e-01" nType="-99"/>
        </Node>
        <Node pos="r" depth="1" NCoef="0" IVar="14" Cut="7.5336756706237793e+00" cType="1" res="-8.9578115148469806e-04" rms="1.9272832572460175e-01" purity="5.3826099634170532e-01" nType="0">
          <Node pos="l" depth="2" NCoef="0" IVar="-1" Cut="0.0000000000000000e+00" cType="1" res="1.1503728106617928e-02" rms="1.9139364361763000e-01" purity="5.6850540637969971e-01" nType="-99"/>
          <Node pos="r" depth="2" NCoef="0" IVar="-1" Cut="0.0000000000000000e+00" cType="1" res="-2.3421754594892263e-03" rms="1.9281233847141266e-01" purity="5.3551352024078369e-01" nType="-99"/>
        </Node>
      </Node>
    </BinaryTree>
    <BinaryTree type="DecisionTree" boostWeight="1.0000000000000000e+00" itree="663">
      <Node pos="s" depth="0" NCoef="0" IVar="32" Cut="1.9047087058424950e-02" cType="1" res="-3.6237499443814158e-04" rms="1.9395950436592102e-01" purity="4.9938011169433594e-01" nType="0">
        <Node pos="l" depth="1" NCoef="0" IVar="32" Cut="1.8185187363997102e-03" cType="1" res="-2.0677980501204729e-03" rms="1.8892282247543335e-01" purity="6.3145130872726440e-01" nType="0">
          <Node pos="l" depth="2" NCoef="0" IVar="-1" Cut="0.0000000000000000e+00" cType="1" res="8.1703104078769684e-03" rms="1.6783951222896576e-01" purity="7.5137275457382202e-01" nType="-99"/>
          <Node pos="r" depth="2" NCoef="0" IVar="-1" Cut="0.0000000000000000e+00" cType="1" res="-7.0524187758564949e-03" rms="1.9926890730857849e-01" purity="5.6656986474990845e-01" nType="-99"/>
        </Node>
        <Node pos="r" depth="1" NCoef="0" IVar="16" Cut="3.6582672595977783e-01" cType="1" res="2.3482246324419975e-03" rms="2.0167650282382965e-01" purity="2.8946611285209656e-01" nType="0">
          <Node pos="l" depth="2" NCoef="0" IVar="-1" Cut="0.0000000000000000e+00" cType="1" res="1.1621605604887009e-02" rms="2.0138056576251984e-01" purity="1.7377187311649323e-01" nType="-99"/>
          <Node pos="r" depth="2" NCoef="0" IVar="-1" Cut="0.0000000000000000e+00" cType="1" res="-4.5202928595244884e-03" rms="2.0173402130603790e-01" purity="3.9363697171211243e-01" nType="-99"/>
        </Node>
      </Node>
    </BinaryTree>
    <BinaryTree type="DecisionTree" boostWeight="1.0000000000000000e+00" itree="664">
      <Node pos="s" depth="0" NCoef="0" IVar="14" Cut="8.6495256423950195e+00" cType="1" res="1.5390715270768851e-04" rms="1.9387972354888916e-01" purity="5.0102210044860840e-01" nType="0">
        <Node pos="l" depth="1" NCoef="0" IVar="7" Cut="2.0803263187408447e+00" cType="1" res="-1.5147543745115399e-03" rms="1.9743016362190247e-01" purity="4.8261266946792603e-01" nType="0">
          <Node pos="l" depth="2" NCoef="0" IVar="-1" Cut="0.0000000000000000e+00" cType="1" res="-4.2025381699204445e-03" rms="2.1882900595664978e-01" purity="6.7926996946334839e-01" nType="-99"/>
          <Node pos="r" depth="2" NCoef="0" IVar="-1" Cut="0.0000000000000000e+00" cType="1" res="4.2802710086107254e-03" rms="1.6261966526508331e-01" purity="2.0653963088989258e-01" nType="-99"/>
        </Node>
        <Node pos="r" depth="1" NCoef="0" IVar="7" Cut="1.7074018716812134e+00" cType="1" res="4.1201384738087654e-03" rms="1.8510735034942627e-01" purity="5.4477912187576294e-01" nType="0">
          <Node pos="l" depth="2" NCoef="0" IVar="-1" Cut="0.0000000000000000e+00" cType="1" res="1.1756760999560356e-02" rms="1.9397212564945221e-01" purity="7.4513465166091919e-01" nType="-99"/>
          <Node pos="r" depth="2" NCoef="0" IVar="-1" Cut="0.0000000000000000e+00" cType="1" res="-5.1446836441755295e-03" rms="1.7308385670185089e-01" purity="2.9371190071105957e-01" nType="-99"/>
        </Node>
      </Node>
    </BinaryTree>
    <BinaryTree type="DecisionTree" boostWeight="1.0000000000000000e+00" itree="665">
      <Node pos="s" depth="0" NCoef="0" IVar="28" Cut="7.6362013816833496e-01" cType="1" res="7.6710552093572915e-05" rms="1.9623345136642456e-01" purity="5.0228089094161987e-01" nType="0">
        <Node pos="l" depth="1" NCoef="0" IVar="3" Cut="2.3902182579040527e+00" cType="1" res="2.5193551555275917e-03" rms="2.0771148800849915e-01" purity="3.5426428914070129e-01" nType="0">
          <Node pos="l" depth="2" NCoef="0" IVar="-1" Cut="0.0000000000000000e+00" cType="1" res="5.3485361859202385e-03" rms="2.4527369439601898e-01" purity="5.4516005516052246e-01" nType="-99"/>
          <Node pos="r" depth="2" NCoef="0" IVar="-1" Cut="0.0000000000000000e+00" cType="1" res="-7.6511679217219353e-03" rms="1.4076812565326691e-01" purity="9.3183882534503937e-02" nType="-99"/>
        </Node>
        <Node pos="r" depth="1" NCoef="0" IVar="27" Cut="7.6237481832504272e-01" cType="1" res="-2.4766307324171066e-03" rms="1.8343445658683777e-01" purity="6.5700531005859375e-01" nType="0">
          <Node pos="l" depth="2" NCoef="0" IVar="-1" Cut="0.0000000000000000e+00" cType="1" res="-1.1263507418334484e-02" rms="1.9235517084598541e-01" purity="3.1506931781768799e-01" nType="-99"/>
          <Node pos="r" depth="2" NCoef="0" IVar="-1" Cut="0.0000000000000000e+00" cType="1" res="-1.2805903097614646e-03" rms="1.8152768909931183e-01" purity="7.2655022144317627e-01" nType="-99"/>
        </Node>
      </Node>
    </BinaryTree>
    <BinaryTree type="DecisionTree" boostWeight="1.0000000000000000e+00" itree="666">
      <Node pos="s" depth="0" NCoef="0" IVar="28" Cut="5.7239085435867310e-01" cType="1" res="-6.8662042031064630e-04" rms="1.9451592862606049e-01" purity="4.9664238095283508e-01" nType="0">
        <Node pos="l" depth="1" NCoef="0" IVar="31" Cut="1.9041037186980247e-02" cType="1" res="-3.8756681606173515e-03" rms="1.9784598052501678e-01" purity="3.1228530406951904e-01" nType="0">
          <Node pos="l" depth="2" NCoef="0" IVar="-1" Cut="0.0000000000000000e+00" cType="1" res="-9.0025849640369415e-03" rms="2.0393329858779907e-01" purity="4.3718269467353821e-01" nType="-99"/>
          <Node pos="r" depth="2" NCoef="0" IVar="-1" Cut="0.0000000000000000e+00" cType="1" res="8.9590839343145490e-04" rms="1.9172717630863190e-01" purity="1.9276535511016846e-01" nType="-99"/>
        </Node>
        <Node pos="r" depth="1" NCoef="0" IVar="1" Cut="1.7017333984375000e+01" cType="1" res="1.1757541215047240e-03" rms="1.9252015650272369e-01" purity="6.0430526733398438e-01" nType="0">
          <Node pos="l" depth="2" NCoef="0" IVar="-1" Cut="0.0000000000000000e+00" cType="1" res="9.2657282948493958e-05" rms="1.9419643282890320e-01" purity="6.1322760581970215e-01" nType="-99"/>
          <Node pos="r" depth="2" NCoef="0" IVar="-1" Cut="0.0000000000000000e+00" cType="1" res="1.0762791149318218e-02" rms="1.8054141104221344e-01" purity="5.4368048906326294e-01" nType="-99"/>
        </Node>
      </Node>
    </BinaryTree>
    <BinaryTree type="DecisionTree" boostWeight="1.0000000000000000e+00" itree="667">
      <Node pos="s" depth="0" NCoef="0" IVar="26" Cut="9.5122165977954865e-02" cType="1" res="1.2274991604499519e-04" rms="1.9743055105209351e-01" purity="4.9434167146682739e-01" nType="0">
        <Node pos="l" depth="1" NCoef="0" IVar="16" Cut="2.5825873017311096e-01" cType="1" res="-1.1768707772716880e-03" rms="1.9618198275566101e-01" purity="5.4331672191619873e-01" nType="0">
          <Node pos="l" depth="2" NCoef="0" IVar="-1" Cut="0.0000000000000000e+00" cType="1" res="1.2169688940048218e-02" rms="2.0883023738861084e-01" purity="2.1480175852775574e-01" nType="-99"/>
          <Node pos="r" depth="2" NCoef="0" IVar="-1" Cut="0.0000000000000000e+00" cType="1" res="-2.9432072769850492e-03" rms="1.9458290934562683e-01" purity="5.8230489492416382e-01" nType="-99"/>
        </Node>
        <Node pos="r" depth="1" NCoef="0" IVar="32" Cut="3.8097355514764786e-02" cType="1" res="6.4248093403875828e-03" rms="2.0325857400894165e-01" purity="2.5685420632362366e-01" nType="0">
          <Node pos="l" depth="2" NCoef="0" IVar="-1" Cut="0.0000000000000000e+00" cType="1" res="1.3779101893305779e-02" rms="2.1652476489543915e-01" purity="3.5031136870384216e-01" nType="-99"/>
          <Node pos="r" depth="2" NCoef="0" IVar="-1" Cut="0.0000000000000000e+00" cType="1" res="-2.4579758755862713e-03" rms="1.8428969383239746e-01" purity="1.3544769585132599e-01" nType="-99"/>
        </Node>
      </Node>
    </BinaryTree>
    <BinaryTree type="DecisionTree" boostWeight="1.0000000000000000e+00" itree="668">
      <Node pos="s" depth="0" NCoef="0" IVar="12" Cut="6.9104557037353516e+00" cType="1" res="1.3429551618173718e-03" rms="1.9585637748241425e-01" purity="5.0020873546600342e-01" nType="0">
        <Node pos="l" depth="1" NCoef="0" IVar="10" Cut="6.8700680732727051e+00" cType="1" res="-3.1869672238826752e-03" rms="1.9954945147037506e-01" purity="3.4378489851951599e-01" nType="0">
          <Node pos="l" depth="2" NCoef="0" IVar="-1" Cut="0.0000000000000000e+00" cType="1" res="-1.2618604116141796e-02" rms="1.8784596025943756e-01" purity="3.2959568500518799e-01" nType="-99"/>
          <Node pos="r" depth="2" NCoef="0" IVar="-1" Cut="0.0000000000000000e+00" cType="1" res="4.2712832801043987e-03" rms="2.1102991700172424e-01" purity="3.5887357592582703e-01" nType="-99"/>
        </Node>
        <Node pos="r" depth="1" NCoef="0" IVar="12" Cut="7.4394922256469727e+00" cType="1" res="2.9302963521331549e-03" rms="1.9452072679996490e-01" purity="5.5502164363861084e-01" nType="0">
          <Node pos="l" depth="2" NCoef="0" IVar="-1" Cut="0.0000000000000000e+00" cType="1" res="8.8025759905576706e-03" rms="2.0632217824459076e-01" purity="4.9541705846786499e-01" nType="-99"/>
          <Node pos="r" depth="2" NCoef="0" IVar="-1" Cut="0.0000000000000000e+00" cType="1" res="-1.8531751120463014e-03" rms="1.8362833559513092e-01" purity="6.0640639066696167e-01" nType="-99"/>
        </Node>
      </Node>
    </BinaryTree>
    <BinaryTree type="DecisionTree" boostWeight="1.0000000000000000e+00" itree="669">
      <Node pos="s" depth="0" NCoef="0" IVar="33" Cut="1.5238440036773682e-01" cType="1" res="-6.4772146288305521e-05" rms="1.9443897902965546e-01" purity="4.9811828136444092e-01" nType="0">
        <Node pos="l" depth="1" NCoef="0" IVar="26" Cut="4.7538883984088898e-02" cType="1" res="1.0186063591390848e-03" rms="1.9560098648071289e-01" purity="5.3087425231933594e-01" nType="0">
          <Node pos="l" depth="2" NCoef="0" IVar="-1" Cut="0.0000000000000000e+00" cType="1" res="-1.0977522470057011e-03" rms="1.9346031546592712e-01" purity="5.9408903121948242e-01" nType="-99"/>
          <Node pos="r" depth="2" NCoef="0" IVar="-1" Cut="0.0000000000000000e+00" cType="1" res="9.2411329969763756e-03" rms="2.0305742323398590e-01" purity="3.0040061473846436e-01" nType="-99"/>
        </Node>
        <Node pos="r" depth="1" NCoef="0" IVar="24" Cut="9.5209753513336182e-01" cType="1" res="-8.1400917842984200e-03" rms="1.8534901738166809e-01" purity="2.5396069884300232e-01" nType="0">
          <Node pos="l" depth="2" NCoef="0" IVar="-1" Cut="0.0000000000000000e+00" cType="1" res="-4.4003999792039394e-03" rms="1.7830851674079895e-01" purity="1.7132264375686646e-01" nType="-99"/>
          <Node pos="r" depth="2" NCoef="0" IVar="-1" Cut="0.0000000000000000e+00" cType="1" res="-1.9457120448350906e-02" rms="2.0000073313713074e-01" purity="4.4173538684844971e-01" nType="-99"/>
        </Node>
      </Node>
    </BinaryTree>
    <BinaryTree type="DecisionTree" boostWeight="1.0000000000000000e+00" itree="670">
      <Node pos="s" depth="0" NCoef="0" IVar="3" Cut="3.0991165637969971e+00" cType="1" res="2.0650166552513838e-03" rms="1.9605258107185364e-01" purity="5.0048643350601196e-01" nType="0">
        <Node pos="l" depth="1" NCoef="0" IVar="3" Cut="2.2163398265838623e+00" cType="1" res="3.1883304473012686e-03" rms="2.2056701779365540e-01" purity="6.3370841741561890e-01" nType="0">
          <Node pos="l" depth="2" NCoef="0" IVar="-1" Cut="0.0000000000000000e+00" cType="1" res="8.8080047862604260e-04" rms="2.1259666979312897e-01" purity="6.9405704736709595e-01" nType="-99"/>
          <Node pos="r" depth="2" NCoef="0" IVar="-1" Cut="0.0000000000000000e+00" cType="1" res="9.3465335667133331e-03" rms="2.4569687247276306e-01" purity="4.2751666903495789e-01" nType="-99"/>
        </Node>
        <Node pos="r" depth="1" NCoef="0" IVar="34" Cut="1.9861595630645752e+00" cType="1" res="-2.1550329402089119e-03" rms="6.7298873327672482e-03" purity="0.0000000000000000e+00" nType="0">
          <Node pos="l" depth="2" NCoef="0" IVar="-1" Cut="0.0000000000000000e+00" cType="1" res="-5.1484882831573486e-02" rms="9.5817027613520622e-03" purity="0.0000000000000000e+00" nType="-99"/>
          <Node pos="r" depth="2" NCoef="0" IVar="-1" Cut="0.0000000000000000e+00" cType="1" res="-5.0686344504356384e-02" rms="3.9507257752120495e-03" purity="0.0000000000000000e+00" nType="-99"/>
        </Node>
      </Node>
    </BinaryTree>
    <BinaryTree type="DecisionTree" boostWeight="1.0000000000000000e+00" itree="671">
      <Node pos="s" depth="0" NCoef="0" IVar="21" Cut="5.2822427749633789e+00" cType="1" res="5.4552662186324596e-04" rms="1.9752632081508636e-01" purity="4.9875470995903015e-01" nType="0">
        <Node pos="l" depth="1" NCoef="0" IVar="3" Cut="1.6919554471969604e+00" cType="1" res="5.6357677094638348e-03" rms="2.0862089097499847e-01" purity="2.7794650197029114e-01" nType="0">
          <Node pos="l" depth="2" NCoef="0" IVar="-1" Cut="0.0000000000000000e+00" cType="1" res="1.1040615849196911e-02" rms="2.5877779722213745e-01" purity="5.0471323728561401e-01" nType="-99"/>
          <Node pos="r" depth="2" NCoef="0" IVar="-1" Cut="0.0000000000000000e+00" cType="1" res="7.0702756056562066e-04" rms="1.7424550652503967e-01" purity="1.5136951208114624e-01" nType="-99"/>
        </Node>
        <Node pos="r" depth="1" NCoef="0" IVar="13" Cut="7.7073493003845215e+00" cType="1" res="-6.1516737332567573e-04" rms="1.9488948583602905e-01" purity="5.4910415410995483e-01" nType="0">
          <Node pos="l" depth="2" NCoef="0" IVar="-1" Cut="0.0000000000000000e+00" cType="1" res="5.0159692764282227e-03" rms="1.9407039880752563e-01" purity="4.7759374976158142e-01" nType="-99"/>
          <Node pos="r" depth="2" NCoef="0" IVar="-1" Cut="0.0000000000000000e+00" cType="1" res="-2.2946719545871019e-03" rms="1.9509911537170410e-01" purity="5.6925582885742188e-01" nType="-99"/>
        </Node>
      </Node>
    </BinaryTree>
    <BinaryTree type="DecisionTree" boostWeight="1.0000000000000000e+00" itree="672">
      <Node pos="s" depth="0" NCoef="0" IVar="21" Cut="1.8488235473632812e+00" cType="1" res="1.4239697484299541e-03" rms="1.9567804038524628e-01" purity="5.0237077474594116e-01" nType="0">
        <Node pos="l" depth="1" NCoef="0" IVar="7" Cut="2.1418266296386719e+00" cType="1" res="-9.6516814082860947e-03" rms="1.8899221718311310e-01" purity="2.3255470395088196e-01" nType="0">
          <Node pos="l" depth="2" NCoef="0" IVar="-1" Cut="0.0000000000000000e+00" cType="1" res="-1.6070343554019928e-02" rms="2.3052661120891571e-01" purity="3.8186085224151611e-01" nType="-99"/>
          <Node pos="r" depth="2" NCoef="0" IVar="-1" Cut="0.0000000000000000e+00" cType="1" res="-1.9052497809752822e-03" rms="1.4309282600879669e-01" purity="1.0339070111513138e-01" nType="-99"/>
        </Node>
        <Node pos="r" depth="1" NCoef="0" IVar="30" Cut="2.2856611013412476e-01" cType="1" res="2.1127799991518259e-03" rms="1.9606563448905945e-01" purity="5.1915097236633301e-01" nType="0">
          <Node pos="l" depth="2" NCoef="0" IVar="-1" Cut="0.0000000000000000e+00" cType="1" res="1.6640784451738000e-03" rms="1.9507107138633728e-01" purity="5.3335052728652954e-01" nType="-99"/>
          <Node pos="r" depth="2" NCoef="0" IVar="-1" Cut="0.0000000000000000e+00" cType="1" res="1.8135733902454376e-02" rms="2.1391552686691284e-01" purity="2.4517193436622620e-01" nType="-99"/>
        </Node>
      </Node>
    </BinaryTree>
    <BinaryTree type="DecisionTree" boostWeight="1.0000000000000000e+00" itree="673">
      <Node pos="s" depth="0" NCoef="0" IVar="23" Cut="6.1985051631927490e-01" cType="1" res="-4.7200749395415187e-04" rms="1.9408749043941498e-01" purity="5.0033849477767944e-01" nType="0">
        <Node pos="l" depth="1" NCoef="0" IVar="3" Cut="1.4440076351165771e+00" cType="1" res="-4.9477140419185162e-03" rms="1.8410076200962067e-01" purity="1.0804111510515213e-01" nType="0">
          <Node pos="l" depth="2" NCoef="0" IVar="-1" Cut="0.0000000000000000e+00" cType="1" res="-1.1586470529437065e-02" rms="2.3438861966133118e-01" purity="2.3593181371688843e-01" nType="-99"/>
          <Node pos="r" depth="2" NCoef="0" IVar="-1" Cut="0.0000000000000000e+00" cType="1" res="-1.5704839024692774e-03" rms="1.6458034515380859e-01" purity="6.7082762718200684e-02" nType="-99"/>
        </Node>
        <Node pos="r" depth="1" NCoef="0" IVar="31" Cut="5.7117342948913574e-02" cType="1" res="1.7696035793051124e-03" rms="1.9886301457881927e-01" purity="6.9681656360626221e-01" nType="0">
          <Node pos="l" depth="2" NCoef="0" IVar="-1" Cut="0.0000000000000000e+00" cType="1" res="-6.6441607486922294e-05" rms="1.8981848657131195e-01" purity="7.5858420133590698e-01" nType="-99"/>
          <Node pos="r" depth="2" NCoef="0" IVar="-1" Cut="0.0000000000000000e+00" cType="1" res="9.3008410185575485e-03" rms="2.3514021933078766e-01" purity="4.1873496770858765e-01" nType="-99"/>
        </Node>
      </Node>
    </BinaryTree>
    <BinaryTree type="DecisionTree" boostWeight="1.0000000000000000e+00" itree="674">
      <Node pos="s" depth="0" NCoef="0" IVar="29" Cut="7.4714356660842896e-01" cType="1" res="-1.0856196749955416e-03" rms="1.9298712909221649e-01" purity="4.9940815567970276e-01" nType="0">
        <Node pos="l" depth="1" NCoef="0" IVar="21" Cut="1.4469047546386719e+01" cType="1" res="-1.6188123263418674e-03" rms="1.9234079122543335e-01" purity="5.0522100925445557e-01" nType="0">
          <Node pos="l" depth="2" NCoef="0" IVar="-1" Cut="0.0000000000000000e+00" cType="1" res="-4.6886885538697243e-03" rms="1.9981372356414795e-01" purity="3.3755645155906677e-01" nType="-99"/>
          <Node pos="r" depth="2" NCoef="0" IVar="-1" Cut="0.0000000000000000e+00" cType="1" res="1.5136305009946227e-03" rms="1.8417038023471832e-01" purity="6.8038552999496460e-01" nType="-99"/>
        </Node>
        <Node pos="r" depth="1" NCoef="0" IVar="-1" Cut="0.0000000000000000e+00" cType="1" res="1.1013415642082691e-02" rms="2.0636524260044098e-01" purity="3.7134489417076111e-01" nType="-99"/>
      </Node>
    </BinaryTree>
    <BinaryTree type="DecisionTree" boostWeight="1.0000000000000000e+00" itree="675">
      <Node pos="s" depth="0" NCoef="0" IVar="0" Cut="2.2686634063720703e+01" cType="1" res="7.5787043897435069e-04" rms="1.9405475258827209e-01" purity="4.9992248415946960e-01" nType="0">
        <Node pos="l" depth="1" NCoef="0" IVar="13" Cut="8.9902629852294922e+00" cType="1" res="1.3272275682538748e-03" rms="1.9507989287376404e-01" purity="5.0782519578933716e-01" nType="0">
          <Node pos="l" depth="2" NCoef="0" IVar="-1" Cut="0.0000000000000000e+00" cType="1" res="2.1690328139811754e-03" rms="1.9632028043270111e-01" purity="5.0478434562683105e-01" nType="-99"/>
          <Node pos="r" depth="2" NCoef="0" IVar="-1" Cut="0.0000000000000000e+00" cType="1" res="-1.0082877241075039e-02" rms="1.7454822361469269e-01" purity="5.5489349365234375e-01" nType="-99"/>
        </Node>
        <Node pos="r" depth="1" NCoef="0" IVar="-1" Cut="0.0000000000000000e+00" cType="1" res="-1.3925641775131226e-02" rms="1.7208558320999146e-01" purity="3.4322372078895569e-01" nType="-99"/>
      </Node>
    </BinaryTree>
    <BinaryTree type="DecisionTree" boostWeight="1.0000000000000000e+00" itree="676">
      <Node pos="s" depth="0" NCoef="0" IVar="34" Cut="7.9414379596710205e-01" cType="1" res="-3.7978217005729675e-04" rms="1.9576576352119446e-01" purity="4.9807959794998169e-01" nType="0">
        <Node pos="l" depth="1" NCoef="0" IVar="16" Cut="3.9641994237899780e-01" cType="1" res="-4.0062041953206062e-03" rms="1.8678086996078491e-01" purity="6.4299881458282471e-01" nType="0">
          <Node pos="l" depth="2" NCoef="0" IVar="-1" Cut="0.0000000000000000e+00" cType="1" res="-1.2813634239137173e-02" rms="2.1539920568466187e-01" purity="4.1971525549888611e-01" nType="-99"/>
          <Node pos="r" depth="2" NCoef="0" IVar="-1" Cut="0.0000000000000000e+00" cType="1" res="8.5954703390598297e-03" rms="1.5492840111255646e-01" purity="8.5077422857284546e-01" nType="-99"/>
        </Node>
        <Node pos="r" depth="1" NCoef="0" IVar="11" Cut="8.0372457504272461e+00" cType="1" res="9.2690490419045091e-04" rms="1.9888758659362793e-01" purity="4.4586178660392761e-01" nType="0">
          <Node pos="l" depth="2" NCoef="0" IVar="-1" Cut="0.0000000000000000e+00" cType="1" res="2.5920284679159522e-04" rms="1.9883944094181061e-01" purity="4.5034438371658325e-01" nType="-99"/>
          <Node pos="r" depth="2" NCoef="0" IVar="-1" Cut="0.0000000000000000e+00" cType="1" res="2.2885037586092949e-02" rms="1.9929076731204987e-01" purity="3.3881646394729614e-01" nType="-99"/>
        </Node>
      </Node>
    </BinaryTree>
    <BinaryTree type="DecisionTree" boostWeight="1.0000000000000000e+00" itree="677">
      <Node pos="s" depth="0" NCoef="0" IVar="33" Cut="2.6666107773780823e-01" cType="1" res="1.6644423594698310e-03" rms="1.9629950821399689e-01" purity="5.0255322456359863e-01" nType="0">
        <Node pos="l" depth="1" NCoef="0" IVar="12" Cut="6.7181324958801270e+00" cType="1" res="9.7996753174811602e-04" rms="1.9536301493644714e-01" purity="5.1241576671600342e-01" nType="0">
          <Node pos="l" depth="2" NCoef="0" IVar="-1" Cut="0.0000000000000000e+00" cType="1" res="-6.8610045127570629e-03" rms="2.0053102076053619e-01" purity="3.2397428154945374e-01" nType="-99"/>
          <Node pos="r" depth="2" NCoef="0" IVar="-1" Cut="0.0000000000000000e+00" cType="1" res="2.8100281488150358e-03" rms="1.9435594975948334e-01" purity="5.4749274253845215e-01" nType="-99"/>
        </Node>
        <Node pos="r" depth="1" NCoef="0" IVar="-1" Cut="0.0000000000000000e+00" cType="1" res="1.9103795289993286e-02" rms="2.1551112830638885e-01" purity="2.8331312537193298e-01" nType="-99"/>
      </Node>
    </BinaryTree>
    <BinaryTree type="DecisionTree" boostWeight="1.0000000000000000e+00" itree="678">
      <Node pos="s" depth="0" NCoef="0" IVar="30" Cut="2.8569987416267395e-01" cType="1" res="6.7931122612208128e-04" rms="1.9373193383216858e-01" purity="5.0430440902709961e-01" nType="0">
        <Node pos="l" depth="1" NCoef="0" IVar="30" Cut="2.1761880815029144e-01" cType="1" res="1.0671670315787196e-03" rms="1.9460348784923553e-01" purity="5.1358932256698608e-01" nType="0">
          <Node pos="l" depth="2" NCoef="0" IVar="-1" Cut="0.0000000000000000e+00" cType="1" res="7.5233785901218653e-04" rms="1.9407466053962708e-01" purity="5.2201706171035767e-01" nType="-99"/>
          <Node pos="r" depth="2" NCoef="0" IVar="-1" Cut="0.0000000000000000e+00" cType="1" res="1.7735820263624191e-02" rms="2.1100766956806183e-01" purity="2.3173415660858154e-01" nType="-99"/>
        </Node>
        <Node pos="r" depth="1" NCoef="0" IVar="-1" Cut="0.0000000000000000e+00" cType="1" res="-1.6590086743235588e-02" rms="1.5970292687416077e-01" purity="1.7955735325813293e-01" nType="-99"/>
      </Node>
    </BinaryTree>
    <BinaryTree type="DecisionTree" boostWeight="1.0000000000000000e+00" itree="679">
      <Node pos="s" depth="0" NCoef="0" IVar="27" Cut="4.7629010677337646e-01" cType="1" res="-3.5814224975183606e-04" rms="1.9512479007244110e-01" purity="4.9821120500564575e-01" nType="0">
        <Node pos="l" depth="1" NCoef="0" IVar="23" Cut="7.6253688335418701e-01" cType="1" res="-7.5171180069446564e-03" rms="1.8174012005329132e-01" purity="1.6863062977790833e-01" nType="0">
          <Node pos="l" depth="2" NCoef="0" IVar="-1" Cut="0.0000000000000000e+00" cType="1" res="-3.1348243355751038e-03" rms="1.5539501607418060e-01" purity="4.7485370188951492e-02" nType="-99"/>
          <Node pos="r" depth="2" NCoef="0" IVar="-1" Cut="0.0000000000000000e+00" cType="1" res="-1.8813438713550568e-02" rms="2.2718530893325806e-01" purity="4.2520901560783386e-01" nType="-99"/>
        </Node>
        <Node pos="r" depth="1" NCoef="0" IVar="32" Cut="7.6152190566062927e-02" cType="1" res="5.3814542479813099e-04" rms="1.9671803712844849e-01" purity="5.3947395086288452e-01" nType="0">
          <Node pos="l" depth="2" NCoef="0" IVar="-1" Cut="0.0000000000000000e+00" cType="1" res="-9.4008812448009849e-04" rms="1.9600813090801239e-01" purity="5.9376168251037598e-01" nType="-99"/>
          <Node pos="r" depth="2" NCoef="0" IVar="-1" Cut="0.0000000000000000e+00" cType="1" res="9.5196757465600967e-03" rms="2.0034055411815643e-01" purity="2.4719050526618958e-01" nType="-99"/>
        </Node>
      </Node>
    </BinaryTree>
    <BinaryTree type="DecisionTree" boostWeight="1.0000000000000000e+00" itree="680">
      <Node pos="s" depth="0" NCoef="0" IVar="14" Cut="9.1539831161499023e+00" cType="1" res="-3.4030748065561056e-04" rms="1.9536907970905304e-01" purity="4.9994894862174988e-01" nType="0">
        <Node pos="l" depth="1" NCoef="0" IVar="12" Cut="6.1698408126831055e+00" cType="1" res="2.2955751046538353e-04" rms="1.9628521800041199e-01" purity="4.9542927742004395e-01" nType="0">
          <Node pos="l" depth="2" NCoef="0" IVar="-1" Cut="0.0000000000000000e+00" cType="1" res="1.6080154106020927e-02" rms="2.0648184418678284e-01" purity="2.7297091484069824e-01" nType="-99"/>
          <Node pos="r" depth="2" NCoef="0" IVar="-1" Cut="0.0000000000000000e+00" cType="1" res="-2.6810925919562578e-04" rms="1.9594545662403107e-01" purity="5.0226891040802002e-01" nType="-99"/>
        </Node>
        <Node pos="r" depth="1" NCoef="0" IVar="15" Cut="7.6486897468566895e+00" cType="1" res="-8.3062946796417236e-03" rms="1.8189384043216705e-01" purity="5.6312733888626099e-01" nType="0">
          <Node pos="l" depth="2" NCoef="0" IVar="-1" Cut="0.0000000000000000e+00" cType="1" res="-2.2243071347475052e-02" rms="1.7874395847320557e-01" purity="5.0457137823104858e-01" nType="-99"/>
          <Node pos="r" depth="2" NCoef="0" IVar="-1" Cut="0.0000000000000000e+00" cType="1" res="1.9306148169562221e-03" rms="1.8472778797149658e-01" purity="6.2551194429397583e-01" nType="-99"/>
        </Node>
      </Node>
    </BinaryTree>
    <BinaryTree type="DecisionTree" boostWeight="1.0000000000000000e+00" itree="681">
      <Node pos="s" depth="0" NCoef="0" IVar="13" Cut="7.0721716880798340e+00" cType="1" res="-4.9082067562267184e-04" rms="1.9735467433929443e-01" purity="4.9983629584312439e-01" nType="0">
        <Node pos="l" depth="1" NCoef="0" IVar="-1" Cut="0.0000000000000000e+00" cType="1" res="1.4495288953185081e-02" rms="2.0007501542568207e-01" purity="3.4636843204498291e-01" nType="-99"/>
        <Node pos="r" depth="1" NCoef="0" IVar="27" Cut="5.2380555868148804e-01" cType="1" res="-9.6672750078141689e-04" rms="1.9723118841648102e-01" purity="5.0590759515762329e-01" nType="0">
          <Node pos="l" depth="2" NCoef="0" IVar="-1" Cut="0.0000000000000000e+00" cType="1" res="-1.1025918647646904e-02" rms="1.7511254549026489e-01" purity="1.8068121373653412e-01" nType="-99"/>
          <Node pos="r" depth="2" NCoef="0" IVar="-1" Cut="0.0000000000000000e+00" cType="1" res="7.7446511568268761e-06" rms="2.0012044906616211e-01" purity="5.5154764652252197e-01" nType="-99"/>
        </Node>
      </Node>
    </BinaryTree>
    <BinaryTree type="DecisionTree" boostWeight="1.0000000000000000e+00" itree="682">
      <Node pos="s" depth="0" NCoef="0" IVar="29" Cut="7.9174089431762695e-01" cType="1" res="2.1333995391614735e-04" rms="1.9600217044353485e-01" purity="5.0064253807067871e-01" nType="0">
        <Node pos="l" depth="1" NCoef="0" IVar="28" Cut="1.4814545214176178e-01" cType="1" res="-1.6956134641077369e-04" rms="1.9554974138736725e-01" purity="5.0352603197097778e-01" nType="0">
          <Node pos="l" depth="2" NCoef="0" IVar="-1" Cut="0.0000000000000000e+00" cType="1" res="-1.2943319045007229e-02" rms="1.9923858344554901e-01" purity="2.7116081118583679e-01" nType="-99"/>
          <Node pos="r" depth="2" NCoef="0" IVar="-1" Cut="0.0000000000000000e+00" cType="1" res="2.9206898761913180e-04" rms="1.9539617002010345e-01" purity="5.1235878467559814e-01" nType="-99"/>
        </Node>
        <Node pos="r" depth="1" NCoef="0" IVar="-1" Cut="0.0000000000000000e+00" cType="1" res="1.3440599665045738e-02" rms="2.1138907968997955e-01" purity="3.9533859491348267e-01" nType="-99"/>
      </Node>
    </BinaryTree>
    <BinaryTree type="DecisionTree" boostWeight="1.0000000000000000e+00" itree="683">
      <Node pos="s" depth="0" NCoef="0" IVar="23" Cut="8.5725927352905273e-01" cType="1" res="2.5619790540076792e-04" rms="1.9749489426612854e-01" purity="4.9758124351501465e-01" nType="0">
        <Node pos="l" depth="1" NCoef="0" IVar="16" Cut="5.4036122560501099e-01" cType="1" res="2.8041780460625887e-03" rms="2.1542637050151825e-01" purity="1.9737946987152100e-01" nType="0">
          <Node pos="l" depth="2" NCoef="0" IVar="-1" Cut="0.0000000000000000e+00" cType="1" res="1.2029442004859447e-03" rms="2.1569111943244934e-01" purity="1.8600460886955261e-01" nType="-99"/>
          <Node pos="r" depth="2" NCoef="0" IVar="-1" Cut="0.0000000000000000e+00" cType="1" res="1.1999078094959259e-02" rms="2.1358974277973175e-01" purity="2.6552370190620422e-01" nType="-99"/>
        </Node>
        <Node pos="r" depth="1" NCoef="0" IVar="23" Cut="9.8636162281036377e-01" cType="1" res="-2.7901178691536188e-03" rms="1.7359368503093719e-01" purity="8.5649657249450684e-01" nType="0">
          <Node pos="l" depth="2" NCoef="0" IVar="-1" Cut="0.0000000000000000e+00" cType="1" res="-9.9182846024632454e-03" rms="2.1291424334049225e-01" purity="7.6619100570678711e-01" nType="-99"/>
          <Node pos="r" depth="2" NCoef="0" IVar="-1" Cut="0.0000000000000000e+00" cType="1" res="1.3462069444358349e-02" rms="1.1177506297826767e-01" purity="9.6075177192687988e-01" nType="-99"/>
        </Node>
      </Node>
    </BinaryTree>
    <BinaryTree type="DecisionTree" boostWeight="1.0000000000000000e+00" itree="684">
      <Node pos="s" depth="0" NCoef="0" IVar="16" Cut="3.2941326498985291e-01" cType="1" res="-5.6564912665635347e-04" rms="1.9217304885387421e-01" purity="5.0083464384078979e-01" nType="0">
        <Node pos="l" depth="1" NCoef="0" IVar="23" Cut="9.5259678363800049e-01" cType="1" res="-4.3942295014858246e-03" rms="2.0861002802848816e-01" purity="2.5407302379608154e-01" nType="0">
          <Node pos="l" depth="2" NCoef="0" IVar="-1" Cut="0.0000000000000000e+00" cType="1" res="-7.2839166969060898e-03" rms="2.1260343492031097e-01" purity="1.5879550576210022e-01" nType="-99"/>
          <Node pos="r" depth="2" NCoef="0" IVar="-1" Cut="0.0000000000000000e+00" cType="1" res="1.6463791951537132e-02" rms="1.7861051857471466e-01" purity="8.9021325111389160e-01" nType="-99"/>
        </Node>
        <Node pos="r" depth="1" NCoef="0" IVar="16" Cut="3.5620331764221191e-01" cType="1" res="1.0819021845236421e-03" rms="1.8462555110454559e-01" purity="6.0702341794967651e-01" nType="0">
          <Node pos="l" depth="2" NCoef="0" IVar="-1" Cut="0.0000000000000000e+00" cType="1" res="1.3742320239543915e-02" rms="2.0452056825160980e-01" purity="4.7880557179450989e-01" nType="-99"/>
          <Node pos="r" depth="2" NCoef="0" IVar="-1" Cut="0.0000000000000000e+00" cType="1" res="-4.5144342584535480e-04" rms="1.8225607275962830e-01" purity="6.2108153104782104e-01" nType="-99"/>
        </Node>
      </Node>
    </BinaryTree>
    <BinaryTree type="DecisionTree" boostWeight="1.0000000000000000e+00" itree="685">
      <Node pos="s" depth="0" NCoef="0" IVar="0" Cut="7.1614122390747070e+00" cType="1" res="5.1766255637630820e-04" rms="1.9438268244266510e-01" purity="4.9431362748146057e-01" nType="0">
        <Node pos="l" depth="1" NCoef="0" IVar="10" Cut="6.7618832588195801e+00" cType="1" res="2.7662294451147318e-03" rms="1.9690158963203430e-01" purity="4.8822849988937378e-01" nType="0">
          <Node pos="l" depth="2" NCoef="0" IVar="-1" Cut="0.0000000000000000e+00" cType="1" res="-2.9946761205792427e-03" rms="1.8577645719051361e-01" purity="4.2923784255981445e-01" nType="-99"/>
          <Node pos="r" depth="2" NCoef="0" IVar="-1" Cut="0.0000000000000000e+00" cType="1" res="7.9340394586324692e-03" rms="2.0599575340747833e-01" purity="5.3957897424697876e-01" nType="-99"/>
        </Node>
        <Node pos="r" depth="1" NCoef="0" IVar="16" Cut="3.2730215787887573e-01" cType="1" res="-2.2036894224584103e-03" rms="1.9125442206859589e-01" purity="5.0167822837829590e-01" nType="0">
          <Node pos="l" depth="2" NCoef="0" IVar="-1" Cut="0.0000000000000000e+00" cType="1" res="-1.3685311190783978e-02" rms="1.9693973660469055e-01" purity="1.8306528031826019e-01" nType="-99"/>
          <Node pos="r" depth="2" NCoef="0" IVar="-1" Cut="0.0000000000000000e+00" cType="1" res="2.6779205072671175e-03" rms="1.8849384784698486e-01" purity="6.4402711391448975e-01" nType="-99"/>
        </Node>
      </Node>
    </BinaryTree>
    <BinaryTree type="DecisionTree" boostWeight="1.0000000000000000e+00" itree="686">
      <Node pos="s" depth="0" NCoef="0" IVar="28" Cut="9.0480935573577881e-01" cType="1" res="-2.5775615358725190e-04" rms="1.9359485805034637e-01" purity="4.9791952967643738e-01" nType="0">
        <Node pos="l" depth="1" NCoef="0" IVar="3" Cut="2.1486496925354004e+00" cType="1" res="1.2852448271587491e-03" rms="2.0252509415149689e-01" purity="3.8741385936737061e-01" nType="0">
          <Node pos="l" depth="2" NCoef="0" IVar="-1" Cut="0.0000000000000000e+00" cType="1" res="3.5112909972667694e-03" rms="2.3214463889598846e-01" purity="5.9720414876937866e-01" nType="-99"/>
          <Node pos="r" depth="2" NCoef="0" IVar="-1" Cut="0.0000000000000000e+00" cType="1" res="-4.2081451974809170e-03" rms="1.6105116903781891e-01" purity="1.4208219945430756e-01" nType="-99"/>
        </Node>
        <Node pos="r" depth="1" NCoef="0" IVar="29" Cut="3.2480876892805099e-02" cType="1" res="-3.4614366013556719e-03" rms="1.7354850471019745e-01" purity="7.2735875844955444e-01" nType="0">
          <Node pos="l" depth="2" NCoef="0" IVar="-1" Cut="0.0000000000000000e+00" cType="1" res="-1.5635951422154903e-03" rms="1.6908356547355652e-01" purity="7.7431952953338623e-01" nType="-99"/>
          <Node pos="r" depth="2" NCoef="0" IVar="-1" Cut="0.0000000000000000e+00" cType="1" res="-1.8974274396896362e-02" rms="1.9461040198802948e-01" purity="4.8350679874420166e-01" nType="-99"/>
        </Node>
      </Node>
    </BinaryTree>
    <BinaryTree type="DecisionTree" boostWeight="1.0000000000000000e+00" itree="687">
      <Node pos="s" depth="0" NCoef="0" IVar="25" Cut="1.3876350224018097e-01" cType="1" res="-1.0860951151698828e-03" rms="1.9444818794727325e-01" purity="4.9829626083374023e-01" nType="0">
        <Node pos="l" depth="1" NCoef="0" IVar="27" Cut="9.0449953079223633e-01" cType="1" res="-3.1188793946057558e-03" rms="1.9319389760494232e-01" purity="6.0914468765258789e-01" nType="0">
          <Node pos="l" depth="2" NCoef="0" IVar="-1" Cut="0.0000000000000000e+00" cType="1" res="-8.7317833676934242e-03" rms="2.0593319833278656e-01" purity="3.4366127848625183e-01" nType="-99"/>
          <Node pos="r" depth="2" NCoef="0" IVar="-1" Cut="0.0000000000000000e+00" cType="1" res="-8.4631866775453091e-04" rms="1.8694961071014404e-01" purity="7.3210597038269043e-01" nType="-99"/>
        </Node>
        <Node pos="r" depth="1" NCoef="0" IVar="25" Cut="6.1452096700668335e-01" cType="1" res="3.9577847346663475e-03" rms="1.9743564724922180e-01" purity="2.2325187921524048e-01" nType="0">
          <Node pos="l" depth="2" NCoef="0" IVar="-1" Cut="0.0000000000000000e+00" cType="1" res="9.2322947457432747e-03" rms="2.0536297559738159e-01" purity="2.4625393748283386e-01" nType="-99"/>
          <Node pos="r" depth="2" NCoef="0" IVar="-1" Cut="0.0000000000000000e+00" cType="1" res="-1.8006488680839539e-02" rms="1.5866826474666595e-01" purity="1.2606160342693329e-01" nType="-99"/>
        </Node>
      </Node>
    </BinaryTree>
    <BinaryTree type="DecisionTree" boostWeight="1.0000000000000000e+00" itree="688">
      <Node pos="s" depth="0" NCoef="0" IVar="33" Cut="7.6196275651454926e-02" cType="1" res="-6.9610970967914909e-05" rms="1.9624277949333191e-01" purity="4.9784672260284424e-01" nType="0">
        <Node pos="l" depth="1" NCoef="0" IVar="33" Cut="7.2665428742766380e-03" cType="1" res="-1.4448025031015277e-03" rms="1.9477917253971100e-01" purity="5.6076031923294067e-01" nType="0">
          <Node pos="l" depth="2" NCoef="0" IVar="-1" Cut="0.0000000000000000e+00" cType="1" res="3.2357224263250828e-03" rms="1.8129609525203705e-01" purity="6.7170304059982300e-01" nType="-99"/>
          <Node pos="r" depth="2" NCoef="0" IVar="-1" Cut="0.0000000000000000e+00" cType="1" res="-5.3577828221023083e-03" rms="2.0584431290626526e-01" purity="4.6320912241935730e-01" nType="-99"/>
        </Node>
        <Node pos="r" depth="1" NCoef="0" IVar="33" Cut="9.1621384024620056e-02" cType="1" res="4.5006182044744492e-03" rms="2.0096269249916077e-01" purity="2.8876352310180664e-01" nType="0">
          <Node pos="l" depth="2" NCoef="0" IVar="-1" Cut="0.0000000000000000e+00" cType="1" res="2.5280291214585304e-02" rms="2.2247816622257233e-01" purity="3.5044625401496887e-01" nType="-99"/>
          <Node pos="r" depth="2" NCoef="0" IVar="-1" Cut="0.0000000000000000e+00" cType="1" res="1.8052925588563085e-03" rms="1.9715215265750885e-01" purity="2.7893042564392090e-01" nType="-99"/>
        </Node>
      </Node>
    </BinaryTree>
    <BinaryTree type="DecisionTree" boostWeight="1.0000000000000000e+00" itree="689">
      <Node pos="s" depth="0" NCoef="0" IVar="28" Cut="2.4277354776859283e-01" cType="1" res="-2.9349364922381938e-04" rms="1.9172275066375732e-01" purity="5.0255298614501953e-01" nType="0">
        <Node pos="l" depth="1" NCoef="0" IVar="3" Cut="1.2053760290145874e+00" cType="1" res="-6.7041101865470409e-03" rms="1.8990528583526611e-01" purity="2.9521378874778748e-01" nType="0">
          <Node pos="l" depth="2" NCoef="0" IVar="-1" Cut="0.0000000000000000e+00" cType="1" res="-1.4335174113512039e-02" rms="2.0844221115112305e-01" purity="5.3254932165145874e-01" nType="-99"/>
          <Node pos="r" depth="2" NCoef="0" IVar="-1" Cut="0.0000000000000000e+00" cType="1" res="-4.6644136309623718e-03" rms="1.8402694165706635e-01" purity="2.2598241269588470e-01" nType="-99"/>
        </Node>
        <Node pos="r" depth="1" NCoef="0" IVar="7" Cut="2.8513649106025696e-01" cType="1" res="6.2883063219487667e-04" rms="1.9196520745754242e-01" purity="5.3238373994827271e-01" nType="0">
          <Node pos="l" depth="2" NCoef="0" IVar="-1" Cut="0.0000000000000000e+00" cType="1" res="-6.0949833132326603e-03" rms="1.8048712611198425e-01" purity="8.0148065090179443e-01" nType="-99"/>
          <Node pos="r" depth="2" NCoef="0" IVar="-1" Cut="0.0000000000000000e+00" cType="1" res="1.8823933787643909e-03" rms="1.9382627308368683e-01" purity="4.8680615425109863e-01" nType="-99"/>
        </Node>
      </Node>
    </BinaryTree>
    <BinaryTree type="DecisionTree" boostWeight="1.0000000000000000e+00" itree="690">
      <Node pos="s" depth="0" NCoef="0" IVar="20" Cut="1.0410048484802246e+01" cType="1" res="-5.7491456391289830e-04" rms="1.9590944051742554e-01" purity="4.9849286675453186e-01" nType="0">
        <Node pos="l" depth="1" NCoef="0" IVar="27" Cut="3.3533963561058044e-01" cType="1" res="-1.3193307677283883e-03" rms="1.9506970047950745e-01" purity="5.1016092300415039e-01" nType="0">
          <Node pos="l" depth="2" NCoef="0" IVar="-1" Cut="0.0000000000000000e+00" cType="1" res="-2.2458700463175774e-02" rms="1.5471629798412323e-01" purity="1.1134203523397446e-01" nType="-99"/>
          <Node pos="r" depth="2" NCoef="0" IVar="-1" Cut="0.0000000000000000e+00" cType="1" res="-8.9997769100591540e-04" rms="1.9668069481849670e-01" purity="5.2819347381591797e-01" nType="-99"/>
        </Node>
        <Node pos="r" depth="1" NCoef="0" IVar="3" Cut="2.4196991920471191e+00" cType="1" res="1.2924099341034889e-02" rms="2.1009969711303711e-01" purity="2.8690704703330994e-01" nType="0">
          <Node pos="l" depth="2" NCoef="0" IVar="-1" Cut="0.0000000000000000e+00" cType="1" res="1.6576634719967842e-02" rms="2.6286077499389648e-01" purity="4.9910911917686462e-01" nType="-99"/>
          <Node pos="r" depth="2" NCoef="0" IVar="-1" Cut="0.0000000000000000e+00" cType="1" res="2.9926104471087456e-03" rms="1.3106903433799744e-01" purity="5.9907581657171249e-02" nType="-99"/>
        </Node>
      </Node>
    </BinaryTree>
    <BinaryTree type="DecisionTree" boostWeight="1.0000000000000000e+00" itree="691">
      <Node pos="s" depth="0" NCoef="0" IVar="23" Cut="5.7213491201400757e-01" cType="1" res="-3.7990271812304854e-04" rms="1.9244121015071869e-01" purity="4.9829027056694031e-01" nType="0">
        <Node pos="l" depth="1" NCoef="0" IVar="23" Cut="5.1780462265014648e-01" cType="1" res="-5.3048240952193737e-03" rms="1.7807853221893311e-01" purity="9.8218999803066254e-02" nType="0">
          <Node pos="l" depth="2" NCoef="0" IVar="-1" Cut="0.0000000000000000e+00" cType="1" res="-4.2168730869889259e-03" rms="1.7548905313014984e-01" purity="9.4020396471023560e-02" nType="-99"/>
          <Node pos="r" depth="2" NCoef="0" IVar="-1" Cut="0.0000000000000000e+00" cType="1" res="-1.9607884809374809e-02" rms="1.9312199950218201e-01" purity="1.2479225546121597e-01" nType="-99"/>
        </Node>
        <Node pos="r" depth="1" NCoef="0" IVar="28" Cut="5.7501488924026489e-01" cType="1" res="1.6876389272511005e-03" rms="1.9812434911727905e-01" purity="6.6624504327774048e-01" nType="0">
          <Node pos="l" depth="2" NCoef="0" IVar="-1" Cut="0.0000000000000000e+00" cType="1" res="6.3530197367072105e-03" rms="2.2524899244308472e-01" purity="4.8950350284576416e-01" nType="-99"/>
          <Node pos="r" depth="2" NCoef="0" IVar="-1" Cut="0.0000000000000000e+00" cType="1" res="-1.0042801732197404e-03" rms="1.8408334255218506e-01" purity="7.4855166673660278e-01" nType="-99"/>
        </Node>
      </Node>
    </BinaryTree>
    <BinaryTree type="DecisionTree" boostWeight="1.0000000000000000e+00" itree="692">
      <Node pos="s" depth="0" NCoef="0" IVar="20" Cut="1.3197213172912598e+01" cType="1" res="5.6209100876003504e-04" rms="1.9229091703891754e-01" purity="5.0703620910644531e-01" nType="0">
        <Node pos="l" depth="1" NCoef="0" IVar="27" Cut="1.9328166544437408e-01" cType="1" res="1.2583612988237292e-04" rms="1.9151477515697479e-01" purity="5.1359117031097412e-01" nType="0">
          <Node pos="l" depth="2" NCoef="0" IVar="-1" Cut="0.0000000000000000e+00" cType="1" res="-2.4940727278590202e-02" rms="1.3868613541126251e-01" purity="9.3587316572666168e-02" nType="-99"/>
          <Node pos="r" depth="2" NCoef="0" IVar="-1" Cut="0.0000000000000000e+00" cType="1" res="6.1711785383522511e-04" rms="1.9276954233646393e-01" purity="5.2533739805221558e-01" nType="-99"/>
        </Node>
        <Node pos="r" depth="1" NCoef="0" IVar="-1" Cut="0.0000000000000000e+00" cType="1" res="1.8353860825300217e-02" rms="2.1678107976913452e-01" purity="2.8148049116134644e-01" nType="-99"/>
      </Node>
    </BinaryTree>
    <BinaryTree type="DecisionTree" boostWeight="1.0000000000000000e+00" itree="693">
      <Node pos="s" depth="0" NCoef="0" IVar="29" Cut="6.0544902086257935e-01" cType="1" res="1.3040842022746801e-03" rms="1.9451953470706940e-01" purity="5.0203758478164673e-01" nType="0">
        <Node pos="l" depth="1" NCoef="0" IVar="22" Cut="-3.3550350666046143e+00" cType="1" res="2.2661436814814806e-03" rms="1.9344106316566467e-01" purity="5.2468657493591309e-01" nType="0">
          <Node pos="l" depth="2" NCoef="0" IVar="-1" Cut="0.0000000000000000e+00" cType="1" res="2.1486217156052589e-02" rms="1.9388209283351898e-01" purity="4.9474719166755676e-01" nType="-99"/>
          <Node pos="r" depth="2" NCoef="0" IVar="-1" Cut="0.0000000000000000e+00" cType="1" res="2.0610992796719074e-03" rms="1.9340229034423828e-01" purity="5.2594500780105591e-01" nType="-99"/>
        </Node>
        <Node pos="r" depth="1" NCoef="0" IVar="18" Cut="-2.1971742630004883e+01" cType="1" res="-6.2926569953560829e-03" rms="2.0267391204833984e-01" purity="3.2319372892379761e-01" nType="0">
          <Node pos="l" depth="2" NCoef="0" IVar="-1" Cut="0.0000000000000000e+00" cType="1" res="-2.0051475614309311e-02" rms="1.9703896343708038e-01" purity="4.8964911699295044e-01" nType="-99"/>
          <Node pos="r" depth="2" NCoef="0" IVar="-1" Cut="0.0000000000000000e+00" cType="1" res="-1.9899068865925074e-03" rms="2.0449088513851166e-01" purity="2.6285791397094727e-01" nType="-99"/>
        </Node>
      </Node>
    </BinaryTree>
    <BinaryTree type="DecisionTree" boostWeight="1.0000000000000000e+00" itree="694">
      <Node pos="s" depth="0" NCoef="0" IVar="4" Cut="5.7469096183776855e+00" cType="1" res="1.3266600435599685e-03" rms="1.9569735229015350e-01" purity="5.0008457899093628e-01" nType="0">
        <Node pos="l" depth="1" NCoef="0" IVar="27" Cut="6.6660541296005249e-01" cType="1" res="7.2821730282157660e-04" rms="1.9577179849147797e-01" purity="5.0971907377243042e-01" nType="0">
          <Node pos="l" depth="2" NCoef="0" IVar="-1" Cut="0.0000000000000000e+00" cType="1" res="-6.0744397342205048e-03" rms="1.8554668128490448e-01" purity="1.9459745287895203e-01" nType="-99"/>
          <Node pos="r" depth="2" NCoef="0" IVar="-1" Cut="0.0000000000000000e+00" cType="1" res="2.1803476847708225e-03" rms="1.9783298671245575e-01" purity="5.7589840888977051e-01" nType="-99"/>
        </Node>
        <Node pos="r" depth="1" NCoef="0" IVar="-1" Cut="0.0000000000000000e+00" cType="1" res="1.9747367128729820e-02" rms="1.9375090301036835e-01" purity="3.0199638009071350e-01" nType="-99"/>
      </Node>
    </BinaryTree>
    <BinaryTree type="DecisionTree" boostWeight="1.0000000000000000e+00" itree="695">
      <Node pos="s" depth="0" NCoef="0" IVar="1" Cut="8.1915206909179688e+00" cType="1" res="-8.0802669981494546e-04" rms="1.9423311948776245e-01" purity="4.9647167325019836e-01" nType="0">
        <Node pos="l" depth="1" NCoef="0" IVar="16" Cut="3.6779060959815979e-01" cType="1" res="2.6405060198158026e-03" rms="2.0017288625240326e-01" purity="4.8508644104003906e-01" nType="0">
          <Node pos="l" depth="2" NCoef="0" IVar="-1" Cut="0.0000000000000000e+00" cType="1" res="9.7446646541357040e-03" rms="2.1723924577236176e-01" purity="3.5117384791374207e-01" nType="-99"/>
          <Node pos="r" depth="2" NCoef="0" IVar="-1" Cut="0.0000000000000000e+00" cType="1" res="-2.0431599114090204e-03" rms="1.8853172659873962e-01" purity="5.6927651166915894e-01" nType="-99"/>
        </Node>
        <Node pos="r" depth="1" NCoef="0" IVar="16" Cut="3.2316270470619202e-01" cType="1" res="-5.6832605041563511e-03" rms="1.8540239334106445e-01" purity="5.1256710290908813e-01" nType="0">
          <Node pos="l" depth="2" NCoef="0" IVar="-1" Cut="0.0000000000000000e+00" cType="1" res="-1.5934804454445839e-02" rms="1.9153040647506714e-01" purity="1.8640129268169403e-01" nType="-99"/>
          <Node pos="r" depth="2" NCoef="0" IVar="-1" Cut="0.0000000000000000e+00" cType="1" res="-1.7665805062279105e-03" rms="1.8228389322757721e-01" purity="6.6624116897583008e-01" nType="-99"/>
        </Node>
      </Node>
    </BinaryTree>
    <BinaryTree type="DecisionTree" boostWeight="1.0000000000000000e+00" itree="696">
      <Node pos="s" depth="0" NCoef="0" IVar="24" Cut="1.4420181512832642e-01" cType="1" res="1.9653722119983286e-04" rms="1.9479660689830780e-01" purity="4.9755099415779114e-01" nType="0">
        <Node pos="l" depth="1" NCoef="0" IVar="-1" Cut="0.0000000000000000e+00" cType="1" res="-2.8892531991004944e-02" rms="1.4845956861972809e-01" purity="8.2720838487148285e-02" nType="-99"/>
        <Node pos="r" depth="1" NCoef="0" IVar="28" Cut="6.1989879608154297e-01" cType="1" res="6.3587888143956661e-04" rms="1.9588766992092133e-01" purity="5.0885796546936035e-01" nType="0">
          <Node pos="l" depth="2" NCoef="0" IVar="-1" Cut="0.0000000000000000e+00" cType="1" res="3.8903588429093361e-03" rms="2.0561522245407104e-01" purity="3.3807665109634399e-01" nType="-99"/>
          <Node pos="r" depth="2" NCoef="0" IVar="-1" Cut="0.0000000000000000e+00" cType="1" res="-1.6666725277900696e-03" rms="1.8918909132480621e-01" purity="6.2122994661331177e-01" nType="-99"/>
        </Node>
      </Node>
    </BinaryTree>
    <BinaryTree type="DecisionTree" boostWeight="1.0000000000000000e+00" itree="697">
      <Node pos="s" depth="0" NCoef="0" IVar="12" Cut="7.1213388442993164e+00" cType="1" res="-4.9670637963572517e-05" rms="1.9424882531166077e-01" purity="5.0129932165145874e-01" nType="0">
        <Node pos="l" depth="1" NCoef="0" IVar="7" Cut="1.7113193273544312e+00" cType="1" res="-3.2186538446694613e-03" rms="2.0196010172367096e-01" purity="3.7943309545516968e-01" nType="0">
          <Node pos="l" depth="2" NCoef="0" IVar="-1" Cut="0.0000000000000000e+00" cType="1" res="-8.2888593897223473e-03" rms="2.3259723186492920e-01" purity="6.2016957998275757e-01" nType="-99"/>
          <Node pos="r" depth="2" NCoef="0" IVar="-1" Cut="0.0000000000000000e+00" cType="1" res="2.2981672082096338e-03" rms="1.7707608640193939e-01" purity="2.0989038050174713e-01" nType="-99"/>
        </Node>
        <Node pos="r" depth="1" NCoef="0" IVar="32" Cut="2.0940971374511719e-01" cType="1" res="1.9979157950729132e-03" rms="1.8907091021537781e-01" purity="5.8004117012023926e-01" nType="0">
          <Node pos="l" depth="2" NCoef="0" IVar="-1" Cut="0.0000000000000000e+00" cType="1" res="1.2760012177750468e-03" rms="1.8816980719566345e-01" purity="5.9673494100570679e-01" nType="-99"/>
          <Node pos="r" depth="2" NCoef="0" IVar="-1" Cut="0.0000000000000000e+00" cType="1" res="2.6087099686264992e-02" rms="2.0489364862442017e-01" purity="2.5484073162078857e-01" nType="-99"/>
        </Node>
      </Node>
    </BinaryTree>
    <BinaryTree type="DecisionTree" boostWeight="1.0000000000000000e+00" itree="698">
      <Node pos="s" depth="0" NCoef="0" IVar="3" Cut="2.1469361782073975e+00" cType="1" res="3.7139366031624377e-04" rms="1.9632066786289215e-01" purity="4.9814900755882263e-01" nType="0">
        <Node pos="l" depth="1" NCoef="0" IVar="28" Cut="8.5758966207504272e-01" cType="1" res="2.3207364138215780e-03" rms="2.1604713797569275e-01" purity="6.9806873798370361e-01" nType="0">
          <Node pos="l" depth="2" NCoef="0" IVar="-1" Cut="0.0000000000000000e+00" cType="1" res="4.7448091208934784e-03" rms="2.4164335429668427e-01" purity="5.8011209964752197e-01" nType="-99"/>
          <Node pos="r" depth="2" NCoef="0" IVar="-1" Cut="0.0000000000000000e+00" cType="1" res="-2.5313706137239933e-03" rms="1.8074563145637512e-01" purity="8.3876651525497437e-01" nType="-99"/>
        </Node>
        <Node pos="r" depth="1" NCoef="0" IVar="23" Cut="9.5239520072937012e-01" cType="1" res="-2.4676099419593811e-03" rms="1.6334354877471924e-01" purity="2.0698790252208710e-01" nType="0">
          <Node pos="l" depth="2" NCoef="0" IVar="-1" Cut="0.0000000000000000e+00" cType="1" res="2.3781371419318020e-04" rms="1.5778957307338715e-01" purity="1.0293639451265335e-01" nType="-99"/>
          <Node pos="r" depth="2" NCoef="0" IVar="-1" Cut="0.0000000000000000e+00" cType="1" res="-2.3197058588266373e-02" rms="1.8859194219112396e-01" purity="7.3761570453643799e-01" nType="-99"/>
        </Node>
      </Node>
    </BinaryTree>
    <BinaryTree type="DecisionTree" boostWeight="1.0000000000000000e+00" itree="699">
      <Node pos="s" depth="0" NCoef="0" IVar="23" Cut="8.5733902454376221e-01" cType="1" res="-2.2713752696290612e-04" rms="1.9355966150760651e-01" purity="4.9914339184761047e-01" nType="0">
        <Node pos="l" depth="1" NCoef="0" IVar="16" Cut="4.0276336669921875e-01" cType="1" res="-2.6653965469449759e-03" rms="2.1219746768474579e-01" purity="1.9400680065155029e-01" nType="0">
          <Node pos="l" depth="2" NCoef="0" IVar="-1" Cut="0.0000000000000000e+00" cType="1" res="-6.8094427697360516e-03" rms="2.0876096189022064e-01" purity="1.3763754069805145e-01" nType="-99"/>
          <Node pos="r" depth="2" NCoef="0" IVar="-1" Cut="0.0000000000000000e+00" cType="1" res="3.9123152382671833e-03" rms="2.1785306930541992e-01" purity="2.9167941212654114e-01" nType="-99"/>
        </Node>
        <Node pos="r" depth="1" NCoef="0" IVar="16" Cut="3.6738550662994385e-01" cType="1" res="2.6641741860657930e-03" rms="1.6876710951328278e-01" purity="8.6097729206085205e-01" nType="0">
          <Node pos="l" depth="2" NCoef="0" IVar="-1" Cut="0.0000000000000000e+00" cType="1" res="1.4668520539999008e-02" rms="2.0897577702999115e-01" purity="7.7701598405838013e-01" nType="-99"/>
          <Node pos="r" depth="2" NCoef="0" IVar="-1" Cut="0.0000000000000000e+00" cType="1" res="-3.3615592401474714e-03" rms="1.5320536494255066e-01" purity="8.8826292753219604e-01" nType="-99"/>
        </Node>
      </Node>
    </BinaryTree>
    <BinaryTree type="DecisionTree" boostWeight="1.0000000000000000e+00" itree="700">
      <Node pos="s" depth="0" NCoef="0" IVar="16" Cut="3.6384546756744385e-01" cType="1" res="-7.7731086639687419e-04" rms="1.9521909952163696e-01" purity="4.9763879179954529e-01" nType="0">
        <Node pos="l" depth="1" NCoef="0" IVar="1" Cut="1.0600145339965820e+01" cType="1" res="1.8262319499626756e-03" rms="2.1078388392925262e-01" purity="2.9570934176445007e-01" nType="0">
          <Node pos="l" depth="2" NCoef="0" IVar="-1" Cut="0.0000000000000000e+00" cType="1" res="7.2750467807054520e-03" rms="2.1924453973770142e-01" purity="3.3823904395103455e-01" nType="-99"/>
          <Node pos="r" depth="2" NCoef="0" IVar="-1" Cut="0.0000000000000000e+00" cType="1" res="-9.3989586457610130e-03" rms="1.9228513538837433e-01" purity="2.1053357422351837e-01" nType="-99"/>
        </Node>
        <Node pos="r" depth="1" NCoef="0" IVar="25" Cut="4.1504496335983276e-01" cType="1" res="-2.5064435321837664e-03" rms="1.8413591384887695e-01" purity="6.3174945116043091e-01" nType="0">
          <Node pos="l" depth="2" NCoef="0" IVar="-1" Cut="0.0000000000000000e+00" cType="1" res="-1.0936609469354153e-03" rms="1.8219920992851257e-01" purity="6.8875843286514282e-01" nType="-99"/>
          <Node pos="r" depth="2" NCoef="0" IVar="-1" Cut="0.0000000000000000e+00" cType="1" res="-1.8838180229067802e-02" rms="1.9786064326763153e-01" purity="1.9480489194393158e-01" nType="-99"/>
        </Node>
      </Node>
    </BinaryTree>
    <BinaryTree type="DecisionTree" boostWeight="1.0000000000000000e+00" itree="701">
      <Node pos="s" depth="0" NCoef="0" IVar="33" Cut="5.7156965136528015e-02" cType="1" res="3.1305095762945712e-04" rms="1.9232456386089325e-01" purity="5.0215888023376465e-01" nType="0">
        <Node pos="l" depth="1" NCoef="0" IVar="33" Cut="2.4507684633135796e-02" cType="1" res="1.8298836657777429e-03" rms="1.9311287999153137e-01" purity="5.8284711837768555e-01" nType="0">
          <Node pos="l" depth="2" NCoef="0" IVar="-1" Cut="0.0000000000000000e+00" cType="1" res="3.9910696796141565e-04" rms="1.8754988908767700e-01" purity="6.2286537885665894e-01" nType="-99"/>
          <Node pos="r" depth="2" NCoef="0" IVar="-1" Cut="0.0000000000000000e+00" cType="1" res="8.1150066107511520e-03" rms="2.1280255913734436e-01" purity="4.3102610111236572e-01" nType="-99"/>
        </Node>
        <Node pos="r" depth="1" NCoef="0" IVar="31" Cut="1.9054803997278214e-02" cType="1" res="-3.5974581260234118e-03" rms="1.9022136926651001e-01" purity="2.9413872957229614e-01" nType="0">
          <Node pos="l" depth="2" NCoef="0" IVar="-1" Cut="0.0000000000000000e+00" cType="1" res="-8.8023710995912552e-03" rms="1.9527812302112579e-01" purity="4.1709861159324646e-01" nType="-99"/>
          <Node pos="r" depth="2" NCoef="0" IVar="-1" Cut="0.0000000000000000e+00" cType="1" res="9.1800343943759799e-04" rms="1.8544670939445496e-01" purity="1.8346130847930908e-01" nType="-99"/>
        </Node>
      </Node>
    </BinaryTree>
    <BinaryTree type="DecisionTree" boostWeight="1.0000000000000000e+00" itree="702">
      <Node pos="s" depth="0" NCoef="0" IVar="6" Cut="3.7852423191070557e+00" cType="1" res="4.9840239807963371e-04" rms="1.9282397627830505e-01" purity="5.0022488832473755e-01" nType="0">
        <Node pos="l" depth="1" NCoef="0" IVar="20" Cut="-3.4651997089385986e+00" cType="1" res="8.8838087394833565e-03" rms="1.9465626776218414e-01" purity="1.3736988604068756e-01" nType="0">
          <Node pos="l" depth="2" NCoef="0" IVar="-1" Cut="0.0000000000000000e+00" cType="1" res="-5.8317608200013638e-03" rms="1.7371802031993866e-01" purity="1.7595791816711426e-01" nType="-99"/>
          <Node pos="r" depth="2" NCoef="0" IVar="-1" Cut="0.0000000000000000e+00" cType="1" res="4.0878091007471085e-02" rms="2.1359159052371979e-01" purity="9.6765890717506409e-02" nType="-99"/>
        </Node>
        <Node pos="r" depth="1" NCoef="0" IVar="19" Cut="6.6259570121765137e+00" cType="1" res="-1.4779779303353280e-04" rms="1.9266690313816071e-01" purity="5.2818739414215088e-01" nType="0">
          <Node pos="l" depth="2" NCoef="0" IVar="-1" Cut="0.0000000000000000e+00" cType="1" res="-4.9846544861793518e-03" rms="1.9018062949180603e-01" purity="3.4611302614212036e-01" nType="-99"/>
          <Node pos="r" depth="2" NCoef="0" IVar="-1" Cut="0.0000000000000000e+00" cType="1" res="1.4285678043961525e-03" rms="1.9355502724647522e-01" purity="5.9515637159347534e-01" nType="-99"/>
        </Node>
      </Node>
    </BinaryTree>
    <BinaryTree type="DecisionTree" boostWeight="1.0000000000000000e+00" itree="703">
      <Node pos="s" depth="0" NCoef="0" IVar="29" Cut="1.8678638339042664e-01" cType="1" res="1.5096225542947650e-03" rms="1.9455407559871674e-01" purity="5.0063902139663696e-01" nType="0">
        <Node pos="l" depth="1" NCoef="0" IVar="16" Cut="5.0874900817871094e-01" cType="1" res="3.3474564552307129e-03" rms="1.8817624449729919e-01" purity="6.1831676959991455e-01" nType="0">
          <Node pos="l" depth="2" NCoef="0" IVar="-1" Cut="0.0000000000000000e+00" cType="1" res="1.3155684573575854e-03" rms="1.9792591035366058e-01" purity="5.5637848377227783e-01" nType="-99"/>
          <Node pos="r" depth="2" NCoef="0" IVar="-1" Cut="0.0000000000000000e+00" cType="1" res="1.4207606203854084e-02" rms="1.6165223717689514e-01" purity="7.7033388614654541e-01" nType="-99"/>
        </Node>
        <Node pos="r" depth="1" NCoef="0" IVar="3" Cut="1.1981797218322754e+00" cType="1" res="-1.3794057304039598e-03" rms="2.0414406061172485e-01" purity="3.1565260887145996e-01" nType="0">
          <Node pos="l" depth="2" NCoef="0" IVar="-1" Cut="0.0000000000000000e+00" cType="1" res="-7.6368805021047592e-03" rms="2.2787538170814514e-01" purity="5.6152713298797607e-01" nType="-99"/>
          <Node pos="r" depth="2" NCoef="0" IVar="-1" Cut="0.0000000000000000e+00" cType="1" res="1.2329857563599944e-03" rms="1.9665680825710297e-01" purity="2.4428018927574158e-01" nType="-99"/>
        </Node>
      </Node>
    </BinaryTree>
    <BinaryTree type="DecisionTree" boostWeight="1.0000000000000000e+00" itree="704">
      <Node pos="s" depth="0" NCoef="0" IVar="3" Cut="1.6734623908996582e+00" cType="1" res="9.0041453950107098e-04" rms="1.9463978707790375e-01" purity="5.0082165002822876e-01" nType="0">
        <Node pos="l" depth="1" NCoef="0" IVar="29" Cut="3.2271242141723633e-01" cType="1" res="4.0099392645061016e-03" rms="2.0729899406433105e-01" purity="7.2552514076232910e-01" nType="0">
          <Node pos="l" depth="2" NCoef="0" IVar="-1" Cut="0.0000000000000000e+00" cType="1" res="9.1276498278602958e-04" rms="1.9093804061412811e-01" purity="7.7900052070617676e-01" nType="-99"/>
          <Node pos="r" depth="2" NCoef="0" IVar="-1" Cut="0.0000000000000000e+00" cType="1" res="1.0875347070395947e-02" rms="2.5352326035499573e-01" purity="5.4951298236846924e-01" nType="-99"/>
        </Node>
        <Node pos="r" depth="1" NCoef="0" IVar="10" Cut="6.5214047431945801e+00" cType="1" res="-1.5969005180522799e-03" rms="1.8380479514598846e-01" purity="3.2035821676254272e-01" nType="0">
          <Node pos="l" depth="2" NCoef="0" IVar="-1" Cut="0.0000000000000000e+00" cType="1" res="-1.2726810760796070e-02" rms="1.7595052719116211e-01" purity="2.4620807170867920e-01" nType="-99"/>
          <Node pos="r" depth="2" NCoef="0" IVar="-1" Cut="0.0000000000000000e+00" cType="1" res="1.2450922513380647e-03" rms="1.8655239045619965e-01" purity="3.4768274426460266e-01" nType="-99"/>
        </Node>
      </Node>
    </BinaryTree>
    <BinaryTree type="DecisionTree" boostWeight="1.0000000000000000e+00" itree="705">
      <Node pos="s" depth="0" NCoef="0" IVar="33" Cut="3.8104407489299774e-02" cType="1" res="-2.0019826479256153e-03" rms="1.9237548112869263e-01" purity="4.9837893247604370e-01" nType="0">
        <Node pos="l" depth="1" NCoef="0" IVar="22" Cut="5.4145956039428711e+00" cType="1" res="-4.2959745042026043e-04" rms="1.9030635058879852e-01" purity="6.0179811716079712e-01" nType="0">
          <Node pos="l" depth="2" NCoef="0" IVar="-1" Cut="0.0000000000000000e+00" cType="1" res="-1.0300468653440475e-02" rms="1.9769819080829620e-01" purity="3.9654800295829773e-01" nType="-99"/>
          <Node pos="r" depth="2" NCoef="0" IVar="-1" Cut="0.0000000000000000e+00" cType="1" res="2.2336686961352825e-03" rms="1.8822173774242401e-01" purity="6.5658771991729736e-01" nType="-99"/>
        </Node>
        <Node pos="r" depth="1" NCoef="0" IVar="12" Cut="7.0022616386413574e+00" cType="1" res="-4.9543105997145176e-03" rms="1.9616751372814178e-01" purity="3.0419778823852539e-01" nType="0">
          <Node pos="l" depth="2" NCoef="0" IVar="-1" Cut="0.0000000000000000e+00" cType="1" res="-1.3689472340047359e-02" rms="1.8637955188751221e-01" purity="2.0728729665279388e-01" nType="-99"/>
          <Node pos="r" depth="2" NCoef="0" IVar="-1" Cut="0.0000000000000000e+00" cType="1" res="-1.4828331768512726e-03" rms="2.0166501402854919e-01" purity="3.6172726750373840e-01" nType="-99"/>
        </Node>
      </Node>
    </BinaryTree>
    <BinaryTree type="DecisionTree" boostWeight="1.0000000000000000e+00" itree="706">
      <Node pos="s" depth="0" NCoef="0" IVar="28" Cut="2.4272729456424713e-01" cType="1" res="-1.2600732734426856e-03" rms="1.9506686925888062e-01" purity="5.0176739692687988e-01" nType="0">
        <Node pos="l" depth="1" NCoef="0" IVar="7" Cut="2.1886391639709473e+00" cType="1" res="-8.6153801530599594e-03" rms="1.9356490671634674e-01" purity="2.8483137488365173e-01" nType="0">
          <Node pos="l" depth="2" NCoef="0" IVar="-1" Cut="0.0000000000000000e+00" cType="1" res="-1.3806267641484737e-02" rms="2.2629559040069580e-01" purity="4.4260525703430176e-01" nType="-99"/>
          <Node pos="r" depth="2" NCoef="0" IVar="-1" Cut="0.0000000000000000e+00" cType="1" res="-3.2753360574133694e-04" rms="1.5191034972667694e-01" purity="1.2122706323862076e-01" nType="-99"/>
        </Node>
        <Node pos="r" depth="1" NCoef="0" IVar="23" Cut="7.6213532686233521e-01" cType="1" res="-1.9993007299490273e-04" rms="1.9525954127311707e-01" purity="5.3303503990173340e-01" nType="0">
          <Node pos="l" depth="2" NCoef="0" IVar="-1" Cut="0.0000000000000000e+00" cType="1" res="3.3554367255419493e-03" rms="2.1135897934436798e-01" purity="1.7392446100711823e-01" nType="-99"/>
          <Node pos="r" depth="2" NCoef="0" IVar="-1" Cut="0.0000000000000000e+00" cType="1" res="-4.0184338577091694e-03" rms="1.8196424841880798e-01" purity="8.0724978446960449e-01" nType="-99"/>
        </Node>
      </Node>
    </BinaryTree>
    <BinaryTree type="DecisionTree" boostWeight="1.0000000000000000e+00" itree="707">
      <Node pos="s" depth="0" NCoef="0" IVar="32" Cut="1.9047373905777931e-02" cType="1" res="2.2099744455772452e-05" rms="1.9312138855457306e-01" purity="5.0107383728027344e-01" nType="0">
        <Node pos="l" depth="1" NCoef="0" IVar="30" Cut="3.8119573146104813e-02" cType="1" res="1.9054551376029849e-03" rms="1.9099269807338715e-01" purity="6.3642996549606323e-01" nType="0">
          <Node pos="l" depth="2" NCoef="0" IVar="-1" Cut="0.0000000000000000e+00" cType="1" res="5.7327272370457649e-03" rms="1.8116571009159088e-01" purity="7.2214531898498535e-01" nType="-99"/>
          <Node pos="r" depth="2" NCoef="0" IVar="-1" Cut="0.0000000000000000e+00" cType="1" res="-4.4064931571483612e-03" rms="2.1406267583370209e-01" purity="4.1616728901863098e-01" nType="-99"/>
        </Node>
        <Node pos="r" depth="1" NCoef="0" IVar="10" Cut="6.5131855010986328e+00" cType="1" res="-3.0292249284684658e-03" rms="1.9648294150829315e-01" purity="2.8177595138549805e-01" nType="0">
          <Node pos="l" depth="2" NCoef="0" IVar="-1" Cut="0.0000000000000000e+00" cType="1" res="-1.3837899081408978e-02" rms="1.7672669887542725e-01" purity="2.0839402079582214e-01" nType="-99"/>
          <Node pos="r" depth="2" NCoef="0" IVar="-1" Cut="0.0000000000000000e+00" cType="1" res="-6.4347119769081473e-04" rms="2.0292811095714569e-01" purity="3.0762860178947449e-01" nType="-99"/>
        </Node>
      </Node>
    </BinaryTree>
    <BinaryTree type="DecisionTree" boostWeight="1.0000000000000000e+00" itree="708">
      <Node pos="s" depth="0" NCoef="0" IVar="30" Cut="1.7139585316181183e-01" cType="1" res="7.7058124588802457e-04" rms="1.9701786339282990e-01" purity="4.9863108992576599e-01" nType="0">
        <Node pos="l" depth="1" NCoef="0" IVar="10" Cut="6.7624244689941406e+00" cType="1" res="-1.6514453454874456e-04" rms="1.9601227343082428e-01" purity="5.2393728494644165e-01" nType="0">
          <Node pos="l" depth="2" NCoef="0" IVar="-1" Cut="0.0000000000000000e+00" cType="1" res="5.0855879671871662e-03" rms="1.9312143325805664e-01" purity="5.0170552730560303e-01" nType="-99"/>
          <Node pos="r" depth="2" NCoef="0" IVar="-1" Cut="0.0000000000000000e+00" cType="1" res="-2.8119620401412249e-03" rms="1.9753848016262054e-01" purity="5.3609889745712280e-01" nType="-99"/>
        </Node>
        <Node pos="r" depth="1" NCoef="0" IVar="12" Cut="6.8197336196899414e+00" cType="1" res="1.0669280774891376e-02" rms="2.0709849894046783e-01" purity="2.3092631995677948e-01" nType="0">
          <Node pos="l" depth="2" NCoef="0" IVar="-1" Cut="0.0000000000000000e+00" cType="1" res="-5.2763787098228931e-03" rms="1.9335958361625671e-01" purity="1.2208625674247742e-01" nType="-99"/>
          <Node pos="r" depth="2" NCoef="0" IVar="-1" Cut="0.0000000000000000e+00" cType="1" res="1.9171161577105522e-02" rms="2.1274514496326447e-01" purity="2.8054794669151306e-01" nType="-99"/>
        </Node>
      </Node>
    </BinaryTree>
    <BinaryTree type="DecisionTree" boostWeight="1.0000000000000000e+00" itree="709">
      <Node pos="s" depth="0" NCoef="0" IVar="11" Cut="6.6826171875000000e+00" cType="1" res="2.1466318867169321e-04" rms="1.9463483989238739e-01" purity="5.0217205286026001e-01" nType="0">
        <Node pos="l" depth="1" NCoef="0" IVar="34" Cut="7.9557228088378906e-01" cType="1" res="-1.8879412673413754e-03" rms="1.9745832681655884e-01" purity="4.9175938963890076e-01" nType="0">
          <Node pos="l" depth="2" NCoef="0" IVar="-1" Cut="0.0000000000000000e+00" cType="1" res="5.9490320272743702e-03" rms="1.8843691051006317e-01" purity="7.3805165290832520e-01" nType="-99"/>
          <Node pos="r" depth="2" NCoef="0" IVar="-1" Cut="0.0000000000000000e+00" cType="1" res="-4.5197936706244946e-03" rms="2.0002783834934235e-01" purity="4.1828033328056335e-01" nType="-99"/>
        </Node>
        <Node pos="r" depth="1" NCoef="0" IVar="16" Cut="2.8344619274139404e-01" cType="1" res="1.9724464509636164e-03" rms="1.9222491979598999e-01" purity="5.1087707281112671e-01" nType="0">
          <Node pos="l" depth="2" NCoef="0" IVar="-1" Cut="0.0000000000000000e+00" cType="1" res="-6.0323453508317471e-03" rms="2.0018124580383301e-01" purity="2.0966848731040955e-01" nType="-99"/>
          <Node pos="r" depth="2" NCoef="0" IVar="-1" Cut="0.0000000000000000e+00" cType="1" res="4.9657109193503857e-03" rms="1.8967354297637939e-01" purity="6.0294330120086670e-01" nType="-99"/>
        </Node>
      </Node>
    </BinaryTree>
    <BinaryTree type="DecisionTree" boostWeight="1.0000000000000000e+00" itree="710">
      <Node pos="s" depth="0" NCoef="0" IVar="13" Cut="7.8490571975708008e+00" cType="1" res="-2.1247037511784583e-04" rms="1.9585886597633362e-01" purity="4.9999806284904480e-01" nType="0">
        <Node pos="l" depth="1" NCoef="0" IVar="6" Cut="4.9539933204650879e+00" cType="1" res="4.3178205378353596e-03" rms="2.0003503561019897e-01" purity="4.5324042439460754e-01" nType="0">
          <Node pos="l" depth="2" NCoef="0" IVar="-1" Cut="0.0000000000000000e+00" cType="1" res="-3.0411989428102970e-03" rms="2.0042367279529572e-01" purity="3.3061859011650085e-01" nType="-99"/>
          <Node pos="r" depth="2" NCoef="0" IVar="-1" Cut="0.0000000000000000e+00" cType="1" res="1.4536577276885509e-02" rms="1.9914445281028748e-01" purity="6.2012255191802979e-01" nType="-99"/>
        </Node>
        <Node pos="r" depth="1" NCoef="0" IVar="14" Cut="8.0874805450439453e+00" cType="1" res="-2.0901719108223915e-03" rms="1.9407060742378235e-01" purity="5.1937800645828247e-01" nType="0">
          <Node pos="l" depth="2" NCoef="0" IVar="-1" Cut="0.0000000000000000e+00" cType="1" res="-1.8007814884185791e-02" rms="2.0685219764709473e-01" purity="5.3458327054977417e-01" nType="-99"/>
          <Node pos="r" depth="2" NCoef="0" IVar="-1" Cut="0.0000000000000000e+00" cType="1" res="-8.5870607290416956e-04" rms="1.9280140101909637e-01" purity="5.1798868179321289e-01" nType="-99"/>
        </Node>
      </Node>
    </BinaryTree>
    <BinaryTree type="DecisionTree" boostWeight="1.0000000000000000e+00" itree="711">
      <Node pos="s" depth="0" NCoef="0" IVar="10" Cut="7.6646981239318848e+00" cType="1" res="3.4798624255927280e-05" rms="1.9448317587375641e-01" purity="5.0137615203857422e-01" nType="0">
        <Node pos="l" depth="1" NCoef="0" IVar="15" Cut="7.6196508407592773e+00" cType="1" res="-1.2154326541349292e-03" rms="1.9312269985675812e-01" purity="5.1090574264526367e-01" nType="0">
          <Node pos="l" depth="2" NCoef="0" IVar="-1" Cut="0.0000000000000000e+00" cType="1" res="-7.5082096736878157e-04" rms="1.9471514225006104e-01" purity="5.1080650091171265e-01" nType="-99"/>
          <Node pos="r" depth="2" NCoef="0" IVar="-1" Cut="0.0000000000000000e+00" cType="1" res="-2.8380410745739937e-02" rms="1.4985860884189606e-01" purity="5.1325863599777222e-01" nType="-99"/>
        </Node>
        <Node pos="r" depth="1" NCoef="0" IVar="19" Cut="1.3267868041992188e+01" cType="1" res="5.3710765205323696e-03" rms="2.0009826123714447e-01" purity="4.6070182323455811e-01" nType="0">
          <Node pos="l" depth="2" NCoef="0" IVar="-1" Cut="0.0000000000000000e+00" cType="1" res="1.4228463172912598e-02" rms="2.0007824897766113e-01" purity="4.2085906863212585e-01" nType="-99"/>
          <Node pos="r" depth="2" NCoef="0" IVar="-1" Cut="0.0000000000000000e+00" cType="1" res="-6.5526557154953480e-03" rms="1.9965511560440063e-01" purity="5.4146641492843628e-01" nType="-99"/>
        </Node>
      </Node>
    </BinaryTree>
    <BinaryTree type="DecisionTree" boostWeight="1.0000000000000000e+00" itree="712">
      <Node pos="s" depth="0" NCoef="0" IVar="6" Cut="6.5814852714538574e+00" cType="1" res="-3.8131570909172297e-04" rms="1.9504748284816742e-01" purity="4.9951323866844177e-01" nType="0">
        <Node pos="l" depth="1" NCoef="0" IVar="9" Cut="2.1216432571411133e+01" cType="1" res="-1.8016381654888391e-03" rms="1.9795870780944824e-01" purity="5.1839107275009155e-01" nType="0">
          <Node pos="l" depth="2" NCoef="0" IVar="-1" Cut="0.0000000000000000e+00" cType="1" res="-1.2058699503540993e-03" rms="1.9757217168807983e-01" purity="5.1959425210952759e-01" nType="-99"/>
          <Node pos="r" depth="2" NCoef="0" IVar="-1" Cut="0.0000000000000000e+00" cType="1" res="-2.0378403365612030e-02" rms="2.0510947704315186e-01" purity="4.9358826875686646e-01" nType="-99"/>
        </Node>
        <Node pos="r" depth="1" NCoef="0" IVar="13" Cut="8.5115957260131836e+00" cType="1" res="5.0753527320921421e-03" rms="1.8333144485950470e-01" purity="4.2698764801025391e-01" nType="0">
          <Node pos="l" depth="2" NCoef="0" IVar="-1" Cut="0.0000000000000000e+00" cType="1" res="-2.2339283023029566e-03" rms="1.8883433938026428e-01" purity="4.0978342294692993e-01" nType="-99"/>
          <Node pos="r" depth="2" NCoef="0" IVar="-1" Cut="0.0000000000000000e+00" cType="1" res="1.9845947623252869e-02" rms="1.7608046531677246e-01" purity="4.4778910279273987e-01" nType="-99"/>
        </Node>
      </Node>
    </BinaryTree>
    <BinaryTree type="DecisionTree" boostWeight="1.0000000000000000e+00" itree="713">
      <Node pos="s" depth="0" NCoef="0" IVar="29" Cut="4.5775660872459412e-01" cType="1" res="9.4160321168601513e-05" rms="1.9410677254199982e-01" purity="4.9906560778617859e-01" nType="0">
        <Node pos="l" depth="1" NCoef="0" IVar="12" Cut="6.9224414825439453e+00" cType="1" res="-1.3327171327546239e-03" rms="1.9057631492614746e-01" purity="5.4472023248672485e-01" nType="0">
          <Node pos="l" depth="2" NCoef="0" IVar="-1" Cut="0.0000000000000000e+00" cType="1" res="-6.6296942532062531e-03" rms="2.0272794365882874e-01" purity="3.7688753008842468e-01" nType="-99"/>
          <Node pos="r" depth="2" NCoef="0" IVar="-1" Cut="0.0000000000000000e+00" cType="1" res="3.1416508136317134e-04" rms="1.8628409504890442e-01" purity="6.0117626190185547e-01" nType="-99"/>
        </Node>
        <Node pos="r" depth="1" NCoef="0" IVar="22" Cut="4.6927528381347656e+00" cType="1" res="5.8170678094029427e-03" rms="2.0756591856479645e-01" purity="3.1595462560653687e-01" nType="0">
          <Node pos="l" depth="2" NCoef="0" IVar="-1" Cut="0.0000000000000000e+00" cType="1" res="-1.9384771803743206e-05" rms="1.9779030978679657e-01" purity="2.6221853494644165e-01" nType="-99"/>
          <Node pos="r" depth="2" NCoef="0" IVar="-1" Cut="0.0000000000000000e+00" cType="1" res="1.5167482197284698e-02" rms="2.2263689339160919e-01" purity="4.0594407916069031e-01" nType="-99"/>
        </Node>
      </Node>
    </BinaryTree>
    <BinaryTree type="DecisionTree" boostWeight="1.0000000000000000e+00" itree="714">
      <Node pos="s" depth="0" NCoef="0" IVar="22" Cut="7.8937869071960449e+00" cType="1" res="-3.2454851316288114e-04" rms="1.9379934668540955e-01" purity="5.0040197372436523e-01" nType="0">
        <Node pos="l" depth="1" NCoef="0" IVar="34" Cut="5.5560855865478516e+00" cType="1" res="3.3313413150608540e-03" rms="2.0178489387035370e-01" purity="3.3847594261169434e-01" nType="0">
          <Node pos="l" depth="2" NCoef="0" IVar="-1" Cut="0.0000000000000000e+00" cType="1" res="1.3832801487296820e-03" rms="2.0337212085723877e-01" purity="3.7059459090232849e-01" nType="-99"/>
          <Node pos="r" depth="2" NCoef="0" IVar="-1" Cut="0.0000000000000000e+00" cType="1" res="4.0866784751415253e-02" rms="1.8794454634189606e-01" purity="8.4212571382522583e-02" nType="-99"/>
        </Node>
        <Node pos="r" depth="1" NCoef="0" IVar="25" Cut="2.3137138783931732e-01" cType="1" res="-2.1059061400592327e-03" rms="1.8976111710071564e-01" purity="5.7930153608322144e-01" nType="0">
          <Node pos="l" depth="2" NCoef="0" IVar="-1" Cut="0.0000000000000000e+00" cType="1" res="-2.2743495355825871e-04" rms="1.9006238877773285e-01" purity="6.5175211429595947e-01" nType="-99"/>
          <Node pos="r" depth="2" NCoef="0" IVar="-1" Cut="0.0000000000000000e+00" cType="1" res="-1.4413490891456604e-02" rms="1.8802197277545929e-01" purity="2.2903421521186829e-01" nType="-99"/>
        </Node>
      </Node>
    </BinaryTree>
    <BinaryTree type="DecisionTree" boostWeight="1.0000000000000000e+00" itree="715">
      <Node pos="s" depth="0" NCoef="0" IVar="31" Cut="1.1421691626310349e-01" cType="1" res="1.5632320355507545e-05" rms="1.9585439562797546e-01" purity="4.9722069501876831e-01" nType="0">
        <Node pos="l" depth="1" NCoef="0" IVar="10" Cut="7.1753005981445312e+00" cType="1" res="1.2118775630369782e-03" rms="1.9741077721118927e-01" purity="5.4197913408279419e-01" nType="0">
          <Node pos="l" depth="2" NCoef="0" IVar="-1" Cut="0.0000000000000000e+00" cType="1" res="4.6278936788439751e-03" rms="1.9509090483188629e-01" purity="5.6845068931579590e-01" nType="-99"/>
          <Node pos="r" depth="2" NCoef="0" IVar="-1" Cut="0.0000000000000000e+00" cType="1" res="-2.5861889589577913e-03" rms="2.0030339062213898e-01" purity="5.0791341066360474e-01" nType="-99"/>
        </Node>
        <Node pos="r" depth="1" NCoef="0" IVar="19" Cut="1.0007118225097656e+01" cType="1" res="-8.0327531322836876e-03" rms="1.8484178185462952e-01" purity="1.9608387351036072e-01" nType="0">
          <Node pos="l" depth="2" NCoef="0" IVar="-1" Cut="0.0000000000000000e+00" cType="1" res="1.3759580906480551e-03" rms="1.8174377083778381e-01" purity="1.3288709521293640e-01" nType="-99"/>
          <Node pos="r" depth="2" NCoef="0" IVar="-1" Cut="0.0000000000000000e+00" cType="1" res="-1.8528763204813004e-02" rms="1.8726401031017303e-01" purity="2.5416252017021179e-01" nType="-99"/>
        </Node>
      </Node>
    </BinaryTree>
    <BinaryTree type="DecisionTree" boostWeight="1.0000000000000000e+00" itree="716">
      <Node pos="s" depth="0" NCoef="0" IVar="26" Cut="4.2801564931869507e-01" cType="1" res="4.6146294334903359e-04" rms="1.9370397925376892e-01" purity="4.9773952364921570e-01" nType="0">
        <Node pos="l" depth="1" NCoef="0" IVar="15" Cut="5.6482744216918945e+00" cType="1" res="-3.7698911910410970e-05" rms="1.9358748197555542e-01" purity="5.1676565408706665e-01" nType="0">
          <Node pos="l" depth="2" NCoef="0" IVar="-1" Cut="0.0000000000000000e+00" cType="1" res="6.4675607718527317e-03" rms="2.0229399204254150e-01" purity="5.8246231079101562e-01" nType="-99"/>
          <Node pos="r" depth="2" NCoef="0" IVar="-1" Cut="0.0000000000000000e+00" cType="1" res="-1.1191959492862225e-03" rms="1.9232177734375000e-01" purity="5.0757783651351929e-01" nType="-99"/>
        </Node>
        <Node pos="r" depth="1" NCoef="0" IVar="7" Cut="2.0643818378448486e+00" cType="1" res="7.5829033739864826e-03" rms="1.9521966576576233e-01" purity="2.2629788517951965e-01" nType="0">
          <Node pos="l" depth="2" NCoef="0" IVar="-1" Cut="0.0000000000000000e+00" cType="1" res="1.6810456290841103e-02" rms="2.6122057437896729e-01" purity="4.4781395792961121e-01" nType="-99"/>
          <Node pos="r" depth="2" NCoef="0" IVar="-1" Cut="0.0000000000000000e+00" cType="1" res="-7.5627695769071579e-03" rms="1.2729398906230927e-01" purity="6.7145727574825287e-02" nType="-99"/>
        </Node>
      </Node>
    </BinaryTree>
    <BinaryTree type="DecisionTree" boostWeight="1.0000000000000000e+00" itree="717">
      <Node pos="s" depth="0" NCoef="0" IVar="12" Cut="7.3153319358825684e+00" cType="1" res="4.7891511349007487e-04" rms="1.9584260880947113e-01" purity="4.9755662679672241e-01" nType="0">
        <Node pos="l" depth="1" NCoef="0" IVar="11" Cut="7.3588147163391113e+00" cType="1" res="2.8237197548151016e-03" rms="2.0293651521205902e-01" purity="4.1706061363220215e-01" nType="0">
          <Node pos="l" depth="2" NCoef="0" IVar="-1" Cut="0.0000000000000000e+00" cType="1" res="5.5066561326384544e-03" rms="2.0242370665073395e-01" purity="4.5690232515335083e-01" nType="-99"/>
          <Node pos="r" depth="2" NCoef="0" IVar="-1" Cut="0.0000000000000000e+00" cType="1" res="-7.8388089314103127e-03" rms="2.0500089228153229e-01" purity="2.3291343450546265e-01" nType="-99"/>
        </Node>
        <Node pos="r" depth="1" NCoef="0" IVar="11" Cut="7.3124990463256836e+00" cType="1" res="-2.1286907140165567e-03" rms="1.8760450184345245e-01" purity="5.8707445859909058e-01" nType="0">
          <Node pos="l" depth="2" NCoef="0" IVar="-1" Cut="0.0000000000000000e+00" cType="1" res="-7.1300100535154343e-03" rms="1.8785609304904938e-01" purity="6.3044381141662598e-01" nType="-99"/>
          <Node pos="r" depth="2" NCoef="0" IVar="-1" Cut="0.0000000000000000e+00" cType="1" res="5.5895023979246616e-03" rms="1.8691132962703705e-01" purity="4.9825137853622437e-01" nType="-99"/>
        </Node>
      </Node>
    </BinaryTree>
    <BinaryTree type="DecisionTree" boostWeight="1.0000000000000000e+00" itree="718">
      <Node pos="s" depth="0" NCoef="0" IVar="18" Cut="-1.7579814910888672e+01" cType="1" res="1.1119375703856349e-03" rms="1.9589351117610931e-01" purity="5.0120401382446289e-01" nType="0">
        <Node pos="l" depth="1" NCoef="0" IVar="23" Cut="9.5242726802825928e-01" cType="1" res="-2.1245067473500967e-03" rms="1.8329028785228729e-01" purity="6.7384028434753418e-01" nType="0">
          <Node pos="l" depth="2" NCoef="0" IVar="-1" Cut="0.0000000000000000e+00" cType="1" res="-4.4365725480020046e-03" rms="2.2722667455673218e-01" purity="4.3298515677452087e-01" nType="-99"/>
          <Node pos="r" depth="2" NCoef="0" IVar="-1" Cut="0.0000000000000000e+00" cType="1" res="5.7937623932957649e-03" rms="1.0836090147495270e-01" purity="9.6531623601913452e-01" nType="-99"/>
        </Node>
        <Node pos="r" depth="1" NCoef="0" IVar="11" Cut="6.2955803871154785e+00" cType="1" res="3.5741359461098909e-03" rms="2.0492905378341675e-01" purity="3.6986711621284485e-01" nType="0">
          <Node pos="l" depth="2" NCoef="0" IVar="-1" Cut="0.0000000000000000e+00" cType="1" res="-4.7294218093156815e-03" rms="1.9426183402538300e-01" purity="3.6916336417198181e-01" nType="-99"/>
          <Node pos="r" depth="2" NCoef="0" IVar="-1" Cut="0.0000000000000000e+00" cType="1" res="8.6564570665359497e-03" rms="2.1046650409698486e-01" purity="3.7025555968284607e-01" nType="-99"/>
        </Node>
      </Node>
    </BinaryTree>
    <BinaryTree type="DecisionTree" boostWeight="1.0000000000000000e+00" itree="719">
      <Node pos="s" depth="0" NCoef="0" IVar="27" Cut="9.5207840204238892e-01" cType="1" res="1.4001973904669285e-03" rms="1.9557084143161774e-01" purity="5.0104469060897827e-01" nType="0">
        <Node pos="l" depth="1" NCoef="0" IVar="22" Cut="1.4997290611267090e+01" cType="1" res="3.8002601359039545e-03" rms="2.0336687564849854e-01" purity="2.9315173625946045e-01" nType="0">
          <Node pos="l" depth="2" NCoef="0" IVar="-1" Cut="0.0000000000000000e+00" cType="1" res="7.6946439221501350e-03" rms="2.0232866704463959e-01" purity="2.2256515920162201e-01" nType="-99"/>
          <Node pos="r" depth="2" NCoef="0" IVar="-1" Cut="0.0000000000000000e+00" cType="1" res="-1.5615015290677547e-03" rms="2.0542065799236298e-01" purity="4.4069862365722656e-01" nType="-99"/>
        </Node>
        <Node pos="r" depth="1" NCoef="0" IVar="27" Cut="9.6794402599334717e-01" cType="1" res="-1.0623916750773787e-03" rms="1.8720260262489319e-01" purity="7.1435350179672241e-01" nType="0">
          <Node pos="l" depth="2" NCoef="0" IVar="-1" Cut="0.0000000000000000e+00" cType="1" res="-1.7906738445162773e-02" rms="2.0825132727622986e-01" purity="4.7686597704887390e-01" nType="-99"/>
          <Node pos="r" depth="2" NCoef="0" IVar="-1" Cut="0.0000000000000000e+00" cType="1" res="1.8891665386036038e-03" rms="1.8371358513832092e-01" purity="7.4986076354980469e-01" nType="-99"/>
        </Node>
      </Node>
    </BinaryTree>
    <BinaryTree type="DecisionTree" boostWeight="1.0000000000000000e+00" itree="720">
      <Node pos="s" depth="0" NCoef="0" IVar="27" Cut="5.2385663986206055e-01" cType="1" res="7.9091795487329364e-04" rms="1.9521699845790863e-01" purity="4.9774488806724548e-01" nType="0">
        <Node pos="l" depth="1" NCoef="0" IVar="16" Cut="5.0947582721710205e-01" cType="1" res="-7.8351404517889023e-03" rms="1.7236667871475220e-01" purity="1.7085528373718262e-01" nType="0">
          <Node pos="l" depth="2" NCoef="0" IVar="-1" Cut="0.0000000000000000e+00" cType="1" res="-5.9227030724287033e-03" rms="1.7061127722263336e-01" purity="1.4050933718681335e-01" nType="-99"/>
          <Node pos="r" depth="2" NCoef="0" IVar="-1" Cut="0.0000000000000000e+00" cType="1" res="-2.4199679493904114e-02" rms="1.7723669111728668e-01" purity="2.6644334197044373e-01" nType="-99"/>
        </Node>
        <Node pos="r" depth="1" NCoef="0" IVar="23" Cut="8.5750985145568848e-01" cType="1" res="2.0182630978524685e-03" rms="1.9822381436824799e-01" purity="5.4425579309463501e-01" nType="0">
          <Node pos="l" depth="2" NCoef="0" IVar="-1" Cut="0.0000000000000000e+00" cType="1" res="5.0790207460522652e-03" rms="2.2397103905677795e-01" purity="2.2757005691528320e-01" nType="-99"/>
          <Node pos="r" depth="2" NCoef="0" IVar="-1" Cut="0.0000000000000000e+00" cType="1" res="-2.9277496505528688e-03" rms="1.6689856350421906e-01" purity="8.7666738033294678e-01" nType="-99"/>
        </Node>
      </Node>
    </BinaryTree>
    <BinaryTree type="DecisionTree" boostWeight="1.0000000000000000e+00" itree="721">
      <Node pos="s" depth="0" NCoef="0" IVar="23" Cut="9.0482175350189209e-01" cType="1" res="7.8146421583369374e-04" rms="1.9525825977325439e-01" purity="4.9848982691764832e-01" nType="0">
        <Node pos="l" depth="1" NCoef="0" IVar="7" Cut="1.3166103363037109e+00" cType="1" res="-7.6748325955122709e-04" rms="2.1750140190124512e-01" purity="2.2950780391693115e-01" nType="0">
          <Node pos="l" depth="2" NCoef="0" IVar="-1" Cut="0.0000000000000000e+00" cType="1" res="-4.7894623130559921e-03" rms="2.6922523975372314e-01" purity="4.4498524069786072e-01" nType="-99"/>
          <Node pos="r" depth="2" NCoef="0" IVar="-1" Cut="0.0000000000000000e+00" cType="1" res="2.5378270074725151e-03" rms="1.9425654411315918e-01" purity="1.4782632887363434e-01" nType="-99"/>
        </Node>
        <Node pos="r" depth="1" NCoef="0" IVar="16" Cut="3.6892771720886230e-01" cType="1" res="3.0676044989377260e-03" rms="1.5673665702342987e-01" purity="8.9548885822296143e-01" nType="0">
          <Node pos="l" depth="2" NCoef="0" IVar="-1" Cut="0.0000000000000000e+00" cType="1" res="1.7044166103005409e-02" rms="1.9074822962284088e-01" purity="8.4259063005447388e-01" nType="-99"/>
          <Node pos="r" depth="2" NCoef="0" IVar="-1" Cut="0.0000000000000000e+00" cType="1" res="-2.2337825503200293e-03" rms="1.4461994171142578e-01" purity="9.1151905059814453e-01" nType="-99"/>
        </Node>
      </Node>
    </BinaryTree>
    <BinaryTree type="DecisionTree" boostWeight="1.0000000000000000e+00" itree="722">
      <Node pos="s" depth="0" NCoef="0" IVar="33" Cut="1.1429217457771301e-01" cType="1" res="-8.3751534111797810e-04" rms="1.9457668066024780e-01" purity="5.0287473201751709e-01" nType="0">
        <Node pos="l" depth="1" NCoef="0" IVar="33" Cut="3.2665327191352844e-02" cType="1" res="2.5318254483863711e-04" rms="1.9498056173324585e-01" purity="5.4851323366165161e-01" nType="0">
          <Node pos="l" depth="2" NCoef="0" IVar="-1" Cut="0.0000000000000000e+00" cType="1" res="-1.8829657929018140e-03" rms="1.8778654932975769e-01" purity="6.0955160856246948e-01" nType="-99"/>
          <Node pos="r" depth="2" NCoef="0" IVar="-1" Cut="0.0000000000000000e+00" cType="1" res="5.8854846283793449e-03" rms="2.1452587842941284e-01" purity="3.7028190493583679e-01" nType="-99"/>
        </Node>
        <Node pos="r" depth="1" NCoef="0" IVar="15" Cut="5.7046318054199219e+00" cType="1" res="-6.6522732377052307e-03" rms="1.9230480492115021e-01" purity="2.5956550240516663e-01" nType="0">
          <Node pos="l" depth="2" NCoef="0" IVar="-1" Cut="0.0000000000000000e+00" cType="1" res="-2.0705290138721466e-02" rms="2.0212939381599426e-01" purity="3.5950440168380737e-01" nType="-99"/>
          <Node pos="r" depth="2" NCoef="0" IVar="-1" Cut="0.0000000000000000e+00" cType="1" res="-4.0638330392539501e-03" rms="1.8962772190570831e-01" purity="2.3473943769931793e-01" nType="-99"/>
        </Node>
      </Node>
    </BinaryTree>
    <BinaryTree type="DecisionTree" boostWeight="1.0000000000000000e+00" itree="723">
      <Node pos="s" depth="0" NCoef="0" IVar="33" Cut="5.7152461260557175e-02" cType="1" res="2.4688549456186593e-04" rms="1.9575513899326324e-01" purity="4.9645090103149414e-01" nType="0">
        <Node pos="l" depth="1" NCoef="0" IVar="28" Cut="1.5261361002922058e-01" cType="1" res="-1.2945485068485141e-03" rms="1.9197595119476318e-01" purity="5.7421809434890747e-01" nType="0">
          <Node pos="l" depth="2" NCoef="0" IVar="-1" Cut="0.0000000000000000e+00" cType="1" res="1.2547688558697701e-02" rms="2.0004555583000183e-01" purity="3.7801370024681091e-01" nType="-99"/>
          <Node pos="r" depth="2" NCoef="0" IVar="-1" Cut="0.0000000000000000e+00" cType="1" res="-2.3341851774603128e-03" rms="1.9155597686767578e-01" purity="5.8368092775344849e-01" nType="-99"/>
        </Node>
        <Node pos="r" depth="1" NCoef="0" IVar="22" Cut="2.6916699409484863e+00" cType="1" res="4.1736359708011150e-03" rms="2.0501564443111420e-01" purity="2.9834184050559998e-01" nType="0">
          <Node pos="l" depth="2" NCoef="0" IVar="-1" Cut="0.0000000000000000e+00" cType="1" res="2.3463882505893707e-02" rms="2.0165468752384186e-01" purity="2.1577565371990204e-01" nType="-99"/>
          <Node pos="r" depth="2" NCoef="0" IVar="-1" Cut="0.0000000000000000e+00" cType="1" res="1.6124391695484519e-03" rms="2.0559528470039368e-01" purity="3.1534314155578613e-01" nType="-99"/>
        </Node>
      </Node>
    </BinaryTree>
    <BinaryTree type="DecisionTree" boostWeight="1.0000000000000000e+00" itree="724">
      <Node pos="s" depth="0" NCoef="0" IVar="14" Cut="7.0382704734802246e+00" cType="1" res="4.9100699834525585e-04" rms="1.9555418193340302e-01" purity="4.9902340769767761e-01" nType="0">
        <Node pos="l" depth="1" NCoef="0" IVar="-1" Cut="0.0000000000000000e+00" cType="1" res="1.6033673658967018e-02" rms="2.1931838989257812e-01" purity="3.4605437517166138e-01" nType="-99"/>
        <Node pos="r" depth="1" NCoef="0" IVar="10" Cut="6.7618832588195801e+00" cType="1" res="1.1084735888289288e-04" rms="1.9487959146499634e-01" purity="5.0302189588546753e-01" nType="0">
          <Node pos="l" depth="2" NCoef="0" IVar="-1" Cut="0.0000000000000000e+00" cType="1" res="-3.4111351706087589e-03" rms="1.8945199251174927e-01" purity="4.8056504130363464e-01" nType="-99"/>
          <Node pos="r" depth="2" NCoef="0" IVar="-1" Cut="0.0000000000000000e+00" cType="1" res="1.8334155902266502e-03" rms="1.9767397642135620e-01" purity="5.1489883661270142e-01" nType="-99"/>
        </Node>
      </Node>
    </BinaryTree>
    <BinaryTree type="DecisionTree" boostWeight="1.0000000000000000e+00" itree="725">
      <Node pos="s" depth="0" NCoef="0" IVar="19" Cut="9.2456617355346680e+00" cType="1" res="-1.1263989144936204e-03" rms="1.9429306685924530e-01" purity="5.0056469440460205e-01" nType="0">
        <Node pos="l" depth="1" NCoef="0" IVar="33" Cut="1.9065553322434425e-02" cType="1" res="-5.3864670917391777e-03" rms="1.9091033935546875e-01" purity="3.1672680377960205e-01" nType="0">
          <Node pos="l" depth="2" NCoef="0" IVar="-1" Cut="0.0000000000000000e+00" cType="1" res="-1.5570251271128654e-02" rms="1.8774269521236420e-01" purity="4.3923372030258179e-01" nType="-99"/>
          <Node pos="r" depth="2" NCoef="0" IVar="-1" Cut="0.0000000000000000e+00" cType="1" res="9.0360274771228433e-04" rms="1.9334042072296143e-01" purity="2.1313439309597015e-01" nType="-99"/>
        </Node>
        <Node pos="r" depth="1" NCoef="0" IVar="11" Cut="7.1502885818481445e+00" cType="1" res="1.1045278515666723e-03" rms="1.9600433111190796e-01" purity="5.9683752059936523e-01" nType="0">
          <Node pos="l" depth="2" NCoef="0" IVar="-1" Cut="0.0000000000000000e+00" cType="1" res="4.5517138205468655e-03" rms="1.9514854252338409e-01" purity="6.3684558868408203e-01" nType="-99"/>
          <Node pos="r" depth="2" NCoef="0" IVar="-1" Cut="0.0000000000000000e+00" cType="1" res="-5.5146659724414349e-03" rms="1.9772377610206604e-01" purity="5.0945776700973511e-01" nType="-99"/>
        </Node>
      </Node>
    </BinaryTree>
    <BinaryTree type="DecisionTree" boostWeight="1.0000000000000000e+00" itree="726">
      <Node pos="s" depth="0" NCoef="0" IVar="19" Cut="2.8296847343444824e+00" cType="1" res="3.7284218706190586e-04" rms="1.9417105615139008e-01" purity="5.0013440847396851e-01" nType="0">
        <Node pos="l" depth="1" NCoef="0" IVar="11" Cut="6.6071934700012207e+00" cType="1" res="-5.7140509597957134e-03" rms="1.7974300682544708e-01" purity="3.5498124361038208e-01" nType="0">
          <Node pos="l" depth="2" NCoef="0" IVar="-1" Cut="0.0000000000000000e+00" cType="1" res="-1.9117914140224457e-02" rms="1.6591064631938934e-01" purity="3.0769193172454834e-01" nType="-99"/>
          <Node pos="r" depth="2" NCoef="0" IVar="-1" Cut="0.0000000000000000e+00" cType="1" res="-5.5064723710529506e-05" rms="1.8826146423816681e-01" purity="3.8677868247032166e-01" nType="-99"/>
        </Node>
        <Node pos="r" depth="1" NCoef="0" IVar="23" Cut="5.7213479280471802e-01" cType="1" res="1.7937850207090378e-03" rms="1.9736038148403168e-01" purity="5.3401935100555420e-01" nType="0">
          <Node pos="l" depth="2" NCoef="0" IVar="-1" Cut="0.0000000000000000e+00" cType="1" res="-3.9389603771269321e-03" rms="1.9075824320316315e-01" purity="1.1997702717781067e-01" nType="-99"/>
          <Node pos="r" depth="2" NCoef="0" IVar="-1" Cut="0.0000000000000000e+00" cType="1" res="4.3706465512514114e-03" rms="1.9978633522987366e-01" purity="6.9203615188598633e-01" nType="-99"/>
        </Node>
      </Node>
    </BinaryTree>
    <BinaryTree type="DecisionTree" boostWeight="1.0000000000000000e+00" itree="727">
      <Node pos="s" depth="0" NCoef="0" IVar="6" Cut="6.1814746856689453e+00" cType="1" res="-2.2020826872903854e-04" rms="1.9605663418769836e-01" purity="4.9650171399116516e-01" nType="0">
        <Node pos="l" depth="1" NCoef="0" IVar="13" Cut="8.9187507629394531e+00" cType="1" res="-2.1935906261205673e-03" rms="1.9970819354057312e-01" purity="5.1231908798217773e-01" nType="0">
          <Node pos="l" depth="2" NCoef="0" IVar="-1" Cut="0.0000000000000000e+00" cType="1" res="-1.3780788285657763e-03" rms="2.0065692067146301e-01" purity="5.0818675756454468e-01" nType="-99"/>
          <Node pos="r" depth="2" NCoef="0" IVar="-1" Cut="0.0000000000000000e+00" cType="1" res="-2.9608944430947304e-02" rms="1.8070204555988312e-01" purity="5.8716511726379395e-01" nType="-99"/>
        </Node>
        <Node pos="r" depth="1" NCoef="0" IVar="10" Cut="7.3160939216613770e+00" cType="1" res="4.4687213376164436e-03" rms="1.8701109290122986e-01" purity="4.5891818404197693e-01" nType="0">
          <Node pos="l" depth="2" NCoef="0" IVar="-1" Cut="0.0000000000000000e+00" cType="1" res="-1.5653101727366447e-03" rms="1.8198543787002563e-01" purity="5.0886899232864380e-01" nType="-99"/>
          <Node pos="r" depth="2" NCoef="0" IVar="-1" Cut="0.0000000000000000e+00" cType="1" res="1.2404089793562889e-02" rms="1.9184224307537079e-01" purity="4.0777677297592163e-01" nType="-99"/>
        </Node>
      </Node>
    </BinaryTree>
    <BinaryTree type="DecisionTree" boostWeight="1.0000000000000000e+00" itree="728">
      <Node pos="s" depth="0" NCoef="0" IVar="34" Cut="3.5715837478637695e+00" cType="1" res="3.9487346657551825e-04" rms="1.9727611541748047e-01" purity="4.9781537055969238e-01" nType="0">
        <Node pos="l" depth="1" NCoef="0" IVar="24" Cut="9.5228952169418335e-01" cType="1" res="-1.2310342863202095e-03" rms="1.9782957434654236e-01" purity="5.7808506488800049e-01" nType="0">
          <Node pos="l" depth="2" NCoef="0" IVar="-1" Cut="0.0000000000000000e+00" cType="1" res="-4.2085428722202778e-03" rms="2.0418877899646759e-01" purity="4.3497055768966675e-01" nType="-99"/>
          <Node pos="r" depth="2" NCoef="0" IVar="-1" Cut="0.0000000000000000e+00" cType="1" res="2.1910073701292276e-03" rms="1.9029441475868225e-01" purity="7.4087136983871460e-01" nType="-99"/>
        </Node>
        <Node pos="r" depth="1" NCoef="0" IVar="1" Cut="9.2884006500244141e+00" cType="1" res="6.0292617417871952e-03" rms="1.9524125754833221e-01" purity="2.1965065598487854e-01" nType="0">
          <Node pos="l" depth="2" NCoef="0" IVar="-1" Cut="0.0000000000000000e+00" cType="1" res="1.6748647904023528e-03" rms="1.9182133674621582e-01" purity="1.9470806419849396e-01" nType="-99"/>
          <Node pos="r" depth="2" NCoef="0" IVar="-1" Cut="0.0000000000000000e+00" cType="1" res="2.7077499777078629e-02" rms="2.0590850710868835e-01" purity="3.0716830492019653e-01" nType="-99"/>
        </Node>
      </Node>
    </BinaryTree>
    <BinaryTree type="DecisionTree" boostWeight="1.0000000000000000e+00" itree="729">
      <Node pos="s" depth="0" NCoef="0" IVar="15" Cut="5.7219815254211426e+00" cType="1" res="5.6760665029287338e-04" rms="1.9706459343433380e-01" purity="4.9923405051231384e-01" nType="0">
        <Node pos="l" depth="1" NCoef="0" IVar="0" Cut="7.2906394004821777e+00" cType="1" res="-6.1554121784865856e-03" rms="2.0542730391025543e-01" purity="5.4049730300903320e-01" nType="0">
          <Node pos="l" depth="2" NCoef="0" IVar="-1" Cut="0.0000000000000000e+00" cType="1" res="1.1667823127936572e-04" rms="2.1027836203575134e-01" purity="5.3417897224426270e-01" nType="-99"/>
          <Node pos="r" depth="2" NCoef="0" IVar="-1" Cut="0.0000000000000000e+00" cType="1" res="-1.6216918826103210e-02" rms="1.9815240800380707e-01" purity="5.4928690195083618e-01" nType="-99"/>
        </Node>
        <Node pos="r" depth="1" NCoef="0" IVar="10" Cut="7.6994161605834961e+00" cType="1" res="1.7242287285625935e-03" rms="1.9556653499603271e-01" purity="4.9213525652885437e-01" nType="0">
          <Node pos="l" depth="2" NCoef="0" IVar="-1" Cut="0.0000000000000000e+00" cType="1" res="4.2785541154444218e-04" rms="1.9395418465137482e-01" purity="4.9712789058685303e-01" nType="-99"/>
          <Node pos="r" depth="2" NCoef="0" IVar="-1" Cut="0.0000000000000000e+00" cType="1" res="9.4104846939444542e-03" rms="2.0211139321327209e-01" purity="4.7111544013023376e-01" nType="-99"/>
        </Node>
      </Node>
    </BinaryTree>
    <BinaryTree type="DecisionTree" boostWeight="1.0000000000000000e+00" itree="730">
      <Node pos="s" depth="0" NCoef="0" IVar="10" Cut="7.9120564460754395e+00" cType="1" res="-1.8141097098123282e-04" rms="1.9298368692398071e-01" purity="5.0273460149765015e-01" nType="0">
        <Node pos="l" depth="1" NCoef="0" IVar="29" Cut="4.1491591930389404e-01" cType="1" res="9.2604674864560366e-04" rms="1.9420984387397766e-01" purity="5.0906121730804443e-01" nType="0">
          <Node pos="l" depth="2" NCoef="0" IVar="-1" Cut="0.0000000000000000e+00" cType="1" res="-5.3276005201041698e-04" rms="1.9083380699157715e-01" purity="5.6128799915313721e-01" nType="-99"/>
          <Node pos="r" depth="2" NCoef="0" IVar="-1" Cut="0.0000000000000000e+00" cType="1" res="6.0788560658693314e-03" rms="2.0531041920185089e-01" purity="3.2974225282669067e-01" nType="-99"/>
        </Node>
        <Node pos="r" depth="1" NCoef="0" IVar="15" Cut="6.8997306823730469e+00" cType="1" res="-1.0023998096585274e-02" rms="1.8142618238925934e-01" purity="4.4650691747665405e-01" nType="0">
          <Node pos="l" depth="2" NCoef="0" IVar="-1" Cut="0.0000000000000000e+00" cType="1" res="-2.7101622894406319e-02" rms="1.7633941769599915e-01" purity="3.1336826086044312e-01" nType="-99"/>
          <Node pos="r" depth="2" NCoef="0" IVar="-1" Cut="0.0000000000000000e+00" cType="1" res="-7.8506825957447290e-04" rms="1.8445816636085510e-01" purity="5.4313433170318604e-01" nType="-99"/>
        </Node>
      </Node>
    </BinaryTree>
    <BinaryTree type="DecisionTree" boostWeight="1.0000000000000000e+00" itree="731">
      <Node pos="s" depth="0" NCoef="0" IVar="0" Cut="2.3798913955688477e+01" cType="1" res="1.8449463823344558e-04" rms="1.9246071577072144e-01" purity="5.0037133693695068e-01" nType="0">
        <Node pos="l" depth="1" NCoef="0" IVar="10" Cut="7.1753005981445312e+00" cType="1" res="6.1710574664175510e-04" rms="1.9324718415737152e-01" purity="5.0743603706359863e-01" nType="0">
          <Node pos="l" depth="2" NCoef="0" IVar="-1" Cut="0.0000000000000000e+00" cType="1" res="-1.3860393082723022e-03" rms="1.8813538551330566e-01" purity="5.1537722349166870e-01" nType="-99"/>
          <Node pos="r" depth="2" NCoef="0" IVar="-1" Cut="0.0000000000000000e+00" cType="1" res="3.4845264162868261e-03" rms="2.0023395121097565e-01" purity="4.9619683623313904e-01" nType="-99"/>
        </Node>
        <Node pos="r" depth="1" NCoef="0" IVar="-1" Cut="0.0000000000000000e+00" cType="1" res="-1.3173286803066730e-02" rms="1.7288365960121155e-01" purity="3.3625173568725586e-01" nType="-99"/>
      </Node>
    </BinaryTree>
    <BinaryTree type="DecisionTree" boostWeight="1.0000000000000000e+00" itree="732">
      <Node pos="s" depth="0" NCoef="0" IVar="12" Cut="6.9108753204345703e+00" cType="1" res="-1.1540504638105631e-03" rms="1.9342072308063507e-01" purity="4.9660477042198181e-01" nType="0">
        <Node pos="l" depth="1" NCoef="0" IVar="23" Cut="7.6231873035430908e-01" cType="1" res="-5.5958474986255169e-03" rms="2.0087599754333496e-01" purity="3.3946746587753296e-01" nType="0">
          <Node pos="l" depth="2" NCoef="0" IVar="-1" Cut="0.0000000000000000e+00" cType="1" res="-1.2088678777217865e-03" rms="1.9560913741588593e-01" purity="1.6085986793041229e-01" nType="-99"/>
          <Node pos="r" depth="2" NCoef="0" IVar="-1" Cut="0.0000000000000000e+00" cType="1" res="-1.4429201371967793e-02" rms="2.0936639606952667e-01" purity="6.4560675621032715e-01" nType="-99"/>
        </Node>
        <Node pos="r" depth="1" NCoef="0" IVar="23" Cut="7.6252311468124390e-01" cType="1" res="3.8013650919310749e-04" rms="1.9075398147106171e-01" purity="5.5087965726852417e-01" nType="0">
          <Node pos="l" depth="2" NCoef="0" IVar="-1" Cut="0.0000000000000000e+00" cType="1" res="-3.8023230154067278e-03" rms="2.0314128696918488e-01" purity="1.3925503194332123e-01" nType="-99"/>
          <Node pos="r" depth="2" NCoef="0" IVar="-1" Cut="0.0000000000000000e+00" cType="1" res="4.2345095425844193e-03" rms="1.8206475675106049e-01" purity="8.2271653413772583e-01" nType="-99"/>
        </Node>
      </Node>
    </BinaryTree>
    <BinaryTree type="DecisionTree" boostWeight="1.0000000000000000e+00" itree="733">
      <Node pos="s" depth="0" NCoef="0" IVar="28" Cut="2.8745877742767334e-01" cType="1" res="-4.7833740245550871e-04" rms="1.9384898245334625e-01" purity="4.9773848056793213e-01" nType="0">
        <Node pos="l" depth="1" NCoef="0" IVar="7" Cut="2.3387255668640137e+00" cType="1" res="-7.4672042392194271e-03" rms="1.9098123908042908e-01" purity="2.9204717278480530e-01" nType="0">
          <Node pos="l" depth="2" NCoef="0" IVar="-1" Cut="0.0000000000000000e+00" cType="1" res="-1.1486830189824104e-02" rms="2.2807352244853973e-01" purity="4.2596113681793213e-01" nType="-99"/>
          <Node pos="r" depth="2" NCoef="0" IVar="-1" Cut="0.0000000000000000e+00" cType="1" res="1.2025511823594570e-03" rms="1.3313645124435425e-01" purity="1.3153277337551117e-01" nType="-99"/>
        </Node>
        <Node pos="r" depth="1" NCoef="0" IVar="7" Cut="3.4818942546844482e+00" cType="1" res="8.8741222862154245e-04" rms="1.9437511265277863e-01" purity="5.3793424367904663e-01" nType="0">
          <Node pos="l" depth="2" NCoef="0" IVar="-1" Cut="0.0000000000000000e+00" cType="1" res="2.1880136337131262e-03" rms="1.9650951027870178e-01" purity="5.7957762479782104e-01" nType="-99"/>
          <Node pos="r" depth="2" NCoef="0" IVar="-1" Cut="0.0000000000000000e+00" cType="1" res="-1.1502281762659550e-02" rms="1.7507088184356689e-01" purity="1.8595549464225769e-01" nType="-99"/>
        </Node>
      </Node>
    </BinaryTree>
    <BinaryTree type="DecisionTree" boostWeight="1.0000000000000000e+00" itree="734">
      <Node pos="s" depth="0" NCoef="0" IVar="33" Cut="1.7143060266971588e-01" cType="1" res="-3.3748359419405460e-04" rms="1.9477249681949615e-01" purity="4.9671992659568787e-01" nType="0">
        <Node pos="l" depth="1" NCoef="0" IVar="12" Cut="6.5082654953002930e+00" cType="1" res="4.7251881915144622e-04" rms="1.9596649706363678e-01" purity="5.2504360675811768e-01" nType="0">
          <Node pos="l" depth="2" NCoef="0" IVar="-1" Cut="0.0000000000000000e+00" cType="1" res="9.7695086151361465e-03" rms="2.0965132117271423e-01" purity="3.3835396170616150e-01" nType="-99"/>
          <Node pos="r" depth="2" NCoef="0" IVar="-1" Cut="0.0000000000000000e+00" cType="1" res="-3.3227141830138862e-04" rms="1.9470228254795074e-01" purity="5.4142135381698608e-01" nType="-99"/>
        </Node>
        <Node pos="r" depth="1" NCoef="0" IVar="3" Cut="2.1541717052459717e+00" cType="1" res="-7.6186629012227058e-03" rms="1.8353107571601868e-01" purity="2.4211558699607849e-01" nType="0">
          <Node pos="l" depth="2" NCoef="0" IVar="-1" Cut="0.0000000000000000e+00" cType="1" res="-1.2136070057749748e-02" rms="2.1978297829627991e-01" purity="4.3064865469932556e-01" nType="-99"/>
          <Node pos="r" depth="2" NCoef="0" IVar="-1" Cut="0.0000000000000000e+00" cType="1" res="-3.0426934827119112e-03" rms="1.4552505314350128e-01" purity="8.1989452242851257e-02" nType="-99"/>
        </Node>
      </Node>
    </BinaryTree>
    <BinaryTree type="DecisionTree" boostWeight="1.0000000000000000e+00" itree="735">
      <Node pos="s" depth="0" NCoef="0" IVar="27" Cut="4.7726681828498840e-01" cType="1" res="2.8834884869866073e-04" rms="1.9150136411190033e-01" purity="4.9876746535301208e-01" nType="0">
        <Node pos="l" depth="1" NCoef="0" IVar="34" Cut="3.9678239822387695e+00" cType="1" res="-6.0942228883504868e-03" rms="1.7781972885131836e-01" purity="1.7365130782127380e-01" nType="0">
          <Node pos="l" depth="2" NCoef="0" IVar="-1" Cut="0.0000000000000000e+00" cType="1" res="-1.3839637860655785e-02" rms="1.8397696316242218e-01" purity="2.2084629535675049e-01" nType="-99"/>
          <Node pos="r" depth="2" NCoef="0" IVar="-1" Cut="0.0000000000000000e+00" cType="1" res="1.5538372099399567e-02" rms="1.6170202195644379e-01" purity="6.2894329428672791e-02" nType="-99"/>
        </Node>
        <Node pos="r" depth="1" NCoef="0" IVar="27" Cut="9.7484934329986572e-01" cType="1" res="1.0913688456639647e-03" rms="1.9313915073871613e-01" purity="5.3967177867889404e-01" nType="0">
          <Node pos="l" depth="2" NCoef="0" IVar="-1" Cut="0.0000000000000000e+00" cType="1" res="-1.2489386135712266e-03" rms="2.0221060514450073e-01" purity="3.5335463285446167e-01" nType="-99"/>
          <Node pos="r" depth="2" NCoef="0" IVar="-1" Cut="0.0000000000000000e+00" cType="1" res="4.9394485540688038e-03" rms="1.8146488070487976e-01" purity="7.6617819070816040e-01" nType="-99"/>
        </Node>
      </Node>
    </BinaryTree>
    <BinaryTree type="DecisionTree" boostWeight="1.0000000000000000e+00" itree="736">
      <Node pos="s" depth="0" NCoef="0" IVar="20" Cut="-3.7791180610656738e+00" cType="1" res="1.5010838396847248e-03" rms="1.9226866960525513e-01" purity="4.9857228994369507e-01" nType="0">
        <Node pos="l" depth="1" NCoef="0" IVar="12" Cut="7.9131841659545898e+00" cType="1" res="-6.1875121900811791e-04" rms="1.8598146736621857e-01" purity="5.7426595687866211e-01" nType="0">
          <Node pos="l" depth="2" NCoef="0" IVar="-1" Cut="0.0000000000000000e+00" cType="1" res="-2.2190224844962358e-03" rms="1.9034856557846069e-01" purity="5.3532779216766357e-01" nType="-99"/>
          <Node pos="r" depth="2" NCoef="0" IVar="-1" Cut="0.0000000000000000e+00" cType="1" res="1.0766310617327690e-02" rms="1.6114176809787750e-01" purity="7.7728843688964844e-01" nType="-99"/>
        </Node>
        <Node pos="r" depth="1" NCoef="0" IVar="27" Cut="8.0806195735931396e-01" cType="1" res="5.8373343199491501e-03" rms="2.0445992052555084e-01" purity="3.4373608231544495e-01" nType="0">
          <Node pos="l" depth="2" NCoef="0" IVar="-1" Cut="0.0000000000000000e+00" cType="1" res="6.5078859915956855e-04" rms="1.9588211178779602e-01" purity="2.2645443677902222e-01" nType="-99"/>
          <Node pos="r" depth="2" NCoef="0" IVar="-1" Cut="0.0000000000000000e+00" cType="1" res="1.3803928159177303e-02" rms="2.1571356058120728e-01" purity="5.0847667455673218e-01" nType="-99"/>
        </Node>
      </Node>
    </BinaryTree>
    <BinaryTree type="DecisionTree" boostWeight="1.0000000000000000e+00" itree="737">
      <Node pos="s" depth="0" NCoef="0" IVar="25" Cut="5.5504989624023438e-01" cType="1" res="-1.2287321733310819e-03" rms="1.9415973126888275e-01" purity="4.9829995632171631e-01" nType="0">
        <Node pos="l" depth="1" NCoef="0" IVar="20" Cut="8.6612491607666016e+00" cType="1" res="-1.9664450082927942e-03" rms="1.9505624473094940e-01" purity="5.2497977018356323e-01" nType="0">
          <Node pos="l" depth="2" NCoef="0" IVar="-1" Cut="0.0000000000000000e+00" cType="1" res="-3.3408147282898426e-03" rms="1.9357049465179443e-01" purity="5.4131376743316650e-01" nType="-99"/>
          <Node pos="r" depth="2" NCoef="0" IVar="-1" Cut="0.0000000000000000e+00" cType="1" res="9.7210686653852463e-03" rms="2.1372234821319580e-01" purity="3.0548396706581116e-01" nType="-99"/>
        </Node>
        <Node pos="r" depth="1" NCoef="0" IVar="29" Cut="3.2688325643539429e-01" cType="1" res="7.9760486260056496e-03" rms="1.8235297501087189e-01" purity="1.6540361940860748e-01" nType="0">
          <Node pos="l" depth="2" NCoef="0" IVar="-1" Cut="0.0000000000000000e+00" cType="1" res="-2.9408957343548536e-03" rms="1.7945697903633118e-01" purity="1.8105739355087280e-01" nType="-99"/>
          <Node pos="r" depth="2" NCoef="0" IVar="-1" Cut="0.0000000000000000e+00" cType="1" res="3.6949772387742996e-02" rms="1.8567979335784912e-01" purity="1.4115352928638458e-01" nType="-99"/>
        </Node>
      </Node>
    </BinaryTree>
    <BinaryTree type="DecisionTree" boostWeight="1.0000000000000000e+00" itree="738">
      <Node pos="s" depth="0" NCoef="0" IVar="28" Cut="3.8243073225021362e-01" cType="1" res="7.2833390731830150e-05" rms="1.9345048069953918e-01" purity="5.0140619277954102e-01" nType="0">
        <Node pos="l" depth="1" NCoef="0" IVar="27" Cut="7.6243132352828979e-01" cType="1" res="-4.4996854849159718e-03" rms="2.0418485999107361e-01" purity="2.9045513272285461e-01" nType="0">
          <Node pos="l" depth="2" NCoef="0" IVar="-1" Cut="0.0000000000000000e+00" cType="1" res="-2.0996920764446259e-02" rms="1.6430422663688660e-01" purity="9.8244890570640564e-02" nType="-99"/>
          <Node pos="r" depth="2" NCoef="0" IVar="-1" Cut="0.0000000000000000e+00" cType="1" res="-7.3604995850473642e-04" rms="2.1872070431709290e-01" purity="3.7148818373680115e-01" nType="-99"/>
        </Node>
        <Node pos="r" depth="1" NCoef="0" IVar="24" Cut="5.7199645042419434e-01" cType="1" res="1.4725449727848172e-03" rms="1.9002136588096619e-01" purity="5.6598120927810669e-01" nType="0">
          <Node pos="l" depth="2" NCoef="0" IVar="-1" Cut="0.0000000000000000e+00" cType="1" res="-6.6892309114336967e-03" rms="1.8811126053333282e-01" purity="1.9368189573287964e-01" nType="-99"/>
          <Node pos="r" depth="2" NCoef="0" IVar="-1" Cut="0.0000000000000000e+00" cType="1" res="3.5620157141238451e-03" rms="1.9042906165122986e-01" purity="6.5223842859268188e-01" nType="-99"/>
        </Node>
      </Node>
    </BinaryTree>
    <BinaryTree type="DecisionTree" boostWeight="1.0000000000000000e+00" itree="739">
      <Node pos="s" depth="0" NCoef="0" IVar="7" Cut="2.5774228572845459e+00" cType="1" res="1.5403192082885653e-04" rms="1.9349345564842224e-01" purity="5.0289708375930786e-01" nType="0">
        <Node pos="l" depth="1" NCoef="0" IVar="19" Cut="2.2101501464843750e+01" cType="1" res="1.5151477418839931e-03" rms="2.0779615640640259e-01" purity="6.3777738809585571e-01" nType="0">
          <Node pos="l" depth="2" NCoef="0" IVar="-1" Cut="0.0000000000000000e+00" cType="1" res="3.2906217966228724e-03" rms="2.2367441654205322e-01" purity="5.4364669322967529e-01" nType="-99"/>
          <Node pos="r" depth="2" NCoef="0" IVar="-1" Cut="0.0000000000000000e+00" cType="1" res="-3.5257607232779264e-03" rms="1.7226436734199524e-01" purity="8.2297468185424805e-01" nType="-99"/>
        </Node>
        <Node pos="r" depth="1" NCoef="0" IVar="15" Cut="7.2999687194824219e+00" cType="1" res="-3.5094122868031263e-03" rms="1.4823418855667114e-01" purity="1.3986644148826599e-01" nType="0">
          <Node pos="l" depth="2" NCoef="0" IVar="-1" Cut="0.0000000000000000e+00" cType="1" res="-1.3034170260652900e-03" rms="1.4837871491909027e-01" purity="1.5210597217082977e-01" nType="-99"/>
          <Node pos="r" depth="2" NCoef="0" IVar="-1" Cut="0.0000000000000000e+00" cType="1" res="-4.5241184532642365e-02" rms="1.4642354846000671e-01" purity="7.2643846273422241e-02" nType="-99"/>
        </Node>
      </Node>
    </BinaryTree>
    <BinaryTree type="DecisionTree" boostWeight="1.0000000000000000e+00" itree="740">
      <Node pos="s" depth="0" NCoef="0" IVar="13" Cut="7.3875288963317871e+00" cType="1" res="1.8757220823317766e-04" rms="1.9493432343006134e-01" purity="5.0080102682113647e-01" nType="0">
        <Node pos="l" depth="1" NCoef="0" IVar="16" Cut="4.3142765760421753e-01" cType="1" res="7.1472199633717537e-03" rms="1.9264967739582062e-01" purity="3.7613031268119812e-01" nType="0">
          <Node pos="l" depth="2" NCoef="0" IVar="-1" Cut="0.0000000000000000e+00" cType="1" res="2.0670590922236443e-02" rms="2.0312391221523285e-01" purity="3.0415594577789307e-01" nType="-99"/>
          <Node pos="r" depth="2" NCoef="0" IVar="-1" Cut="0.0000000000000000e+00" cType="1" res="1.8396893283352256e-03" rms="1.8524642288684845e-01" purity="4.2328613996505737e-01" nType="-99"/>
        </Node>
        <Node pos="r" depth="1" NCoef="0" IVar="27" Cut="3.8115811347961426e-01" cType="1" res="-8.0657354556024075e-04" rms="1.9523824751377106e-01" purity="5.1860952377319336e-01" nType="0">
          <Node pos="l" depth="2" NCoef="0" IVar="-1" Cut="0.0000000000000000e+00" cType="1" res="-1.3505331240594387e-02" rms="1.7771647870540619e-01" purity="1.6295269131660461e-01" nType="-99"/>
          <Node pos="r" depth="2" NCoef="0" IVar="-1" Cut="0.0000000000000000e+00" cType="1" res="-4.6404253225773573e-05" rms="1.9670030474662781e-01" purity="5.5018967390060425e-01" nType="-99"/>
        </Node>
      </Node>
    </BinaryTree>
    <BinaryTree type="DecisionTree" boostWeight="1.0000000000000000e+00" itree="741">
      <Node pos="s" depth="0" NCoef="0" IVar="16" Cut="2.9662466049194336e-01" cType="1" res="-5.5845681345090270e-04" rms="1.9745537638664246e-01" purity="4.9756467342376709e-01" nType="0">
        <Node pos="l" depth="1" NCoef="0" IVar="16" Cut="2.7635207772254944e-01" cType="1" res="5.8467430062592030e-03" rms="2.0504462718963623e-01" purity="2.3970368504524231e-01" nType="0">
          <Node pos="l" depth="2" NCoef="0" IVar="-1" Cut="0.0000000000000000e+00" cType="1" res="-2.3603534791618586e-03" rms="2.0110686123371124e-01" purity="1.9234561920166016e-01" nType="-99"/>
          <Node pos="r" depth="2" NCoef="0" IVar="-1" Cut="0.0000000000000000e+00" cType="1" res="3.8075152784585953e-02" rms="2.1839922666549683e-01" purity="4.5073735713958740e-01" nType="-99"/>
        </Node>
        <Node pos="r" depth="1" NCoef="0" IVar="16" Cut="3.8278025388717651e-01" cType="1" res="-2.1794445347040892e-03" rms="1.9545473158359528e-01" purity="5.6282246112823486e-01" nType="0">
          <Node pos="l" depth="2" NCoef="0" IVar="-1" Cut="0.0000000000000000e+00" cType="1" res="-6.4182677306234837e-03" rms="2.1918523311614990e-01" purity="3.8375002145767212e-01" nType="-99"/>
          <Node pos="r" depth="2" NCoef="0" IVar="-1" Cut="0.0000000000000000e+00" cType="1" res="-6.8701090640388429e-05" rms="1.8324059247970581e-01" purity="6.4674288034439087e-01" nType="-99"/>
        </Node>
      </Node>
    </BinaryTree>
    <BinaryTree type="DecisionTree" boostWeight="1.0000000000000000e+00" itree="742">
      <Node pos="s" depth="0" NCoef="0" IVar="3" Cut="3.0997283458709717e+00" cType="1" res="2.5997071061283350e-03" rms="1.9232404232025146e-01" purity="5.0215828418731689e-01" nType="0">
        <Node pos="l" depth="1" NCoef="0" IVar="7" Cut="1.0164881944656372e+00" cType="1" res="3.8406520616263151e-03" rms="2.1643766760826111e-01" purity="6.3627260923385620e-01" nType="0">
          <Node pos="l" depth="2" NCoef="0" IVar="-1" Cut="0.0000000000000000e+00" cType="1" res="-3.3690003328956664e-04" rms="1.8962927162647247e-01" purity="7.5881451368331909e-01" nType="-99"/>
          <Node pos="r" depth="2" NCoef="0" IVar="-1" Cut="0.0000000000000000e+00" cType="1" res="5.5096810683608055e-03" rms="2.3061542212963104e-01" purity="5.6474608182907104e-01" nType="-99"/>
        </Node>
        <Node pos="r" depth="1" NCoef="0" IVar="24" Cut="8.1046378612518311e-01" cType="1" res="-2.0467066206037998e-03" rms="7.4221701361238956e-03" purity="0.0000000000000000e+00" nType="0">
          <Node pos="l" depth="2" NCoef="0" IVar="-1" Cut="0.0000000000000000e+00" cType="1" res="-5.0575010478496552e-02" rms="3.3531114459037781e-03" purity="0.0000000000000000e+00" nType="-99"/>
          <Node pos="r" depth="2" NCoef="0" IVar="-1" Cut="0.0000000000000000e+00" cType="1" res="-5.1946006715297699e-02" rms="1.0947450064122677e-02" purity="0.0000000000000000e+00" nType="-99"/>
        </Node>
      </Node>
    </BinaryTree>
    <BinaryTree type="DecisionTree" boostWeight="1.0000000000000000e+00" itree="743">
      <Node pos="s" depth="0" NCoef="0" IVar="33" Cut="3.8108762353658676e-02" cType="1" res="-5.8316625654697418e-04" rms="1.9355303049087524e-01" purity="4.9725866317749023e-01" nType="0">
        <Node pos="l" depth="1" NCoef="0" IVar="11" Cut="6.8761353492736816e+00" cType="1" res="1.9271541386842728e-03" rms="1.9107192754745483e-01" purity="6.0096955299377441e-01" nType="0">
          <Node pos="l" depth="2" NCoef="0" IVar="-1" Cut="0.0000000000000000e+00" cType="1" res="-1.9900333136320114e-03" rms="1.9027559459209442e-01" purity="6.1073780059814453e-01" nType="-99"/>
          <Node pos="r" depth="2" NCoef="0" IVar="-1" Cut="0.0000000000000000e+00" cType="1" res="7.2910459712147713e-03" rms="1.9193264842033386e-01" purity="5.8930820226669312e-01" nType="-99"/>
        </Node>
        <Node pos="r" depth="1" NCoef="0" IVar="24" Cut="9.5224499702453613e-01" cType="1" res="-5.3051332943141460e-03" rms="1.9804967939853668e-01" purity="3.0217620730400085e-01" nType="0">
          <Node pos="l" depth="2" NCoef="0" IVar="-1" Cut="0.0000000000000000e+00" cType="1" res="-1.4892900362610817e-03" rms="1.9251792132854462e-01" purity="2.0947834849357605e-01" nType="-99"/>
          <Node pos="r" depth="2" NCoef="0" IVar="-1" Cut="0.0000000000000000e+00" cType="1" res="-1.3592589646577835e-02" rms="2.0857593417167664e-01" purity="4.9036031961441040e-01" nType="-99"/>
        </Node>
      </Node>
    </BinaryTree>
    <BinaryTree type="DecisionTree" boostWeight="1.0000000000000000e+00" itree="744">
      <Node pos="s" depth="0" NCoef="0" IVar="16" Cut="4.7410145401954651e-01" cType="1" res="-2.0344897639006376e-03" rms="1.9195379316806793e-01" purity="4.9533724784851074e-01" nType="0">
        <Node pos="l" depth="1" NCoef="0" IVar="23" Cut="8.0979675054550171e-01" cType="1" res="-4.0641170926392078e-03" rms="1.9865864515304565e-01" purity="4.1041085124015808e-01" nType="0">
          <Node pos="l" depth="2" NCoef="0" IVar="-1" Cut="0.0000000000000000e+00" cType="1" res="-8.0440640449523926e-03" rms="2.0025701820850372e-01" purity="1.4425580203533173e-01" nType="-99"/>
          <Node pos="r" depth="2" NCoef="0" IVar="-1" Cut="0.0000000000000000e+00" cType="1" res="9.4726256793364882e-04" rms="1.9628493487834930e-01" purity="7.8466188907623291e-01" nType="-99"/>
        </Node>
        <Node pos="r" depth="1" NCoef="0" IVar="28" Cut="7.6448839902877808e-01" cType="1" res="1.8375325016677380e-03" rms="1.7840129137039185e-01" purity="6.5735560655593872e-01" nType="0">
          <Node pos="l" depth="2" NCoef="0" IVar="-1" Cut="0.0000000000000000e+00" cType="1" res="-3.6618865560740232e-03" rms="2.0093508064746857e-01" purity="5.0513583421707153e-01" nType="-99"/>
          <Node pos="r" depth="2" NCoef="0" IVar="-1" Cut="0.0000000000000000e+00" cType="1" res="1.2111513875424862e-02" rms="1.5458425879478455e-01" purity="7.9775714874267578e-01" nType="-99"/>
        </Node>
      </Node>
    </BinaryTree>
    <BinaryTree type="DecisionTree" boostWeight="1.0000000000000000e+00" itree="745">
      <Node pos="s" depth="0" NCoef="0" IVar="15" Cut="7.0539045333862305e+00" cType="1" res="4.5822409447282553e-04" rms="1.9213223457336426e-01" purity="5.0282531976699829e-01" nType="0">
        <Node pos="l" depth="1" NCoef="0" IVar="13" Cut="7.9860887527465820e+00" cType="1" res="-9.3731732340529561e-04" rms="1.9618646800518036e-01" purity="4.7873327136039734e-01" nType="0">
          <Node pos="l" depth="2" NCoef="0" IVar="-1" Cut="0.0000000000000000e+00" cType="1" res="4.1421861387789249e-03" rms="1.9364112615585327e-01" purity="4.7777450084686279e-01" nType="-99"/>
          <Node pos="r" depth="2" NCoef="0" IVar="-1" Cut="0.0000000000000000e+00" cType="1" res="-5.1133781671524048e-03" rms="1.9810552895069122e-01" purity="4.7949206829071045e-01" nType="-99"/>
        </Node>
        <Node pos="r" depth="1" NCoef="0" IVar="7" Cut="3.1820638179779053e+00" cType="1" res="5.2074557170271873e-03" rms="1.7756105959415436e-01" purity="5.8481407165527344e-01" nType="0">
          <Node pos="l" depth="2" NCoef="0" IVar="-1" Cut="0.0000000000000000e+00" cType="1" res="1.3142491690814495e-02" rms="1.8406499922275543e-01" purity="7.1020424365997314e-01" nType="-99"/>
          <Node pos="r" depth="2" NCoef="0" IVar="-1" Cut="0.0000000000000000e+00" cType="1" res="-3.1346768140792847e-02" rms="1.4590479433536530e-01" purity="6.2315899878740311e-02" nType="-99"/>
        </Node>
      </Node>
    </BinaryTree>
    <BinaryTree type="DecisionTree" boostWeight="1.0000000000000000e+00" itree="746">
      <Node pos="s" depth="0" NCoef="0" IVar="7" Cut="4.2726669311523438e+00" cType="1" res="-5.1682518096640706e-04" rms="1.9196571409702301e-01" purity="4.9936157464981079e-01" nType="0">
        <Node pos="l" depth="1" NCoef="0" IVar="13" Cut="7.4010672569274902e+00" cType="1" res="-1.1690882965922356e-03" rms="1.9214300811290741e-01" purity="5.2413439750671387e-01" nType="0">
          <Node pos="l" depth="2" NCoef="0" IVar="-1" Cut="0.0000000000000000e+00" cType="1" res="-1.1614032089710236e-02" rms="1.8024672567844391e-01" purity="3.7253001332283020e-01" nType="-99"/>
          <Node pos="r" depth="2" NCoef="0" IVar="-1" Cut="0.0000000000000000e+00" cType="1" res="-7.4484756623860449e-05" rms="1.9372697174549103e-01" purity="5.4539155960083008e-01" nType="-99"/>
        </Node>
        <Node pos="r" depth="1" NCoef="0" IVar="14" Cut="8.3060970306396484e+00" cType="1" res="7.2155240923166275e-03" rms="1.8968065083026886e-01" purity="2.0568874478340149e-01" nType="0">
          <Node pos="l" depth="2" NCoef="0" IVar="-1" Cut="0.0000000000000000e+00" cType="1" res="3.0862562358379364e-02" rms="2.2143507003784180e-01" purity="3.2135826349258423e-01" nType="-99"/>
          <Node pos="r" depth="2" NCoef="0" IVar="-1" Cut="0.0000000000000000e+00" cType="1" res="-1.6496017575263977e-02" rms="1.6141277551651001e-01" purity="1.2252544611692429e-01" nType="-99"/>
        </Node>
      </Node>
    </BinaryTree>
    <BinaryTree type="DecisionTree" boostWeight="1.0000000000000000e+00" itree="747">
      <Node pos="s" depth="0" NCoef="0" IVar="17" Cut="3.8478965759277344e+01" cType="1" res="-5.6891515851020813e-04" rms="1.9420140981674194e-01" purity="4.9935358762741089e-01" nType="0">
        <Node pos="l" depth="1" NCoef="0" IVar="23" Cut="7.6265788078308105e-01" cType="1" res="-1.8354179337620735e-03" rms="2.0055271685123444e-01" purity="4.2573723196983337e-01" nType="0">
          <Node pos="l" depth="2" NCoef="0" IVar="-1" Cut="0.0000000000000000e+00" cType="1" res="1.4130723429843783e-03" rms="1.9498766958713531e-01" purity="1.3169534504413605e-01" nType="-99"/>
          <Node pos="r" depth="2" NCoef="0" IVar="-1" Cut="0.0000000000000000e+00" cType="1" res="-5.5963564664125443e-03" rms="2.0608893036842346e-01" purity="7.2906154394149780e-01" nType="-99"/>
        </Node>
        <Node pos="r" depth="1" NCoef="0" IVar="23" Cut="6.6815501451492310e-01" cType="1" res="5.4847514256834984e-03" rms="1.6026812791824341e-01" purity="8.5122728347778320e-01" nType="0">
          <Node pos="l" depth="2" NCoef="0" IVar="-1" Cut="0.0000000000000000e+00" cType="1" res="-5.1059955731034279e-03" rms="2.6081952452659607e-01" purity="3.4958529472351074e-01" nType="-99"/>
          <Node pos="r" depth="2" NCoef="0" IVar="-1" Cut="0.0000000000000000e+00" cType="1" res="1.7593048512935638e-02" rms="1.3445450365543365e-01" purity="9.4085335731506348e-01" nType="-99"/>
        </Node>
      </Node>
    </BinaryTree>
    <BinaryTree type="DecisionTree" boostWeight="1.0000000000000000e+00" itree="748">
      <Node pos="s" depth="0" NCoef="0" IVar="21" Cut="7.4358711242675781e+00" cType="1" res="2.7411486371420324e-04" rms="1.9351328909397125e-01" purity="5.0098806619644165e-01" nType="0">
        <Node pos="l" depth="1" NCoef="0" IVar="29" Cut="7.9174333810806274e-01" cType="1" res="-4.3242387473583221e-03" rms="1.9899918138980865e-01" purity="2.8547185659408569e-01" nType="0">
          <Node pos="l" depth="2" NCoef="0" IVar="-1" Cut="0.0000000000000000e+00" cType="1" res="-7.1366447955369949e-03" rms="1.9722491502761841e-01" purity="2.7580145001411438e-01" nType="-99"/>
          <Node pos="r" depth="2" NCoef="0" IVar="-1" Cut="0.0000000000000000e+00" cType="1" res="1.3590583577752113e-02" rms="2.1491296589374542e-01" purity="3.8128229975700378e-01" nType="-99"/>
        </Node>
        <Node pos="r" depth="1" NCoef="0" IVar="15" Cut="7.1984291076660156e+00" cType="1" res="2.0356001332402229e-03" rms="1.9134089350700378e-01" purity="5.8354562520980835e-01" nType="0">
          <Node pos="l" depth="2" NCoef="0" IVar="-1" Cut="0.0000000000000000e+00" cType="1" res="7.4101128848269582e-04" rms="1.9514833390712738e-01" purity="5.5916661024093628e-01" nType="-99"/>
          <Node pos="r" depth="2" NCoef="0" IVar="-1" Cut="0.0000000000000000e+00" cType="1" res="1.0688071139156818e-02" rms="1.7631895840167999e-01" purity="6.7446362972259521e-01" nType="-99"/>
        </Node>
      </Node>
    </BinaryTree>
    <BinaryTree type="DecisionTree" boostWeight="1.0000000000000000e+00" itree="749">
      <Node pos="s" depth="0" NCoef="0" IVar="7" Cut="1.2703657150268555e+00" cType="1" res="9.4464584253728390e-04" rms="1.9303004443645477e-01" purity="5.0196331739425659e-01" nType="0">
        <Node pos="l" depth="1" NCoef="0" IVar="24" Cut="4.3034940958023071e-01" cType="1" res="4.3997494503855705e-03" rms="2.0167142152786255e-01" purity="7.4991792440414429e-01" nType="0">
          <Node pos="l" depth="2" NCoef="0" IVar="-1" Cut="0.0000000000000000e+00" cType="1" res="1.7478266730904579e-02" rms="2.5587302446365356e-01" purity="4.3163856863975525e-01" nType="-99"/>
          <Node pos="r" depth="2" NCoef="0" IVar="-1" Cut="0.0000000000000000e+00" cType="1" res="2.9271540697664022e-03" rms="1.9623185694217682e-01" purity="7.7721095085144043e-01" nType="-99"/>
        </Node>
        <Node pos="r" depth="1" NCoef="0" IVar="12" Cut="7.4383077621459961e+00" cType="1" res="-1.0277937399223447e-03" rms="1.8789029121398926e-01" purity="3.6041164398193359e-01" nType="0">
          <Node pos="l" depth="2" NCoef="0" IVar="-1" Cut="0.0000000000000000e+00" cType="1" res="2.2597180213779211e-03" rms="1.8964028358459473e-01" purity="3.0133596062660217e-01" nType="-99"/>
          <Node pos="r" depth="2" NCoef="0" IVar="-1" Cut="0.0000000000000000e+00" cType="1" res="-7.9031670466065407e-03" rms="1.8471090495586395e-01" purity="4.6303734183311462e-01" nType="-99"/>
        </Node>
      </Node>
    </BinaryTree>
    <BinaryTree type="DecisionTree" boostWeight="1.0000000000000000e+00" itree="750">
      <Node pos="s" depth="0" NCoef="0" IVar="11" Cut="7.4577369689941406e+00" cType="1" res="-2.6451816665939987e-04" rms="1.9641423225402832e-01" purity="4.9840632081031799e-01" nType="0">
        <Node pos="l" depth="1" NCoef="0" IVar="1" Cut="9.3191184997558594e+00" cType="1" res="-1.4733567368239164e-03" rms="1.9609726965427399e-01" purity="5.2812469005584717e-01" nType="0">
          <Node pos="l" depth="2" NCoef="0" IVar="-1" Cut="0.0000000000000000e+00" cType="1" res="-5.0137024372816086e-03" rms="1.9627553224563599e-01" purity="4.9594858288764954e-01" nType="-99"/>
          <Node pos="r" depth="2" NCoef="0" IVar="-1" Cut="0.0000000000000000e+00" cType="1" res="5.2098501473665237e-03" rms="1.9558107852935791e-01" purity="5.9827864170074463e-01" nType="-99"/>
        </Node>
        <Node pos="r" depth="1" NCoef="0" IVar="1" Cut="9.5506887435913086e+00" cType="1" res="4.4301040470600128e-03" rms="1.9757021963596344e-01" purity="3.8299274444580078e-01" nType="0">
          <Node pos="l" depth="2" NCoef="0" IVar="-1" Cut="0.0000000000000000e+00" cType="1" res="1.6032945364713669e-02" rms="2.1146784722805023e-01" purity="4.6343821287155151e-01" nType="-99"/>
          <Node pos="r" depth="2" NCoef="0" IVar="-1" Cut="0.0000000000000000e+00" cType="1" res="-7.1758348494768143e-03" rms="1.8140402436256409e-01" purity="2.9911014437675476e-01" nType="-99"/>
        </Node>
      </Node>
    </BinaryTree>
    <BinaryTree type="DecisionTree" boostWeight="1.0000000000000000e+00" itree="751">
      <Node pos="s" depth="0" NCoef="0" IVar="29" Cut="6.0705417394638062e-01" cType="1" res="8.6265301797538996e-04" rms="1.9402553141117096e-01" purity="5.0108277797698975e-01" nType="0">
        <Node pos="l" depth="1" NCoef="0" IVar="13" Cut="8.2224950790405273e+00" cType="1" res="5.7444089179625735e-05" rms="1.9187416136264801e-01" purity="5.2254492044448853e-01" nType="0">
          <Node pos="l" depth="2" NCoef="0" IVar="-1" Cut="0.0000000000000000e+00" cType="1" res="-2.9081839602440596e-03" rms="1.9646704196929932e-01" purity="4.9597027897834778e-01" nType="-99"/>
          <Node pos="r" depth="2" NCoef="0" IVar="-1" Cut="0.0000000000000000e+00" cType="1" res="3.4951961133629084e-03" rms="1.8677616119384766e-01" purity="5.5109655857086182e-01" nType="-99"/>
        </Node>
        <Node pos="r" depth="1" NCoef="0" IVar="33" Cut="1.9011406227946281e-02" cType="1" res="7.5362604111433029e-03" rms="2.1089534461498260e-01" purity="3.2320332527160645e-01" nType="0">
          <Node pos="l" depth="2" NCoef="0" IVar="-1" Cut="0.0000000000000000e+00" cType="1" res="-9.4978976994752884e-04" rms="2.0543016493320465e-01" purity="3.7464201450347900e-01" nType="-99"/>
          <Node pos="r" depth="2" NCoef="0" IVar="-1" Cut="0.0000000000000000e+00" cType="1" res="1.9290436059236526e-02" rms="2.1607302129268646e-01" purity="2.6982739567756653e-01" nType="-99"/>
        </Node>
      </Node>
    </BinaryTree>
    <BinaryTree type="DecisionTree" boostWeight="1.0000000000000000e+00" itree="752">
      <Node pos="s" depth="0" NCoef="0" IVar="12" Cut="8.0798797607421875e+00" cType="1" res="-6.8676850060001016e-04" rms="1.9212545454502106e-01" purity="4.9652230739593506e-01" nType="0">
        <Node pos="l" depth="1" NCoef="0" IVar="6" Cut="4.9099369049072266e+00" cType="1" res="2.7158603188581765e-04" rms="1.9432163238525391e-01" purity="4.7382095456123352e-01" nType="0">
          <Node pos="l" depth="2" NCoef="0" IVar="-1" Cut="0.0000000000000000e+00" cType="1" res="-4.6130218543112278e-03" rms="1.9285152852535248e-01" purity="4.1820150613784790e-01" nType="-99"/>
          <Node pos="r" depth="2" NCoef="0" IVar="-1" Cut="0.0000000000000000e+00" cType="1" res="2.5607689749449492e-03" rms="1.9502659142017365e-01" purity="5.0180160999298096e-01" nType="-99"/>
        </Node>
        <Node pos="r" depth="1" NCoef="0" IVar="28" Cut="7.6390606164932251e-01" cType="1" res="-1.0657697916030884e-02" rms="1.6725142300128937e-01" purity="7.3271220922470093e-01" nType="0">
          <Node pos="l" depth="2" NCoef="0" IVar="-1" Cut="0.0000000000000000e+00" cType="1" res="-3.3716116100549698e-02" rms="2.0393936336040497e-01" purity="4.5560088753700256e-01" nType="-99"/>
          <Node pos="r" depth="2" NCoef="0" IVar="-1" Cut="0.0000000000000000e+00" cType="1" res="-5.8834590017795563e-03" rms="1.4858222007751465e-01" purity="8.4823757410049438e-01" nType="-99"/>
        </Node>
      </Node>
    </BinaryTree>
    <BinaryTree type="DecisionTree" boostWeight="1.0000000000000000e+00" itree="753">
      <Node pos="s" depth="0" NCoef="0" IVar="17" Cut="1.1254184722900391e+01" cType="1" res="6.5240653930231929e-04" rms="1.9693796336650848e-01" purity="4.9822339415550232e-01" nType="0">
        <Node pos="l" depth="1" NCoef="0" IVar="7" Cut="1.6574752330780029e+00" cType="1" res="4.9801529385149479e-03" rms="1.9441241025924683e-01" purity="2.0533935725688934e-01" nType="0">
          <Node pos="l" depth="2" NCoef="0" IVar="-1" Cut="0.0000000000000000e+00" cType="1" res="9.9304793402552605e-03" rms="2.5177574157714844e-01" purity="4.6548604965209961e-01" nType="-99"/>
          <Node pos="r" depth="2" NCoef="0" IVar="-1" Cut="0.0000000000000000e+00" cType="1" res="2.8195506893098354e-03" rms="1.6378189623355865e-01" purity="9.4245605170726776e-02" nType="-99"/>
        </Node>
        <Node pos="r" depth="1" NCoef="0" IVar="25" Cut="1.1226578801870346e-01" cType="1" res="-1.0319974971935153e-03" rms="1.9788664579391479e-01" purity="6.1221688985824585e-01" nType="0">
          <Node pos="l" depth="2" NCoef="0" IVar="-1" Cut="0.0000000000000000e+00" cType="1" res="3.4831321681849658e-04" rms="1.9728399813175201e-01" purity="6.3682168722152710e-01" nType="-99"/>
          <Node pos="r" depth="2" NCoef="0" IVar="-1" Cut="0.0000000000000000e+00" cType="1" res="-1.6121463850140572e-02" rms="2.0353677868843079e-01" purity="3.5626405477523804e-01" nType="-99"/>
        </Node>
      </Node>
    </BinaryTree>
    <BinaryTree type="DecisionTree" boostWeight="1.0000000000000000e+00" itree="754">
      <Node pos="s" depth="0" NCoef="0" IVar="26" Cut="2.3778778314590454e-01" cType="1" res="-8.9133420260623097e-04" rms="1.9264233112335205e-01" purity="4.9902990460395813e-01" nType="0">
        <Node pos="l" depth="1" NCoef="0" IVar="26" Cut="1.1325431987643242e-02" cType="1" res="-1.8137523438781500e-03" rms="1.9204884767532349e-01" purity="5.2894723415374756e-01" nType="0">
          <Node pos="l" depth="2" NCoef="0" IVar="-1" Cut="0.0000000000000000e+00" cType="1" res="7.5943698175251484e-04" rms="1.9166336953639984e-01" purity="6.1322379112243652e-01" nType="-99"/>
          <Node pos="r" depth="2" NCoef="0" IVar="-1" Cut="0.0000000000000000e+00" cType="1" res="-9.2518338933587074e-03" rms="1.9285635650157928e-01" purity="3.2331269979476929e-01" nType="-99"/>
        </Node>
        <Node pos="r" depth="1" NCoef="0" IVar="7" Cut="2.4909729957580566e+00" cType="1" res="6.9982963614165783e-03" rms="1.9746971130371094e-01" purity="2.4314090609550476e-01" nType="0">
          <Node pos="l" depth="2" NCoef="0" IVar="-1" Cut="0.0000000000000000e+00" cType="1" res="1.3700548559427261e-02" rms="2.4265182018280029e-01" purity="4.0528488159179688e-01" nType="-99"/>
          <Node pos="r" depth="2" NCoef="0" IVar="-1" Cut="0.0000000000000000e+00" cType="1" res="-1.6591353341937065e-02" rms="1.1887551099061966e-01" purity="4.2500648647546768e-02" nType="-99"/>
        </Node>
      </Node>
    </BinaryTree>
    <BinaryTree type="DecisionTree" boostWeight="1.0000000000000000e+00" itree="755">
      <Node pos="s" depth="0" NCoef="0" IVar="33" Cut="1.3333526253700256e-01" cType="1" res="-5.4122478468343616e-04" rms="1.9301898777484894e-01" purity="5.0135111808776855e-01" nType="0">
        <Node pos="l" depth="1" NCoef="0" IVar="33" Cut="6.3577038235962391e-03" cType="1" res="-1.7216511769220233e-03" rms="1.9241352379322052e-01" purity="5.3784459829330444e-01" nType="0">
          <Node pos="l" depth="2" NCoef="0" IVar="-1" Cut="0.0000000000000000e+00" cType="1" res="2.0248240325599909e-03" rms="1.7156083881855011e-01" purity="6.8077450990676880e-01" nType="-99"/>
          <Node pos="r" depth="2" NCoef="0" IVar="-1" Cut="0.0000000000000000e+00" cType="1" res="-4.2826575227081776e-03" rms="2.0464262366294861e-01" purity="4.4619840383529663e-01" nType="-99"/>
        </Node>
        <Node pos="r" depth="1" NCoef="0" IVar="15" Cut="6.7412729263305664e+00" cType="1" res="6.8766125477850437e-03" rms="1.9661894440650940e-01" purity="2.7202492952346802e-01" nType="0">
          <Node pos="l" depth="2" NCoef="0" IVar="-1" Cut="0.0000000000000000e+00" cType="1" res="2.5412230752408504e-03" rms="1.9284789264202118e-01" purity="2.7594199776649475e-01" nType="-99"/>
          <Node pos="r" depth="2" NCoef="0" IVar="-1" Cut="0.0000000000000000e+00" cType="1" res="2.8321601450443268e-02" rms="2.0656035840511322e-01" purity="2.6066759228706360e-01" nType="-99"/>
        </Node>
      </Node>
    </BinaryTree>
    <BinaryTree type="DecisionTree" boostWeight="1.0000000000000000e+00" itree="756">
      <Node pos="s" depth="0" NCoef="0" IVar="3" Cut="2.1469669342041016e+00" cType="1" res="-5.7125330204144120e-04" rms="1.9202847778797150e-01" purity="4.9882081151008606e-01" nType="0">
        <Node pos="l" depth="1" NCoef="0" IVar="34" Cut="4.3651380538940430e+00" cType="1" res="-2.4236706085503101e-03" rms="2.0920374989509583e-01" purity="6.9750899076461792e-01" nType="0">
          <Node pos="l" depth="2" NCoef="0" IVar="-1" Cut="0.0000000000000000e+00" cType="1" res="-7.5108953751623631e-04" rms="2.0391935110092163e-01" purity="7.3558372259140015e-01" nType="-99"/>
          <Node pos="r" depth="2" NCoef="0" IVar="-1" Cut="0.0000000000000000e+00" cType="1" res="-1.4271500520408154e-02" rms="2.5305196642875671e-01" purity="3.3905184268951416e-01" nType="-99"/>
        </Node>
        <Node pos="r" depth="1" NCoef="0" IVar="3" Cut="2.9621698856353760e+00" cType="1" res="2.1056188270449638e-03" rms="1.6402572393417358e-01" purity="2.1170254051685333e-01" nType="0">
          <Node pos="l" depth="2" NCoef="0" IVar="-1" Cut="0.0000000000000000e+00" cType="1" res="7.1873082779347897e-03" rms="2.3993167281150818e-01" purity="4.7001332044601440e-01" nType="-99"/>
          <Node pos="r" depth="2" NCoef="0" IVar="-1" Cut="0.0000000000000000e+00" cType="1" res="-2.7479441836476326e-02" rms="5.1842764019966125e-02" purity="8.1553077325224876e-03" nType="-99"/>
        </Node>
      </Node>
    </BinaryTree>
    <BinaryTree type="DecisionTree" boostWeight="1.0000000000000000e+00" itree="757">
      <Node pos="s" depth="0" NCoef="0" IVar="31" Cut="9.5191560685634613e-02" cType="1" res="6.2400032766163349e-04" rms="1.9705243408679962e-01" purity="4.9863493442535400e-01" nType="0">
        <Node pos="l" depth="1" NCoef="0" IVar="31" Cut="9.0764397755265236e-03" cType="1" res="-3.4430925734341145e-04" rms="1.9650392234325409e-01" purity="5.4952573776245117e-01" nType="0">
          <Node pos="l" depth="2" NCoef="0" IVar="-1" Cut="0.0000000000000000e+00" cType="1" res="4.0844022296369076e-03" rms="1.8583515286445618e-01" purity="6.7850404977798462e-01" nType="-99"/>
          <Node pos="r" depth="2" NCoef="0" IVar="-1" Cut="0.0000000000000000e+00" cType="1" res="-4.6403747983276844e-03" rms="2.0747169852256775e-01" purity="4.0854403376579285e-01" nType="-99"/>
        </Node>
        <Node pos="r" depth="1" NCoef="0" IVar="17" Cut="2.4729652404785156e+01" cType="1" res="5.8568781241774559e-03" rms="1.9990946352481842e-01" purity="2.2361379861831665e-01" nType="0">
          <Node pos="l" depth="2" NCoef="0" IVar="-1" Cut="0.0000000000000000e+00" cType="1" res="3.7995751481503248e-03" rms="1.8857637047767639e-01" purity="1.6486971080303192e-01" nType="-99"/>
          <Node pos="r" depth="2" NCoef="0" IVar="-1" Cut="0.0000000000000000e+00" cType="1" res="1.7655398696660995e-02" rms="2.4429768323898315e-01" purity="4.8997420072555542e-01" nType="-99"/>
        </Node>
      </Node>
    </BinaryTree>
    <BinaryTree type="DecisionTree" boostWeight="1.0000000000000000e+00" itree="758">
      <Node pos="s" depth="0" NCoef="0" IVar="12" Cut="7.4471631050109863e+00" cType="1" res="6.3779467018321157e-04" rms="1.9290263950824738e-01" purity="5.0072371959686279e-01" nType="0">
        <Node pos="l" depth="1" NCoef="0" IVar="11" Cut="7.4136991500854492e+00" cType="1" res="2.7543469332158566e-03" rms="1.9868065416812897e-01" purity="4.3157410621643066e-01" nType="0">
          <Node pos="l" depth="2" NCoef="0" IVar="-1" Cut="0.0000000000000000e+00" cType="1" res="6.0846833512187004e-03" rms="2.0017226040363312e-01" purity="4.7342208027839661e-01" nType="-99"/>
          <Node pos="r" depth="2" NCoef="0" IVar="-1" Cut="0.0000000000000000e+00" cType="1" res="-1.0907280258834362e-02" rms="1.9076488912105560e-01" purity="2.2811996936798096e-01" nType="-99"/>
        </Node>
        <Node pos="r" depth="1" NCoef="0" IVar="11" Cut="7.4566903114318848e+00" cType="1" res="-2.6386354584246874e-03" rms="1.8355184793472290e-01" purity="6.0776752233505249e-01" nType="0">
          <Node pos="l" depth="2" NCoef="0" IVar="-1" Cut="0.0000000000000000e+00" cType="1" res="-8.5289031267166138e-03" rms="1.8414485454559326e-01" purity="6.4766860008239746e-01" nType="-99"/>
          <Node pos="r" depth="2" NCoef="0" IVar="-1" Cut="0.0000000000000000e+00" cType="1" res="8.0326544120907784e-03" rms="1.8175691366195679e-01" purity="5.0795650482177734e-01" nType="-99"/>
        </Node>
      </Node>
    </BinaryTree>
    <BinaryTree type="DecisionTree" boostWeight="1.0000000000000000e+00" itree="759">
      <Node pos="s" depth="0" NCoef="0" IVar="31" Cut="5.7120140641927719e-02" cType="1" res="3.6982714664191008e-04" rms="1.9442625343799591e-01" purity="4.9766042828559875e-01" nType="0">
        <Node pos="l" depth="1" NCoef="0" IVar="13" Cut="8.9728651046752930e+00" cType="1" res="1.7438456416130066e-03" rms="1.9356404244899750e-01" purity="5.7954978942871094e-01" nType="0">
          <Node pos="l" depth="2" NCoef="0" IVar="-1" Cut="0.0000000000000000e+00" cType="1" res="2.8627132996916771e-03" rms="1.9536903500556946e-01" purity="5.7901328802108765e-01" nType="-99"/>
          <Node pos="r" depth="2" NCoef="0" IVar="-1" Cut="0.0000000000000000e+00" cType="1" res="-9.2007247731089592e-03" rms="1.6945080459117889e-01" purity="5.8618545532226562e-01" nType="-99"/>
        </Node>
        <Node pos="r" depth="1" NCoef="0" IVar="21" Cut="1.9677268981933594e+01" cType="1" res="-4.1341851465404034e-03" rms="1.9715897738933563e-01" purity="2.2922824323177338e-01" nType="0">
          <Node pos="l" depth="2" NCoef="0" IVar="-1" Cut="0.0000000000000000e+00" cType="1" res="-1.3160097878426313e-03" rms="1.9284632802009583e-01" purity="1.7433813214302063e-01" nType="-99"/>
          <Node pos="r" depth="2" NCoef="0" IVar="-1" Cut="0.0000000000000000e+00" cType="1" res="-1.7791746184229851e-02" rms="2.1248154342174530e-01" purity="4.3991810083389282e-01" nType="-99"/>
        </Node>
      </Node>
    </BinaryTree>
    <BinaryTree type="DecisionTree" boostWeight="1.0000000000000000e+00" itree="760">
      <Node pos="s" depth="0" NCoef="0" IVar="7" Cut="5.0857539176940918e+00" cType="1" res="-5.1403389079496264e-04" rms="1.9251711666584015e-01" purity="5.0177615880966187e-01" nType="0">
        <Node pos="l" depth="1" NCoef="0" IVar="6" Cut="4.4553980827331543e+00" cType="1" res="-1.0924768866971135e-03" rms="1.9220377504825592e-01" purity="5.1598447561264038e-01" nType="0">
          <Node pos="l" depth="2" NCoef="0" IVar="-1" Cut="0.0000000000000000e+00" cType="1" res="4.6586687676608562e-03" rms="1.9416408240795135e-01" purity="3.5696244239807129e-01" nType="-99"/>
          <Node pos="r" depth="2" NCoef="0" IVar="-1" Cut="0.0000000000000000e+00" cType="1" res="-2.7485340833663940e-03" rms="1.9168671965599060e-01" purity="5.5617940425872803e-01" nType="-99"/>
        </Node>
        <Node pos="r" depth="1" NCoef="0" IVar="-1" Cut="0.0000000000000000e+00" cType="1" res="1.4724671840667725e-02" rms="1.9824931025505066e-01" purity="2.2165787220001221e-01" nType="-99"/>
      </Node>
    </BinaryTree>
    <BinaryTree type="DecisionTree" boostWeight="1.0000000000000000e+00" itree="761">
      <Node pos="s" depth="0" NCoef="0" IVar="33" Cut="5.7147148996591568e-02" cType="1" res="5.6921911891549826e-05" rms="1.9162562489509583e-01" purity="5.0107693672180176e-01" nType="0">
        <Node pos="l" depth="1" NCoef="0" IVar="33" Cut="2.7314231265336275e-03" cType="1" res="1.5856187092140317e-03" rms="1.9258418679237366e-01" purity="5.8121311664581299e-01" nType="0">
          <Node pos="l" depth="2" NCoef="0" IVar="-1" Cut="0.0000000000000000e+00" cType="1" res="1.2049616314470768e-02" rms="1.7493553459644318e-01" purity="7.0998930931091309e-01" nType="-99"/>
          <Node pos="r" depth="2" NCoef="0" IVar="-1" Cut="0.0000000000000000e+00" cType="1" res="-1.0670328047126532e-03" rms="1.9859372079372406e-01" purity="5.3407740592956543e-01" nType="-99"/>
        </Node>
        <Node pos="r" depth="1" NCoef="0" IVar="27" Cut="6.1895990371704102e-01" cType="1" res="-3.9673396386206150e-03" rms="1.8901990354061127e-01" purity="2.9011988639831543e-01" nType="0">
          <Node pos="l" depth="2" NCoef="0" IVar="-1" Cut="0.0000000000000000e+00" cType="1" res="7.3820226825773716e-03" rms="1.6399976611137390e-01" purity="1.0492681711912155e-01" nType="-99"/>
          <Node pos="r" depth="2" NCoef="0" IVar="-1" Cut="0.0000000000000000e+00" cType="1" res="-6.7770034074783325e-03" rms="1.9522635638713837e-01" purity="3.4059581160545349e-01" nType="-99"/>
        </Node>
      </Node>
    </BinaryTree>
    <BinaryTree type="DecisionTree" boostWeight="1.0000000000000000e+00" itree="762">
      <Node pos="s" depth="0" NCoef="0" IVar="31" Cut="2.6654142141342163e-01" cType="1" res="-2.4311101878993213e-04" rms="1.9198766350746155e-01" purity="5.0358545780181885e-01" nType="0">
        <Node pos="l" depth="1" NCoef="0" IVar="31" Cut="1.2704459019005299e-02" cType="1" res="2.2930557315703481e-04" rms="1.9287005066871643e-01" purity="5.1552730798721313e-01" nType="0">
          <Node pos="l" depth="2" NCoef="0" IVar="-1" Cut="0.0000000000000000e+00" cType="1" res="2.7939092833548784e-03" rms="1.8742875754833221e-01" purity="6.6676312685012817e-01" nType="-99"/>
          <Node pos="r" depth="2" NCoef="0" IVar="-1" Cut="0.0000000000000000e+00" cType="1" res="-2.3249422665685415e-03" rms="1.9874536991119385e-01" purity="3.4667474031448364e-01" nType="-99"/>
        </Node>
        <Node pos="r" depth="1" NCoef="0" IVar="-1" Cut="0.0000000000000000e+00" cType="1" res="-2.0778112113475800e-02" rms="1.6424487531185150e-01" purity="1.6267180442810059e-01" nType="-99"/>
      </Node>
    </BinaryTree>
    <BinaryTree type="DecisionTree" boostWeight="1.0000000000000000e+00" itree="763">
      <Node pos="s" depth="0" NCoef="0" IVar="12" Cut="6.9190425872802734e+00" cType="1" res="6.9630279904231429e-04" rms="1.9208237528800964e-01" purity="5.0273698568344116e-01" nType="0">
        <Node pos="l" depth="1" NCoef="0" IVar="23" Cut="7.1466642618179321e-01" cType="1" res="-3.6200357135385275e-03" rms="2.0247116684913635e-01" purity="3.4680828452110291e-01" nType="0">
          <Node pos="l" depth="2" NCoef="0" IVar="-1" Cut="0.0000000000000000e+00" cType="1" res="1.1227932991459966e-03" rms="2.0072698593139648e-01" purity="1.5239678323268890e-01" nType="-99"/>
          <Node pos="r" depth="2" NCoef="0" IVar="-1" Cut="0.0000000000000000e+00" cType="1" res="-9.9491672590374947e-03" rms="2.0454052090644836e-01" purity="5.9678226709365845e-01" nType="-99"/>
        </Node>
        <Node pos="r" depth="1" NCoef="0" IVar="25" Cut="1.3882479071617126e-01" cType="1" res="2.2435770370066166e-03" rms="1.8819463253021240e-01" purity="5.5863261222839355e-01" nType="0">
          <Node pos="l" depth="2" NCoef="0" IVar="-1" Cut="0.0000000000000000e+00" cType="1" res="-1.3965927064418793e-04" rms="1.8304675817489624e-01" purity="6.6159516572952271e-01" nType="-99"/>
          <Node pos="r" depth="2" NCoef="0" IVar="-1" Cut="0.0000000000000000e+00" cType="1" res="1.0355487465858459e-02" rms="2.0126515626907349e-01" purity="2.8141555190086365e-01" nType="-99"/>
        </Node>
      </Node>
    </BinaryTree>
    <BinaryTree type="DecisionTree" boostWeight="1.0000000000000000e+00" itree="764">
      <Node pos="s" depth="0" NCoef="0" IVar="11" Cut="5.9080142974853516e+00" cType="1" res="4.6903017209842801e-04" rms="1.9293765723705292e-01" purity="5.0066292285919189e-01" nType="0">
        <Node pos="l" depth="1" NCoef="0" IVar="10" Cut="6.7434401512145996e+00" cType="1" res="9.1565931215882301e-03" rms="2.0195293426513672e-01" purity="3.9729884266853333e-01" nType="0">
          <Node pos="l" depth="2" NCoef="0" IVar="-1" Cut="0.0000000000000000e+00" cType="1" res="2.5039324536919594e-02" rms="2.0062343776226044e-01" purity="3.7378746271133423e-01" nType="-99"/>
          <Node pos="r" depth="2" NCoef="0" IVar="-1" Cut="0.0000000000000000e+00" cType="1" res="1.5389715554192662e-03" rms="2.0247749984264374e-01" purity="4.1329249739646912e-01" nType="-99"/>
        </Node>
        <Node pos="r" depth="1" NCoef="0" IVar="33" Cut="2.0951171219348907e-01" cType="1" res="-5.6240480626001954e-04" rms="1.9181305170059204e-01" purity="5.1293486356735229e-01" nType="0">
          <Node pos="l" depth="2" NCoef="0" IVar="-1" Cut="0.0000000000000000e+00" cType="1" res="-1.5136010479182005e-03" rms="1.9116508960723877e-01" purity="5.3098338842391968e-01" nType="-99"/>
          <Node pos="r" depth="2" NCoef="0" IVar="-1" Cut="0.0000000000000000e+00" cType="1" res="9.2705050483345985e-03" rms="1.9975993037223816e-01" purity="2.8094214200973511e-01" nType="-99"/>
        </Node>
      </Node>
    </BinaryTree>
    <BinaryTree type="DecisionTree" boostWeight="1.0000000000000000e+00" itree="765">
      <Node pos="s" depth="0" NCoef="0" IVar="32" Cut="2.8563573956489563e-01" cType="1" res="3.7919709575362504e-04" rms="1.9608476758003235e-01" purity="4.9742493033409119e-01" nType="0">
        <Node pos="l" depth="1" NCoef="0" IVar="12" Cut="6.5173134803771973e+00" cType="1" res="-1.0024153016274795e-04" rms="1.9627262651920319e-01" purity="5.0612330436706543e-01" nType="0">
          <Node pos="l" depth="2" NCoef="0" IVar="-1" Cut="0.0000000000000000e+00" cType="1" res="9.5039615407586098e-03" rms="2.0995184779167175e-01" purity="3.2425987720489502e-01" nType="-99"/>
          <Node pos="r" depth="2" NCoef="0" IVar="-1" Cut="0.0000000000000000e+00" cType="1" res="-1.1490609031170607e-03" rms="1.9491215050220490e-01" purity="5.2326971292495728e-01" nType="-99"/>
        </Node>
        <Node pos="r" depth="1" NCoef="0" IVar="-1" Cut="0.0000000000000000e+00" cType="1" res="2.4173388257622719e-02" rms="1.8888005614280701e-01" purity="2.0227421820163727e-01" nType="-99"/>
      </Node>
    </BinaryTree>
    <BinaryTree type="DecisionTree" boostWeight="1.0000000000000000e+00" itree="766">
      <Node pos="s" depth="0" NCoef="0" IVar="18" Cut="-6.5052886962890625e+01" cType="1" res="-1.4891962055116892e-03" rms="1.9343107938766479e-01" purity="5.0125676393508911e-01" nType="0">
        <Node pos="l" depth="1" NCoef="0" IVar="-1" Cut="0.0000000000000000e+00" cType="1" res="3.0452227219939232e-02" rms="1.0494670271873474e-01" purity="9.6158319711685181e-01" nType="-99"/>
        <Node pos="r" depth="1" NCoef="0" IVar="13" Cut="8.3495283126831055e+00" cType="1" res="-2.0525457803159952e-03" rms="1.9684594869613647e-01" purity="4.7790515422821045e-01" nType="0">
          <Node pos="l" depth="2" NCoef="0" IVar="-1" Cut="0.0000000000000000e+00" cType="1" res="-6.0955426306463778e-06" rms="2.0175448060035706e-01" purity="4.7104623913764954e-01" nType="-99"/>
          <Node pos="r" depth="2" NCoef="0" IVar="-1" Cut="0.0000000000000000e+00" cType="1" res="-6.9553125649690628e-03" rms="1.8832676112651825e-01" purity="4.8934310674667358e-01" nType="-99"/>
        </Node>
      </Node>
    </BinaryTree>
    <BinaryTree type="DecisionTree" boostWeight="1.0000000000000000e+00" itree="767">
      <Node pos="s" depth="0" NCoef="0" IVar="15" Cut="5.2604832649230957e+00" cType="1" res="8.8030414190143347e-04" rms="1.9490385055541992e-01" purity="4.9917510151863098e-01" nType="0">
        <Node pos="l" depth="1" NCoef="0" IVar="-1" Cut="0.0000000000000000e+00" cType="1" res="1.4137175865471363e-02" rms="2.0644558966159821e-01" purity="6.0903030633926392e-01" nType="-99"/>
        <Node pos="r" depth="1" NCoef="0" IVar="11" Cut="6.4890990257263184e+00" cType="1" res="5.0162815023213625e-04" rms="1.9454598426818848e-01" purity="4.9599060416221619e-01" nType="0">
          <Node pos="l" depth="2" NCoef="0" IVar="-1" Cut="0.0000000000000000e+00" cType="1" res="-3.1367251649498940e-03" rms="1.9400836527347565e-01" purity="4.6160593628883362e-01" nType="-99"/>
          <Node pos="r" depth="2" NCoef="0" IVar="-1" Cut="0.0000000000000000e+00" cType="1" res="2.6764576323330402e-03" rms="1.9481945037841797e-01" purity="5.1485943794250488e-01" nType="-99"/>
        </Node>
      </Node>
    </BinaryTree>
    <BinaryTree type="DecisionTree" boostWeight="1.0000000000000000e+00" itree="768">
      <Node pos="s" depth="0" NCoef="0" IVar="10" Cut="8.0953769683837891e+00" cType="1" res="6.2791910022497177e-04" rms="1.9243279099464417e-01" purity="4.9930852651596069e-01" nType="0">
        <Node pos="l" depth="1" NCoef="0" IVar="3" Cut="7.2044599056243896e-01" cType="1" res="1.3048732653260231e-03" rms="1.9273471832275391e-01" purity="5.0398880243301392e-01" nType="0">
          <Node pos="l" depth="2" NCoef="0" IVar="-1" Cut="0.0000000000000000e+00" cType="1" res="9.3133756890892982e-03" rms="1.9598916172981262e-01" purity="7.7503013610839844e-01" nType="-99"/>
          <Node pos="r" depth="2" NCoef="0" IVar="-1" Cut="0.0000000000000000e+00" cType="1" res="4.1887135012075305e-04" rms="1.9227561354637146e-01" purity="4.6778935194015503e-01" nType="-99"/>
        </Node>
        <Node pos="r" depth="1" NCoef="0" IVar="34" Cut="1.5854510068893433e+00" cType="1" res="-9.9167106673121452e-03" rms="1.8735143542289734e-01" purity="4.2640590667724609e-01" nType="0">
          <Node pos="l" depth="2" NCoef="0" IVar="-1" Cut="0.0000000000000000e+00" cType="1" res="-2.6149459183216095e-02" rms="1.7527438700199127e-01" purity="4.8780614137649536e-01" nType="-99"/>
          <Node pos="r" depth="2" NCoef="0" IVar="-1" Cut="0.0000000000000000e+00" cType="1" res="5.5153830908238888e-03" rms="2.0093470811843872e-01" purity="3.4768289327621460e-01" nType="-99"/>
        </Node>
      </Node>
    </BinaryTree>
    <BinaryTree type="DecisionTree" boostWeight="1.0000000000000000e+00" itree="769">
      <Node pos="s" depth="0" NCoef="0" IVar="23" Cut="8.5725927352905273e-01" cType="1" res="1.5107522485777736e-03" rms="1.9540041685104370e-01" purity="5.0259715318679810e-01" nType="0">
        <Node pos="l" depth="1" NCoef="0" IVar="9" Cut="1.5469423294067383e+01" cType="1" res="3.6987937055528164e-03" rms="2.1332563459873199e-01" purity="2.0304130017757416e-01" nType="0">
          <Node pos="l" depth="2" NCoef="0" IVar="-1" Cut="0.0000000000000000e+00" cType="1" res="6.9899708032608032e-03" rms="2.2098843753337860e-01" purity="2.2533956170082092e-01" nType="-99"/>
          <Node pos="r" depth="2" NCoef="0" IVar="-1" Cut="0.0000000000000000e+00" cType="1" res="-1.2405584566295147e-03" rms="2.0223949849605560e-01" purity="1.7245082557201385e-01" nType="-99"/>
        </Node>
        <Node pos="r" depth="1" NCoef="0" IVar="6" Cut="7.0554475784301758e+00" cType="1" res="-1.0654237121343613e-03" rms="1.7188048362731934e-01" purity="8.5529094934463501e-01" nType="0">
          <Node pos="l" depth="2" NCoef="0" IVar="-1" Cut="0.0000000000000000e+00" cType="1" res="-4.9031884409487247e-03" rms="1.7027556896209717e-01" purity="8.5959357023239136e-01" nType="-99"/>
          <Node pos="r" depth="2" NCoef="0" IVar="-1" Cut="0.0000000000000000e+00" cType="1" res="1.8142797052860260e-02" rms="1.8440149724483490e-01" purity="8.1805813312530518e-01" nType="-99"/>
        </Node>
      </Node>
    </BinaryTree>
    <BinaryTree type="DecisionTree" boostWeight="1.0000000000000000e+00" itree="770">
      <Node pos="s" depth="0" NCoef="0" IVar="7" Cut="5.2724537849426270e+00" cType="1" res="3.5647122422233224e-04" rms="1.9473665952682495e-01" purity="4.9722865223884583e-01" nType="0">
        <Node pos="l" depth="1" NCoef="0" IVar="32" Cut="2.0946754515171051e-01" cType="1" res="-1.4474130875896662e-04" rms="1.9450557231903076e-01" purity="5.0957787036895752e-01" nType="0">
          <Node pos="l" depth="2" NCoef="0" IVar="-1" Cut="0.0000000000000000e+00" cType="1" res="4.0701677789911628e-04" rms="1.9578047096729279e-01" purity="5.2922576665878296e-01" nType="-99"/>
          <Node pos="r" depth="2" NCoef="0" IVar="-1" Cut="0.0000000000000000e+00" cType="1" res="-1.2045154348015785e-02" rms="1.7161373794078827e-01" purity="1.8144327402114868e-01" nType="-99"/>
        </Node>
        <Node pos="r" depth="1" NCoef="0" IVar="-1" Cut="0.0000000000000000e+00" cType="1" res="1.6596224159002304e-02" rms="1.9941884279251099e-01" purity="2.2652880847454071e-01" nType="-99"/>
      </Node>
    </BinaryTree>
    <BinaryTree type="DecisionTree" boostWeight="1.0000000000000000e+00" itree="771">
      <Node pos="s" depth="0" NCoef="0" IVar="13" Cut="7.0678200721740723e+00" cType="1" res="-3.7763686850667000e-04" rms="1.8950055539608002e-01" purity="5.0074279308319092e-01" nType="0">
        <Node pos="l" depth="1" NCoef="0" IVar="-1" Cut="0.0000000000000000e+00" cType="1" res="-1.9776694476604462e-02" rms="1.7326113581657410e-01" purity="3.1949993968009949e-01" nType="-99"/>
        <Node pos="r" depth="1" NCoef="0" IVar="29" Cut="2.7633938193321228e-01" cType="1" res="1.7612737428862602e-04" rms="1.9005109369754791e-01" purity="5.0743633508682251e-01" nType="0">
          <Node pos="l" depth="2" NCoef="0" IVar="-1" Cut="0.0000000000000000e+00" cType="1" res="2.2327769547700882e-03" rms="1.8507735431194305e-01" purity="5.9650117158889771e-01" nType="-99"/>
          <Node pos="r" depth="2" NCoef="0" IVar="-1" Cut="0.0000000000000000e+00" cType="1" res="-3.6888672038912773e-03" rms="2.0026573538780212e-01" purity="3.1628498435020447e-01" nType="-99"/>
        </Node>
      </Node>
    </BinaryTree>
    <BinaryTree type="DecisionTree" boostWeight="1.0000000000000000e+00" itree="772">
      <Node pos="s" depth="0" NCoef="0" IVar="33" Cut="1.9057290628552437e-02" cType="1" res="-8.7146554506034590e-07" rms="1.9266629219055176e-01" purity="4.9916926026344299e-01" nType="0">
        <Node pos="l" depth="1" NCoef="0" IVar="28" Cut="9.0517348051071167e-01" cType="1" res="-2.2012509871274233e-03" rms="1.8271322548389435e-01" purity="6.3057875633239746e-01" nType="0">
          <Node pos="l" depth="2" NCoef="0" IVar="-1" Cut="0.0000000000000000e+00" cType="1" res="-5.8827348984777927e-03" rms="1.9963675737380981e-01" purity="4.8303195834159851e-01" nType="-99"/>
          <Node pos="r" depth="2" NCoef="0" IVar="-1" Cut="0.0000000000000000e+00" cType="1" res="3.0923304148018360e-03" rms="1.5950132906436920e-01" purity="8.1103056669235229e-01" nType="-99"/>
        </Node>
        <Node pos="r" depth="1" NCoef="0" IVar="22" Cut="1.6631097793579102e+01" cType="1" res="2.4490086361765862e-03" rms="2.0314705371856689e-01" purity="3.5285916924476624e-01" nType="0">
          <Node pos="l" depth="2" NCoef="0" IVar="-1" Cut="0.0000000000000000e+00" cType="1" res="5.8534764684736729e-03" rms="2.0371927320957184e-01" purity="3.0307593941688538e-01" nType="-99"/>
          <Node pos="r" depth="2" NCoef="0" IVar="-1" Cut="0.0000000000000000e+00" cType="1" res="-5.7660089805722237e-03" rms="2.0133498311042786e-01" purity="4.9282422661781311e-01" nType="-99"/>
        </Node>
      </Node>
    </BinaryTree>
    <BinaryTree type="DecisionTree" boostWeight="1.0000000000000000e+00" itree="773">
      <Node pos="s" depth="0" NCoef="0" IVar="9" Cut="1.5442896842956543e+01" cType="1" res="1.6679054533597082e-04" rms="1.9541323184967041e-01" purity="4.9968424439430237e-01" nType="0">
        <Node pos="l" depth="1" NCoef="0" IVar="2" Cut="7.7654042243957520e+00" cType="1" res="-1.9805459305644035e-03" rms="1.9784365594387054e-01" purity="5.0878316164016724e-01" nType="0">
          <Node pos="l" depth="2" NCoef="0" IVar="-1" Cut="0.0000000000000000e+00" cType="1" res="-1.4073809143155813e-04" rms="1.9717319309711456e-01" purity="5.1218259334564209e-01" nType="-99"/>
          <Node pos="r" depth="2" NCoef="0" IVar="-1" Cut="0.0000000000000000e+00" cType="1" res="-1.2493001297116280e-02" rms="2.0099912583827972e-01" purity="4.9120149016380310e-01" nType="-99"/>
        </Node>
        <Node pos="r" depth="1" NCoef="0" IVar="26" Cut="2.3753196001052856e-01" cType="1" res="3.2016842160373926e-03" rms="1.9188478589057922e-01" purity="4.8682454228401184e-01" nType="0">
          <Node pos="l" depth="2" NCoef="0" IVar="-1" Cut="0.0000000000000000e+00" cType="1" res="1.8246937543153763e-03" rms="1.9169691205024719e-01" purity="5.0872844457626343e-01" nType="-99"/>
          <Node pos="r" depth="2" NCoef="0" IVar="-1" Cut="0.0000000000000000e+00" cType="1" res="2.4032184854149818e-02" rms="1.9297222793102264e-01" purity="2.6451161503791809e-01" nType="-99"/>
        </Node>
      </Node>
    </BinaryTree>
    <BinaryTree type="DecisionTree" boostWeight="1.0000000000000000e+00" itree="774">
      <Node pos="s" depth="0" NCoef="0" IVar="11" Cut="7.8405499458312988e+00" cType="1" res="-1.1455209460109472e-03" rms="1.9450265169143677e-01" purity="5.0148463249206543e-01" nType="0">
        <Node pos="l" depth="1" NCoef="0" IVar="15" Cut="7.5184979438781738e+00" cType="1" res="-4.4039852218702435e-04" rms="1.9563600420951843e-01" purity="5.1417046785354614e-01" nType="0">
          <Node pos="l" depth="2" NCoef="0" IVar="-1" Cut="0.0000000000000000e+00" cType="1" res="3.7611526204273105e-04" rms="1.9776029884815216e-01" purity="5.0785106420516968e-01" nType="-99"/>
          <Node pos="r" depth="2" NCoef="0" IVar="-1" Cut="0.0000000000000000e+00" cType="1" res="-1.7453411594033241e-02" rms="1.6692146658897400e-01" purity="5.9217679500579834e-01" nType="-99"/>
        </Node>
        <Node pos="r" depth="1" NCoef="0" IVar="12" Cut="7.5553498268127441e+00" cType="1" res="-9.4148097559809685e-03" rms="1.8047600984573364e-01" purity="3.5271134972572327e-01" nType="0">
          <Node pos="l" depth="2" NCoef="0" IVar="-1" Cut="0.0000000000000000e+00" cType="1" res="-2.6251824572682381e-02" rms="1.8923120200634003e-01" purity="1.8233916163444519e-01" nType="-99"/>
          <Node pos="r" depth="2" NCoef="0" IVar="-1" Cut="0.0000000000000000e+00" cType="1" res="-2.0394835155457258e-03" rms="1.7429319024085999e-01" purity="4.5971035957336426e-01" nType="-99"/>
        </Node>
      </Node>
    </BinaryTree>
    <BinaryTree type="DecisionTree" boostWeight="1.0000000000000000e+00" itree="775">
      <Node pos="s" depth="0" NCoef="0" IVar="21" Cut="8.6929368972778320e+00" cType="1" res="2.4464633315801620e-04" rms="1.9309274852275848e-01" purity="5.0160890817642212e-01" nType="0">
        <Node pos="l" depth="1" NCoef="0" IVar="12" Cut="7.0257954597473145e+00" cType="1" res="5.6512653827667236e-03" rms="2.0197129249572754e-01" purity="3.0703037977218628e-01" nType="0">
          <Node pos="l" depth="2" NCoef="0" IVar="-1" Cut="0.0000000000000000e+00" cType="1" res="-1.1255550198256969e-03" rms="1.9950146973133087e-01" purity="2.3120072484016418e-01" nType="-99"/>
          <Node pos="r" depth="2" NCoef="0" IVar="-1" Cut="0.0000000000000000e+00" cType="1" res="1.0584921576082706e-02" rms="2.0342960953712463e-01" purity="3.5577309131622314e-01" nType="-99"/>
        </Node>
        <Node pos="r" depth="1" NCoef="0" IVar="15" Cut="7.3797311782836914e+00" cType="1" res="-2.3966536391526461e-03" rms="1.8854704499244690e-01" purity="5.9666651487350464e-01" nType="0">
          <Node pos="l" depth="2" NCoef="0" IVar="-1" Cut="0.0000000000000000e+00" cType="1" res="-1.2209684355184436e-03" rms="1.9230142235755920e-01" purity="5.8573770523071289e-01" nType="-99"/>
          <Node pos="r" depth="2" NCoef="0" IVar="-1" Cut="0.0000000000000000e+00" cType="1" res="-1.7134806141257286e-02" rms="1.6440255939960480e-01" purity="6.6120249032974243e-01" nType="-99"/>
        </Node>
      </Node>
    </BinaryTree>
    <BinaryTree type="DecisionTree" boostWeight="1.0000000000000000e+00" itree="776">
      <Node pos="s" depth="0" NCoef="0" IVar="7" Cut="8.3360671997070312e-03" cType="1" res="-5.4282561177387834e-04" rms="1.9292972981929779e-01" purity="4.9836558103561401e-01" nType="0">
        <Node pos="l" depth="1" NCoef="0" IVar="7" Cut="-7.9026138782501221e-01" cType="1" res="7.1185529232025146e-03" rms="1.9366745650768280e-01" purity="7.9712259769439697e-01" nType="0">
          <Node pos="l" depth="2" NCoef="0" IVar="-1" Cut="0.0000000000000000e+00" cType="1" res="-6.3170520588755608e-03" rms="1.7335005104541779e-01" purity="8.0272060632705688e-01" nType="-99"/>
          <Node pos="r" depth="2" NCoef="0" IVar="-1" Cut="0.0000000000000000e+00" cType="1" res="1.5646506100893021e-02" rms="2.0420548319816589e-01" purity="7.9387849569320679e-01" nType="-99"/>
        </Node>
        <Node pos="r" depth="1" NCoef="0" IVar="10" Cut="7.7211341857910156e+00" cType="1" res="-1.3982321834191680e-03" rms="1.9282829761505127e-01" purity="4.6500882506370544e-01" nType="0">
          <Node pos="l" depth="2" NCoef="0" IVar="-1" Cut="0.0000000000000000e+00" cType="1" res="-2.9559843242168427e-03" rms="1.9250594079494476e-01" purity="4.7280016541481018e-01" nType="-99"/>
          <Node pos="r" depth="2" NCoef="0" IVar="-1" Cut="0.0000000000000000e+00" cType="1" res="4.5869033783674240e-03" rms="1.9434711337089539e-01" purity="4.2611980438232422e-01" nType="-99"/>
        </Node>
      </Node>
    </BinaryTree>
    <BinaryTree type="DecisionTree" boostWeight="1.0000000000000000e+00" itree="777">
      <Node pos="s" depth="0" NCoef="0" IVar="28" Cut="7.1487456560134888e-01" cType="1" res="5.4002489196136594e-04" rms="1.9179835915565491e-01" purity="5.0279635190963745e-01" nType="0">
        <Node pos="l" depth="1" NCoef="0" IVar="3" Cut="1.6753981113433838e+00" cType="1" res="2.8196137864142656e-03" rms="2.0043617486953735e-01" purity="3.4370431303977966e-01" nType="0">
          <Node pos="l" depth="2" NCoef="0" IVar="-1" Cut="0.0000000000000000e+00" cType="1" res="6.6796801984310150e-03" rms="2.3044328391551971e-01" purity="5.8344328403472900e-01" nType="-99"/>
          <Node pos="r" depth="2" NCoef="0" IVar="-1" Cut="0.0000000000000000e+00" cType="1" res="-7.2488258592784405e-04" rms="1.7962360382080078e-01" purity="1.9757364690303802e-01" nType="-99"/>
        </Node>
        <Node pos="r" depth="1" NCoef="0" IVar="21" Cut="4.8417831420898438e+01" cType="1" res="-1.4820932410657406e-03" rms="1.8377302587032318e-01" purity="6.4391946792602539e-01" nType="0">
          <Node pos="l" depth="2" NCoef="0" IVar="-1" Cut="0.0000000000000000e+00" cType="1" res="-3.0348501168191433e-03" rms="1.9031149148941040e-01" purity="6.1225152015686035e-01" nType="-99"/>
          <Node pos="r" depth="2" NCoef="0" IVar="-1" Cut="0.0000000000000000e+00" cType="1" res="2.9003482311964035e-02" rms="9.7353421151638031e-02" purity="9.5704060792922974e-01" nType="-99"/>
        </Node>
      </Node>
    </BinaryTree>
    <BinaryTree type="DecisionTree" boostWeight="1.0000000000000000e+00" itree="778">
      <Node pos="s" depth="0" NCoef="0" IVar="23" Cut="4.2954483628273010e-01" cType="1" res="-3.3334679756080732e-05" rms="1.9387702643871307e-01" purity="4.9989247322082520e-01" nType="0">
        <Node pos="l" depth="1" NCoef="0" IVar="34" Cut="3.1744847297668457e+00" cType="1" res="5.5162012577056885e-03" rms="1.8171456456184387e-01" purity="8.8968150317668915e-02" nType="0">
          <Node pos="l" depth="2" NCoef="0" IVar="-1" Cut="0.0000000000000000e+00" cType="1" res="1.2887672521173954e-02" rms="2.0537206530570984e-01" purity="1.1984207481145859e-01" nType="-99"/>
          <Node pos="r" depth="2" NCoef="0" IVar="-1" Cut="0.0000000000000000e+00" cType="1" res="-9.8404614254832268e-03" rms="1.2696976959705353e-01" purity="3.2464854419231415e-02" nType="-99"/>
        </Node>
        <Node pos="r" depth="1" NCoef="0" IVar="19" Cut="5.4407434463500977e+00" cType="1" res="-1.4103964203968644e-03" rms="1.9675441086292267e-01" purity="6.0185921192169189e-01" nType="0">
          <Node pos="l" depth="2" NCoef="0" IVar="-1" Cut="0.0000000000000000e+00" cType="1" res="-8.0941366031765938e-03" rms="1.9858957827091217e-01" purity="4.3345683813095093e-01" nType="-99"/>
          <Node pos="r" depth="2" NCoef="0" IVar="-1" Cut="0.0000000000000000e+00" cType="1" res="1.4443180407397449e-04" rms="1.9620957970619202e-01" purity="6.4905899763107300e-01" nType="-99"/>
        </Node>
      </Node>
    </BinaryTree>
    <BinaryTree type="DecisionTree" boostWeight="1.0000000000000000e+00" itree="779">
      <Node pos="s" depth="0" NCoef="0" IVar="24" Cut="1.4441879093647003e-01" cType="1" res="6.2702479772269726e-04" rms="1.9255562126636505e-01" purity="5.0157606601715088e-01" nType="0">
        <Node pos="l" depth="1" NCoef="0" IVar="-1" Cut="0.0000000000000000e+00" cType="1" res="-2.3345842957496643e-02" rms="1.7038923501968384e-01" purity="8.6768522858619690e-02" nType="-99"/>
        <Node pos="r" depth="1" NCoef="0" IVar="10" Cut="8.0021362304687500e+00" cType="1" res="1.0268212063238025e-03" rms="1.9312368333339691e-01" purity="5.1317530870437622e-01" nType="0">
          <Node pos="l" depth="2" NCoef="0" IVar="-1" Cut="0.0000000000000000e+00" cType="1" res="2.4851833586581051e-04" rms="1.9256174564361572e-01" purity="5.1638448238372803e-01" nType="-99"/>
          <Node pos="r" depth="2" NCoef="0" IVar="-1" Cut="0.0000000000000000e+00" cType="1" res="1.3212147168815136e-02" rms="1.9929502904415131e-01" purity="4.7585180401802063e-01" nType="-99"/>
        </Node>
      </Node>
    </BinaryTree>
    <BinaryTree type="DecisionTree" boostWeight="1.0000000000000000e+00" itree="780">
      <Node pos="s" depth="0" NCoef="0" IVar="10" Cut="8.3104610443115234e+00" cType="1" res="-9.8235276527702808e-04" rms="1.9108588993549347e-01" purity="5.0016689300537109e-01" nType="0">
        <Node pos="l" depth="1" NCoef="0" IVar="2" Cut="2.6546953201293945e+01" cType="1" res="-5.3276191465556622e-04" rms="1.9120736420154572e-01" purity="5.0283193588256836e-01" nType="0">
          <Node pos="l" depth="2" NCoef="0" IVar="-1" Cut="0.0000000000000000e+00" cType="1" res="-1.5358510427176952e-04" rms="1.9253416359424591e-01" purity="5.1304107904434204e-01" nType="-99"/>
          <Node pos="r" depth="2" NCoef="0" IVar="-1" Cut="0.0000000000000000e+00" cType="1" res="-2.6406055316329002e-02" rms="1.3194407522678375e-01" purity="1.2349008768796921e-01" nType="-99"/>
        </Node>
        <Node pos="r" depth="1" NCoef="0" IVar="-1" Cut="0.0000000000000000e+00" cType="1" res="-2.0094072446227074e-02" rms="1.8670094013214111e-01" purity="4.1680935025215149e-01" nType="-99"/>
      </Node>
    </BinaryTree>
    <BinaryTree type="DecisionTree" boostWeight="1.0000000000000000e+00" itree="781">
      <Node pos="s" depth="0" NCoef="0" IVar="27" Cut="2.3978598415851593e-01" cType="1" res="-7.3515220719855279e-05" rms="1.9394409656524658e-01" purity="4.9736082553863525e-01" nType="0">
        <Node pos="l" depth="1" NCoef="0" IVar="11" Cut="6.6813917160034180e+00" cType="1" res="-1.1332506313920021e-02" rms="1.7248730361461639e-01" purity="1.3950474560260773e-01" nType="0">
          <Node pos="l" depth="2" NCoef="0" IVar="-1" Cut="0.0000000000000000e+00" cType="1" res="6.2433495186269283e-03" rms="1.8713201582431793e-01" purity="1.9793708622455597e-01" nType="-99"/>
          <Node pos="r" depth="2" NCoef="0" IVar="-1" Cut="0.0000000000000000e+00" cType="1" res="-4.2655926197767258e-02" rms="1.5843926370143890e-01" purity="9.2317245900630951e-02" nType="-99"/>
        </Node>
        <Node pos="r" depth="1" NCoef="0" IVar="24" Cut="8.5718148946762085e-01" cType="1" res="5.9821427566930652e-04" rms="1.9512914121150970e-01" purity="5.1871109008789062e-01" nType="0">
          <Node pos="l" depth="2" NCoef="0" IVar="-1" Cut="0.0000000000000000e+00" cType="1" res="-2.5616262573748827e-03" rms="1.9565932452678680e-01" purity="2.8182020783424377e-01" nType="-99"/>
          <Node pos="r" depth="2" NCoef="0" IVar="-1" Cut="0.0000000000000000e+00" cType="1" res="2.7991246897727251e-03" rms="1.9476388394832611e-01" purity="6.7230618000030518e-01" nType="-99"/>
        </Node>
      </Node>
    </BinaryTree>
    <BinaryTree type="DecisionTree" boostWeight="1.0000000000000000e+00" itree="782">
      <Node pos="s" depth="0" NCoef="0" IVar="21" Cut="2.4965614318847656e+01" cType="1" res="2.0573006477206945e-03" rms="1.9541592895984650e-01" purity="5.0197058916091919e-01" nType="0">
        <Node pos="l" depth="1" NCoef="0" IVar="11" Cut="6.8768515586853027e+00" cType="1" res="3.5820088814944029e-03" rms="2.0359534025192261e-01" purity="4.1275519132614136e-01" nType="0">
          <Node pos="l" depth="2" NCoef="0" IVar="-1" Cut="0.0000000000000000e+00" cType="1" res="6.0133086662972346e-05" rms="2.0122595131397247e-01" purity="4.3590623140335083e-01" nType="-99"/>
          <Node pos="r" depth="2" NCoef="0" IVar="-1" Cut="0.0000000000000000e+00" cType="1" res="9.1303959488868713e-03" rms="2.0668663084506989e-01" purity="3.8117408752441406e-01" nType="-99"/>
        </Node>
        <Node pos="r" depth="1" NCoef="0" IVar="23" Cut="9.0519350767135620e-01" cType="1" res="-3.0403088312596083e-03" rms="1.6505171358585358e-01" purity="8.0024743080139160e-01" nType="0">
          <Node pos="l" depth="2" NCoef="0" IVar="-1" Cut="0.0000000000000000e+00" cType="1" res="-7.2773536667227745e-03" rms="2.4886494874954224e-01" purity="4.6380710601806641e-01" nType="-99"/>
          <Node pos="r" depth="2" NCoef="0" IVar="-1" Cut="0.0000000000000000e+00" cType="1" res="1.1647592764347792e-03" rms="1.0041196644306183e-01" purity="9.6633899211883545e-01" nType="-99"/>
        </Node>
      </Node>
    </BinaryTree>
    <BinaryTree type="DecisionTree" boostWeight="1.0000000000000000e+00" itree="783">
      <Node pos="s" depth="0" NCoef="0" IVar="33" Cut="1.9057290628552437e-02" cType="1" res="-6.4171652775257826e-04" rms="1.9171506166458130e-01" purity="4.9752885103225708e-01" nType="0">
        <Node pos="l" depth="1" NCoef="0" IVar="18" Cut="-2.7077466964721680e+01" cType="1" res="-2.9758550226688385e-03" rms="1.8055407702922821e-01" purity="6.3415783643722534e-01" nType="0">
          <Node pos="l" depth="2" NCoef="0" IVar="-1" Cut="0.0000000000000000e+00" cType="1" res="4.8763090744614601e-03" rms="1.5395708382129669e-01" purity="8.4521204233169556e-01" nType="-99"/>
          <Node pos="r" depth="2" NCoef="0" IVar="-1" Cut="0.0000000000000000e+00" cType="1" res="-7.3366747237741947e-03" rms="1.9460785388946533e-01" purity="5.0833338499069214e-01" nType="-99"/>
        </Node>
        <Node pos="r" depth="1" NCoef="0" IVar="32" Cut="1.9044620916247368e-02" cType="1" res="1.9401817116886377e-03" rms="2.0331721007823944e-01" purity="3.4639722108840942e-01" nType="0">
          <Node pos="l" depth="2" NCoef="0" IVar="-1" Cut="0.0000000000000000e+00" cType="1" res="-2.3399579804390669e-03" rms="2.0491990447044373e-01" purity="4.7660630941390991e-01" nType="-99"/>
          <Node pos="r" depth="2" NCoef="0" IVar="-1" Cut="0.0000000000000000e+00" cType="1" res="8.8022667914628983e-03" rms="2.0129501819610596e-01" purity="1.9242431223392487e-01" nType="-99"/>
        </Node>
      </Node>
    </BinaryTree>
    <BinaryTree type="DecisionTree" boostWeight="1.0000000000000000e+00" itree="784">
      <Node pos="s" depth="0" NCoef="0" IVar="23" Cut="6.6701173782348633e-01" cType="1" res="-5.9808744117617607e-04" rms="1.9266676902770996e-01" purity="4.9826446175575256e-01" nType="0">
        <Node pos="l" depth="1" NCoef="0" IVar="17" Cut="3.5198787689208984e+01" cType="1" res="2.5729860644787550e-03" rms="1.9526234269142151e-01" purity="1.2867937982082367e-01" nType="0">
          <Node pos="l" depth="2" NCoef="0" IVar="-1" Cut="0.0000000000000000e+00" cType="1" res="5.6536626070737839e-03" rms="1.8734966218471527e-01" purity="1.0778938233852386e-01" nType="-99"/>
          <Node pos="r" depth="2" NCoef="0" IVar="-1" Cut="0.0000000000000000e+00" cType="1" res="-8.2881944254040718e-03" rms="2.5596556067466736e-01" purity="3.1960695981979370e-01" nType="-99"/>
        </Node>
        <Node pos="r" depth="1" NCoef="0" IVar="23" Cut="9.8409199714660645e-01" cType="1" res="-2.5199046358466148e-03" rms="1.9105096161365509e-01" purity="7.2225010395050049e-01" nType="0">
          <Node pos="l" depth="2" NCoef="0" IVar="-1" Cut="0.0000000000000000e+00" cType="1" res="-5.7324431836605072e-03" rms="2.2388713061809540e-01" purity="5.8261257410049438e-01" nType="-99"/>
          <Node pos="r" depth="2" NCoef="0" IVar="-1" Cut="0.0000000000000000e+00" cType="1" res="1.1630190536379814e-02" rms="1.1455605179071426e-01" purity="9.6119451522827148e-01" nType="-99"/>
        </Node>
      </Node>
    </BinaryTree>
    <BinaryTree type="DecisionTree" boostWeight="1.0000000000000000e+00" itree="785">
      <Node pos="s" depth="0" NCoef="0" IVar="29" Cut="9.3393824994564056e-02" cType="1" res="-3.5823194775730371e-04" rms="1.9043631851673126e-01" purity="5.0178527832031250e-01" nType="0">
        <Node pos="l" depth="1" NCoef="0" IVar="6" Cut="4.7870926856994629e+00" cType="1" res="1.7280596075579524e-03" rms="1.8124833703041077e-01" purity="6.6473925113677979e-01" nType="0">
          <Node pos="l" depth="2" NCoef="0" IVar="-1" Cut="0.0000000000000000e+00" cType="1" res="9.3656275421380997e-03" rms="1.9292603433132172e-01" purity="6.0246819257736206e-01" nType="-99"/>
          <Node pos="r" depth="2" NCoef="0" IVar="-1" Cut="0.0000000000000000e+00" cType="1" res="-1.1016726057277992e-04" rms="1.7719544470310211e-01" purity="6.8525409698486328e-01" nType="-99"/>
        </Node>
        <Node pos="r" depth="1" NCoef="0" IVar="28" Cut="2.8946515917778015e-01" cType="1" res="-2.5063285138458014e-03" rms="1.9943191111087799e-01" purity="3.3400395512580872e-01" nType="0">
          <Node pos="l" depth="2" NCoef="0" IVar="-1" Cut="0.0000000000000000e+00" cType="1" res="2.7850572951138020e-03" rms="1.9732464849948883e-01" purity="2.8757140040397644e-01" nType="-99"/>
          <Node pos="r" depth="2" NCoef="0" IVar="-1" Cut="0.0000000000000000e+00" cType="1" res="-5.2468487992882729e-03" rms="2.0031882822513580e-01" purity="3.5457593202590942e-01" nType="-99"/>
        </Node>
      </Node>
    </BinaryTree>
    <BinaryTree type="DecisionTree" boostWeight="1.0000000000000000e+00" itree="786">
      <Node pos="s" depth="0" NCoef="0" IVar="16" Cut="2.9627853631973267e-01" cType="1" res="2.2470318072009832e-04" rms="1.9299706816673279e-01" purity="5.0118023157119751e-01" nType="0">
        <Node pos="l" depth="1" NCoef="0" IVar="16" Cut="2.7604249119758606e-01" cType="1" res="6.4800470136106014e-03" rms="1.9750645756721497e-01" purity="2.4035792052745819e-01" nType="0">
          <Node pos="l" depth="2" NCoef="0" IVar="-1" Cut="0.0000000000000000e+00" cType="1" res="-6.0567841865122318e-04" rms="1.9535286724567413e-01" purity="1.9079090654850006e-01" nType="-99"/>
          <Node pos="r" depth="2" NCoef="0" IVar="-1" Cut="0.0000000000000000e+00" cType="1" res="3.5666290670633316e-02" rms="2.0380328595638275e-01" purity="4.5290637016296387e-01" nType="-99"/>
        </Node>
        <Node pos="r" depth="1" NCoef="0" IVar="11" Cut="7.4540429115295410e+00" cType="1" res="-1.3605788117274642e-03" rms="1.9180501997470856e-01" purity="5.6727999448776245e-01" nType="0">
          <Node pos="l" depth="2" NCoef="0" IVar="-1" Cut="0.0000000000000000e+00" cType="1" res="-3.9079417474567890e-03" rms="1.9156275689601898e-01" purity="5.7853865623474121e-01" nType="-99"/>
          <Node pos="r" depth="2" NCoef="0" IVar="-1" Cut="0.0000000000000000e+00" cType="1" res="9.9038789048790932e-03" rms="1.9278097152709961e-01" purity="5.0888472795486450e-01" nType="-99"/>
        </Node>
      </Node>
    </BinaryTree>
    <BinaryTree type="DecisionTree" boostWeight="1.0000000000000000e+00" itree="787">
      <Node pos="s" depth="0" NCoef="0" IVar="17" Cut="1.8960758209228516e+01" cType="1" res="-6.0198450228199363e-04" rms="1.9484052062034607e-01" purity="4.9948590993881226e-01" nType="0">
        <Node pos="l" depth="1" NCoef="0" IVar="23" Cut="9.5239543914794922e-01" cType="1" res="2.3544558789581060e-03" rms="1.9928160309791565e-01" purity="2.9829600453376770e-01" nType="0">
          <Node pos="l" depth="2" NCoef="0" IVar="-1" Cut="0.0000000000000000e+00" cType="1" res="4.6957274898886681e-03" rms="1.9842918217182159e-01" purity="1.7331622540950775e-01" nType="-99"/>
          <Node pos="r" depth="2" NCoef="0" IVar="-1" Cut="0.0000000000000000e+00" cType="1" res="-5.6254952214658260e-03" rms="2.0268695056438446e-01" purity="8.2417470216751099e-01" nType="-99"/>
        </Node>
        <Node pos="r" depth="1" NCoef="0" IVar="16" Cut="3.2800287008285522e-01" cType="1" res="-3.3402647823095322e-03" rms="1.9059395790100098e-01" purity="6.8582975864410400e-01" nType="0">
          <Node pos="l" depth="2" NCoef="0" IVar="-1" Cut="0.0000000000000000e+00" cType="1" res="-8.3776172250509262e-03" rms="2.3579077422618866e-01" purity="3.9447247982025146e-01" nType="-99"/>
          <Node pos="r" depth="2" NCoef="0" IVar="-1" Cut="0.0000000000000000e+00" cType="1" res="-8.1951898755505681e-04" rms="1.6872097551822662e-01" purity="8.0424141883850098e-01" nType="-99"/>
        </Node>
      </Node>
    </BinaryTree>
    <BinaryTree type="DecisionTree" boostWeight="1.0000000000000000e+00" itree="788">
      <Node pos="s" depth="0" NCoef="0" IVar="28" Cut="3.8349938392639160e-01" cType="1" res="1.3246322050690651e-03" rms="1.9338880479335785e-01" purity="5.0365334749221802e-01" nType="0">
        <Node pos="l" depth="1" NCoef="0" IVar="16" Cut="2.9512235522270203e-01" cType="1" res="-3.8511920720338821e-03" rms="1.9985832273960114e-01" purity="2.9760500788688660e-01" nType="0">
          <Node pos="l" depth="2" NCoef="0" IVar="-1" Cut="0.0000000000000000e+00" cType="1" res="8.2866083830595016e-03" rms="1.9248194992542267e-01" purity="1.1050482094287872e-01" nType="-99"/>
          <Node pos="r" depth="2" NCoef="0" IVar="-1" Cut="0.0000000000000000e+00" cType="1" res="-7.4749835766851902e-03" rms="2.0198802649974823e-01" purity="3.5538592934608459e-01" nType="-99"/>
        </Node>
        <Node pos="r" depth="1" NCoef="0" IVar="9" Cut="1.8099941253662109e+01" cType="1" res="2.9224331956356764e-03" rms="1.9131918251514435e-01" purity="5.6726139783859253e-01" nType="0">
          <Node pos="l" depth="2" NCoef="0" IVar="-1" Cut="0.0000000000000000e+00" cType="1" res="6.4904317259788513e-03" rms="1.9572122395038605e-01" purity="5.8995747566223145e-01" nType="-99"/>
          <Node pos="r" depth="2" NCoef="0" IVar="-1" Cut="0.0000000000000000e+00" cType="1" res="-2.7586761862039566e-03" rms="1.8141831457614899e-01" purity="5.1861041784286499e-01" nType="-99"/>
        </Node>
      </Node>
    </BinaryTree>
    <BinaryTree type="DecisionTree" boostWeight="1.0000000000000000e+00" itree="789">
      <Node pos="s" depth="0" NCoef="0" IVar="26" Cut="4.7567501664161682e-02" cType="1" res="6.6983071155846119e-04" rms="1.9552449882030487e-01" purity="4.9925425648689270e-01" nType="0">
        <Node pos="l" depth="1" NCoef="0" IVar="11" Cut="7.8405694961547852e+00" cType="1" res="-9.9154119379818439e-04" rms="1.9348651170730591e-01" purity="5.6233656406402588e-01" nType="0">
          <Node pos="l" depth="2" NCoef="0" IVar="-1" Cut="0.0000000000000000e+00" cType="1" res="-5.4596457630395889e-05" rms="1.9420166313648224e-01" purity="5.7662838697433472e-01" nType="-99"/>
          <Node pos="r" depth="2" NCoef="0" IVar="-1" Cut="0.0000000000000000e+00" cType="1" res="-1.5025047585368156e-02" rms="1.8451087176799774e-01" purity="3.9435771107673645e-01" nType="-99"/>
        </Node>
        <Node pos="r" depth="1" NCoef="0" IVar="22" Cut="1.5313941955566406e+01" cType="1" res="6.3631287775933743e-03" rms="2.0224930346012115e-01" purity="2.8307968378067017e-01" nType="0">
          <Node pos="l" depth="2" NCoef="0" IVar="-1" Cut="0.0000000000000000e+00" cType="1" res="1.2883880175650120e-02" rms="2.0339280366897583e-01" purity="2.2346735000610352e-01" nType="-99"/>
          <Node pos="r" depth="2" NCoef="0" IVar="-1" Cut="0.0000000000000000e+00" cType="1" res="-4.1598966345191002e-03" rms="1.9904333353042603e-01" purity="4.3031018972396851e-01" nType="-99"/>
        </Node>
      </Node>
    </BinaryTree>
    <BinaryTree type="DecisionTree" boostWeight="1.0000000000000000e+00" itree="790">
      <Node pos="s" depth="0" NCoef="0" IVar="11" Cut="5.7150254249572754e+00" cType="1" res="6.2896875897422433e-04" rms="1.9339169561862946e-01" purity="4.9876114726066589e-01" nType="0">
        <Node pos="l" depth="1" NCoef="0" IVar="-1" Cut="0.0000000000000000e+00" cType="1" res="1.4561360701918602e-02" rms="2.1802315115928650e-01" purity="3.6909705400466919e-01" nType="-99"/>
        <Node pos="r" depth="1" NCoef="0" IVar="26" Cut="3.8045892119407654e-01" cType="1" res="3.5158522223355249e-05" rms="1.9203796982765198e-01" purity="5.0534379482269287e-01" nType="0">
          <Node pos="l" depth="2" NCoef="0" IVar="-1" Cut="0.0000000000000000e+00" cType="1" res="9.6398300956934690e-04" rms="1.9303897023200989e-01" purity="5.2780991792678833e-01" nType="-99"/>
          <Node pos="r" depth="2" NCoef="0" IVar="-1" Cut="0.0000000000000000e+00" cType="1" res="-1.4105341397225857e-02" rms="1.7761889100074768e-01" purity="2.0143337547779083e-01" nType="-99"/>
        </Node>
      </Node>
    </BinaryTree>
    <BinaryTree type="DecisionTree" boostWeight="1.0000000000000000e+00" itree="791">
      <Node pos="s" depth="0" NCoef="0" IVar="20" Cut="1.0328104019165039e+01" cType="1" res="-1.6529612476006150e-03" rms="1.9309571385383606e-01" purity="4.9780735373497009e-01" nType="0">
        <Node pos="l" depth="1" NCoef="0" IVar="3" Cut="2.1541717052459717e+00" cType="1" res="-2.3995474912226200e-03" rms="1.9175274670124054e-01" purity="5.1001161336898804e-01" nType="0">
          <Node pos="l" depth="2" NCoef="0" IVar="-1" Cut="0.0000000000000000e+00" cType="1" res="-4.4708549976348877e-03" rms="2.0827902853488922e-01" purity="7.0170581340789795e-01" nType="-99"/>
          <Node pos="r" depth="2" NCoef="0" IVar="-1" Cut="0.0000000000000000e+00" cType="1" res="1.0361345484852791e-03" rms="1.6376286745071411e-01" purity="2.2191318869590759e-01" nType="-99"/>
        </Node>
        <Node pos="r" depth="1" NCoef="0" IVar="3" Cut="2.4248402118682861e+00" cType="1" res="1.1432919651269913e-02" rms="2.1485783159732819e-01" purity="2.8389644622802734e-01" nType="0">
          <Node pos="l" depth="2" NCoef="0" IVar="-1" Cut="0.0000000000000000e+00" cType="1" res="1.8223613500595093e-02" rms="2.7217695116996765e-01" purity="4.9512729048728943e-01" nType="-99"/>
          <Node pos="r" depth="2" NCoef="0" IVar="-1" Cut="0.0000000000000000e+00" cType="1" res="-1.3833903707563877e-02" rms="1.2714122235774994e-01" purity="6.0805529356002808e-02" nType="-99"/>
        </Node>
      </Node>
    </BinaryTree>
    <BinaryTree type="DecisionTree" boostWeight="1.0000000000000000e+00" itree="792">
      <Node pos="s" depth="0" NCoef="0" IVar="11" Cut="6.8023324012756348e+00" cType="1" res="2.8302401187829673e-04" rms="1.9619849324226379e-01" purity="5.0245648622512817e-01" nType="0">
        <Node pos="l" depth="1" NCoef="0" IVar="26" Cut="1.4218781888484955e-01" cType="1" res="-2.4332823231816292e-03" rms="1.9567842781543732e-01" purity="5.0522810220718384e-01" nType="0">
          <Node pos="l" depth="2" NCoef="0" IVar="-1" Cut="0.0000000000000000e+00" cType="1" res="-5.2919415757060051e-03" rms="1.9263595342636108e-01" purity="5.5038279294967651e-01" nType="-99"/>
          <Node pos="r" depth="2" NCoef="0" IVar="-1" Cut="0.0000000000000000e+00" cType="1" res="7.6739606447517872e-03" rms="2.0935785770416260e-01" purity="2.8966099023818970e-01" nType="-99"/>
        </Node>
        <Node pos="r" depth="1" NCoef="0" IVar="34" Cut="7.9466718435287476e-01" cType="1" res="3.1795103568583727e-03" rms="1.9671022891998291e-01" purity="4.9950107932090759e-01" nType="0">
          <Node pos="l" depth="2" NCoef="0" IVar="-1" Cut="0.0000000000000000e+00" cType="1" res="-5.1566087640821934e-03" rms="1.8914718925952911e-01" purity="5.7514333724975586e-01" nType="-99"/>
          <Node pos="r" depth="2" NCoef="0" IVar="-1" Cut="0.0000000000000000e+00" cType="1" res="7.6688625849783421e-03" rms="1.9976700842380524e-01" purity="4.6720287203788757e-01" nType="-99"/>
        </Node>
      </Node>
    </BinaryTree>
    <BinaryTree type="DecisionTree" boostWeight="1.0000000000000000e+00" itree="793">
      <Node pos="s" depth="0" NCoef="0" IVar="10" Cut="6.5176410675048828e+00" cType="1" res="5.5158964823931456e-04" rms="1.9399031996726990e-01" purity="4.9930572509765625e-01" nType="0">
        <Node pos="l" depth="1" NCoef="0" IVar="34" Cut="7.9602730274200439e-01" cType="1" res="-4.5939856208860874e-03" rms="1.8513607978820801e-01" purity="4.3325853347778320e-01" nType="0">
          <Node pos="l" depth="2" NCoef="0" IVar="-1" Cut="0.0000000000000000e+00" cType="1" res="7.2835152968764305e-03" rms="1.9846387207508087e-01" purity="6.9418901205062866e-01" nType="-99"/>
          <Node pos="r" depth="2" NCoef="0" IVar="-1" Cut="0.0000000000000000e+00" cType="1" res="-9.9390549585223198e-03" rms="1.8129907548427582e-01" purity="3.6347872018814087e-01" nType="-99"/>
        </Node>
        <Node pos="r" depth="1" NCoef="0" IVar="16" Cut="6.3592433929443359e-01" cType="1" res="2.1695110481232405e-03" rms="1.9666419923305511e-01" purity="5.2007287740707397e-01" nType="0">
          <Node pos="l" depth="2" NCoef="0" IVar="-1" Cut="0.0000000000000000e+00" cType="1" res="1.4011873863637447e-03" rms="1.9770762324333191e-01" purity="5.0515758991241455e-01" nType="-99"/>
          <Node pos="r" depth="2" NCoef="0" IVar="-1" Cut="0.0000000000000000e+00" cType="1" res="2.6373561471700668e-02" rms="1.7723761498928070e-01" purity="7.7333539724349976e-01" nType="-99"/>
        </Node>
      </Node>
    </BinaryTree>
    <BinaryTree type="DecisionTree" boostWeight="1.0000000000000000e+00" itree="794">
      <Node pos="s" depth="0" NCoef="0" IVar="33" Cut="1.3332873582839966e-01" cType="1" res="3.3275250461883843e-04" rms="1.9357928633689880e-01" purity="4.9828022718429565e-01" nType="0">
        <Node pos="l" depth="1" NCoef="0" IVar="33" Cut="9.5234796404838562e-02" cType="1" res="-6.7460909485816956e-04" rms="1.9256471097469330e-01" purity="5.3501939773559570e-01" nType="0">
          <Node pos="l" depth="2" NCoef="0" IVar="-1" Cut="0.0000000000000000e+00" cType="1" res="1.4517067756969482e-04" rms="1.9215962290763855e-01" purity="5.5167591571807861e-01" nType="-99"/>
          <Node pos="r" depth="2" NCoef="0" IVar="-1" Cut="0.0000000000000000e+00" cType="1" res="-1.5357402153313160e-02" rms="1.9837145507335663e-01" purity="2.7495416998863220e-01" nType="-99"/>
        </Node>
        <Node pos="r" depth="1" NCoef="0" IVar="29" Cut="4.0709484368562698e-02" cType="1" res="6.7447428591549397e-03" rms="1.9979749619960785e-01" purity="2.6443064212799072e-01" nType="0">
          <Node pos="l" depth="2" NCoef="0" IVar="-1" Cut="0.0000000000000000e+00" cType="1" res="-8.2130236551165581e-03" rms="1.9712822139263153e-01" purity="3.9575865864753723e-01" nType="-99"/>
          <Node pos="r" depth="2" NCoef="0" IVar="-1" Cut="0.0000000000000000e+00" cType="1" res="1.3537043705582619e-02" rms="2.0035909116268158e-01" purity="2.2729775309562683e-01" nType="-99"/>
        </Node>
      </Node>
    </BinaryTree>
    <BinaryTree type="DecisionTree" boostWeight="1.0000000000000000e+00" itree="795">
      <Node pos="s" depth="0" NCoef="0" IVar="4" Cut="6.9356880187988281e+00" cType="1" res="6.2496063765138388e-04" rms="1.9550414383411407e-01" purity="5.0417470932006836e-01" nType="0">
        <Node pos="l" depth="1" NCoef="0" IVar="5" Cut="3.9897036552429199e+00" cType="1" res="1.8407104653306305e-04" rms="1.9551551342010498e-01" purity="5.1016265153884888e-01" nType="0">
          <Node pos="l" depth="2" NCoef="0" IVar="-1" Cut="0.0000000000000000e+00" cType="1" res="1.1868856381624937e-03" rms="1.9671803712844849e-01" purity="5.4218375682830811e-01" nType="-99"/>
          <Node pos="r" depth="2" NCoef="0" IVar="-1" Cut="0.0000000000000000e+00" cType="1" res="-1.2652939185500145e-02" rms="1.8189685046672821e-01" purity="1.6703514754772186e-01" nType="-99"/>
        </Node>
        <Node pos="r" depth="1" NCoef="0" IVar="-1" Cut="0.0000000000000000e+00" cType="1" res="1.7014803364872932e-02" rms="1.9474233686923981e-01" purity="3.3082795143127441e-01" nType="-99"/>
      </Node>
    </BinaryTree>
    <BinaryTree type="DecisionTree" boostWeight="1.0000000000000000e+00" itree="796">
      <Node pos="s" depth="0" NCoef="0" IVar="18" Cut="-1.3028757095336914e+01" cType="1" res="-1.1969240586040542e-04" rms="1.9202998280525208e-01" purity="4.9892717599868774e-01" nType="0">
        <Node pos="l" depth="1" NCoef="0" IVar="28" Cut="6.6912066936492920e-01" cType="1" res="2.6921692769974470e-03" rms="1.8648664653301239e-01" purity="6.4011615514755249e-01" nType="0">
          <Node pos="l" depth="2" NCoef="0" IVar="-1" Cut="0.0000000000000000e+00" cType="1" res="7.9913977533578873e-03" rms="2.0812706649303436e-01" purity="4.6410006284713745e-01" nType="-99"/>
          <Node pos="r" depth="2" NCoef="0" IVar="-1" Cut="0.0000000000000000e+00" cType="1" res="-5.3311855299398303e-04" rms="1.7243842780590057e-01" purity="7.4352574348449707e-01" nType="-99"/>
        </Node>
        <Node pos="r" depth="1" NCoef="0" IVar="15" Cut="5.4619908332824707e+00" cType="1" res="-3.0259452760219574e-03" rms="1.9755397737026215e-01" purity="3.5299873352050781e-01" nType="0">
          <Node pos="l" depth="2" NCoef="0" IVar="-1" Cut="0.0000000000000000e+00" cType="1" res="-1.5025618486106396e-02" rms="2.1649402379989624e-01" purity="4.6054005622863770e-01" nType="-99"/>
          <Node pos="r" depth="2" NCoef="0" IVar="-1" Cut="0.0000000000000000e+00" cType="1" res="-2.5527575053274632e-03" rms="1.9606304168701172e-01" purity="3.4510037302970886e-01" nType="-99"/>
        </Node>
      </Node>
    </BinaryTree>
    <BinaryTree type="DecisionTree" boostWeight="1.0000000000000000e+00" itree="797">
      <Node pos="s" depth="0" NCoef="0" IVar="28" Cut="2.3996719717979431e-01" cType="1" res="4.6956579899415374e-04" rms="1.9272172451019287e-01" purity="5.0236785411834717e-01" nType="0">
        <Node pos="l" depth="1" NCoef="0" IVar="7" Cut="2.0415942668914795e+00" cType="1" res="-5.9459535405039787e-03" rms="1.9729897379875183e-01" purity="2.8790050745010376e-01" nType="0">
          <Node pos="l" depth="2" NCoef="0" IVar="-1" Cut="0.0000000000000000e+00" cType="1" res="-1.1779131367802620e-02" rms="2.3023566603660583e-01" purity="4.7101306915283203e-01" nType="-99"/>
          <Node pos="r" depth="2" NCoef="0" IVar="-1" Cut="0.0000000000000000e+00" cType="1" res="2.8772472869604826e-03" rms="1.6409842669963837e-01" purity="1.3346891105175018e-01" nType="-99"/>
        </Node>
        <Node pos="r" depth="1" NCoef="0" IVar="19" Cut="8.4777345657348633e+00" cType="1" res="1.3749341014772654e-03" rms="1.9204974174499512e-01" purity="5.3263384103775024e-01" nType="0">
          <Node pos="l" depth="2" NCoef="0" IVar="-1" Cut="0.0000000000000000e+00" cType="1" res="6.4340359531342983e-03" rms="2.0035219192504883e-01" purity="3.5824269056320190e-01" nType="-99"/>
          <Node pos="r" depth="2" NCoef="0" IVar="-1" Cut="0.0000000000000000e+00" cType="1" res="-4.4135074131190777e-04" rms="1.8810321390628815e-01" purity="6.1242532730102539e-01" nType="-99"/>
        </Node>
      </Node>
    </BinaryTree>
    <BinaryTree type="DecisionTree" boostWeight="1.0000000000000000e+00" itree="798">
      <Node pos="s" depth="0" NCoef="0" IVar="34" Cut="6.3492217063903809e+00" cType="1" res="8.0332698416896164e-05" rms="1.9435410201549530e-01" purity="5.0306618213653564e-01" nType="0">
        <Node pos="l" depth="1" NCoef="0" IVar="20" Cut="-5.9623172760009766e+01" cType="1" res="-4.8740216880105436e-04" rms="1.9530056416988373e-01" purity="5.2443987131118774e-01" nType="0">
          <Node pos="l" depth="2" NCoef="0" IVar="-1" Cut="0.0000000000000000e+00" cType="1" res="3.0189858749508858e-02" rms="1.0004025697708130e-01" purity="9.6322298049926758e-01" nType="-99"/>
          <Node pos="r" depth="2" NCoef="0" IVar="-1" Cut="0.0000000000000000e+00" cType="1" res="-1.1144272284582257e-03" rms="1.9905467331409454e-01" purity="5.0127869844436646e-01" nType="-99"/>
        </Node>
        <Node pos="r" depth="1" NCoef="0" IVar="12" Cut="7.0419464111328125e+00" cType="1" res="1.0443379171192646e-02" rms="1.7586497962474823e-01" purity="1.1292602121829987e-01" nType="0">
          <Node pos="l" depth="2" NCoef="0" IVar="-1" Cut="0.0000000000000000e+00" cType="1" res="4.7754719853401184e-03" rms="1.6147570312023163e-01" purity="6.4667992293834686e-02" nType="-99"/>
          <Node pos="r" depth="2" NCoef="0" IVar="-1" Cut="0.0000000000000000e+00" cType="1" res="2.9111482203006744e-02" rms="1.8860927224159241e-01" purity="1.6033363342285156e-01" nType="-99"/>
        </Node>
      </Node>
    </BinaryTree>
    <BinaryTree type="DecisionTree" boostWeight="1.0000000000000000e+00" itree="799">
      <Node pos="s" depth="0" NCoef="0" IVar="13" Cut="7.0722064971923828e+00" cType="1" res="2.9682673630304635e-04" rms="1.9390377402305603e-01" purity="5.0019788742065430e-01" nType="0">
        <Node pos="l" depth="1" NCoef="0" IVar="-1" Cut="0.0000000000000000e+00" cType="1" res="1.7085980623960495e-02" rms="2.0958724617958069e-01" purity="3.5022029280662537e-01" nType="-99"/>
        <Node pos="r" depth="1" NCoef="0" IVar="7" Cut="1.7573778629302979e+00" cType="1" res="-2.4157566076610237e-04" rms="1.9324435293674469e-01" purity="5.0606590509414673e-01" nType="0">
          <Node pos="l" depth="2" NCoef="0" IVar="-1" Cut="0.0000000000000000e+00" cType="1" res="-3.0719735659658909e-03" rms="2.0377902686595917e-01" purity="7.2139841318130493e-01" nType="-99"/>
          <Node pos="r" depth="2" NCoef="0" IVar="-1" Cut="0.0000000000000000e+00" cType="1" res="3.7171973381191492e-03" rms="1.8130165338516235e-01" purity="2.7658101916313171e-01" nType="-99"/>
        </Node>
      </Node>
    </BinaryTree>
    <BinaryTree type="DecisionTree" boostWeight="1.0000000000000000e+00" itree="800">
      <Node pos="s" depth="0" NCoef="0" IVar="2" Cut="1.8513666152954102e+01" cType="1" res="-1.2487372150644660e-03" rms="1.9148248434066772e-01" purity="4.9848216772079468e-01" nType="0">
        <Node pos="l" depth="1" NCoef="0" IVar="11" Cut="7.8405694961547852e+00" cType="1" res="-2.0892799366265535e-03" rms="1.9182291626930237e-01" purity="5.1678049564361572e-01" nType="0">
          <Node pos="l" depth="2" NCoef="0" IVar="-1" Cut="0.0000000000000000e+00" cType="1" res="-1.7713634297251701e-03" rms="1.9292151927947998e-01" purity="5.2734375000000000e-01" nType="-99"/>
          <Node pos="r" depth="2" NCoef="0" IVar="-1" Cut="0.0000000000000000e+00" cType="1" res="-1.2545695528388023e-02" rms="1.7669436335563660e-01" purity="3.7912973761558533e-01" nType="-99"/>
        </Node>
        <Node pos="r" depth="1" NCoef="0" IVar="16" Cut="3.4808889031410217e-01" cType="1" res="9.4784693792462349e-03" rms="1.8675132095813751e-01" purity="2.6495441794395447e-01" nType="0">
          <Node pos="l" depth="2" NCoef="0" IVar="-1" Cut="0.0000000000000000e+00" cType="1" res="2.7946773916482925e-02" rms="1.8022784590721130e-01" purity="1.4824813604354858e-01" nType="-99"/>
          <Node pos="r" depth="2" NCoef="0" IVar="-1" Cut="0.0000000000000000e+00" cType="1" res="-1.8508348148316145e-03" rms="1.9329594075679779e-01" purity="3.9734065532684326e-01" nType="-99"/>
        </Node>
      </Node>
    </BinaryTree>
    <BinaryTree type="DecisionTree" boostWeight="1.0000000000000000e+00" itree="801">
      <Node pos="s" depth="0" NCoef="0" IVar="1" Cut="1.0140861511230469e+01" cType="1" res="-2.3127286112867296e-04" rms="1.9367064535617828e-01" purity="4.9945470690727234e-01" nType="0">
        <Node pos="l" depth="1" NCoef="0" IVar="1" Cut="3.8326153755187988e+00" cType="1" res="1.4729144750162959e-03" rms="1.9967857003211975e-01" purity="5.0116044282913208e-01" nType="0">
          <Node pos="l" depth="2" NCoef="0" IVar="-1" Cut="0.0000000000000000e+00" cType="1" res="-5.5830953642725945e-03" rms="1.9333593547344208e-01" purity="3.5514876246452332e-01" nType="-99"/>
          <Node pos="r" depth="2" NCoef="0" IVar="-1" Cut="0.0000000000000000e+00" cType="1" res="4.0085986256599426e-03" rms="2.0166248083114624e-01" purity="5.4872667789459229e-01" nType="-99"/>
        </Node>
        <Node pos="r" depth="1" NCoef="0" IVar="23" Cut="9.0497153997421265e-01" cType="1" res="-3.9710844866931438e-03" rms="1.7972734570503235e-01" purity="4.9571159482002258e-01" nType="0">
          <Node pos="l" depth="2" NCoef="0" IVar="-1" Cut="0.0000000000000000e+00" cType="1" res="-9.0335942804813385e-03" rms="2.0130503177642822e-01" purity="2.1052795648574829e-01" nType="-99"/>
          <Node pos="r" depth="2" NCoef="0" IVar="-1" Cut="0.0000000000000000e+00" cType="1" res="6.6802175715565681e-03" rms="1.4230221509933472e-01" purity="9.1051298379898071e-01" nType="-99"/>
        </Node>
      </Node>
    </BinaryTree>
    <BinaryTree type="DecisionTree" boostWeight="1.0000000000000000e+00" itree="802">
      <Node pos="s" depth="0" NCoef="0" IVar="26" Cut="4.7566037625074387e-02" cType="1" res="-8.3716714289039373e-04" rms="1.9271317124366760e-01" purity="5.0097805261611938e-01" nType="0">
        <Node pos="l" depth="1" NCoef="0" IVar="25" Cut="2.3137271404266357e-01" cType="1" res="-2.4055771064013243e-03" rms="1.9137498736381531e-01" purity="5.6576311588287354e-01" nType="0">
          <Node pos="l" depth="2" NCoef="0" IVar="-1" Cut="0.0000000000000000e+00" cType="1" res="-1.3228221796452999e-03" rms="1.9197586178779602e-01" purity="6.3946199417114258e-01" nType="-99"/>
          <Node pos="r" depth="2" NCoef="0" IVar="-1" Cut="0.0000000000000000e+00" cType="1" res="-1.0385107249021530e-02" rms="1.8850551545619965e-01" purity="2.3076978325843811e-01" nType="-99"/>
        </Node>
        <Node pos="r" depth="1" NCoef="0" IVar="19" Cut="2.2870000839233398e+01" cType="1" res="4.5249140821397305e-03" rms="1.9712539017200470e-01" purity="2.7949079871177673e-01" nType="0">
          <Node pos="l" depth="2" NCoef="0" IVar="-1" Cut="0.0000000000000000e+00" cType="1" res="8.8830450549721718e-03" rms="1.9415342807769775e-01" purity="2.2214061021804810e-01" nType="-99"/>
          <Node pos="r" depth="2" NCoef="0" IVar="-1" Cut="0.0000000000000000e+00" cType="1" res="-7.6590529642999172e-03" rms="2.1115943789482117e-01" purity="5.7100129127502441e-01" nType="-99"/>
        </Node>
      </Node>
    </BinaryTree>
    <BinaryTree type="DecisionTree" boostWeight="1.0000000000000000e+00" itree="803">
      <Node pos="s" depth="0" NCoef="0" IVar="28" Cut="2.8868362307548523e-01" cType="1" res="-7.1970373392105103e-04" rms="1.9151468575000763e-01" purity="5.0084811449050903e-01" nType="0">
        <Node pos="l" depth="1" NCoef="0" IVar="3" Cut="1.6732776165008545e+00" cType="1" res="5.3997938521206379e-03" rms="2.0349238812923431e-01" purity="3.0552780628204346e-01" nType="0">
          <Node pos="l" depth="2" NCoef="0" IVar="-1" Cut="0.0000000000000000e+00" cType="1" res="1.1236813850700855e-02" rms="2.4140669405460358e-01" purity="5.4644966125488281e-01" nType="-99"/>
          <Node pos="r" depth="2" NCoef="0" IVar="-1" Cut="0.0000000000000000e+00" cType="1" res="6.0752616263926029e-04" rms="1.7788037657737732e-01" purity="1.6699270904064178e-01" nType="-99"/>
        </Node>
        <Node pos="r" depth="1" NCoef="0" IVar="12" Cut="7.6863245964050293e+00" cType="1" res="-1.9291541539132595e-03" rms="1.8903419375419617e-01" purity="5.3945094347000122e-01" nType="0">
          <Node pos="l" depth="2" NCoef="0" IVar="-1" Cut="0.0000000000000000e+00" cType="1" res="-3.6162727046757936e-03" rms="1.9323267042636871e-01" purity="4.8197329044342041e-01" nType="-99"/>
          <Node pos="r" depth="2" NCoef="0" IVar="-1" Cut="0.0000000000000000e+00" cType="1" res="2.4244303349405527e-03" rms="1.7635968327522278e-01" purity="7.0470935106277466e-01" nType="-99"/>
        </Node>
      </Node>
    </BinaryTree>
    <BinaryTree type="DecisionTree" boostWeight="1.0000000000000000e+00" itree="804">
      <Node pos="s" depth="0" NCoef="0" IVar="16" Cut="3.2909327745437622e-01" cType="1" res="1.2814590008929372e-03" rms="1.9274079799652100e-01" purity="5.0079220533370972e-01" nType="0">
        <Node pos="l" depth="1" NCoef="0" IVar="16" Cut="3.0395895242691040e-01" cType="1" res="-1.5931421658024192e-03" rms="2.0773673057556152e-01" purity="2.5500828027725220e-01" nType="0">
          <Node pos="l" depth="2" NCoef="0" IVar="-1" Cut="0.0000000000000000e+00" cType="1" res="3.4412429668009281e-03" rms="1.9826526939868927e-01" purity="2.4050326645374298e-01" nType="-99"/>
          <Node pos="r" depth="2" NCoef="0" IVar="-1" Cut="0.0000000000000000e+00" cType="1" res="-1.2079445645213127e-02" rms="2.3059867322444916e-01" purity="2.9355961084365845e-01" nType="-99"/>
        </Node>
        <Node pos="r" depth="1" NCoef="0" IVar="16" Cut="3.5589650273323059e-01" cType="1" res="2.5296951644122601e-03" rms="1.8583889305591583e-01" purity="6.0751879215240479e-01" nType="0">
          <Node pos="l" depth="2" NCoef="0" IVar="-1" Cut="0.0000000000000000e+00" cType="1" res="1.3697710819542408e-02" rms="2.1073822677135468e-01" purity="4.7958409786224365e-01" nType="-99"/>
          <Node pos="r" depth="2" NCoef="0" IVar="-1" Cut="0.0000000000000000e+00" cType="1" res="1.6841281903907657e-03" rms="1.8286508321762085e-01" purity="6.2151491641998291e-01" nType="-99"/>
        </Node>
      </Node>
    </BinaryTree>
    <BinaryTree type="DecisionTree" boostWeight="1.0000000000000000e+00" itree="805">
      <Node pos="s" depth="0" NCoef="0" IVar="32" Cut="1.9042074680328369e-02" cType="1" res="-1.9377317221369594e-04" rms="1.9356058537960052e-01" purity="4.9736893177032471e-01" nType="0">
        <Node pos="l" depth="1" NCoef="0" IVar="32" Cut="7.2554377838969231e-03" cType="1" res="-2.1108922082930803e-03" rms="1.8907703459262848e-01" purity="6.2827825546264648e-01" nType="0">
          <Node pos="l" depth="2" NCoef="0" IVar="-1" Cut="0.0000000000000000e+00" cType="1" res="2.4086635094136000e-03" rms="1.8468007445335388e-01" purity="6.8163454532623291e-01" nType="-99"/>
          <Node pos="r" depth="2" NCoef="0" IVar="-1" Cut="0.0000000000000000e+00" cType="1" res="-1.5171905048191547e-02" rms="2.0075209438800812e-01" purity="4.7470346093177795e-01" nType="-99"/>
        </Node>
        <Node pos="r" depth="1" NCoef="0" IVar="27" Cut="8.0938094854354858e-01" cType="1" res="2.8600813820958138e-03" rms="2.0045778155326843e-01" purity="2.8883835673332214e-01" nType="0">
          <Node pos="l" depth="2" NCoef="0" IVar="-1" Cut="0.0000000000000000e+00" cType="1" res="-2.1092300303280354e-03" rms="1.8146087229251862e-01" purity="1.6591371595859528e-01" nType="-99"/>
          <Node pos="r" depth="2" NCoef="0" IVar="-1" Cut="0.0000000000000000e+00" cType="1" res="6.8092872388660908e-03" rms="2.1502570807933807e-01" purity="3.9189761877059937e-01" nType="-99"/>
        </Node>
      </Node>
    </BinaryTree>
    <BinaryTree type="DecisionTree" boostWeight="1.0000000000000000e+00" itree="806">
      <Node pos="s" depth="0" NCoef="0" IVar="33" Cut="7.6200358569622040e-02" cType="1" res="-6.0004461556673050e-04" rms="1.9564953446388245e-01" purity="4.9629852175712585e-01" nType="0">
        <Node pos="l" depth="1" NCoef="0" IVar="16" Cut="3.6757504940032959e-01" cType="1" res="-1.9920649938285351e-03" rms="1.9303181767463684e-01" purity="5.6030690670013428e-01" nType="0">
          <Node pos="l" depth="2" NCoef="0" IVar="-1" Cut="0.0000000000000000e+00" cType="1" res="-6.4116236753761768e-03" rms="2.1410651504993439e-01" purity="3.4490674734115601e-01" nType="-99"/>
          <Node pos="r" depth="2" NCoef="0" IVar="-1" Cut="0.0000000000000000e+00" cType="1" res="1.3417691225185990e-03" rms="1.7793342471122742e-01" purity="7.0036798715591431e-01" nType="-99"/>
        </Node>
        <Node pos="r" depth="1" NCoef="0" IVar="30" Cut="1.3334293663501740e-01" cType="1" res="4.0543256327509880e-03" rms="2.0408961176872253e-01" purity="2.8227952122688293e-01" nType="0">
          <Node pos="l" depth="2" NCoef="0" IVar="-1" Cut="0.0000000000000000e+00" cType="1" res="1.3033767463639379e-03" rms="2.0271061360836029e-01" purity="3.1074205040931702e-01" nType="-99"/>
          <Node pos="r" depth="2" NCoef="0" IVar="-1" Cut="0.0000000000000000e+00" cType="1" res="2.5943960994482040e-02" rms="2.1009474992752075e-01" purity="1.4355804026126862e-01" nType="-99"/>
        </Node>
      </Node>
    </BinaryTree>
    <BinaryTree type="DecisionTree" boostWeight="1.0000000000000000e+00" itree="807">
      <Node pos="s" depth="0" NCoef="0" IVar="20" Cut="-3.2390140533447266e+01" cType="1" res="1.8932087114080787e-03" rms="1.9461110234260559e-01" purity="5.0000125169754028e-01" nType="0">
        <Node pos="l" depth="1" NCoef="0" IVar="23" Cut="7.6325356960296631e-01" cType="1" res="-2.5111013092100620e-03" rms="1.6294690966606140e-01" purity="8.1912052631378174e-01" nType="0">
          <Node pos="l" depth="2" NCoef="0" IVar="-1" Cut="0.0000000000000000e+00" cType="1" res="-9.7409356385469437e-03" rms="2.4815574288368225e-01" purity="3.7120714783668518e-01" nType="-99"/>
          <Node pos="r" depth="2" NCoef="0" IVar="-1" Cut="0.0000000000000000e+00" cType="1" res="2.3362701758742332e-03" rms="1.2835271656513214e-01" purity="9.4732969999313354e-01" nType="-99"/>
        </Node>
        <Node pos="r" depth="1" NCoef="0" IVar="23" Cut="8.5740518569946289e-01" cType="1" res="3.0790856108069420e-03" rms="2.0227527618408203e-01" purity="4.1407713294029236e-01" nType="0">
          <Node pos="l" depth="2" NCoef="0" IVar="-1" Cut="0.0000000000000000e+00" cType="1" res="5.7202293537557125e-03" rms="2.0785877108573914e-01" purity="1.6713672876358032e-01" nType="-99"/>
          <Node pos="r" depth="2" NCoef="0" IVar="-1" Cut="0.0000000000000000e+00" cType="1" res="-6.7810533801093698e-04" rms="1.9304685294628143e-01" purity="8.0516791343688965e-01" nType="-99"/>
        </Node>
      </Node>
    </BinaryTree>
    <BinaryTree type="DecisionTree" boostWeight="1.0000000000000000e+00" itree="808">
      <Node pos="s" depth="0" NCoef="0" IVar="13" Cut="7.2365036010742188e+00" cType="1" res="8.1985985161736608e-04" rms="1.9386042654514313e-01" purity="5.0694960355758667e-01" nType="0">
        <Node pos="l" depth="1" NCoef="0" IVar="14" Cut="7.3737096786499023e+00" cType="1" res="-7.0818611420691013e-03" rms="1.9638337194919586e-01" purity="3.3688116073608398e-01" nType="0">
          <Node pos="l" depth="2" NCoef="0" IVar="-1" Cut="0.0000000000000000e+00" cType="1" res="-1.2543143238872290e-03" rms="1.9675396382808685e-01" purity="3.5296928882598877e-01" nType="-99"/>
          <Node pos="r" depth="2" NCoef="0" IVar="-1" Cut="0.0000000000000000e+00" cType="1" res="-2.2822005674242973e-02" rms="1.9513025879859924e-01" purity="3.0568096041679382e-01" nType="-99"/>
        </Node>
        <Node pos="r" depth="1" NCoef="0" IVar="33" Cut="2.0952057838439941e-01" cType="1" res="1.4821252552792430e-03" rms="1.9363282620906830e-01" purity="5.2120351791381836e-01" nType="0">
          <Node pos="l" depth="2" NCoef="0" IVar="-1" Cut="0.0000000000000000e+00" cType="1" res="9.5930317183956504e-04" rms="1.9260844588279724e-01" purity="5.3919875621795654e-01" nType="-99"/>
          <Node pos="r" depth="2" NCoef="0" IVar="-1" Cut="0.0000000000000000e+00" cType="1" res="1.1766447685658932e-02" rms="2.0663672685623169e-01" purity="2.8035098314285278e-01" nType="-99"/>
        </Node>
      </Node>
    </BinaryTree>
    <BinaryTree type="DecisionTree" boostWeight="1.0000000000000000e+00" itree="809">
      <Node pos="s" depth="0" NCoef="0" IVar="16" Cut="2.5825873017311096e-01" cType="1" res="-1.3710202183574438e-03" rms="1.9444169104099274e-01" purity="4.9750480055809021e-01" nType="0">
        <Node pos="l" depth="1" NCoef="0" IVar="16" Cut="2.3814088106155396e-01" cType="1" res="6.0741049237549305e-03" rms="1.9359195232391357e-01" purity="1.8218557536602020e-01" nType="0">
          <Node pos="l" depth="2" NCoef="0" IVar="-1" Cut="0.0000000000000000e+00" cType="1" res="-1.4720058534294367e-03" rms="1.7588970065116882e-01" purity="1.4170216023921967e-01" nType="-99"/>
          <Node pos="r" depth="2" NCoef="0" IVar="-1" Cut="0.0000000000000000e+00" cType="1" res="2.4762051180005074e-02" rms="2.2795160114765167e-01" purity="2.7409109473228455e-01" nType="-99"/>
        </Node>
        <Node pos="r" depth="1" NCoef="0" IVar="16" Cut="2.8843674063682556e-01" cType="1" res="-2.3164746817201376e-03" rms="1.9452893733978271e-01" purity="5.3754711151123047e-01" nType="0">
          <Node pos="l" depth="2" NCoef="0" IVar="-1" Cut="0.0000000000000000e+00" cType="1" res="-1.4455162920057774e-02" rms="2.1140146255493164e-01" purity="2.6713740825653076e-01" nType="-99"/>
          <Node pos="r" depth="2" NCoef="0" IVar="-1" Cut="0.0000000000000000e+00" cType="1" res="-1.4777831966057420e-03" rms="1.9291712343692780e-01" purity="5.6160366535186768e-01" nType="-99"/>
        </Node>
      </Node>
    </BinaryTree>
    <BinaryTree type="DecisionTree" boostWeight="1.0000000000000000e+00" itree="810">
      <Node pos="s" depth="0" NCoef="0" IVar="10" Cut="6.8856024742126465e+00" cType="1" res="9.2031783424317837e-04" rms="1.9285377860069275e-01" purity="5.0027751922607422e-01" nType="0">
        <Node pos="l" depth="1" NCoef="0" IVar="19" Cut="4.8728332519531250e+00" cType="1" res="-2.0405061077326536e-03" rms="1.8415923416614532e-01" purity="4.8402026295661926e-01" nType="0">
          <Node pos="l" depth="2" NCoef="0" IVar="-1" Cut="0.0000000000000000e+00" cType="1" res="-2.1586300805211067e-02" rms="1.6677460074424744e-01" purity="1.2870657444000244e-01" nType="-99"/>
          <Node pos="r" depth="2" NCoef="0" IVar="-1" Cut="0.0000000000000000e+00" cType="1" res="-8.4123370470479131e-05" rms="1.8687194585800171e-01" purity="5.4420256614685059e-01" nType="-99"/>
        </Node>
        <Node pos="r" depth="1" NCoef="0" IVar="6" Cut="4.6089024543762207e+00" cType="1" res="3.1334667000919580e-03" rms="1.9907617568969727e-01" purity="5.1242947578430176e-01" nType="0">
          <Node pos="l" depth="2" NCoef="0" IVar="-1" Cut="0.0000000000000000e+00" cType="1" res="1.6442038118839264e-02" rms="2.1340303122997284e-01" purity="4.9735903739929199e-01" nType="-99"/>
          <Node pos="r" depth="2" NCoef="0" IVar="-1" Cut="0.0000000000000000e+00" cType="1" res="1.2491114903241396e-03" rms="1.9635933637619019e-01" purity="5.1509648561477661e-01" nType="-99"/>
        </Node>
      </Node>
    </BinaryTree>
    <BinaryTree type="DecisionTree" boostWeight="1.0000000000000000e+00" itree="811">
      <Node pos="s" depth="0" NCoef="0" IVar="19" Cut="3.1598695755004883e+01" cType="1" res="-4.5973135274834931e-04" rms="1.9358122348785400e-01" purity="4.9838498234748840e-01" nType="0">
        <Node pos="l" depth="1" NCoef="0" IVar="16" Cut="5.4422700405120850e-01" cType="1" res="-1.5689213760197163e-03" rms="1.9811949133872986e-01" purity="4.5543962717056274e-01" nType="0">
          <Node pos="l" depth="2" NCoef="0" IVar="-1" Cut="0.0000000000000000e+00" cType="1" res="-3.2917167991399765e-03" rms="2.0163284242153168e-01" purity="4.1252142190933228e-01" nType="-99"/>
          <Node pos="r" depth="2" NCoef="0" IVar="-1" Cut="0.0000000000000000e+00" cType="1" res="4.6439319849014282e-03" rms="1.8401198089122772e-01" purity="6.1916869878768921e-01" nType="-99"/>
        </Node>
        <Node pos="r" depth="1" NCoef="0" IVar="23" Cut="8.5874223709106445e-01" cType="1" res="9.0969791635870934e-03" rms="1.4851163327693939e-01" purity="8.6839944124221802e-01" nType="0">
          <Node pos="l" depth="2" NCoef="0" IVar="-1" Cut="0.0000000000000000e+00" cType="1" res="1.7449384555220604e-02" rms="2.4412459135055542e-01" purity="5.8392167091369629e-01" nType="-99"/>
          <Node pos="r" depth="2" NCoef="0" IVar="-1" Cut="0.0000000000000000e+00" cType="1" res="1.4938584528863430e-02" rms="8.7978966534137726e-02" purity="9.7588837146759033e-01" nType="-99"/>
        </Node>
      </Node>
    </BinaryTree>
    <BinaryTree type="DecisionTree" boostWeight="1.0000000000000000e+00" itree="812">
      <Node pos="s" depth="0" NCoef="0" IVar="6" Cut="3.7717268466949463e+00" cType="1" res="9.6300913719460368e-04" rms="1.9463118910789490e-01" purity="4.9991500377655029e-01" nType="0">
        <Node pos="l" depth="1" NCoef="0" IVar="13" Cut="7.5418944358825684e+00" cType="1" res="1.0556952096521854e-02" rms="1.9729197025299072e-01" purity="1.4341995120048523e-01" nType="0">
          <Node pos="l" depth="2" NCoef="0" IVar="-1" Cut="0.0000000000000000e+00" cType="1" res="-9.6304551698267460e-04" rms="1.6962406039237976e-01" purity="8.0083169043064117e-02" nType="-99"/>
          <Node pos="r" depth="2" NCoef="0" IVar="-1" Cut="0.0000000000000000e+00" cType="1" res="3.1897593289613724e-02" rms="2.3048730194568634e-01" purity="2.3473517596721649e-01" nType="-99"/>
        </Node>
        <Node pos="r" depth="1" NCoef="0" IVar="6" Cut="5.7934141159057617e+00" cType="1" res="2.5733155780471861e-04" rms="1.9441534578800201e-01" purity="5.2613681554794312e-01" nType="0">
          <Node pos="l" depth="2" NCoef="0" IVar="-1" Cut="0.0000000000000000e+00" cType="1" res="-2.5141197256743908e-03" rms="1.9731742143630981e-01" purity="5.5425113439559937e-01" nType="-99"/>
          <Node pos="r" depth="2" NCoef="0" IVar="-1" Cut="0.0000000000000000e+00" cType="1" res="4.0672929026186466e-03" rms="1.9058823585510254e-01" purity="4.9011275172233582e-01" nType="-99"/>
        </Node>
      </Node>
    </BinaryTree>
    <BinaryTree type="DecisionTree" boostWeight="1.0000000000000000e+00" itree="813">
      <Node pos="s" depth="0" NCoef="0" IVar="25" Cut="3.2392174005508423e-01" cType="1" res="3.0623271595686674e-04" rms="1.9237338006496429e-01" purity="4.9763378500938416e-01" nType="0">
        <Node pos="l" depth="1" NCoef="0" IVar="30" Cut="2.4761082231998444e-01" cType="1" res="-7.5303594348952174e-04" rms="1.9366605579853058e-01" purity="5.6160700321197510e-01" nType="0">
          <Node pos="l" depth="2" NCoef="0" IVar="-1" Cut="0.0000000000000000e+00" cType="1" res="-1.5240088105201721e-03" rms="1.9298312067985535e-01" purity="5.7280308008193970e-01" nType="-99"/>
          <Node pos="r" depth="2" NCoef="0" IVar="-1" Cut="0.0000000000000000e+00" cType="1" res="1.5213343314826488e-02" rms="2.0995481312274933e-01" purity="2.7401274442672729e-01" nType="-99"/>
        </Node>
        <Node pos="r" depth="1" NCoef="0" IVar="23" Cut="6.1965775489807129e-01" cType="1" res="5.5285952985286713e-03" rms="1.8578067421913147e-01" purity="1.8223567306995392e-01" nType="0">
          <Node pos="l" depth="2" NCoef="0" IVar="-1" Cut="0.0000000000000000e+00" cType="1" res="-1.0100895538926125e-02" rms="1.3100190460681915e-01" purity="2.8337661176919937e-02" nType="-99"/>
          <Node pos="r" depth="2" NCoef="0" IVar="-1" Cut="0.0000000000000000e+00" cType="1" res="1.4207763597369194e-02" rms="2.2771169245243073e-01" purity="3.3762532472610474e-01" nType="-99"/>
        </Node>
      </Node>
    </BinaryTree>
    <BinaryTree type="DecisionTree" boostWeight="1.0000000000000000e+00" itree="814">
      <Node pos="s" depth="0" NCoef="0" IVar="16" Cut="6.4583522081375122e-01" cType="1" res="4.4386299123289064e-05" rms="1.9310688972473145e-01" purity="5.0161558389663696e-01" nType="0">
        <Node pos="l" depth="1" NCoef="0" IVar="12" Cut="8.1124687194824219e+00" cType="1" res="-5.6665146257728338e-04" rms="1.9471077620983124e-01" purity="4.9176710844039917e-01" nType="0">
          <Node pos="l" depth="2" NCoef="0" IVar="-1" Cut="0.0000000000000000e+00" cType="1" res="1.3909459812566638e-04" rms="1.9709520041942596e-01" purity="4.7407892346382141e-01" nType="-99"/>
          <Node pos="r" depth="2" NCoef="0" IVar="-1" Cut="0.0000000000000000e+00" cType="1" res="-1.9061371684074402e-02" rms="1.5821160376071930e-01" purity="7.3386186361312866e-01" nType="-99"/>
        </Node>
        <Node pos="r" depth="1" NCoef="0" IVar="13" Cut="7.9132556915283203e+00" cType="1" res="7.6360413804650307e-03" rms="1.7175552248954773e-01" purity="6.2397485971450806e-01" nType="0">
          <Node pos="l" depth="2" NCoef="0" IVar="-1" Cut="0.0000000000000000e+00" cType="1" res="-6.6239857114851475e-03" rms="1.7069241404533386e-01" purity="4.3068358302116394e-01" nType="-99"/>
          <Node pos="r" depth="2" NCoef="0" IVar="-1" Cut="0.0000000000000000e+00" cType="1" res="2.2601146250963211e-02" rms="1.7199091613292694e-01" purity="7.6175391674041748e-01" nType="-99"/>
        </Node>
      </Node>
    </BinaryTree>
    <BinaryTree type="DecisionTree" boostWeight="1.0000000000000000e+00" itree="815">
      <Node pos="s" depth="0" NCoef="0" IVar="16" Cut="3.6457127332687378e-01" cType="1" res="-7.6002668356522918e-04" rms="1.9223403930664062e-01" purity="4.9846050143241882e-01" nType="0">
        <Node pos="l" depth="1" NCoef="0" IVar="16" Cut="2.7416306734085083e-01" cType="1" res="3.1381687149405479e-03" rms="2.1092242002487183e-01" purity="3.0411204695701599e-01" nType="0">
          <Node pos="l" depth="2" NCoef="0" IVar="-1" Cut="0.0000000000000000e+00" cType="1" res="-5.3280983120203018e-03" rms="1.9811181724071503e-01" purity="1.8779952824115753e-01" nType="-99"/>
          <Node pos="r" depth="2" NCoef="0" IVar="-1" Cut="0.0000000000000000e+00" cType="1" res="7.7027734369039536e-03" rms="2.1865151822566986e-01" purity="3.7916630506515503e-01" nType="-99"/>
        </Node>
        <Node pos="r" depth="1" NCoef="0" IVar="6" Cut="5.0095028877258301e+00" cType="1" res="-3.4108918625861406e-03" rms="1.7836210131645203e-01" purity="6.3062214851379395e-01" nType="0">
          <Node pos="l" depth="2" NCoef="0" IVar="-1" Cut="0.0000000000000000e+00" cType="1" res="-1.2765279039740562e-02" rms="1.8395042419433594e-01" purity="4.9620896577835083e-01" nType="-99"/>
          <Node pos="r" depth="2" NCoef="0" IVar="-1" Cut="0.0000000000000000e+00" cType="1" res="4.7309414367191494e-04" rms="1.7473891377449036e-01" purity="7.1308815479278564e-01" nType="-99"/>
        </Node>
      </Node>
    </BinaryTree>
    <BinaryTree type="DecisionTree" boostWeight="1.0000000000000000e+00" itree="816">
      <Node pos="s" depth="0" NCoef="0" IVar="2" Cut="9.9421281814575195e+00" cType="1" res="4.4511098531074822e-04" rms="1.9260869920253754e-01" purity="5.0254994630813599e-01" nType="0">
        <Node pos="l" depth="1" NCoef="0" IVar="2" Cut="7.8406772613525391e+00" cType="1" res="1.9183186814188957e-03" rms="1.9471037387847900e-01" purity="5.3662711381912231e-01" nType="0">
          <Node pos="l" depth="2" NCoef="0" IVar="-1" Cut="0.0000000000000000e+00" cType="1" res="4.4464170932769775e-03" rms="1.9567738473415375e-01" purity="5.3637188673019409e-01" nType="-99"/>
          <Node pos="r" depth="2" NCoef="0" IVar="-1" Cut="0.0000000000000000e+00" cType="1" res="-8.8848499581217766e-03" rms="1.8890863656997681e-01" purity="5.3805583715438843e-01" nType="-99"/>
        </Node>
        <Node pos="r" depth="1" NCoef="0" IVar="15" Cut="6.6773543357849121e+00" cType="1" res="-3.8905199617147446e-03" rms="1.8621832132339478e-01" purity="4.0226125717163086e-01" nType="0">
          <Node pos="l" depth="2" NCoef="0" IVar="-1" Cut="0.0000000000000000e+00" cType="1" res="-1.1013081297278404e-02" rms="1.9065423309803009e-01" purity="3.6466825008392334e-01" nType="-99"/>
          <Node pos="r" depth="2" NCoef="0" IVar="-1" Cut="0.0000000000000000e+00" cType="1" res="4.0551614947617054e-03" rms="1.8033562600612640e-01" purity="4.4881725311279297e-01" nType="-99"/>
        </Node>
      </Node>
    </BinaryTree>
    <BinaryTree type="DecisionTree" boostWeight="1.0000000000000000e+00" itree="817">
      <Node pos="s" depth="0" NCoef="0" IVar="9" Cut="1.8048755645751953e+01" cType="1" res="1.2343400157988071e-03" rms="1.9364511966705322e-01" purity="5.0133621692657471e-01" nType="0">
        <Node pos="l" depth="1" NCoef="0" IVar="6" Cut="5.9121532440185547e+00" cType="1" res="3.0858851969242096e-03" rms="1.9934843480587006e-01" purity="5.2233630418777466e-01" nType="0">
          <Node pos="l" depth="2" NCoef="0" IVar="-1" Cut="0.0000000000000000e+00" cType="1" res="2.4057668633759022e-03" rms="1.9860506057739258e-01" purity="5.1583611965179443e-01" nType="-99"/>
          <Node pos="r" depth="2" NCoef="0" IVar="-1" Cut="0.0000000000000000e+00" cType="1" res="1.8798541277647018e-02" rms="2.0719499886035919e-01" purity="5.9579861164093018e-01" nType="-99"/>
        </Node>
        <Node pos="r" depth="1" NCoef="0" IVar="23" Cut="8.5725975036621094e-01" cType="1" res="-2.7878114487975836e-03" rms="1.8057087063789368e-01" purity="4.5571726560592651e-01" nType="0">
          <Node pos="l" depth="2" NCoef="0" IVar="-1" Cut="0.0000000000000000e+00" cType="1" res="-8.3516100421547890e-03" rms="1.8766331672668457e-01" purity="1.4489564299583435e-01" nType="-99"/>
          <Node pos="r" depth="2" NCoef="0" IVar="-1" Cut="0.0000000000000000e+00" cType="1" res="4.6624923124909401e-03" rms="1.7060971260070801e-01" purity="8.6466008424758911e-01" nType="-99"/>
        </Node>
      </Node>
    </BinaryTree>
    <BinaryTree type="DecisionTree" boostWeight="1.0000000000000000e+00" itree="818">
      <Node pos="s" depth="0" NCoef="0" IVar="23" Cut="8.5750937461853027e-01" cType="1" res="1.4148050686344504e-03" rms="1.9409337639808655e-01" purity="5.0120007991790771e-01" nType="0">
        <Node pos="l" depth="1" NCoef="0" IVar="16" Cut="3.6721378564834595e-01" cType="1" res="3.6324714310467243e-03" rms="2.1234986186027527e-01" purity="2.0631922781467438e-01" nType="0">
          <Node pos="l" depth="2" NCoef="0" IVar="-1" Cut="0.0000000000000000e+00" cType="1" res="-1.4101554406806827e-03" rms="2.0931598544120789e-01" purity="1.2748281657695770e-01" nType="-99"/>
          <Node pos="r" depth="2" NCoef="0" IVar="-1" Cut="0.0000000000000000e+00" cType="1" res="8.8194860145449638e-03" rms="2.1589106321334839e-01" purity="3.0396345257759094e-01" nType="-99"/>
        </Node>
        <Node pos="r" depth="1" NCoef="0" IVar="23" Cut="9.9316304922103882e-01" cType="1" res="-1.2624266091734171e-03" rms="1.6941434144973755e-01" purity="8.5718888044357300e-01" nType="0">
          <Node pos="l" depth="2" NCoef="0" IVar="-1" Cut="0.0000000000000000e+00" cType="1" res="-6.8096937611699104e-03" rms="1.9678887724876404e-01" purity="7.9600900411605835e-01" nType="-99"/>
          <Node pos="r" depth="2" NCoef="0" IVar="-1" Cut="0.0000000000000000e+00" cType="1" res="2.4432742968201637e-02" rms="9.6428990364074707e-02" purity="9.7501856088638306e-01" nType="-99"/>
        </Node>
      </Node>
    </BinaryTree>
    <BinaryTree type="DecisionTree" boostWeight="1.0000000000000000e+00" itree="819">
      <Node pos="s" depth="0" NCoef="0" IVar="6" Cut="6.1302933692932129e+00" cType="1" res="-5.7651865063235164e-04" rms="1.9302499294281006e-01" purity="5.0066840648651123e-01" nType="0">
        <Node pos="l" depth="1" NCoef="0" IVar="1" Cut="6.7186384201049805e+00" cType="1" res="-2.2142427042126656e-03" rms="1.9650386273860931e-01" purity="5.1541817188262939e-01" nType="0">
          <Node pos="l" depth="2" NCoef="0" IVar="-1" Cut="0.0000000000000000e+00" cType="1" res="3.8142121047712862e-04" rms="1.9634982943534851e-01" purity="4.6741569042205811e-01" nType="-99"/>
          <Node pos="r" depth="2" NCoef="0" IVar="-1" Cut="0.0000000000000000e+00" cType="1" res="-7.7748196199536324e-03" rms="1.9669486582279205e-01" purity="5.9968411922454834e-01" nType="-99"/>
        </Node>
        <Node pos="r" depth="1" NCoef="0" IVar="26" Cut="9.4964019954204559e-02" cType="1" res="3.0791449826210737e-03" rms="1.8497151136398315e-01" purity="4.6774470806121826e-01" nType="0">
          <Node pos="l" depth="2" NCoef="0" IVar="-1" Cut="0.0000000000000000e+00" cType="1" res="1.3652864145115018e-03" rms="1.8479612469673157e-01" purity="5.0298845767974854e-01" nType="-99"/>
          <Node pos="r" depth="2" NCoef="0" IVar="-1" Cut="0.0000000000000000e+00" cType="1" res="1.8246542662382126e-02" rms="1.8554827570915222e-01" purity="2.7042722702026367e-01" nType="-99"/>
        </Node>
      </Node>
    </BinaryTree>
    <BinaryTree type="DecisionTree" boostWeight="1.0000000000000000e+00" itree="820">
      <Node pos="s" depth="0" NCoef="0" IVar="3" Cut="4.8269760608673096e-01" cType="1" res="-1.2848745100200176e-03" rms="1.9284695386886597e-01" purity="5.0134795904159546e-01" nType="0">
        <Node pos="l" depth="1" NCoef="0" IVar="-1" Cut="0.0000000000000000e+00" cType="1" res="-1.2233219109475613e-02" rms="1.8827717006206512e-01" purity="7.4198007583618164e-01" nType="-99"/>
        <Node pos="r" depth="1" NCoef="0" IVar="7" Cut="2.8029317855834961e+00" cType="1" res="-7.4176699854433537e-04" rms="1.9309641420841217e-01" purity="4.8730733990669250e-01" nType="0">
          <Node pos="l" depth="2" NCoef="0" IVar="-1" Cut="0.0000000000000000e+00" cType="1" res="5.0628551980480552e-04" rms="2.0510372519493103e-01" purity="5.9484499692916870e-01" nType="-99"/>
          <Node pos="r" depth="2" NCoef="0" IVar="-1" Cut="0.0000000000000000e+00" cType="1" res="-1.0600494220852852e-02" rms="1.4647915959358215e-01" purity="1.3174097239971161e-01" nType="-99"/>
        </Node>
      </Node>
    </BinaryTree>
    <BinaryTree type="DecisionTree" boostWeight="1.0000000000000000e+00" itree="821">
      <Node pos="s" depth="0" NCoef="0" IVar="11" Cut="6.2959895133972168e+00" cType="1" res="-3.6648089007940143e-05" rms="1.9385772943496704e-01" purity="5.0168597698211670e-01" nType="0">
        <Node pos="l" depth="1" NCoef="0" IVar="30" Cut="1.5234148502349854e-01" cType="1" res="-3.9002844132483006e-03" rms="1.9937436282634735e-01" purity="4.3427619338035583e-01" nType="0">
          <Node pos="l" depth="2" NCoef="0" IVar="-1" Cut="0.0000000000000000e+00" cType="1" res="-7.1446113288402557e-03" rms="1.9984956085681915e-01" purity="4.6760183572769165e-01" nType="-99"/>
          <Node pos="r" depth="2" NCoef="0" IVar="-1" Cut="0.0000000000000000e+00" cType="1" res="1.4039861969649792e-02" rms="1.9539348781108856e-01" purity="2.0511880517005920e-01" nType="-99"/>
        </Node>
        <Node pos="r" depth="1" NCoef="0" IVar="24" Cut="3.3554035425186157e-01" cType="1" res="1.3323210878297687e-03" rms="1.9184634089469910e-01" purity="5.2557069063186646e-01" nType="0">
          <Node pos="l" depth="2" NCoef="0" IVar="-1" Cut="0.0000000000000000e+00" cType="1" res="-1.2162256054580212e-02" rms="1.7413307726383209e-01" purity="1.2294112145900726e-01" nType="-99"/>
          <Node pos="r" depth="2" NCoef="0" IVar="-1" Cut="0.0000000000000000e+00" cType="1" res="2.7771315071731806e-03" rms="1.9372554123401642e-01" purity="5.7116204500198364e-01" nType="-99"/>
        </Node>
      </Node>
    </BinaryTree>
    <BinaryTree type="DecisionTree" boostWeight="1.0000000000000000e+00" itree="822">
      <Node pos="s" depth="0" NCoef="0" IVar="29" Cut="6.5375065803527832e-01" cType="1" res="-5.2544981008395553e-04" rms="1.9311863183975220e-01" purity="4.9875643849372864e-01" nType="0">
        <Node pos="l" depth="1" NCoef="0" IVar="28" Cut="5.7394003868103027e-01" cType="1" res="-1.3358133146539330e-03" rms="1.9182409346103668e-01" purity="5.1336711645126343e-01" nType="0">
          <Node pos="l" depth="2" NCoef="0" IVar="-1" Cut="0.0000000000000000e+00" cType="1" res="-6.3472525216639042e-03" rms="1.9822475314140320e-01" purity="3.0711135268211365e-01" nType="-99"/>
          <Node pos="r" depth="2" NCoef="0" IVar="-1" Cut="0.0000000000000000e+00" cType="1" res="7.0589146343991160e-04" rms="1.8886877596378326e-01" purity="6.0535222291946411e-01" nType="-99"/>
        </Node>
        <Node pos="r" depth="1" NCoef="0" IVar="24" Cut="8.1161677837371826e-01" cType="1" res="8.2737552002072334e-03" rms="2.0644895732402802e-01" purity="3.4010854363441467e-01" nType="0">
          <Node pos="l" depth="2" NCoef="0" IVar="-1" Cut="0.0000000000000000e+00" cType="1" res="-2.3559450637549162e-03" rms="1.8355935811996460e-01" purity="1.5996028482913971e-01" nType="-99"/>
          <Node pos="r" depth="2" NCoef="0" IVar="-1" Cut="0.0000000000000000e+00" cType="1" res="1.4850694686174393e-02" rms="2.2241123020648956e-01" purity="4.8109287023544312e-01" nType="-99"/>
        </Node>
      </Node>
    </BinaryTree>
    <BinaryTree type="DecisionTree" boostWeight="1.0000000000000000e+00" itree="823">
      <Node pos="s" depth="0" NCoef="0" IVar="31" Cut="1.1423423141241074e-01" cType="1" res="-1.4173156523611397e-04" rms="1.9273538887500763e-01" purity="5.0113505125045776e-01" nType="0">
        <Node pos="l" depth="1" NCoef="0" IVar="31" Cut="1.0883446782827377e-02" cType="1" res="-1.0197617812082171e-03" rms="1.9295684993267059e-01" purity="5.4552149772644043e-01" nType="0">
          <Node pos="l" depth="2" NCoef="0" IVar="-1" Cut="0.0000000000000000e+00" cType="1" res="2.3135913070291281e-03" rms="1.8659062683582306e-01" purity="6.7145800590515137e-01" nType="-99"/>
          <Node pos="r" depth="2" NCoef="0" IVar="-1" Cut="0.0000000000000000e+00" cType="1" res="-5.0690947100520134e-03" rms="2.0032908022403717e-01" purity="3.9327543973922729e-01" nType="-99"/>
        </Node>
        <Node pos="r" depth="1" NCoef="0" IVar="3" Cut="2.3924920558929443e+00" cType="1" res="5.5643911473453045e-03" rms="1.9119168817996979e-01" purity="2.1267741918563843e-01" nType="0">
          <Node pos="l" depth="2" NCoef="0" IVar="-1" Cut="0.0000000000000000e+00" cType="1" res="1.1693539097905159e-02" rms="2.4867905676364899e-01" purity="3.9266526699066162e-01" nType="-99"/>
          <Node pos="r" depth="2" NCoef="0" IVar="-1" Cut="0.0000000000000000e+00" cType="1" res="-1.1065966449677944e-02" rms="1.1421446502208710e-01" purity="4.6475887298583984e-02" nType="-99"/>
        </Node>
      </Node>
    </BinaryTree>
    <BinaryTree type="DecisionTree" boostWeight="1.0000000000000000e+00" itree="824">
      <Node pos="s" depth="0" NCoef="0" IVar="17" Cut="1.5572767257690430e+01" cType="1" res="-1.3970762956887484e-03" rms="1.9106465578079224e-01" purity="4.9633654952049255e-01" nType="0">
        <Node pos="l" depth="1" NCoef="0" IVar="25" Cut="4.5884311199188232e-02" cType="1" res="-4.2225769720971584e-03" rms="1.9008988142013550e-01" purity="2.5141841173171997e-01" nType="0">
          <Node pos="l" depth="2" NCoef="0" IVar="-1" Cut="0.0000000000000000e+00" cType="1" res="-3.0180955305695534e-02" rms="1.9613003730773926e-01" purity="4.0322333574295044e-01" nType="-99"/>
          <Node pos="r" depth="2" NCoef="0" IVar="-1" Cut="0.0000000000000000e+00" cType="1" res="-2.9208015184849501e-03" rms="1.8946591019630432e-01" purity="2.3911392688751221e-01" nType="-99"/>
        </Node>
        <Node pos="r" depth="1" NCoef="0" IVar="25" Cut="5.5344540625810623e-02" cType="1" res="4.2781606316566467e-04" rms="1.9166944921016693e-01" purity="6.5452057123184204e-01" nType="0">
          <Node pos="l" depth="2" NCoef="0" IVar="-1" Cut="0.0000000000000000e+00" cType="1" res="2.0709012169390917e-03" rms="1.8761655688285828e-01" purity="6.8107318878173828e-01" nType="-99"/>
          <Node pos="r" depth="2" NCoef="0" IVar="-1" Cut="0.0000000000000000e+00" cType="1" res="-1.1680361814796925e-02" rms="2.2663995623588562e-01" purity="3.9901939034461975e-01" nType="-99"/>
        </Node>
      </Node>
    </BinaryTree>
    <BinaryTree type="DecisionTree" boostWeight="1.0000000000000000e+00" itree="825">
      <Node pos="s" depth="0" NCoef="0" IVar="31" Cut="1.9044082611799240e-02" cType="1" res="4.1766380309127271e-04" rms="1.9161014258861542e-01" purity="4.9841612577438354e-01" nType="0">
        <Node pos="l" depth="1" NCoef="0" IVar="30" Cut="1.3331499695777893e-01" cType="1" res="-1.8011999782174826e-03" rms="1.8710842728614807e-01" purity="6.3647967576980591e-01" nType="0">
          <Node pos="l" depth="2" NCoef="0" IVar="-1" Cut="0.0000000000000000e+00" cType="1" res="-7.8499334631487727e-04" rms="1.8586590886116028e-01" purity="6.6399604082107544e-01" nType="-99"/>
          <Node pos="r" depth="2" NCoef="0" IVar="-1" Cut="0.0000000000000000e+00" cType="1" res="-1.4209368266165257e-02" rms="1.9897821545600891e-01" purity="3.5486990213394165e-01" nType="-99"/>
        </Node>
        <Node pos="r" depth="1" NCoef="0" IVar="34" Cut="3.9805635809898376e-01" cType="1" res="3.4125980455428362e-03" rms="1.9748421013355255e-01" purity="3.1206336617469788e-01" nType="0">
          <Node pos="l" depth="2" NCoef="0" IVar="-1" Cut="0.0000000000000000e+00" cType="1" res="-1.1536927893757820e-02" rms="2.0790211856365204e-01" purity="4.6030759811401367e-01" nType="-99"/>
          <Node pos="r" depth="2" NCoef="0" IVar="-1" Cut="0.0000000000000000e+00" cType="1" res="5.9121730737388134e-03" rms="1.9626109302043915e-01" purity="2.9609596729278564e-01" nType="-99"/>
        </Node>
      </Node>
    </BinaryTree>
    <BinaryTree type="DecisionTree" boostWeight="1.0000000000000000e+00" itree="826">
      <Node pos="s" depth="0" NCoef="0" IVar="26" Cut="4.7566644847393036e-02" cType="1" res="8.1307967775501311e-05" rms="1.9275760650634766e-01" purity="5.0026750564575195e-01" nType="0">
        <Node pos="l" depth="1" NCoef="0" IVar="26" Cut="2.2749532945454121e-03" cType="1" res="-1.3637384399771690e-03" rms="1.8967933952808380e-01" purity="5.6407779455184937e-01" nType="0">
          <Node pos="l" depth="2" NCoef="0" IVar="-1" Cut="0.0000000000000000e+00" cType="1" res="2.4009055923670530e-03" rms="1.8124189972877502e-01" purity="6.8209439516067505e-01" nType="-99"/>
          <Node pos="r" depth="2" NCoef="0" IVar="-1" Cut="0.0000000000000000e+00" cType="1" res="-6.6752079874277115e-03" rms="2.0102186501026154e-01" purity="3.9560583233833313e-01" nType="-99"/>
        </Node>
        <Node pos="r" depth="1" NCoef="0" IVar="32" Cut="1.3330811262130737e-01" cType="1" res="4.9981009215116501e-03" rms="2.0280487835407257e-01" purity="2.8315189480781555e-01" nType="0">
          <Node pos="l" depth="2" NCoef="0" IVar="-1" Cut="0.0000000000000000e+00" cType="1" res="9.8346397280693054e-03" rms="2.1131609380245209e-01" purity="3.2128620147705078e-01" nType="-99"/>
          <Node pos="r" depth="2" NCoef="0" IVar="-1" Cut="0.0000000000000000e+00" cType="1" res="-1.7589902505278587e-02" rms="1.5993759036064148e-01" purity="1.1825954169034958e-01" nType="-99"/>
        </Node>
      </Node>
    </BinaryTree>
    <BinaryTree type="DecisionTree" boostWeight="1.0000000000000000e+00" itree="827">
      <Node pos="s" depth="0" NCoef="0" IVar="10" Cut="7.3212242126464844e+00" cType="1" res="-6.8127713166177273e-04" rms="1.9166746735572815e-01" purity="4.9711424112319946e-01" nType="0">
        <Node pos="l" depth="1" NCoef="0" IVar="2" Cut="1.3518146514892578e+01" cType="1" res="1.3025023508816957e-03" rms="1.9040197134017944e-01" purity="5.1678282022476196e-01" nType="0">
          <Node pos="l" depth="2" NCoef="0" IVar="-1" Cut="0.0000000000000000e+00" cType="1" res="2.9432931914925575e-03" rms="1.9104452431201935e-01" purity="5.3627419471740723e-01" nType="-99"/>
          <Node pos="r" depth="2" NCoef="0" IVar="-1" Cut="0.0000000000000000e+00" cType="1" res="-9.2903766781091690e-03" rms="1.8489946424961090e-01" purity="3.5951778292655945e-01" nType="-99"/>
        </Node>
        <Node pos="r" depth="1" NCoef="0" IVar="12" Cut="7.1412448883056641e+00" cType="1" res="-4.2615272104740143e-03" rms="1.9387909770011902e-01" purity="4.6161708235740662e-01" nType="0">
          <Node pos="l" depth="2" NCoef="0" IVar="-1" Cut="0.0000000000000000e+00" cType="1" res="-1.2430164031684399e-02" rms="2.0839264988899231e-01" purity="3.0027839541435242e-01" nType="-99"/>
          <Node pos="r" depth="2" NCoef="0" IVar="-1" Cut="0.0000000000000000e+00" cType="1" res="-1.1229291558265686e-03" rms="1.8754832446575165e-01" purity="5.2727568149566650e-01" nType="-99"/>
        </Node>
      </Node>
    </BinaryTree>
    <BinaryTree type="DecisionTree" boostWeight="1.0000000000000000e+00" itree="828">
      <Node pos="s" depth="0" NCoef="0" IVar="18" Cut="-6.0615248680114746e+00" cType="1" res="4.4835780863650143e-04" rms="1.9374565780162811e-01" purity="5.0088769197463989e-01" nType="0">
        <Node pos="l" depth="1" NCoef="0" IVar="18" Cut="-1.9939128875732422e+01" cType="1" res="2.0210528746247292e-03" rms="1.9207699596881866e-01" purity="5.9212529659271240e-01" nType="0">
          <Node pos="l" depth="2" NCoef="0" IVar="-1" Cut="0.0000000000000000e+00" cType="1" res="-1.8781133694574237e-03" rms="1.7984274029731750e-01" purity="6.9614958763122559e-01" nType="-99"/>
          <Node pos="r" depth="2" NCoef="0" IVar="-1" Cut="0.0000000000000000e+00" cType="1" res="7.7408864162862301e-03" rms="2.0852397382259369e-01" purity="4.4053718447685242e-01" nType="-99"/>
        </Node>
        <Node pos="r" depth="1" NCoef="0" IVar="20" Cut="1.2270800590515137e+01" cType="1" res="-2.7203413192182779e-03" rms="1.9702666997909546e-01" purity="3.1706023216247559e-01" nType="0">
          <Node pos="l" depth="2" NCoef="0" IVar="-1" Cut="0.0000000000000000e+00" cType="1" res="-5.0782137550413609e-03" rms="1.9535017013549805e-01" purity="3.2152473926544189e-01" nType="-99"/>
          <Node pos="r" depth="2" NCoef="0" IVar="-1" Cut="0.0000000000000000e+00" cType="1" res="1.2768471613526344e-02" rms="2.0994848012924194e-01" purity="2.7999722957611084e-01" nType="-99"/>
        </Node>
      </Node>
    </BinaryTree>
    <BinaryTree type="DecisionTree" boostWeight="1.0000000000000000e+00" itree="829">
      <Node pos="s" depth="0" NCoef="0" IVar="29" Cut="7.4714350700378418e-01" cType="1" res="-1.0073180310428143e-03" rms="1.9292235374450684e-01" purity="4.9849304556846619e-01" nType="0">
        <Node pos="l" depth="1" NCoef="0" IVar="31" Cut="1.7133831977844238e-01" cType="1" res="-5.8744166744872928e-04" rms="1.9300992786884308e-01" purity="5.0584405660629272e-01" nType="0">
          <Node pos="l" depth="2" NCoef="0" IVar="-1" Cut="0.0000000000000000e+00" cType="1" res="-1.5042976010590792e-03" rms="1.9303455948829651e-01" purity="5.3178614377975464e-01" nType="-99"/>
          <Node pos="r" depth="2" NCoef="0" IVar="-1" Cut="0.0000000000000000e+00" cType="1" res="8.7869139388203621e-03" rms="1.9256521761417389e-01" purity="2.0703691244125366e-01" nType="-99"/>
        </Node>
        <Node pos="r" depth="1" NCoef="0" IVar="-1" Cut="0.0000000000000000e+00" cType="1" res="-1.2386465445160866e-02" rms="1.9063578546047211e-01" purity="3.2901605963706970e-01" nType="-99"/>
      </Node>
    </BinaryTree>
    <BinaryTree type="DecisionTree" boostWeight="1.0000000000000000e+00" itree="830">
      <Node pos="s" depth="0" NCoef="0" IVar="34" Cut="6.7460951805114746e+00" cType="1" res="2.8532679425552487e-04" rms="1.9419828057289124e-01" purity="4.9876186251640320e-01" nType="0">
        <Node pos="l" depth="1" NCoef="0" IVar="33" Cut="2.8569275140762329e-01" cType="1" res="-3.1799852149561048e-04" rms="1.9414985179901123e-01" purity="5.1349347829818726e-01" nType="0">
          <Node pos="l" depth="2" NCoef="0" IVar="-1" Cut="0.0000000000000000e+00" cType="1" res="2.5043086498044431e-04" rms="1.9446650147438049e-01" purity="5.2186447381973267e-01" nType="-99"/>
          <Node pos="r" depth="2" NCoef="0" IVar="-1" Cut="0.0000000000000000e+00" cType="1" res="-1.7655268311500549e-02" rms="1.8397179245948792e-01" purity="2.6848420500755310e-01" nType="-99"/>
        </Node>
        <Node pos="r" depth="1" NCoef="0" IVar="-1" Cut="0.0000000000000000e+00" cType="1" res="2.7381123974919319e-02" rms="1.9479849934577942e-01" purity="1.1759999394416809e-01" nType="-99"/>
      </Node>
    </BinaryTree>
    <BinaryTree type="DecisionTree" boostWeight="1.0000000000000000e+00" itree="831">
      <Node pos="s" depth="0" NCoef="0" IVar="0" Cut="1.2691097259521484e+01" cType="1" res="1.4086052715356345e-06" rms="1.9411787390708923e-01" purity="4.9867129325866699e-01" nType="0">
        <Node pos="l" depth="1" NCoef="0" IVar="0" Cut="6.0273909568786621e+00" cType="1" res="1.3238908722996712e-03" rms="1.9650740921497345e-01" purity="5.0834369659423828e-01" nType="0">
          <Node pos="l" depth="2" NCoef="0" IVar="-1" Cut="0.0000000000000000e+00" cType="1" res="5.7407245039939880e-03" rms="1.9624064862728119e-01" purity="4.8601529002189636e-01" nType="-99"/>
          <Node pos="r" depth="2" NCoef="0" IVar="-1" Cut="0.0000000000000000e+00" cType="1" res="-3.3019261900335550e-03" rms="1.9674892723560333e-01" purity="5.3532981872558594e-01" nType="-99"/>
        </Node>
        <Node pos="r" depth="1" NCoef="0" IVar="10" Cut="7.3974695205688477e+00" cType="1" res="-6.0536041855812073e-03" rms="1.8265657126903534e-01" purity="4.5438590645790100e-01" nType="0">
          <Node pos="l" depth="2" NCoef="0" IVar="-1" Cut="0.0000000000000000e+00" cType="1" res="-2.1750242012785748e-05" rms="1.8202146887779236e-01" purity="5.3792804479598999e-01" nType="-99"/>
          <Node pos="r" depth="2" NCoef="0" IVar="-1" Cut="0.0000000000000000e+00" cType="1" res="-1.7341500148177147e-02" rms="1.8314713239669800e-01" purity="3.5588663816452026e-01" nType="-99"/>
        </Node>
      </Node>
    </BinaryTree>
    <BinaryTree type="DecisionTree" boostWeight="1.0000000000000000e+00" itree="832">
      <Node pos="s" depth="0" NCoef="0" IVar="23" Cut="5.2515912055969238e-01" cType="1" res="4.0082735358737409e-04" rms="1.9288769364356995e-01" purity="5.0188630819320679e-01" nType="0">
        <Node pos="l" depth="1" NCoef="0" IVar="18" Cut="2.3607599735260010e+00" cType="1" res="-3.0478653497993946e-03" rms="1.7586089670658112e-01" purity="9.6846342086791992e-02" nType="0">
          <Node pos="l" depth="2" NCoef="0" IVar="-1" Cut="0.0000000000000000e+00" cType="1" res="-6.7340657114982605e-03" rms="1.7496739327907562e-01" purity="1.0508093237876892e-01" nType="-99"/>
          <Node pos="r" depth="2" NCoef="0" IVar="-1" Cut="0.0000000000000000e+00" cType="1" res="1.2806827202439308e-02" rms="1.7945204675197601e-01" purity="6.0117460787296295e-02" nType="-99"/>
        </Node>
        <Node pos="r" depth="1" NCoef="0" IVar="33" Cut="2.4761496484279633e-01" cType="1" res="1.6142022795975208e-03" rms="1.9851712882518768e-01" purity="6.4439404010772705e-01" nType="0">
          <Node pos="l" depth="2" NCoef="0" IVar="-1" Cut="0.0000000000000000e+00" cType="1" res="2.5940344203263521e-03" rms="1.9831496477127075e-01" purity="6.5743792057037354e-01" nType="-99"/>
          <Node pos="r" depth="2" NCoef="0" IVar="-1" Cut="0.0000000000000000e+00" cType="1" res="-1.1986818164587021e-02" rms="2.0243285596370697e-01" purity="3.5882508754730225e-01" nType="-99"/>
        </Node>
      </Node>
    </BinaryTree>
    <BinaryTree type="DecisionTree" boostWeight="1.0000000000000000e+00" itree="833">
      <Node pos="s" depth="0" NCoef="0" IVar="11" Cut="6.2493042945861816e+00" cType="1" res="-4.0806913602864370e-05" rms="1.9418160617351532e-01" purity="4.9799963831901550e-01" nType="0">
        <Node pos="l" depth="1" NCoef="0" IVar="16" Cut="3.3509206771850586e-01" cType="1" res="3.9786272682249546e-03" rms="1.9940955936908722e-01" purity="4.3099856376647949e-01" nType="0">
          <Node pos="l" depth="2" NCoef="0" IVar="-1" Cut="0.0000000000000000e+00" cType="1" res="2.0665014162659645e-02" rms="2.0429904758930206e-01" purity="2.4022851884365082e-01" nType="-99"/>
          <Node pos="r" depth="2" NCoef="0" IVar="-1" Cut="0.0000000000000000e+00" cType="1" res="1.0633666533976793e-03" rms="1.9811771810054779e-01" purity="4.7583818435668945e-01" nType="-99"/>
        </Node>
        <Node pos="r" depth="1" NCoef="0" IVar="6" Cut="5.6197032928466797e+00" cType="1" res="-1.3076167088001966e-03" rms="1.9248709082603455e-01" purity="5.1911640167236328e-01" nType="0">
          <Node pos="l" depth="2" NCoef="0" IVar="-1" Cut="0.0000000000000000e+00" cType="1" res="-4.9970624968409538e-03" rms="2.0102187991142273e-01" purity="5.5015325546264648e-01" nType="-99"/>
          <Node pos="r" depth="2" NCoef="0" IVar="-1" Cut="0.0000000000000000e+00" cType="1" res="1.8472169758751988e-03" rms="1.8381939828395844e-01" purity="4.8912101984024048e-01" nType="-99"/>
        </Node>
      </Node>
    </BinaryTree>
    <BinaryTree type="DecisionTree" boostWeight="1.0000000000000000e+00" itree="834">
      <Node pos="s" depth="0" NCoef="0" IVar="18" Cut="-1.8803543090820312e+01" cType="1" res="9.1573838290059939e-06" rms="1.9574896991252899e-01" purity="5.0140810012817383e-01" nType="0">
        <Node pos="l" depth="1" NCoef="0" IVar="16" Cut="3.9355301856994629e-01" cType="1" res="-3.1818759161978960e-03" rms="1.8301272392272949e-01" purity="6.8160742521286011e-01" nType="0">
          <Node pos="l" depth="2" NCoef="0" IVar="-1" Cut="0.0000000000000000e+00" cType="1" res="-8.1326169893145561e-03" rms="2.1460545063018799e-01" purity="4.9109116196632385e-01" nType="-99"/>
          <Node pos="r" depth="2" NCoef="0" IVar="-1" Cut="0.0000000000000000e+00" cType="1" res="3.7731169722974300e-03" rms="1.4725625514984131e-01" purity="8.5991370677947998e-01" nType="-99"/>
        </Node>
        <Node pos="r" depth="1" NCoef="0" IVar="11" Cut="7.4577369689941406e+00" cType="1" res="2.2360109724104404e-03" rms="2.0413723587989807e-01" purity="3.7565651535987854e-01" nType="0">
          <Node pos="l" depth="2" NCoef="0" IVar="-1" Cut="0.0000000000000000e+00" cType="1" res="1.2567945759656141e-06" rms="2.0438113808631897e-01" purity="4.0440151095390320e-01" nType="-99"/>
          <Node pos="r" depth="2" NCoef="0" IVar="-1" Cut="0.0000000000000000e+00" cType="1" res="1.8891042098402977e-02" rms="2.0242647826671600e-01" purity="2.2317962348461151e-01" nType="-99"/>
        </Node>
      </Node>
    </BinaryTree>
    <BinaryTree type="DecisionTree" boostWeight="1.0000000000000000e+00" itree="835">
      <Node pos="s" depth="0" NCoef="0" IVar="16" Cut="2.5824931263923645e-01" cType="1" res="8.4108876762911677e-04" rms="1.9384899735450745e-01" purity="5.0243824720382690e-01" nType="0">
        <Node pos="l" depth="1" NCoef="0" IVar="16" Cut="2.3333406448364258e-01" cType="1" res="8.1112198531627655e-03" rms="1.9451817870140076e-01" purity="1.8511781096458435e-01" nType="0">
          <Node pos="l" depth="2" NCoef="0" IVar="-1" Cut="0.0000000000000000e+00" cType="1" res="-3.9164088666439056e-03" rms="1.6812889277935028e-01" purity="1.2245218455791473e-01" nType="-99"/>
          <Node pos="r" depth="2" NCoef="0" IVar="-1" Cut="0.0000000000000000e+00" cType="1" res="2.8109325096011162e-02" rms="2.3062965273857117e-01" purity="2.8888672590255737e-01" nType="-99"/>
        </Node>
        <Node pos="r" depth="1" NCoef="0" IVar="24" Cut="7.6218044757843018e-01" cType="1" res="-1.0238734830636531e-04" rms="1.9374199211597443e-01" purity="5.4361826181411743e-01" nType="0">
          <Node pos="l" depth="2" NCoef="0" IVar="-1" Cut="0.0000000000000000e+00" cType="1" res="4.3016141280531883e-03" rms="1.9873329997062683e-01" purity="2.5844746828079224e-01" nType="-99"/>
          <Node pos="r" depth="2" NCoef="0" IVar="-1" Cut="0.0000000000000000e+00" cType="1" res="-2.1012560464441776e-03" rms="1.9144195318222046e-01" purity="6.7127674818038940e-01" nType="-99"/>
        </Node>
      </Node>
    </BinaryTree>
    <BinaryTree type="DecisionTree" boostWeight="1.0000000000000000e+00" itree="836">
      <Node pos="s" depth="0" NCoef="0" IVar="17" Cut="1.5583748817443848e+01" cType="1" res="4.8632279504090548e-04" rms="1.9371916353702545e-01" purity="5.0159591436386108e-01" nType="0">
        <Node pos="l" depth="1" NCoef="0" IVar="23" Cut="9.5238584280014038e-01" cType="1" res="-3.0947509221732616e-03" rms="1.9317393004894257e-01" purity="2.5359463691711426e-01" nType="0">
          <Node pos="l" depth="2" NCoef="0" IVar="-1" Cut="0.0000000000000000e+00" cType="1" res="-1.4594321837648749e-03" rms="1.8653029203414917e-01" purity="1.4232200384140015e-01" nType="-99"/>
          <Node pos="r" depth="2" NCoef="0" IVar="-1" Cut="0.0000000000000000e+00" cType="1" res="-1.3814401812851429e-02" rms="2.2232379019260406e-01" purity="7.9259598255157471e-01" nType="-99"/>
        </Node>
        <Node pos="r" depth="1" NCoef="0" IVar="34" Cut="1.1909471750259399e+00" cType="1" res="2.7735936455428600e-03" rms="1.9403202831745148e-01" purity="6.5999704599380493e-01" nType="0">
          <Node pos="l" depth="2" NCoef="0" IVar="-1" Cut="0.0000000000000000e+00" cType="1" res="-1.6824210761114955e-03" rms="1.7685699462890625e-01" purity="7.4500453472137451e-01" nType="-99"/>
          <Node pos="r" depth="2" NCoef="0" IVar="-1" Cut="0.0000000000000000e+00" cType="1" res="6.5441089682281017e-03" rms="2.0661540329456329e-01" purity="5.9241002798080444e-01" nType="-99"/>
        </Node>
      </Node>
    </BinaryTree>
    <BinaryTree type="DecisionTree" boostWeight="1.0000000000000000e+00" itree="837">
      <Node pos="s" depth="0" NCoef="0" IVar="34" Cut="1.9852203130722046e+00" cType="1" res="-7.2465190896764398e-04" rms="1.9106677174568176e-01" purity="5.0139921903610229e-01" nType="0">
        <Node pos="l" depth="1" NCoef="0" IVar="29" Cut="6.0403829813003540e-01" cType="1" res="1.4001789968460798e-03" rms="1.9188839197158813e-01" purity="6.2829250097274780e-01" nType="0">
          <Node pos="l" depth="2" NCoef="0" IVar="-1" Cut="0.0000000000000000e+00" cType="1" res="2.9117430094629526e-03" rms="1.8983334302902222e-01" purity="6.4863789081573486e-01" nType="-99"/>
          <Node pos="r" depth="2" NCoef="0" IVar="-1" Cut="0.0000000000000000e+00" cType="1" res="-7.9740639775991440e-03" rms="2.0949485898017883e-01" purity="4.4244512915611267e-01" nType="-99"/>
        </Node>
        <Node pos="r" depth="1" NCoef="0" IVar="1" Cut="9.3705787658691406e+00" cType="1" res="-3.6680607590824366e-03" rms="1.8988348543643951e-01" purity="3.2562097907066345e-01" nType="0">
          <Node pos="l" depth="2" NCoef="0" IVar="-1" Cut="0.0000000000000000e+00" cType="1" res="-8.2191945984959602e-03" rms="1.9054347276687622e-01" purity="2.9802110791206360e-01" nType="-99"/>
          <Node pos="r" depth="2" NCoef="0" IVar="-1" Cut="0.0000000000000000e+00" cType="1" res="4.5642843469977379e-03" rms="1.8796175718307495e-01" purity="3.9747592806816101e-01" nType="-99"/>
        </Node>
      </Node>
    </BinaryTree>
    <BinaryTree type="DecisionTree" boostWeight="1.0000000000000000e+00" itree="838">
      <Node pos="s" depth="0" NCoef="0" IVar="12" Cut="6.3189110755920410e+00" cType="1" res="1.4267055084928870e-03" rms="1.9481207430362701e-01" purity="5.0201565027236938e-01" nType="0">
        <Node pos="l" depth="1" NCoef="0" IVar="-1" Cut="0.0000000000000000e+00" cType="1" res="-1.1653145775198936e-02" rms="1.8488484621047974e-01" purity="2.6777046918869019e-01" nType="-99"/>
        <Node pos="r" depth="1" NCoef="0" IVar="1" Cut="2.7128564834594727e+01" cType="1" res="1.9660391844809055e-03" rms="1.9524610042572021e-01" purity="5.1294237375259399e-01" nType="0">
          <Node pos="l" depth="2" NCoef="0" IVar="-1" Cut="0.0000000000000000e+00" cType="1" res="2.9082486871629953e-03" rms="1.9753342866897583e-01" purity="5.2077299356460571e-01" nType="-99"/>
          <Node pos="r" depth="2" NCoef="0" IVar="-1" Cut="0.0000000000000000e+00" cType="1" res="-1.2817651964724064e-02" rms="1.3819937407970428e-01" purity="3.4810024499893188e-01" nType="-99"/>
        </Node>
      </Node>
    </BinaryTree>
    <BinaryTree type="DecisionTree" boostWeight="1.0000000000000000e+00" itree="839">
      <Node pos="s" depth="0" NCoef="0" IVar="28" Cut="1.4645422995090485e-01" cType="1" res="-1.2311503523960710e-03" rms="1.9231231510639191e-01" purity="4.9619701504707336e-01" nType="0">
        <Node pos="l" depth="1" NCoef="0" IVar="-1" Cut="0.0000000000000000e+00" cType="1" res="1.2734251096844673e-02" rms="2.0248223841190338e-01" purity="3.1186604499816895e-01" nType="-99"/>
        <Node pos="r" depth="1" NCoef="0" IVar="24" Cut="4.2954906821250916e-01" cType="1" res="-1.8537084106355906e-03" rms="1.9173908233642578e-01" purity="5.0595027208328247e-01" nType="0">
          <Node pos="l" depth="2" NCoef="0" IVar="-1" Cut="0.0000000000000000e+00" cType="1" res="6.4775380305945873e-03" rms="1.8087580800056458e-01" purity="1.6043454408645630e-01" nType="-99"/>
          <Node pos="r" depth="2" NCoef="0" IVar="-1" Cut="0.0000000000000000e+00" cType="1" res="-3.4789007622748613e-03" rms="1.9363953173160553e-01" purity="5.6915020942687988e-01" nType="-99"/>
        </Node>
      </Node>
    </BinaryTree>
    <BinaryTree type="DecisionTree" boostWeight="1.0000000000000000e+00" itree="840">
      <Node pos="s" depth="0" NCoef="0" IVar="31" Cut="1.1420467495918274e-01" cType="1" res="8.7775115389376879e-04" rms="1.9141794741153717e-01" purity="4.9993905425071716e-01" nType="0">
        <Node pos="l" depth="1" NCoef="0" IVar="23" Cut="1.9139173626899719e-01" cType="1" res="1.9515205640345812e-03" rms="1.9251927733421326e-01" purity="5.4434871673583984e-01" nType="0">
          <Node pos="l" depth="2" NCoef="0" IVar="-1" Cut="0.0000000000000000e+00" cType="1" res="-1.7650863155722618e-02" rms="1.3255630433559418e-01" purity="4.6519510447978973e-02" nType="-99"/>
          <Node pos="r" depth="2" NCoef="0" IVar="-1" Cut="0.0000000000000000e+00" cType="1" res="3.1264920253306627e-03" rms="1.9555903971195221e-01" purity="5.7471013069152832e-01" nType="-99"/>
        </Node>
        <Node pos="r" depth="1" NCoef="0" IVar="10" Cut="7.2727937698364258e+00" cType="1" res="-6.3819056376814842e-03" rms="1.8363426625728607e-01" purity="1.9968982040882111e-01" nType="0">
          <Node pos="l" depth="2" NCoef="0" IVar="-1" Cut="0.0000000000000000e+00" cType="1" res="-1.5712844207882881e-02" rms="1.7821189761161804e-01" purity="2.0185397565364838e-01" nType="-99"/>
          <Node pos="r" depth="2" NCoef="0" IVar="-1" Cut="0.0000000000000000e+00" cType="1" res="1.2120783329010010e-02" rms="1.9629916548728943e-01" purity="1.9402310252189636e-01" nType="-99"/>
        </Node>
      </Node>
    </BinaryTree>
    <BinaryTree type="DecisionTree" boostWeight="1.0000000000000000e+00" itree="841">
      <Node pos="s" depth="0" NCoef="0" IVar="27" Cut="6.6658961772918701e-01" cType="1" res="-9.1242935741320252e-04" rms="1.9147028028964996e-01" purity="4.9879014492034912e-01" nType="0">
        <Node pos="l" depth="1" NCoef="0" IVar="16" Cut="5.4495102167129517e-01" cType="1" res="-6.5664323046803474e-03" rms="1.8204142153263092e-01" purity="1.7824789881706238e-01" nType="0">
          <Node pos="l" depth="2" NCoef="0" IVar="-1" Cut="0.0000000000000000e+00" cType="1" res="-4.6280985698103905e-03" rms="1.8346494436264038e-01" purity="1.5889582037925720e-01" nType="-99"/>
          <Node pos="r" depth="2" NCoef="0" IVar="-1" Cut="0.0000000000000000e+00" cType="1" res="-2.6590965688228607e-02" rms="1.7486731708049774e-01" purity="2.6417872309684753e-01" nType="-99"/>
        </Node>
        <Node pos="r" depth="1" NCoef="0" IVar="27" Cut="9.8377460241317749e-01" cType="1" res="3.0088765197433531e-04" rms="1.9341222941875458e-01" purity="5.6757664680480957e-01" nType="0">
          <Node pos="l" depth="2" NCoef="0" IVar="-1" Cut="0.0000000000000000e+00" cType="1" res="-4.7568990848958492e-03" rms="2.0686015486717224e-01" purity="4.0034669637680054e-01" nType="-99"/>
          <Node pos="r" depth="2" NCoef="0" IVar="-1" Cut="0.0000000000000000e+00" cType="1" res="9.3540176749229431e-03" rms="1.7300318181514740e-01" purity="7.9767549037933350e-01" nType="-99"/>
        </Node>
      </Node>
    </BinaryTree>
    <BinaryTree type="DecisionTree" boostWeight="1.0000000000000000e+00" itree="842">
      <Node pos="s" depth="0" NCoef="0" IVar="34" Cut="4.3651380538940430e+00" cType="1" res="-7.4660748941823840e-04" rms="1.9138929247856140e-01" purity="5.0150686502456665e-01" nType="0">
        <Node pos="l" depth="1" NCoef="0" IVar="23" Cut="6.6720682382583618e-01" cType="1" res="2.0629059872590005e-04" rms="1.9472222030162811e-01" purity="5.6538802385330200e-01" nType="0">
          <Node pos="l" depth="2" NCoef="0" IVar="-1" Cut="0.0000000000000000e+00" cType="1" res="3.7394866812974215e-03" rms="2.0794495940208435e-01" purity="1.5657086670398712e-01" nType="-99"/>
          <Node pos="r" depth="2" NCoef="0" IVar="-1" Cut="0.0000000000000000e+00" cType="1" res="-2.0164004527032375e-03" rms="1.8750379979610443e-01" purity="7.7652126550674438e-01" nType="-99"/>
        </Node>
        <Node pos="r" depth="1" NCoef="0" IVar="3" Cut="1.9349584579467773e+00" cType="1" res="-5.8250692673027515e-03" rms="1.7245522141456604e-01" purity="1.6105310618877411e-01" nType="0">
          <Node pos="l" depth="2" NCoef="0" IVar="-1" Cut="0.0000000000000000e+00" cType="1" res="-1.9096249714493752e-02" rms="2.4011127650737762e-01" purity="3.4509178996086121e-01" nType="-99"/>
          <Node pos="r" depth="2" NCoef="0" IVar="-1" Cut="0.0000000000000000e+00" cType="1" res="6.5466384403407574e-03" rms="1.3112933933734894e-01" purity="7.9919002950191498e-02" nType="-99"/>
        </Node>
      </Node>
    </BinaryTree>
    <BinaryTree type="DecisionTree" boostWeight="1.0000000000000000e+00" itree="843">
      <Node pos="s" depth="0" NCoef="0" IVar="29" Cut="7.9383999109268188e-01" cType="1" res="-4.0463355253450572e-04" rms="1.9075894355773926e-01" purity="4.9979013204574585e-01" nType="0">
        <Node pos="l" depth="1" NCoef="0" IVar="25" Cut="6.0156369209289551e-01" cType="1" res="-8.7012053700163960e-04" rms="1.8979971110820770e-01" purity="5.0255811214447021e-01" nType="0">
          <Node pos="l" depth="2" NCoef="0" IVar="-1" Cut="0.0000000000000000e+00" cType="1" res="-1.8899110145866871e-03" rms="1.9014611840248108e-01" purity="5.2430766820907593e-01" nType="-99"/>
          <Node pos="r" depth="2" NCoef="0" IVar="-1" Cut="0.0000000000000000e+00" cType="1" res="1.4544718898832798e-02" rms="1.8386349081993103e-01" purity="1.5754134953022003e-01" nType="-99"/>
        </Node>
        <Node pos="r" depth="1" NCoef="0" IVar="-1" Cut="0.0000000000000000e+00" cType="1" res="1.7324591055512428e-02" rms="2.2220030426979065e-01" purity="3.9910361170768738e-01" nType="-99"/>
      </Node>
    </BinaryTree>
    <BinaryTree type="DecisionTree" boostWeight="1.0000000000000000e+00" itree="844">
      <Node pos="s" depth="0" NCoef="0" IVar="19" Cut="1.5237701416015625e+01" cType="1" res="7.5917009962722659e-04" rms="1.9155424833297729e-01" purity="5.0040936470031738e-01" nType="0">
        <Node pos="l" depth="1" NCoef="0" IVar="31" Cut="1.9059265032410622e-02" cType="1" res="3.0236574821174145e-03" rms="1.9927403330802917e-01" purity="3.5135367512702942e-01" nType="0">
          <Node pos="l" depth="2" NCoef="0" IVar="-1" Cut="0.0000000000000000e+00" cType="1" res="-8.0272648483514786e-04" rms="2.0320978760719299e-01" purity="4.7573053836822510e-01" nType="-99"/>
          <Node pos="r" depth="2" NCoef="0" IVar="-1" Cut="0.0000000000000000e+00" cType="1" res="8.4385359659790993e-03" rms="1.9517929852008820e-01" purity="2.2675856947898865e-01" nType="-99"/>
        </Node>
        <Node pos="r" depth="1" NCoef="0" IVar="31" Cut="1.9045529887080193e-02" cType="1" res="-1.7293734708800912e-03" rms="1.8266242742538452e-01" purity="6.6421324014663696e-01" nType="0">
          <Node pos="l" depth="2" NCoef="0" IVar="-1" Cut="0.0000000000000000e+00" cType="1" res="2.7290470898151398e-03" rms="1.6924436390399933e-01" purity="7.7567023038864136e-01" nType="-99"/>
          <Node pos="r" depth="2" NCoef="0" IVar="-1" Cut="0.0000000000000000e+00" cType="1" res="-9.6215913072228432e-03" rms="2.0706757903099060e-01" purity="4.3774428963661194e-01" nType="-99"/>
        </Node>
      </Node>
    </BinaryTree>
    <BinaryTree type="DecisionTree" boostWeight="1.0000000000000000e+00" itree="845">
      <Node pos="s" depth="0" NCoef="0" IVar="14" Cut="7.9672937393188477e+00" cType="1" res="-5.4558389820158482e-05" rms="1.9420148432254791e-01" purity="5.0025963783264160e-01" nType="0">
        <Node pos="l" depth="1" NCoef="0" IVar="13" Cut="7.7784395217895508e+00" cType="1" res="-4.3962625786662102e-03" rms="1.9285590946674347e-01" purity="4.4495585560798645e-01" nType="0">
          <Node pos="l" depth="2" NCoef="0" IVar="-1" Cut="0.0000000000000000e+00" cType="1" res="-1.7198643181473017e-03" rms="1.9085112214088440e-01" purity="4.2942836880683899e-01" nType="-99"/>
          <Node pos="r" depth="2" NCoef="0" IVar="-1" Cut="0.0000000000000000e+00" cType="1" res="-2.6804875582456589e-02" rms="2.0491962134838104e-01" purity="5.5165439844131470e-01" nType="-99"/>
        </Node>
        <Node pos="r" depth="1" NCoef="0" IVar="23" Cut="7.1456038951873779e-01" cType="1" res="1.5612727729603648e-03" rms="1.9467516243457794e-01" purity="5.2084177732467651e-01" nType="0">
          <Node pos="l" depth="2" NCoef="0" IVar="-1" Cut="0.0000000000000000e+00" cType="1" res="6.6387965343892574e-03" rms="2.0133036375045776e-01" purity="1.2293200194835663e-01" nType="-99"/>
          <Node pos="r" depth="2" NCoef="0" IVar="-1" Cut="0.0000000000000000e+00" cType="1" res="-1.4816421316936612e-03" rms="1.9016870856285095e-01" purity="7.7980184555053711e-01" nType="-99"/>
        </Node>
      </Node>
    </BinaryTree>
    <BinaryTree type="DecisionTree" boostWeight="1.0000000000000000e+00" itree="846">
      <Node pos="s" depth="0" NCoef="0" IVar="24" Cut="8.5719263553619385e-01" cType="1" res="1.2514513218775392e-03" rms="1.9482719898223877e-01" purity="4.9781137704849243e-01" nType="0">
        <Node pos="l" depth="1" NCoef="0" IVar="31" Cut="2.0938092470169067e-01" cType="1" res="4.6630259603261948e-03" rms="1.9710966944694519e-01" purity="2.7162429690361023e-01" nType="0">
          <Node pos="l" depth="2" NCoef="0" IVar="-1" Cut="0.0000000000000000e+00" cType="1" res="7.3973047547042370e-03" rms="2.0091153681278229e-01" purity="2.8973627090454102e-01" nType="-99"/>
          <Node pos="r" depth="2" NCoef="0" IVar="-1" Cut="0.0000000000000000e+00" cType="1" res="-1.3512142002582550e-02" rms="1.6274762153625488e-01" purity="1.2576855719089508e-01" nType="-99"/>
        </Node>
        <Node pos="r" depth="1" NCoef="0" IVar="34" Cut="5.5506610870361328e+00" cType="1" res="-1.0713587980717421e-03" rms="1.9322326779365540e-01" purity="6.5181350708007812e-01" nType="0">
          <Node pos="l" depth="2" NCoef="0" IVar="-1" Cut="0.0000000000000000e+00" cType="1" res="-2.0721989858429879e-04" rms="1.9249436259269714e-01" purity="6.7599189281463623e-01" nType="-99"/>
          <Node pos="r" depth="2" NCoef="0" IVar="-1" Cut="0.0000000000000000e+00" cType="1" res="-1.7803834751248360e-02" rms="2.0508280396461487e-01" purity="2.2256731986999512e-01" nType="-99"/>
        </Node>
      </Node>
    </BinaryTree>
    <BinaryTree type="DecisionTree" boostWeight="1.0000000000000000e+00" itree="847">
      <Node pos="s" depth="0" NCoef="0" IVar="0" Cut="1.1379595756530762e+01" cType="1" res="4.4980560778640211e-04" rms="1.9304598867893219e-01" purity="5.0519251823425293e-01" nType="0">
        <Node pos="l" depth="1" NCoef="0" IVar="0" Cut="7.6569819450378418e+00" cType="1" res="-1.0386693757027388e-03" rms="1.9443257153034210e-01" purity="5.1036524772644043e-01" nType="0">
          <Node pos="l" depth="2" NCoef="0" IVar="-1" Cut="0.0000000000000000e+00" cType="1" res="1.1110678315162659e-03" rms="1.9605791568756104e-01" purity="5.0116473436355591e-01" nType="-99"/>
          <Node pos="r" depth="2" NCoef="0" IVar="-1" Cut="0.0000000000000000e+00" cType="1" res="-8.3993813022971153e-03" rms="1.8923549354076385e-01" purity="5.3856962919235229e-01" nType="-99"/>
        </Node>
        <Node pos="r" depth="1" NCoef="0" IVar="30" Cut="1.3334900140762329e-01" cType="1" res="5.5170250125229359e-03" rms="1.8816085159778595e-01" purity="4.8758316040039062e-01" nType="0">
          <Node pos="l" depth="2" NCoef="0" IVar="-1" Cut="0.0000000000000000e+00" cType="1" res="4.3811611831188202e-03" rms="1.8626715242862701e-01" purity="5.1570516824722290e-01" nType="-99"/>
          <Node pos="r" depth="2" NCoef="0" IVar="-1" Cut="0.0000000000000000e+00" cType="1" res="2.3945987224578857e-02" rms="2.0157319307327271e-01" purity="2.6899990439414978e-01" nType="-99"/>
        </Node>
      </Node>
    </BinaryTree>
    <BinaryTree type="DecisionTree" boostWeight="1.0000000000000000e+00" itree="848">
      <Node pos="s" depth="0" NCoef="0" IVar="6" Cut="6.7199349403381348e+00" cType="1" res="-4.9906480126082897e-04" rms="1.9267733395099640e-01" purity="4.9833607673645020e-01" nType="0">
        <Node pos="l" depth="1" NCoef="0" IVar="28" Cut="2.9004591703414917e-01" cType="1" res="6.4393837237730622e-04" rms="1.9582028687000275e-01" purity="5.2074962854385376e-01" nType="0">
          <Node pos="l" depth="2" NCoef="0" IVar="-1" Cut="0.0000000000000000e+00" cType="1" res="8.1219030544161797e-03" rms="2.0806808769702911e-01" purity="3.2285615801811218e-01" nType="-99"/>
          <Node pos="r" depth="2" NCoef="0" IVar="-1" Cut="0.0000000000000000e+00" cType="1" res="-9.1635528951883316e-04" rms="1.9325661659240723e-01" purity="5.6017965078353882e-01" nType="-99"/>
        </Node>
        <Node pos="r" depth="1" NCoef="0" IVar="14" Cut="8.7010202407836914e+00" cType="1" res="-5.8152051642537117e-03" rms="1.7723199725151062e-01" purity="3.9409005641937256e-01" nType="0">
          <Node pos="l" depth="2" NCoef="0" IVar="-1" Cut="0.0000000000000000e+00" cType="1" res="-1.4735867269337177e-02" rms="1.8025641143321991e-01" purity="3.7156963348388672e-01" nType="-99"/>
          <Node pos="r" depth="2" NCoef="0" IVar="-1" Cut="0.0000000000000000e+00" cType="1" res="3.0064652673900127e-03" rms="1.7288541793823242e-01" purity="4.2352566123008728e-01" nType="-99"/>
        </Node>
      </Node>
    </BinaryTree>
    <BinaryTree type="DecisionTree" boostWeight="1.0000000000000000e+00" itree="849">
      <Node pos="s" depth="0" NCoef="0" IVar="23" Cut="6.6701173782348633e-01" cType="1" res="8.3308470493648201e-05" rms="1.9196464121341705e-01" purity="4.9761113524436951e-01" nType="0">
        <Node pos="l" depth="1" NCoef="0" IVar="7" Cut="2.0707044601440430e+00" cType="1" res="-2.8871279209852219e-03" rms="1.8726821243762970e-01" purity="1.2675008177757263e-01" nType="0">
          <Node pos="l" depth="2" NCoef="0" IVar="-1" Cut="0.0000000000000000e+00" cType="1" res="-6.4912377856671810e-03" rms="2.3963102698326111e-01" purity="2.3008576035499573e-01" nType="-99"/>
          <Node pos="r" depth="2" NCoef="0" IVar="-1" Cut="0.0000000000000000e+00" cType="1" res="5.5182082578539848e-03" rms="1.3296602666378021e-01" purity="4.6626426279544830e-02" nType="-99"/>
        </Node>
        <Node pos="r" depth="1" NCoef="0" IVar="1" Cut="1.8580854415893555e+01" cType="1" res="1.8946762429550290e-03" rms="1.9475072622299194e-01" purity="7.2376155853271484e-01" nType="0">
          <Node pos="l" depth="2" NCoef="0" IVar="-1" Cut="0.0000000000000000e+00" cType="1" res="6.5198558149859309e-04" rms="1.9528245925903320e-01" purity="7.2699999809265137e-01" nType="-99"/>
          <Node pos="r" depth="2" NCoef="0" IVar="-1" Cut="0.0000000000000000e+00" cType="1" res="1.5363532118499279e-02" rms="1.8958635628223419e-01" purity="6.9526761770248413e-01" nType="-99"/>
        </Node>
      </Node>
    </BinaryTree>
    <BinaryTree type="DecisionTree" boostWeight="1.0000000000000000e+00" itree="850">
      <Node pos="s" depth="0" NCoef="0" IVar="17" Cut="1.6679727554321289e+01" cType="1" res="4.9919186858460307e-04" rms="1.9261333346366882e-01" purity="5.0051325559616089e-01" nType="0">
        <Node pos="l" depth="1" NCoef="0" IVar="25" Cut="4.6255223453044891e-02" cType="1" res="-2.4913928937166929e-03" rms="1.9216714799404144e-01" purity="2.6561641693115234e-01" nType="0">
          <Node pos="l" depth="2" NCoef="0" IVar="-1" Cut="0.0000000000000000e+00" cType="1" res="-1.5397173352539539e-02" rms="2.0587119460105896e-01" purity="4.2450088262557983e-01" nType="-99"/>
          <Node pos="r" depth="2" NCoef="0" IVar="-1" Cut="0.0000000000000000e+00" cType="1" res="-1.3845872599631548e-03" rms="1.9048139452934265e-01" purity="2.4736121296882629e-01" nType="-99"/>
        </Node>
        <Node pos="r" depth="1" NCoef="0" IVar="7" Cut="1.8713998794555664e+00" cType="1" res="2.6784124784171581e-03" rms="1.9290861487388611e-01" purity="6.7168104648590088e-01" nType="0">
          <Node pos="l" depth="2" NCoef="0" IVar="-1" Cut="0.0000000000000000e+00" cType="1" res="-2.2684819123242050e-04" rms="1.8848115205764771e-01" purity="8.0387681722640991e-01" nType="-99"/>
          <Node pos="r" depth="2" NCoef="0" IVar="-1" Cut="0.0000000000000000e+00" cType="1" res="9.5675084739923477e-03" rms="2.0078672468662262e-01" purity="4.2543736100196838e-01" nType="-99"/>
        </Node>
      </Node>
    </BinaryTree>
    <BinaryTree type="DecisionTree" boostWeight="1.0000000000000000e+00" itree="851">
      <Node pos="s" depth="0" NCoef="0" IVar="26" Cut="2.8534740209579468e-01" cType="1" res="4.3655905756168067e-04" rms="1.9324447214603424e-01" purity="5.0402396917343140e-01" nType="0">
        <Node pos="l" depth="1" NCoef="0" IVar="11" Cut="5.7006063461303711e+00" cType="1" res="-3.0266636167652905e-04" rms="1.9275733828544617e-01" purity="5.3000509738922119e-01" nType="0">
          <Node pos="l" depth="2" NCoef="0" IVar="-1" Cut="0.0000000000000000e+00" cType="1" res="-2.2124681621789932e-02" rms="1.8613563477993011e-01" purity="3.2903617620468140e-01" nType="-99"/>
          <Node pos="r" depth="2" NCoef="0" IVar="-1" Cut="0.0000000000000000e+00" cType="1" res="5.2243692334741354e-04" rms="1.9298838078975677e-01" purity="5.3824961185455322e-01" nType="-99"/>
        </Node>
        <Node pos="r" depth="1" NCoef="0" IVar="19" Cut="7.7722587585449219e+00" cType="1" res="7.8785177320241928e-03" rms="1.9792807102203369e-01" purity="2.4246518313884735e-01" nType="0">
          <Node pos="l" depth="2" NCoef="0" IVar="-1" Cut="0.0000000000000000e+00" cType="1" res="-1.0988349094986916e-02" rms="1.5701530873775482e-01" purity="1.1327145993709564e-01" nType="-99"/>
          <Node pos="r" depth="2" NCoef="0" IVar="-1" Cut="0.0000000000000000e+00" cType="1" res="1.7148923128843307e-02" rms="2.1857558190822601e-01" purity="3.2074302434921265e-01" nType="-99"/>
        </Node>
      </Node>
    </BinaryTree>
    <BinaryTree type="DecisionTree" boostWeight="1.0000000000000000e+00" itree="852">
      <Node pos="s" depth="0" NCoef="0" IVar="7" Cut="3.2022862434387207e+00" cType="1" res="1.0300854919478297e-03" rms="1.9308358430862427e-01" purity="5.0476515293121338e-01" nType="0">
        <Node pos="l" depth="1" NCoef="0" IVar="25" Cut="4.1628777980804443e-01" cType="1" res="1.8386075971648097e-03" rms="1.9714343547821045e-01" purity="5.6053978204727173e-01" nType="0">
          <Node pos="l" depth="2" NCoef="0" IVar="-1" Cut="0.0000000000000000e+00" cType="1" res="1.0473239235579967e-03" rms="1.9606259465217590e-01" purity="6.0247784852981567e-01" nType="-99"/>
          <Node pos="r" depth="2" NCoef="0" IVar="-1" Cut="0.0000000000000000e+00" cType="1" res="1.1587478220462799e-02" rms="2.0567181706428528e-01" purity="2.1527257561683655e-01" nType="-99"/>
        </Node>
        <Node pos="r" depth="1" NCoef="0" IVar="15" Cut="6.7542104721069336e+00" cType="1" res="-3.8259199354797602e-03" rms="1.6654917597770691e-01" purity="1.6978108882904053e-01" nType="0">
          <Node pos="l" depth="2" NCoef="0" IVar="-1" Cut="0.0000000000000000e+00" cType="1" res="7.3374630883336067e-03" rms="1.7807638645172119e-01" purity="2.4777568876743317e-01" nType="-99"/>
          <Node pos="r" depth="2" NCoef="0" IVar="-1" Cut="0.0000000000000000e+00" cType="1" res="-3.6872956901788712e-02" rms="1.4805613458156586e-01" purity="6.0706187039613724e-02" nType="-99"/>
        </Node>
      </Node>
    </BinaryTree>
    <BinaryTree type="DecisionTree" boostWeight="1.0000000000000000e+00" itree="853">
      <Node pos="s" depth="0" NCoef="0" IVar="13" Cut="8.8265953063964844e+00" cType="1" res="-1.1473236372694373e-03" rms="1.9143117964267731e-01" purity="4.9962973594665527e-01" nType="0">
        <Node pos="l" depth="1" NCoef="0" IVar="25" Cut="6.8894094228744507e-01" cType="1" res="-2.0739146566484123e-04" rms="1.9328290224075317e-01" purity="4.9489098787307739e-01" nType="0">
          <Node pos="l" depth="2" NCoef="0" IVar="-1" Cut="0.0000000000000000e+00" cType="1" res="-7.9885701416060328e-04" rms="1.9380515813827515e-01" purity="5.0804108381271362e-01" nType="-99"/>
          <Node pos="r" depth="2" NCoef="0" IVar="-1" Cut="0.0000000000000000e+00" cType="1" res="2.0348135381937027e-02" rms="1.7798700928688049e-01" purity="1.3654635846614838e-01" nType="-99"/>
        </Node>
        <Node pos="r" depth="1" NCoef="0" IVar="20" Cut="-2.8940183639526367e+01" cType="1" res="-8.5537480190396309e-03" rms="1.7598484456539154e-01" purity="5.3696978092193604e-01" nType="0">
          <Node pos="l" depth="2" NCoef="0" IVar="-1" Cut="0.0000000000000000e+00" cType="1" res="4.7172512859106064e-03" rms="1.5360316634178162e-01" purity="7.9832226037979126e-01" nType="-99"/>
          <Node pos="r" depth="2" NCoef="0" IVar="-1" Cut="0.0000000000000000e+00" cType="1" res="-1.9857505336403847e-02" rms="1.8773259222507477e-01" purity="3.8141027092933655e-01" nType="-99"/>
        </Node>
      </Node>
    </BinaryTree>
    <BinaryTree type="DecisionTree" boostWeight="1.0000000000000000e+00" itree="854">
      <Node pos="s" depth="0" NCoef="0" IVar="33" Cut="2.2856815159320831e-01" cType="1" res="3.9740037755109370e-04" rms="1.9245135784149170e-01" purity="4.9998536705970764e-01" nType="0">
        <Node pos="l" depth="1" NCoef="0" IVar="29" Cut="3.7171635031700134e-01" cType="1" res="-2.5762719451449811e-04" rms="1.9178314507007599e-01" purity="5.1517629623413086e-01" nType="0">
          <Node pos="l" depth="2" NCoef="0" IVar="-1" Cut="0.0000000000000000e+00" cType="1" res="1.5173150459304452e-03" rms="1.9119945168495178e-01" purity="5.8411645889282227e-01" nType="-99"/>
          <Node pos="r" depth="2" NCoef="0" IVar="-1" Cut="0.0000000000000000e+00" cType="1" res="-5.2929930388927460e-03" rms="1.9343280792236328e-01" purity="3.1123617291450500e-01" nType="-99"/>
        </Node>
        <Node pos="r" depth="1" NCoef="0" IVar="18" Cut="-1.0029744148254395e+01" cType="1" res="9.9664414301514626e-03" rms="2.0171864330768585e-01" purity="2.7806672453880310e-01" nType="0">
          <Node pos="l" depth="2" NCoef="0" IVar="-1" Cut="0.0000000000000000e+00" cType="1" res="2.5804944336414337e-02" rms="2.1572153270244598e-01" purity="3.9557293057441711e-01" nType="-99"/>
          <Node pos="r" depth="2" NCoef="0" IVar="-1" Cut="0.0000000000000000e+00" cType="1" res="-4.4044014066457748e-03" rms="1.8772751092910767e-01" purity="1.7616197466850281e-01" nType="-99"/>
        </Node>
      </Node>
    </BinaryTree>
    <BinaryTree type="DecisionTree" boostWeight="1.0000000000000000e+00" itree="855">
      <Node pos="s" depth="0" NCoef="0" IVar="3" Cut="9.5819431543350220e-01" cType="1" res="1.0424223000882193e-04" rms="1.9278848171234131e-01" purity="5.0303161144256592e-01" nType="0">
        <Node pos="l" depth="1" NCoef="0" IVar="10" Cut="6.6918573379516602e+00" cType="1" res="4.4202078133821487e-03" rms="1.9576247036457062e-01" purity="7.5143343210220337e-01" nType="0">
          <Node pos="l" depth="2" NCoef="0" IVar="-1" Cut="0.0000000000000000e+00" cType="1" res="-6.1199739575386047e-03" rms="1.8758489191532135e-01" purity="7.9881614446640015e-01" nType="-99"/>
          <Node pos="r" depth="2" NCoef="0" IVar="-1" Cut="0.0000000000000000e+00" cType="1" res="8.5436776280403137e-03" rms="1.9870878756046295e-01" purity="7.3311835527420044e-01" nType="-99"/>
        </Node>
        <Node pos="r" depth="1" NCoef="0" IVar="30" Cut="2.4761082231998444e-01" cType="1" res="-9.3107315478846431e-04" rms="1.9205380976200104e-01" purity="4.4344484806060791e-01" nType="0">
          <Node pos="l" depth="2" NCoef="0" IVar="-1" Cut="0.0000000000000000e+00" cType="1" res="-3.7605417310260236e-04" rms="1.9362150132656097e-01" purity="4.5740547776222229e-01" nType="-99"/>
          <Node pos="r" depth="2" NCoef="0" IVar="-1" Cut="0.0000000000000000e+00" cType="1" res="-2.0749960094690323e-02" rms="1.5528471767902374e-01" purity="1.5266004204750061e-01" nType="-99"/>
        </Node>
      </Node>
    </BinaryTree>
    <BinaryTree type="DecisionTree" boostWeight="1.0000000000000000e+00" itree="856">
      <Node pos="s" depth="0" NCoef="0" IVar="31" Cut="5.7120900601148605e-02" cType="1" res="1.5544448979198933e-03" rms="1.9217924773693085e-01" purity="5.0164484977722168e-01" nType="0">
        <Node pos="l" depth="1" NCoef="0" IVar="25" Cut="9.2509448528289795e-02" cType="1" res="1.5710585284978151e-04" rms="1.8942396342754364e-01" purity="5.7953983545303345e-01" nType="0">
          <Node pos="l" depth="2" NCoef="0" IVar="-1" Cut="0.0000000000000000e+00" cType="1" res="2.5117981713265181e-03" rms="1.8580400943756104e-01" purity="6.9652974605560303e-01" nType="-99"/>
          <Node pos="r" depth="2" NCoef="0" IVar="-1" Cut="0.0000000000000000e+00" cType="1" res="-5.1491591148078442e-03" rms="1.9809928536415100e-01" purity="2.8731092810630798e-01" nType="-99"/>
        </Node>
        <Node pos="r" depth="1" NCoef="0" IVar="18" Cut="-1.7972200393676758e+01" cType="1" res="6.1291921883821487e-03" rms="2.0086765289306641e-01" purity="2.4662464857101440e-01" nType="0">
          <Node pos="l" depth="2" NCoef="0" IVar="-1" Cut="0.0000000000000000e+00" cType="1" res="-5.0704726018011570e-03" rms="2.0555780827999115e-01" purity="4.0423765778541565e-01" nType="-99"/>
          <Node pos="r" depth="2" NCoef="0" IVar="-1" Cut="0.0000000000000000e+00" cType="1" res="1.4100936241447926e-02" rms="1.9864737987518311e-01" purity="1.7937746644020081e-01" nType="-99"/>
        </Node>
      </Node>
    </BinaryTree>
    <BinaryTree type="DecisionTree" boostWeight="1.0000000000000000e+00" itree="857">
      <Node pos="s" depth="0" NCoef="0" IVar="18" Cut="-1.6826086044311523e+01" cType="1" res="2.1801990806125104e-04" rms="1.9268816709518433e-01" purity="5.0063610076904297e-01" nType="0">
        <Node pos="l" depth="1" NCoef="0" IVar="32" Cut="7.6114878058433533e-02" cType="1" res="-2.3834779858589172e-03" rms="1.8076261878013611e-01" purity="6.6528177261352539e-01" nType="0">
          <Node pos="l" depth="2" NCoef="0" IVar="-1" Cut="0.0000000000000000e+00" cType="1" res="-5.1769088022410870e-03" rms="1.7828664183616638e-01" purity="6.9396269321441650e-01" nType="-99"/>
          <Node pos="r" depth="2" NCoef="0" IVar="-1" Cut="0.0000000000000000e+00" cType="1" res="1.5017087571322918e-02" rms="2.0350909233093262e-01" purity="3.7552100419998169e-01" nType="-99"/>
        </Node>
        <Node pos="r" depth="1" NCoef="0" IVar="32" Cut="1.9054552540183067e-02" cType="1" res="2.2833773400634527e-03" rms="2.0163050293922424e-01" purity="3.6992210149765015e-01" nType="0">
          <Node pos="l" depth="2" NCoef="0" IVar="-1" Cut="0.0000000000000000e+00" cType="1" res="6.8910443224012852e-03" rms="2.0705166459083557e-01" purity="5.0872904062271118e-01" nType="-99"/>
          <Node pos="r" depth="2" NCoef="0" IVar="-1" Cut="0.0000000000000000e+00" cType="1" res="-2.9678137507289648e-03" rms="1.9551481306552887e-01" purity="2.2041867673397064e-01" nType="-99"/>
        </Node>
      </Node>
    </BinaryTree>
    <BinaryTree type="DecisionTree" boostWeight="1.0000000000000000e+00" itree="858">
      <Node pos="s" depth="0" NCoef="0" IVar="30" Cut="1.9070284441113472e-02" cType="1" res="-9.0652122162282467e-04" rms="1.9069962203502655e-01" purity="5.0103014707565308e-01" nType="0">
        <Node pos="l" depth="1" NCoef="0" IVar="25" Cut="9.2253036797046661e-02" cType="1" res="-3.1843048054724932e-03" rms="1.8176566064357758e-01" purity="6.3679695129394531e-01" nType="0">
          <Node pos="l" depth="2" NCoef="0" IVar="-1" Cut="0.0000000000000000e+00" cType="1" res="-8.6054939310997725e-04" rms="1.7699897289276123e-01" purity="7.5006973743438721e-01" nType="-99"/>
          <Node pos="r" depth="2" NCoef="0" IVar="-1" Cut="0.0000000000000000e+00" cType="1" res="-1.1558087542653084e-02" rms="1.9373232126235962e-01" purity="3.3494955301284790e-01" nType="-99"/>
        </Node>
        <Node pos="r" depth="1" NCoef="0" IVar="19" Cut="7.5350852012634277e+00" cType="1" res="1.5910238726064563e-03" rms="2.0000763237476349e-01" purity="3.5216456651687622e-01" nType="0">
          <Node pos="l" depth="2" NCoef="0" IVar="-1" Cut="0.0000000000000000e+00" cType="1" res="1.0482976213097572e-02" rms="1.9199205935001373e-01" purity="2.2421692311763763e-01" nType="-99"/>
          <Node pos="r" depth="2" NCoef="0" IVar="-1" Cut="0.0000000000000000e+00" cType="1" res="-1.7122989520430565e-03" rms="2.0405107736587524e-01" purity="4.1990008950233459e-01" nType="-99"/>
        </Node>
      </Node>
    </BinaryTree>
    <BinaryTree type="DecisionTree" boostWeight="1.0000000000000000e+00" itree="859">
      <Node pos="s" depth="0" NCoef="0" IVar="16" Cut="2.5825873017311096e-01" cType="1" res="7.7870558016002178e-04" rms="1.9439770281314850e-01" purity="5.0068330764770508e-01" nType="0">
        <Node pos="l" depth="1" NCoef="0" IVar="3" Cut="1.9381471872329712e+00" cType="1" res="7.3333708569407463e-03" rms="1.9146354496479034e-01" purity="1.8748348951339722e-01" nType="0">
          <Node pos="l" depth="2" NCoef="0" IVar="-1" Cut="0.0000000000000000e+00" cType="1" res="1.6135113313794136e-02" rms="2.6342114806175232e-01" purity="4.0917646884918213e-01" nType="-99"/>
          <Node pos="r" depth="2" NCoef="0" IVar="-1" Cut="0.0000000000000000e+00" cType="1" res="-1.8295402405783534e-03" rms="1.3872361183166504e-01" purity="7.0814676582813263e-02" nType="-99"/>
        </Node>
        <Node pos="r" depth="1" NCoef="0" IVar="28" Cut="1.4498591423034668e-01" cType="1" res="-5.1105515012750402e-05" rms="1.9475027918815613e-01" purity="5.4033404588699341e-01" nType="0">
          <Node pos="l" depth="2" NCoef="0" IVar="-1" Cut="0.0000000000000000e+00" cType="1" res="1.0786518454551697e-02" rms="2.0244869589805603e-01" purity="3.6015126109123230e-01" nType="-99"/>
          <Node pos="r" depth="2" NCoef="0" IVar="-1" Cut="0.0000000000000000e+00" cType="1" res="-6.6606071777641773e-04" rms="1.9434431195259094e-01" purity="5.4932218790054321e-01" nType="-99"/>
        </Node>
      </Node>
    </BinaryTree>
    <BinaryTree type="DecisionTree" boostWeight="1.0000000000000000e+00" itree="860">
      <Node pos="s" depth="0" NCoef="0" IVar="12" Cut="7.5150947570800781e+00" cType="1" res="-9.3055528122931719e-04" rms="1.9546376168727875e-01" purity="4.9636045098304749e-01" nType="0">
        <Node pos="l" depth="1" NCoef="0" IVar="24" Cut="1.9193980097770691e-01" cType="1" res="5.6599400704726577e-04" rms="2.0554319024085999e-01" purity="4.3130430579185486e-01" nType="0">
          <Node pos="l" depth="2" NCoef="0" IVar="-1" Cut="0.0000000000000000e+00" cType="1" res="2.4048091843724251e-02" rms="1.8596541881561279e-01" purity="1.0806610435247421e-01" nType="-99"/>
          <Node pos="r" depth="2" NCoef="0" IVar="-1" Cut="0.0000000000000000e+00" cType="1" res="-2.0440325897652656e-04" rms="2.0656765997409821e-01" purity="4.4955670833587646e-01" nType="-99"/>
        </Node>
        <Node pos="r" depth="1" NCoef="0" IVar="28" Cut="9.0539163351058960e-01" cType="1" res="-3.8070529699325562e-03" rms="1.7442640662193298e-01" purity="6.2140387296676636e-01" nType="0">
          <Node pos="l" depth="2" NCoef="0" IVar="-1" Cut="0.0000000000000000e+00" cType="1" res="-1.0193261317908764e-02" rms="1.8935431540012360e-01" purity="4.6479609608650208e-01" nType="-99"/>
          <Node pos="r" depth="2" NCoef="0" IVar="-1" Cut="0.0000000000000000e+00" cType="1" res="4.5821564272046089e-03" rms="1.5281760692596436e-01" purity="8.2336163520812988e-01" nType="-99"/>
        </Node>
      </Node>
    </BinaryTree>
    <BinaryTree type="DecisionTree" boostWeight="1.0000000000000000e+00" itree="861">
      <Node pos="s" depth="0" NCoef="0" IVar="29" Cut="9.3393824994564056e-02" cType="1" res="-6.7161902552470565e-04" rms="1.9191920757293701e-01" purity="5.0026941299438477e-01" nType="0">
        <Node pos="l" depth="1" NCoef="0" IVar="28" Cut="8.5802894830703735e-01" cType="1" res="1.7408772837370634e-03" rms="1.8401446938514709e-01" purity="6.6691517829895020e-01" nType="0">
          <Node pos="l" depth="2" NCoef="0" IVar="-1" Cut="0.0000000000000000e+00" cType="1" res="1.0716441087424755e-02" rms="2.0252223312854767e-01" purity="5.1292794942855835e-01" nType="-99"/>
          <Node pos="r" depth="2" NCoef="0" IVar="-1" Cut="0.0000000000000000e+00" cType="1" res="-1.9572284072637558e-03" rms="1.7627838253974915e-01" purity="7.2616362571716309e-01" nType="-99"/>
        </Node>
        <Node pos="r" depth="1" NCoef="0" IVar="20" Cut="8.2504196166992188e+00" cType="1" res="-3.0600486788898706e-03" rms="1.9940793514251709e-01" purity="3.3528605103492737e-01" nType="0">
          <Node pos="l" depth="2" NCoef="0" IVar="-1" Cut="0.0000000000000000e+00" cType="1" res="-1.7855864716693759e-03" rms="1.9970235228538513e-01" purity="3.5308238863945007e-01" nType="-99"/>
          <Node pos="r" depth="2" NCoef="0" IVar="-1" Cut="0.0000000000000000e+00" cType="1" res="-2.2608513012528419e-02" rms="1.9588753581047058e-01" purity="1.5952794253826141e-01" nType="-99"/>
        </Node>
      </Node>
    </BinaryTree>
    <BinaryTree type="DecisionTree" boostWeight="1.0000000000000000e+00" itree="862">
      <Node pos="s" depth="0" NCoef="0" IVar="28" Cut="3.3737075328826904e-01" cType="1" res="1.2615638552233577e-03" rms="1.9025292992591858e-01" purity="4.9963158369064331e-01" nType="0">
        <Node pos="l" depth="1" NCoef="0" IVar="19" Cut="5.7267136573791504e+00" cType="1" res="-3.2359692268073559e-03" rms="1.9379590451717377e-01" purity="2.8983023762702942e-01" nType="0">
          <Node pos="l" depth="2" NCoef="0" IVar="-1" Cut="0.0000000000000000e+00" cType="1" res="-2.0157966762781143e-02" rms="1.6426287591457367e-01" purity="1.2591870129108429e-01" nType="-99"/>
          <Node pos="r" depth="2" NCoef="0" IVar="-1" Cut="0.0000000000000000e+00" cType="1" res="1.1199631262570620e-03" rms="2.0473843812942505e-01" purity="3.5838606953620911e-01" nType="-99"/>
        </Node>
        <Node pos="r" depth="1" NCoef="0" IVar="11" Cut="6.2959895133972168e+00" cType="1" res="2.4034217931330204e-03" rms="1.8932585418224335e-01" purity="5.5289709568023682e-01" nType="0">
          <Node pos="l" depth="2" NCoef="0" IVar="-1" Cut="0.0000000000000000e+00" cType="1" res="-2.6121025439351797e-03" rms="1.9177709519863129e-01" purity="4.9057319760322571e-01" nType="-99"/>
          <Node pos="r" depth="2" NCoef="0" IVar="-1" Cut="0.0000000000000000e+00" cType="1" res="4.8551349900662899e-03" rms="1.8847663700580597e-01" purity="5.7368344068527222e-01" nType="-99"/>
        </Node>
      </Node>
    </BinaryTree>
    <BinaryTree type="DecisionTree" boostWeight="1.0000000000000000e+00" itree="863">
      <Node pos="s" depth="0" NCoef="0" IVar="33" Cut="2.2856815159320831e-01" cType="1" res="-7.2881707455962896e-04" rms="1.9255797564983368e-01" purity="5.0271517038345337e-01" nType="0">
        <Node pos="l" depth="1" NCoef="0" IVar="11" Cut="7.8449740409851074e+00" cType="1" res="-1.2948210351169109e-03" rms="1.9148541986942291e-01" purity="5.1809144020080566e-01" nType="0">
          <Node pos="l" depth="2" NCoef="0" IVar="-1" Cut="0.0000000000000000e+00" cType="1" res="-7.1574997855350375e-04" rms="1.9279646873474121e-01" purity="5.3207039833068848e-01" nType="-99"/>
          <Node pos="r" depth="2" NCoef="0" IVar="-1" Cut="0.0000000000000000e+00" cType="1" res="-1.2960666790604591e-02" rms="1.7474944889545441e-01" purity="3.5017907619476318e-01" nType="-99"/>
        </Node>
        <Node pos="r" depth="1" NCoef="0" IVar="16" Cut="3.6321267485618591e-01" cType="1" res="7.7086919918656349e-03" rms="2.0770905911922455e-01" purity="2.7349823713302612e-01" nType="0">
          <Node pos="l" depth="2" NCoef="0" IVar="-1" Cut="0.0000000000000000e+00" cType="1" res="2.3949958384037018e-02" rms="2.2139325737953186e-01" purity="1.5674003958702087e-01" nType="-99"/>
          <Node pos="r" depth="2" NCoef="0" IVar="-1" Cut="0.0000000000000000e+00" cType="1" res="-4.1683115996420383e-03" rms="1.9430492818355560e-01" purity="3.7503337860107422e-01" nType="-99"/>
        </Node>
      </Node>
    </BinaryTree>
    <BinaryTree type="DecisionTree" boostWeight="1.0000000000000000e+00" itree="864">
      <Node pos="s" depth="0" NCoef="0" IVar="18" Cut="1.8698116540908813e+00" cType="1" res="-6.6470226738601923e-04" rms="1.9159881770610809e-01" purity="4.9812695384025574e-01" nType="0">
        <Node pos="l" depth="1" NCoef="0" IVar="26" Cut="1.2491082400083542e-01" cType="1" res="1.4081584231462330e-04" rms="1.9199632108211517e-01" purity="5.3598719835281372e-01" nType="0">
          <Node pos="l" depth="2" NCoef="0" IVar="-1" Cut="0.0000000000000000e+00" cType="1" res="-5.7235953863710165e-04" rms="1.9148230552673340e-01" purity="5.4420125484466553e-01" nType="-99"/>
          <Node pos="r" depth="2" NCoef="0" IVar="-1" Cut="0.0000000000000000e+00" cType="1" res="2.1127887070178986e-02" rms="2.0550259947776794e-01" purity="2.9870933294296265e-01" nType="-99"/>
        </Node>
        <Node pos="r" depth="1" NCoef="0" IVar="27" Cut="2.8177541494369507e-01" cType="1" res="-5.7913810014724731e-03" rms="1.8896879255771637e-01" purity="2.5716751813888550e-01" nType="0">
          <Node pos="l" depth="2" NCoef="0" IVar="-1" Cut="0.0000000000000000e+00" cType="1" res="6.0661993920803070e-03" rms="1.8681861460208893e-01" purity="1.7520727217197418e-01" nType="-99"/>
          <Node pos="r" depth="2" NCoef="0" IVar="-1" Cut="0.0000000000000000e+00" cType="1" res="-1.4942703768610954e-02" rms="1.9005288183689117e-01" purity="3.1123638153076172e-01" nType="-99"/>
        </Node>
      </Node>
    </BinaryTree>
    <BinaryTree type="DecisionTree" boostWeight="1.0000000000000000e+00" itree="865">
      <Node pos="s" depth="0" NCoef="0" IVar="23" Cut="2.3895360529422760e-01" cType="1" res="-6.6244893241673708e-04" rms="1.9211399555206299e-01" purity="4.9898478388786316e-01" nType="0">
        <Node pos="l" depth="1" NCoef="0" IVar="16" Cut="3.9313074946403503e-01" cType="1" res="7.5718769803643227e-03" rms="1.6708503663539886e-01" purity="6.3661530613899231e-02" nType="0">
          <Node pos="l" depth="2" NCoef="0" IVar="-1" Cut="0.0000000000000000e+00" cType="1" res="-2.4128940422087908e-03" rms="1.4542829990386963e-01" purity="3.4946426749229431e-02" nType="-99"/>
          <Node pos="r" depth="2" NCoef="0" IVar="-1" Cut="0.0000000000000000e+00" cType="1" res="3.1961765140295029e-02" rms="2.0111678540706635e-01" purity="1.1862954497337341e-01" nType="-99"/>
        </Node>
        <Node pos="r" depth="1" NCoef="0" IVar="34" Cut="2.7781159877777100e+00" cType="1" res="-1.4434180920943618e-03" rms="1.9430239498615265e-01" purity="5.4027217626571655e-01" nType="0">
          <Node pos="l" depth="2" NCoef="0" IVar="-1" Cut="0.0000000000000000e+00" cType="1" res="-3.6016614176332951e-03" rms="1.9296438992023468e-01" purity="6.4287829399108887e-01" nType="-99"/>
          <Node pos="r" depth="2" NCoef="0" IVar="-1" Cut="0.0000000000000000e+00" cType="1" res="2.8571791481226683e-03" rms="1.9735796749591827e-01" purity="2.9918685555458069e-01" nType="-99"/>
        </Node>
      </Node>
    </BinaryTree>
    <BinaryTree type="DecisionTree" boostWeight="1.0000000000000000e+00" itree="866">
      <Node pos="s" depth="0" NCoef="0" IVar="18" Cut="8.5246276855468750e+00" cType="1" res="-1.4626816846430302e-03" rms="1.9311451911926270e-01" purity="4.9764752388000488e-01" nType="0">
        <Node pos="l" depth="1" NCoef="0" IVar="31" Cut="1.9036214053630829e-01" cType="1" res="-1.9687635358422995e-03" rms="1.9273355603218079e-01" purity="5.1170742511749268e-01" nType="0">
          <Node pos="l" depth="2" NCoef="0" IVar="-1" Cut="0.0000000000000000e+00" cType="1" res="-1.7189112259075046e-03" rms="1.9349640607833862e-01" purity="5.3375631570816040e-01" nType="-99"/>
          <Node pos="r" depth="2" NCoef="0" IVar="-1" Cut="0.0000000000000000e+00" cType="1" res="-1.3229727745056152e-02" rms="1.8123853206634521e-01" purity="1.9486428797245026e-01" nType="-99"/>
        </Node>
        <Node pos="r" depth="1" NCoef="0" IVar="-1" Cut="0.0000000000000000e+00" cType="1" res="9.9807912483811378e-03" rms="2.0003092288970947e-01" purity="2.2808220982551575e-01" nType="-99"/>
      </Node>
    </BinaryTree>
    <BinaryTree type="DecisionTree" boostWeight="1.0000000000000000e+00" itree="867">
      <Node pos="s" depth="0" NCoef="0" IVar="22" Cut="1.2528455734252930e+01" cType="1" res="7.0871319621801376e-05" rms="1.9320401549339294e-01" purity="5.0109398365020752e-01" nType="0">
        <Node pos="l" depth="1" NCoef="0" IVar="22" Cut="8.8548765182495117e+00" cType="1" res="2.3176965769380331e-03" rms="2.0259109139442444e-01" purity="3.6505302786827087e-01" nType="0">
          <Node pos="l" depth="2" NCoef="0" IVar="-1" Cut="0.0000000000000000e+00" cType="1" res="-9.2534243594855070e-04" rms="1.9678065180778503e-01" purity="3.3450210094451904e-01" nType="-99"/>
          <Node pos="r" depth="2" NCoef="0" IVar="-1" Cut="0.0000000000000000e+00" cType="1" res="1.0654059238731861e-02" rms="2.1612937748432159e-01" purity="4.4078370928764343e-01" nType="-99"/>
        </Node>
        <Node pos="r" depth="1" NCoef="0" IVar="23" Cut="8.1003075838088989e-01" cType="1" res="-2.2346819750964642e-03" rms="1.8304324150085449e-01" purity="6.4069080352783203e-01" nType="0">
          <Node pos="l" depth="2" NCoef="0" IVar="-1" Cut="0.0000000000000000e+00" cType="1" res="-6.9808014668524265e-03" rms="2.1443930268287659e-01" purity="2.4327266216278076e-01" nType="-99"/>
          <Node pos="r" depth="2" NCoef="0" IVar="-1" Cut="0.0000000000000000e+00" cType="1" res="2.4238666519522667e-03" rms="1.6024135053157806e-01" purity="8.8891136646270752e-01" nType="-99"/>
        </Node>
      </Node>
    </BinaryTree>
    <BinaryTree type="DecisionTree" boostWeight="1.0000000000000000e+00" itree="868">
      <Node pos="s" depth="0" NCoef="0" IVar="31" Cut="1.3325847685337067e-01" cType="1" res="3.2312507391907275e-04" rms="1.9089737534523010e-01" purity="4.9830940365791321e-01" nType="0">
        <Node pos="l" depth="1" NCoef="0" IVar="10" Cut="7.3823661804199219e+00" cType="1" res="1.1307294480502605e-03" rms="1.9274181127548218e-01" purity="5.3602325916290283e-01" nType="0">
          <Node pos="l" depth="2" NCoef="0" IVar="-1" Cut="0.0000000000000000e+00" cType="1" res="3.5399983171373606e-03" rms="1.9232316315174103e-01" purity="5.6995493173599243e-01" nType="-99"/>
          <Node pos="r" depth="2" NCoef="0" IVar="-1" Cut="0.0000000000000000e+00" cType="1" res="-2.7823371347039938e-03" rms="1.9350352883338928e-01" purity="4.7008746862411499e-01" nType="-99"/>
        </Node>
        <Node pos="r" depth="1" NCoef="0" IVar="10" Cut="7.1993994712829590e+00" cType="1" res="-6.1120083555579185e-03" rms="1.7537663877010345e-01" purity="1.9779872894287109e-01" nType="0">
          <Node pos="l" depth="2" NCoef="0" IVar="-1" Cut="0.0000000000000000e+00" cType="1" res="-1.4715258963406086e-02" rms="1.6767944395542145e-01" purity="1.9373688101768494e-01" nType="-99"/>
          <Node pos="r" depth="2" NCoef="0" IVar="-1" Cut="0.0000000000000000e+00" cType="1" res="5.8836499229073524e-03" rms="1.9161370396614075e-01" purity="2.0721150934696198e-01" nType="-99"/>
        </Node>
      </Node>
    </BinaryTree>
    <BinaryTree type="DecisionTree" boostWeight="1.0000000000000000e+00" itree="869">
      <Node pos="s" depth="0" NCoef="0" IVar="24" Cut="4.2954906821250916e-01" cType="1" res="-1.6919022891670465e-04" rms="1.9193741679191589e-01" purity="5.0305724143981934e-01" nType="0">
        <Node pos="l" depth="1" NCoef="0" IVar="13" Cut="7.7273082733154297e+00" cType="1" res="5.7421028614044189e-03" rms="1.8167795240879059e-01" purity="1.5483719110488892e-01" nType="0">
          <Node pos="l" depth="2" NCoef="0" IVar="-1" Cut="0.0000000000000000e+00" cType="1" res="2.4640651419758797e-02" rms="1.8455487489700317e-01" purity="1.5063819289207458e-01" nType="-99"/>
          <Node pos="r" depth="2" NCoef="0" IVar="-1" Cut="0.0000000000000000e+00" cType="1" res="-2.7428675093688071e-04" rms="1.7971445620059967e-01" purity="1.5728528797626495e-01" nType="-99"/>
        </Node>
        <Node pos="r" depth="1" NCoef="0" IVar="11" Cut="7.3409366607666016e+00" cType="1" res="-1.2660170905292034e-03" rms="1.9376148283481598e-01" purity="5.6766867637634277e-01" nType="0">
          <Node pos="l" depth="2" NCoef="0" IVar="-1" Cut="0.0000000000000000e+00" cType="1" res="6.3190923538058996e-04" rms="1.9613520801067352e-01" purity="6.0673636198043823e-01" nType="-99"/>
          <Node pos="r" depth="2" NCoef="0" IVar="-1" Cut="0.0000000000000000e+00" cType="1" res="-7.7119185589253902e-03" rms="1.8647369742393494e-01" purity="4.5230150222778320e-01" nType="-99"/>
        </Node>
      </Node>
    </BinaryTree>
    <BinaryTree type="DecisionTree" boostWeight="1.0000000000000000e+00" itree="870">
      <Node pos="s" depth="0" NCoef="0" IVar="12" Cut="6.4832701683044434e+00" cType="1" res="1.2832253705710173e-03" rms="1.9352978467941284e-01" purity="5.0271803140640259e-01" nType="0">
        <Node pos="l" depth="1" NCoef="0" IVar="31" Cut="3.8080409169197083e-02" cType="1" res="1.0816740803420544e-02" rms="2.1596631407737732e-01" purity="3.1048887968063354e-01" nType="0">
          <Node pos="l" depth="2" NCoef="0" IVar="-1" Cut="0.0000000000000000e+00" cType="1" res="2.0178439095616341e-02" rms="2.3040148615837097e-01" purity="4.2589882016181946e-01" nType="-99"/>
          <Node pos="r" depth="2" NCoef="0" IVar="-1" Cut="0.0000000000000000e+00" cType="1" res="-6.7991716787219048e-03" rms="1.8986384570598602e-01" purity="1.2806436419487000e-01" nType="-99"/>
        </Node>
        <Node pos="r" depth="1" NCoef="0" IVar="24" Cut="1.4575715363025665e-01" cType="1" res="4.7033440205268562e-04" rms="1.9147315621376038e-01" purity="5.1910877227783203e-01" nType="0">
          <Node pos="l" depth="2" NCoef="0" IVar="-1" Cut="0.0000000000000000e+00" cType="1" res="-2.6117550209164619e-02" rms="1.5325218439102173e-01" purity="1.0087665915489197e-01" nType="-99"/>
          <Node pos="r" depth="2" NCoef="0" IVar="-1" Cut="0.0000000000000000e+00" cType="1" res="1.0712649673223495e-03" rms="1.9242647290229797e-01" purity="5.3093153238296509e-01" nType="-99"/>
        </Node>
      </Node>
    </BinaryTree>
    <BinaryTree type="DecisionTree" boostWeight="1.0000000000000000e+00" itree="871">
      <Node pos="s" depth="0" NCoef="0" IVar="30" Cut="1.9074274227023125e-02" cType="1" res="7.9107878264039755e-04" rms="1.9214181602001190e-01" purity="5.0541079044342041e-01" nType="0">
        <Node pos="l" depth="1" NCoef="0" IVar="19" Cut="5.4407434463500977e+00" cType="1" res="3.6123308818787336e-03" rms="1.8645264208316803e-01" purity="6.4701735973358154e-01" nType="0">
          <Node pos="l" depth="2" NCoef="0" IVar="-1" Cut="0.0000000000000000e+00" cType="1" res="-3.5462195519357920e-03" rms="1.9227278232574463e-01" purity="4.6862843632698059e-01" nType="-99"/>
          <Node pos="r" depth="2" NCoef="0" IVar="-1" Cut="0.0000000000000000e+00" cType="1" res="6.7969281226396561e-03" rms="1.8484365940093994e-01" purity="6.9424539804458618e-01" nType="-99"/>
        </Node>
        <Node pos="r" depth="1" NCoef="0" IVar="31" Cut="1.5227924287319183e-01" cType="1" res="-2.3092392366379499e-03" rms="1.9815915822982788e-01" purity="3.4979709982872009e-01" nType="0">
          <Node pos="l" depth="2" NCoef="0" IVar="-1" Cut="0.0000000000000000e+00" cType="1" res="-4.0375757962465286e-03" rms="2.0012165606021881e-01" purity="3.7885138392448425e-01" nType="-99"/>
          <Node pos="r" depth="2" NCoef="0" IVar="-1" Cut="0.0000000000000000e+00" cType="1" res="1.0571310296654701e-02" rms="1.8300738930702209e-01" purity="1.3910453021526337e-01" nType="-99"/>
        </Node>
      </Node>
    </BinaryTree>
    <BinaryTree type="DecisionTree" boostWeight="1.0000000000000000e+00" itree="872">
      <Node pos="s" depth="0" NCoef="0" IVar="28" Cut="1.9386325776576996e-01" cType="1" res="-3.6912388168275356e-04" rms="1.9274443387985229e-01" purity="4.9845325946807861e-01" nType="0">
        <Node pos="l" depth="1" NCoef="0" IVar="9" Cut="1.2580890655517578e+01" cType="1" res="-7.9170856624841690e-03" rms="1.8752911686897278e-01" purity="3.0510526895523071e-01" nType="0">
          <Node pos="l" depth="2" NCoef="0" IVar="-1" Cut="0.0000000000000000e+00" cType="1" res="-1.9267549738287926e-02" rms="1.9058878719806671e-01" purity="2.7267122268676758e-01" nType="-99"/>
          <Node pos="r" depth="2" NCoef="0" IVar="-1" Cut="0.0000000000000000e+00" cType="1" res="-1.3776856940239668e-03" rms="1.8467195332050323e-01" purity="3.3212491869926453e-01" nType="-99"/>
        </Node>
        <Node pos="r" depth="1" NCoef="0" IVar="30" Cut="3.8110978901386261e-02" cType="1" res="3.3619109308347106e-04" rms="1.9320951402187347e-01" purity="5.1652050018310547e-01" nType="0">
          <Node pos="l" depth="2" NCoef="0" IVar="-1" Cut="0.0000000000000000e+00" cType="1" res="-1.6161534003913403e-03" rms="1.8723595142364502e-01" purity="6.1536055803298950e-01" nType="-99"/>
          <Node pos="r" depth="2" NCoef="0" IVar="-1" Cut="0.0000000000000000e+00" cType="1" res="3.9716637693345547e-03" rms="2.0444490015506744e-01" purity="3.2153898477554321e-01" nType="-99"/>
        </Node>
      </Node>
    </BinaryTree>
    <BinaryTree type="DecisionTree" boostWeight="1.0000000000000000e+00" itree="873">
      <Node pos="s" depth="0" NCoef="0" IVar="21" Cut="8.8326015472412109e+00" cType="1" res="1.8407081370241940e-04" rms="1.8968042731285095e-01" purity="5.0376403331756592e-01" nType="0">
        <Node pos="l" depth="1" NCoef="0" IVar="3" Cut="7.3126339912414551e-01" cType="1" res="3.4383772872388363e-03" rms="2.0052297413349152e-01" purity="3.0610758066177368e-01" nType="0">
          <Node pos="l" depth="2" NCoef="0" IVar="-1" Cut="0.0000000000000000e+00" cType="1" res="1.4764632098376751e-02" rms="2.3768717050552368e-01" purity="5.9207856655120850e-01" nType="-99"/>
          <Node pos="r" depth="2" NCoef="0" IVar="-1" Cut="0.0000000000000000e+00" cType="1" res="2.1391143091022968e-03" rms="1.9627845287322998e-01" purity="2.7704042196273804e-01" nType="-99"/>
        </Node>
        <Node pos="r" depth="1" NCoef="0" IVar="26" Cut="1.4266298711299896e-01" cType="1" res="-1.4616459375247359e-03" rms="1.8393222987651825e-01" purity="6.0371965169906616e-01" nType="0">
          <Node pos="l" depth="2" NCoef="0" IVar="-1" Cut="0.0000000000000000e+00" cType="1" res="-3.8574537029489875e-04" rms="1.8404793739318848e-01" purity="6.4157563447952271e-01" nType="-99"/>
          <Node pos="r" depth="2" NCoef="0" IVar="-1" Cut="0.0000000000000000e+00" cType="1" res="-1.2567231431603432e-02" rms="1.8278659880161285e-01" purity="3.1113225221633911e-01" nType="-99"/>
        </Node>
      </Node>
    </BinaryTree>
    <BinaryTree type="DecisionTree" boostWeight="1.0000000000000000e+00" itree="874">
      <Node pos="s" depth="0" NCoef="0" IVar="34" Cut="3.9684844017028809e+00" cType="1" res="7.1601365925744176e-04" rms="1.9060091674327850e-01" purity="4.9903714656829834e-01" nType="0">
        <Node pos="l" depth="1" NCoef="0" IVar="25" Cut="5.0901567935943604e-01" cType="1" res="-4.1202033753506839e-04" rms="1.9121739268302917e-01" purity="5.7192283868789673e-01" nType="0">
          <Node pos="l" depth="2" NCoef="0" IVar="-1" Cut="0.0000000000000000e+00" cType="1" res="3.3445379813201725e-04" rms="1.9254127144813538e-01" purity="6.0367816686630249e-01" nType="-99"/>
          <Node pos="r" depth="2" NCoef="0" IVar="-1" Cut="0.0000000000000000e+00" cType="1" res="-1.1261045001447201e-02" rms="1.7468641698360443e-01" purity="1.9845604896545410e-01" nType="-99"/>
        </Node>
        <Node pos="r" depth="1" NCoef="0" IVar="34" Cut="6.8783278465270996e+00" cType="1" res="5.5265342816710472e-03" rms="1.8787322938442230e-01" purity="1.8821489810943604e-01" nType="0">
          <Node pos="l" depth="2" NCoef="0" IVar="-1" Cut="0.0000000000000000e+00" cType="1" res="1.1211943812668324e-02" rms="1.9692255556583405e-01" purity="2.1445453166961670e-01" nType="-99"/>
          <Node pos="r" depth="2" NCoef="0" IVar="-1" Cut="0.0000000000000000e+00" cType="1" res="-1.7731513828039169e-02" rms="1.3683913648128510e-01" purity="6.5147794783115387e-02" nType="-99"/>
        </Node>
      </Node>
    </BinaryTree>
    <BinaryTree type="DecisionTree" boostWeight="1.0000000000000000e+00" itree="875">
      <Node pos="s" depth="0" NCoef="0" IVar="16" Cut="6.7661654949188232e-01" cType="1" res="-2.1228154946584255e-04" rms="1.9190302491188049e-01" purity="4.9900910258293152e-01" nType="0">
        <Node pos="l" depth="1" NCoef="0" IVar="16" Cut="2.7739679813385010e-01" cType="1" res="-8.4764952771365643e-04" rms="1.9223016500473022e-01" purity="4.9374935030937195e-01" nType="0">
          <Node pos="l" depth="2" NCoef="0" IVar="-1" Cut="0.0000000000000000e+00" cType="1" res="-9.3342717736959457e-03" rms="1.9349128007888794e-01" purity="1.9192345440387726e-01" nType="-99"/>
          <Node pos="r" depth="2" NCoef="0" IVar="-1" Cut="0.0000000000000000e+00" cType="1" res="7.4046564986929297e-04" rms="1.9192986190319061e-01" purity="5.5768811702728271e-01" nType="-99"/>
        </Node>
        <Node pos="r" depth="1" NCoef="0" IVar="-1" Cut="0.0000000000000000e+00" cType="1" res="1.6730060800909996e-02" rms="1.8510973453521729e-01" purity="5.9969329833984375e-01" nType="-99"/>
      </Node>
    </BinaryTree>
    <BinaryTree type="DecisionTree" boostWeight="1.0000000000000000e+00" itree="876">
      <Node pos="s" depth="0" NCoef="0" IVar="33" Cut="1.7143343389034271e-01" cType="1" res="-1.0139003861695528e-03" rms="1.9190135598182678e-01" purity="5.0051194429397583e-01" nType="0">
        <Node pos="l" depth="1" NCoef="0" IVar="2" Cut="1.8698345184326172e+01" cType="1" res="-3.2746104989200830e-04" rms="1.9163075089454651e-01" purity="5.2826821804046631e-01" nType="0">
          <Node pos="l" depth="2" NCoef="0" IVar="-1" Cut="0.0000000000000000e+00" cType="1" res="-1.0691545903682709e-03" rms="1.9275969266891479e-01" purity="5.4751741886138916e-01" nType="-99"/>
          <Node pos="r" depth="2" NCoef="0" IVar="-1" Cut="0.0000000000000000e+00" cType="1" res="9.6249384805560112e-03" rms="1.7574073374271393e-01" purity="2.7188688516616821e-01" nType="-99"/>
        </Node>
        <Node pos="r" depth="1" NCoef="0" IVar="7" Cut="2.5659508705139160e+00" cType="1" res="-7.2627202607691288e-03" rms="1.9423578679561615e-01" purity="2.4784016609191895e-01" nType="0">
          <Node pos="l" depth="2" NCoef="0" IVar="-1" Cut="0.0000000000000000e+00" cType="1" res="-1.3861615210771561e-02" rms="2.2232209146022797e-01" purity="3.4860435128211975e-01" nType="-99"/>
          <Node pos="r" depth="2" NCoef="0" IVar="-1" Cut="0.0000000000000000e+00" cType="1" res="1.2300450354814529e-02" rms="1.4391282200813293e-01" purity="1.0349668562412262e-01" nType="-99"/>
        </Node>
      </Node>
    </BinaryTree>
    <BinaryTree type="DecisionTree" boostWeight="1.0000000000000000e+00" itree="877">
      <Node pos="s" depth="0" NCoef="0" IVar="26" Cut="4.2801296710968018e-01" cType="1" res="-1.3278609840199351e-03" rms="1.9162347912788391e-01" purity="4.9907100200653076e-01" nType="0">
        <Node pos="l" depth="1" NCoef="0" IVar="6" Cut="4.3177285194396973e+00" cType="1" res="-1.9331979565322399e-03" rms="1.9142948091030121e-01" purity="5.1717531681060791e-01" nType="0">
          <Node pos="l" depth="2" NCoef="0" IVar="-1" Cut="0.0000000000000000e+00" cType="1" res="-1.0205847211182117e-02" rms="1.9252556562423706e-01" purity="3.1615015864372253e-01" nType="-99"/>
          <Node pos="r" depth="2" NCoef="0" IVar="-1" Cut="0.0000000000000000e+00" cType="1" res="-9.3485647812485695e-04" rms="1.9119730591773987e-01" purity="5.5566495656967163e-01" nType="-99"/>
        </Node>
        <Node pos="r" depth="1" NCoef="0" IVar="11" Cut="6.5875229835510254e+00" cType="1" res="7.5469543226063251e-03" rms="1.9422917068004608e-01" purity="2.3364511132240295e-01" nType="0">
          <Node pos="l" depth="2" NCoef="0" IVar="-1" Cut="0.0000000000000000e+00" cType="1" res="2.3738179355859756e-02" rms="2.2565895318984985e-01" purity="2.9951804876327515e-01" nType="-99"/>
          <Node pos="r" depth="2" NCoef="0" IVar="-1" Cut="0.0000000000000000e+00" cType="1" res="-7.3147639632225037e-03" rms="1.5733492374420166e-01" purity="1.7045198380947113e-01" nType="-99"/>
        </Node>
      </Node>
    </BinaryTree>
    <BinaryTree type="DecisionTree" boostWeight="1.0000000000000000e+00" itree="878">
      <Node pos="s" depth="0" NCoef="0" IVar="10" Cut="7.5014352798461914e+00" cType="1" res="-2.2424438793677837e-04" rms="1.9224256277084351e-01" purity="4.9811029434204102e-01" nType="0">
        <Node pos="l" depth="1" NCoef="0" IVar="16" Cut="3.3144095540046692e-01" cType="1" res="-1.7791929421946406e-03" rms="1.9077354669570923e-01" purity="5.1331830024719238e-01" nType="0">
          <Node pos="l" depth="2" NCoef="0" IVar="-1" Cut="0.0000000000000000e+00" cType="1" res="-7.6049892231822014e-03" rms="2.0455744862556458e-01" purity="2.3974169790744781e-01" nType="-99"/>
          <Node pos="r" depth="2" NCoef="0" IVar="-1" Cut="0.0000000000000000e+00" cType="1" res="-2.1781981922686100e-04" rms="1.8638938665390015e-01" purity="5.9577399492263794e-01" nType="-99"/>
        </Node>
        <Node pos="r" depth="1" NCoef="0" IVar="19" Cut="1.3479968070983887e+01" cType="1" res="4.0708626620471478e-03" rms="1.9617910683155060e-01" purity="4.5610257983207703e-01" nType="0">
          <Node pos="l" depth="2" NCoef="0" IVar="-1" Cut="0.0000000000000000e+00" cType="1" res="9.9352989345788956e-03" rms="1.9840778410434723e-01" purity="4.0395101904869080e-01" nType="-99"/>
          <Node pos="r" depth="2" NCoef="0" IVar="-1" Cut="0.0000000000000000e+00" cType="1" res="-2.8644278645515442e-03" rms="1.9230480492115021e-01" purity="5.4118919372558594e-01" nType="-99"/>
        </Node>
      </Node>
    </BinaryTree>
    <BinaryTree type="DecisionTree" boostWeight="1.0000000000000000e+00" itree="879">
      <Node pos="s" depth="0" NCoef="0" IVar="31" Cut="1.9041195511817932e-02" cType="1" res="8.3118927432224154e-04" rms="1.8928670883178711e-01" purity="5.0157988071441650e-01" nType="0">
        <Node pos="l" depth="1" NCoef="0" IVar="19" Cut="8.7754144668579102e+00" cType="1" res="2.7382688131183386e-03" rms="1.8470646440982819e-01" purity="6.4530330896377563e-01" nType="0">
          <Node pos="l" depth="2" NCoef="0" IVar="-1" Cut="0.0000000000000000e+00" cType="1" res="-3.0623511411249638e-03" rms="1.9553323090076447e-01" purity="4.3765318393707275e-01" nType="-99"/>
          <Node pos="r" depth="2" NCoef="0" IVar="-1" Cut="0.0000000000000000e+00" cType="1" res="6.1053698882460594e-03" rms="1.8022884428501129e-01" purity="7.2694510221481323e-01" nType="-99"/>
        </Node>
        <Node pos="r" depth="1" NCoef="0" IVar="19" Cut="7.9028859138488770e+00" cType="1" res="-1.7704275669530034e-03" rms="1.9533193111419678e-01" purity="3.0551397800445557e-01" nType="0">
          <Node pos="l" depth="2" NCoef="0" IVar="-1" Cut="0.0000000000000000e+00" cType="1" res="6.4215818420052528e-03" rms="1.8662232160568237e-01" purity="2.0785756409168243e-01" nType="-99"/>
          <Node pos="r" depth="2" NCoef="0" IVar="-1" Cut="0.0000000000000000e+00" cType="1" res="-5.9140874072909355e-03" rms="2.0009736716747284e-01" purity="3.6189612746238708e-01" nType="-99"/>
        </Node>
      </Node>
    </BinaryTree>
    <BinaryTree type="DecisionTree" boostWeight="1.0000000000000000e+00" itree="880">
      <Node pos="s" depth="0" NCoef="0" IVar="0" Cut="1.2691097259521484e+01" cType="1" res="1.1767346877604723e-03" rms="1.9243040680885315e-01" purity="5.0200259685516357e-01" nType="0">
        <Node pos="l" depth="1" NCoef="0" IVar="2" Cut="1.9932880401611328e+01" cType="1" res="2.4508945643901825e-03" rms="1.9526261091232300e-01" purity="5.1062732934951782e-01" nType="0">
          <Node pos="l" depth="2" NCoef="0" IVar="-1" Cut="0.0000000000000000e+00" cType="1" res="2.2241529077291489e-03" rms="1.9508723914623260e-01" purity="5.1888328790664673e-01" nType="-99"/>
          <Node pos="r" depth="2" NCoef="0" IVar="-1" Cut="0.0000000000000000e+00" cType="1" res="2.2947086021304131e-02" rms="1.9980175793170929e-01" purity="2.5835967063903809e-01" nType="-99"/>
        </Node>
        <Node pos="r" depth="1" NCoef="0" IVar="22" Cut="1.6446832656860352e+01" cType="1" res="-4.4680754654109478e-03" rms="1.7923702299594879e-01" purity="4.6379306912422180e-01" nType="0">
          <Node pos="l" depth="2" NCoef="0" IVar="-1" Cut="0.0000000000000000e+00" cType="1" res="-1.1714519932866096e-02" rms="1.7931707203388214e-01" purity="3.4523221850395203e-01" nType="-99"/>
          <Node pos="r" depth="2" NCoef="0" IVar="-1" Cut="0.0000000000000000e+00" cType="1" res="5.6049297563731670e-03" rms="1.7878820002079010e-01" purity="6.6279512643814087e-01" nType="-99"/>
        </Node>
      </Node>
    </BinaryTree>
    <BinaryTree type="DecisionTree" boostWeight="1.0000000000000000e+00" itree="881">
      <Node pos="s" depth="0" NCoef="0" IVar="3" Cut="1.9120656251907349e+00" cType="1" res="8.3117070607841015e-04" rms="1.9250951707363129e-01" purity="5.0044095516204834e-01" nType="0">
        <Node pos="l" depth="1" NCoef="0" IVar="28" Cut="7.1593844890594482e-01" cType="1" res="3.2595691736787558e-03" rms="2.0849813520908356e-01" purity="7.1501338481903076e-01" nType="0">
          <Node pos="l" depth="2" NCoef="0" IVar="-1" Cut="0.0000000000000000e+00" cType="1" res="6.9582071155309677e-03" rms="2.3750998079776764e-01" purity="5.6965249776840210e-01" nType="-99"/>
          <Node pos="r" depth="2" NCoef="0" IVar="-1" Cut="0.0000000000000000e+00" cType="1" res="-6.1455473769456148e-04" rms="1.8659391999244690e-01" purity="8.1183618307113647e-01" nType="-99"/>
        </Node>
        <Node pos="r" depth="1" NCoef="0" IVar="16" Cut="4.0228804945945740e-01" cType="1" res="-1.8785160500556231e-03" rms="1.7289233207702637e-01" purity="2.6101401448249817e-01" nType="0">
          <Node pos="l" depth="2" NCoef="0" IVar="-1" Cut="0.0000000000000000e+00" cType="1" res="4.9719712696969509e-03" rms="1.7178921401500702e-01" purity="1.6908203065395355e-01" nType="-99"/>
          <Node pos="r" depth="2" NCoef="0" IVar="-1" Cut="0.0000000000000000e+00" cType="1" res="-1.0990977287292480e-02" rms="1.7397519946098328e-01" purity="3.6603984236717224e-01" nType="-99"/>
        </Node>
      </Node>
    </BinaryTree>
    <BinaryTree type="DecisionTree" boostWeight="1.0000000000000000e+00" itree="882">
      <Node pos="s" depth="0" NCoef="0" IVar="18" Cut="-4.5648773193359375e+01" cType="1" res="-8.9531991397961974e-04" rms="1.9158998131752014e-01" purity="4.9733823537826538e-01" nType="0">
        <Node pos="l" depth="1" NCoef="0" IVar="23" Cut="8.5847228765487671e-01" cType="1" res="4.9577266909182072e-03" rms="1.4668256044387817e-01" purity="8.8698148727416992e-01" nType="0">
          <Node pos="l" depth="2" NCoef="0" IVar="-1" Cut="0.0000000000000000e+00" cType="1" res="1.0493499226868153e-02" rms="2.6310396194458008e-01" purity="5.7336133718490601e-01" nType="-99"/>
          <Node pos="r" depth="2" NCoef="0" IVar="-1" Cut="0.0000000000000000e+00" cType="1" res="9.6319233998656273e-03" rms="8.5009030997753143e-02" purity="9.8063755035400391e-01" nType="-99"/>
        </Node>
        <Node pos="r" depth="1" NCoef="0" IVar="32" Cut="7.6175376772880554e-02" cType="1" res="-1.7658061115071177e-03" rms="1.9738318026065826e-01" purity="4.3938907980918884e-01" nType="0">
          <Node pos="l" depth="2" NCoef="0" IVar="-1" Cut="0.0000000000000000e+00" cType="1" res="-3.1844361219555140e-03" rms="1.9940753281116486e-01" purity="5.0017464160919189e-01" nType="-99"/>
          <Node pos="r" depth="2" NCoef="0" IVar="-1" Cut="0.0000000000000000e+00" cType="1" res="3.3209077082574368e-03" rms="1.8912123143672943e-01" purity="1.9947852194309235e-01" nType="-99"/>
        </Node>
      </Node>
    </BinaryTree>
    <BinaryTree type="DecisionTree" boostWeight="1.0000000000000000e+00" itree="883">
      <Node pos="s" depth="0" NCoef="0" IVar="31" Cut="1.9054824486374855e-02" cType="1" res="8.8399561354890466e-04" rms="1.9177778065204620e-01" purity="4.9836364388465881e-01" nType="0">
        <Node pos="l" depth="1" NCoef="0" IVar="31" Cut="1.4521916396915913e-02" cType="1" res="-1.3471208512783051e-03" rms="1.8406593799591064e-01" purity="6.4076638221740723e-01" nType="0">
          <Node pos="l" depth="2" NCoef="0" IVar="-1" Cut="0.0000000000000000e+00" cType="1" res="-5.8421857829671353e-05" rms="1.8305845558643341e-01" purity="6.5568083524703979e-01" nType="-99"/>
          <Node pos="r" depth="2" NCoef="0" IVar="-1" Cut="0.0000000000000000e+00" cType="1" res="-1.6828311607241631e-02" rms="1.9359490275382996e-01" purity="4.8777309060096741e-01" nType="-99"/>
        </Node>
        <Node pos="r" depth="1" NCoef="0" IVar="19" Cut="2.3441141128540039e+01" cType="1" res="3.9333631284534931e-03" rms="2.0180201530456543e-01" purity="3.0373546481132507e-01" nType="0">
          <Node pos="l" depth="2" NCoef="0" IVar="-1" Cut="0.0000000000000000e+00" cType="1" res="6.8232025951147079e-03" rms="2.0120619237422943e-01" purity="2.6041150093078613e-01" nType="-99"/>
          <Node pos="r" depth="2" NCoef="0" IVar="-1" Cut="0.0000000000000000e+00" cType="1" res="-6.5572257153689861e-03" rms="2.0472633838653564e-01" purity="5.4083961248397827e-01" nType="-99"/>
        </Node>
      </Node>
    </BinaryTree>
    <BinaryTree type="DecisionTree" boostWeight="1.0000000000000000e+00" itree="884">
      <Node pos="s" depth="0" NCoef="0" IVar="10" Cut="7.5211791992187500e+00" cType="1" res="1.4563889708369970e-03" rms="1.9431699812412262e-01" purity="5.0092995166778564e-01" nType="0">
        <Node pos="l" depth="1" NCoef="0" IVar="6" Cut="6.3244562149047852e+00" cType="1" res="-2.7125803171657026e-05" rms="1.9177411496639252e-01" purity="5.1637428998947144e-01" nType="0">
          <Node pos="l" depth="2" NCoef="0" IVar="-1" Cut="0.0000000000000000e+00" cType="1" res="2.1087701898068190e-03" rms="1.9437979161739349e-01" purity="5.2729773521423340e-01" nType="-99"/>
          <Node pos="r" depth="2" NCoef="0" IVar="-1" Cut="0.0000000000000000e+00" cType="1" res="-8.2133039832115173e-03" rms="1.8183401226997375e-01" purity="4.7663855552673340e-01" nType="-99"/>
        </Node>
        <Node pos="r" depth="1" NCoef="0" IVar="15" Cut="7.2064108848571777e+00" cType="1" res="5.7022008113563061e-03" rms="2.0135696232318878e-01" purity="4.5672830939292908e-01" nType="0">
          <Node pos="l" depth="2" NCoef="0" IVar="-1" Cut="0.0000000000000000e+00" cType="1" res="2.3205087054520845e-03" rms="2.0513279736042023e-01" purity="3.9527410268783569e-01" nType="-99"/>
          <Node pos="r" depth="2" NCoef="0" IVar="-1" Cut="0.0000000000000000e+00" cType="1" res="1.8690289929509163e-02" rms="1.9314053654670715e-01" purity="5.8329004049301147e-01" nType="-99"/>
        </Node>
      </Node>
    </BinaryTree>
    <BinaryTree type="DecisionTree" boostWeight="1.0000000000000000e+00" itree="885">
      <Node pos="s" depth="0" NCoef="0" IVar="14" Cut="8.3234119415283203e+00" cType="1" res="4.6309106983244419e-04" rms="1.9298978149890900e-01" purity="4.9986460804939270e-01" nType="0">
        <Node pos="l" depth="1" NCoef="0" IVar="27" Cut="8.5697853565216064e-01" cType="1" res="3.5579919349402189e-03" rms="2.0464377105236053e-01" purity="4.7877290844917297e-01" nType="0">
          <Node pos="l" depth="2" NCoef="0" IVar="-1" Cut="0.0000000000000000e+00" cType="1" res="-4.0504266507923603e-03" rms="2.0275440812110901e-01" purity="2.1173058450222015e-01" nType="-99"/>
          <Node pos="r" depth="2" NCoef="0" IVar="-1" Cut="0.0000000000000000e+00" cType="1" res="7.6783159747719765e-03" rms="2.0554399490356445e-01" purity="6.2051707506179810e-01" nType="-99"/>
        </Node>
        <Node pos="r" depth="1" NCoef="0" IVar="29" Cut="6.9859498739242554e-01" cType="1" res="-2.4264669045805931e-03" rms="1.8138690292835236e-01" purity="5.1955693960189819e-01" nType="0">
          <Node pos="l" depth="2" NCoef="0" IVar="-1" Cut="0.0000000000000000e+00" cType="1" res="-1.6809201333671808e-03" rms="1.8134731054306030e-01" purity="5.3459018468856812e-01" nType="-99"/>
          <Node pos="r" depth="2" NCoef="0" IVar="-1" Cut="0.0000000000000000e+00" cType="1" res="-3.1360037624835968e-02" rms="1.8084220588207245e-01" purity="2.3404175043106079e-01" nType="-99"/>
        </Node>
      </Node>
    </BinaryTree>
    <BinaryTree type="DecisionTree" boostWeight="1.0000000000000000e+00" itree="886">
      <Node pos="s" depth="0" NCoef="0" IVar="27" Cut="2.3839037120342255e-01" cType="1" res="-5.3863594075664878e-05" rms="1.9093713164329529e-01" purity="5.0170272588729858e-01" nType="0">
        <Node pos="l" depth="1" NCoef="0" IVar="32" Cut="1.9053546711802483e-02" cType="1" res="-7.6024751178920269e-03" rms="1.6986581683158875e-01" purity="1.5740993618965149e-01" nType="0">
          <Node pos="l" depth="2" NCoef="0" IVar="-1" Cut="0.0000000000000000e+00" cType="1" res="3.1560668721795082e-03" rms="1.7392243444919586e-01" purity="2.2840400040149689e-01" nType="-99"/>
          <Node pos="r" depth="2" NCoef="0" IVar="-1" Cut="0.0000000000000000e+00" cType="1" res="-2.4971896782517433e-02" rms="1.6601634025573730e-01" purity="9.9179774522781372e-02" nType="-99"/>
        </Node>
        <Node pos="r" depth="1" NCoef="0" IVar="26" Cut="4.2507615685462952e-01" cType="1" res="4.0166763938032091e-04" rms="1.9212529063224792e-01" purity="5.2247953414916992e-01" nType="0">
          <Node pos="l" depth="2" NCoef="0" IVar="-1" Cut="0.0000000000000000e+00" cType="1" res="2.5827421268331818e-05" rms="1.9147452712059021e-01" purity="5.2889341115951538e-01" nType="-99"/>
          <Node pos="r" depth="2" NCoef="0" IVar="-1" Cut="0.0000000000000000e+00" cType="1" res="1.5156806446611881e-02" rms="2.1253977715969086e-01" purity="3.0586990714073181e-01" nType="-99"/>
        </Node>
      </Node>
    </BinaryTree>
    <BinaryTree type="DecisionTree" boostWeight="1.0000000000000000e+00" itree="887">
      <Node pos="s" depth="0" NCoef="0" IVar="28" Cut="2.4126526713371277e-01" cType="1" res="-1.3872284907847643e-03" rms="1.9091063737869263e-01" purity="4.9976181983947754e-01" nType="0">
        <Node pos="l" depth="1" NCoef="0" IVar="6" Cut="6.5540909767150879e+00" cType="1" res="5.5825496092438698e-03" rms="1.9771838188171387e-01" purity="3.1307390332221985e-01" nType="0">
          <Node pos="l" depth="2" NCoef="0" IVar="-1" Cut="0.0000000000000000e+00" cType="1" res="1.1335545219480991e-02" rms="2.0536690950393677e-01" purity="3.4234842658042908e-01" nType="-99"/>
          <Node pos="r" depth="2" NCoef="0" IVar="-1" Cut="0.0000000000000000e+00" cType="1" res="-2.1152606233954430e-02" rms="1.6201139986515045e-01" purity="1.9540758430957794e-01" nType="-99"/>
        </Node>
        <Node pos="r" depth="1" NCoef="0" IVar="3" Cut="1.9092152118682861e+00" cType="1" res="-2.4277998600155115e-03" rms="1.8985137343406677e-01" purity="5.2763384580612183e-01" nType="0">
          <Node pos="l" depth="2" NCoef="0" IVar="-1" Cut="0.0000000000000000e+00" cType="1" res="-4.9625001847743988e-03" rms="1.9928327202796936e-01" purity="7.3424887657165527e-01" nType="-99"/>
          <Node pos="r" depth="2" NCoef="0" IVar="-1" Cut="0.0000000000000000e+00" cType="1" res="2.8099719202145934e-04" rms="1.7807622253894806e-01" purity="2.8445848822593689e-01" nType="-99"/>
        </Node>
      </Node>
    </BinaryTree>
    <BinaryTree type="DecisionTree" boostWeight="1.0000000000000000e+00" itree="888">
      <Node pos="s" depth="0" NCoef="0" IVar="14" Cut="7.2857022285461426e+00" cType="1" res="1.7599189595784992e-04" rms="1.9063729047775269e-01" purity="4.9921971559524536e-01" nType="0">
        <Node pos="l" depth="1" NCoef="0" IVar="27" Cut="9.0513724088668823e-01" cType="1" res="1.0133083909749985e-02" rms="2.0680648088455200e-01" purity="3.8711711764335632e-01" nType="0">
          <Node pos="l" depth="2" NCoef="0" IVar="-1" Cut="0.0000000000000000e+00" cType="1" res="-7.6425462029874325e-03" rms="1.8685387074947357e-01" purity="1.5418644249439240e-01" nType="-99"/>
          <Node pos="r" depth="2" NCoef="0" IVar="-1" Cut="0.0000000000000000e+00" cType="1" res="2.4805132299661636e-02" rms="2.2284767031669617e-01" purity="6.0448127985000610e-01" nType="-99"/>
        </Node>
        <Node pos="r" depth="1" NCoef="0" IVar="13" Cut="7.2282104492187500e+00" cType="1" res="-4.4418554170988500e-04" rms="1.8956728279590607e-01" purity="5.0620198249816895e-01" nType="0">
          <Node pos="l" depth="2" NCoef="0" IVar="-1" Cut="0.0000000000000000e+00" cType="1" res="-2.2863345220685005e-02" rms="1.7565494775772095e-01" purity="3.2604259252548218e-01" nType="-99"/>
          <Node pos="r" depth="2" NCoef="0" IVar="-1" Cut="0.0000000000000000e+00" cType="1" res="2.5255815126001835e-04" rms="1.9002783298492432e-01" purity="5.1282513141632080e-01" nType="-99"/>
        </Node>
      </Node>
    </BinaryTree>
    <BinaryTree type="DecisionTree" boostWeight="1.0000000000000000e+00" itree="889">
      <Node pos="s" depth="0" NCoef="0" IVar="24" Cut="1.4488196372985840e-01" cType="1" res="8.1737135769799352e-04" rms="1.9387167692184448e-01" purity="5.0103884935379028e-01" nType="0">
        <Node pos="l" depth="1" NCoef="0" IVar="-1" Cut="0.0000000000000000e+00" cType="1" res="-2.5356438010931015e-02" rms="1.5396621823310852e-01" purity="8.3355851471424103e-02" nType="-99"/>
        <Node pos="r" depth="1" NCoef="0" IVar="31" Cut="1.7135222256183624e-01" cType="1" res="1.2220566859468818e-03" rms="1.9484974443912506e-01" purity="5.1266145706176758e-01" nType="0">
          <Node pos="l" depth="2" NCoef="0" IVar="-1" Cut="0.0000000000000000e+00" cType="1" res="2.2834143601357937e-03" rms="1.9655577838420868e-01" purity="5.4020506143569946e-01" nType="-99"/>
          <Node pos="r" depth="2" NCoef="0" IVar="-1" Cut="0.0000000000000000e+00" cType="1" res="-1.0322966612875462e-02" rms="1.7283296585083008e-01" purity="1.8203611671924591e-01" nType="-99"/>
        </Node>
      </Node>
    </BinaryTree>
    <BinaryTree type="DecisionTree" boostWeight="1.0000000000000000e+00" itree="890">
      <Node pos="s" depth="0" NCoef="0" IVar="23" Cut="4.7676345705986023e-01" cType="1" res="-1.1268904927419499e-04" rms="1.9447900354862213e-01" purity="4.9861717224121094e-01" nType="0">
        <Node pos="l" depth="1" NCoef="0" IVar="3" Cut="2.6284351348876953e+00" cType="1" res="5.1579046994447708e-03" rms="1.8381886184215546e-01" purity="9.2077046632766724e-02" nType="0">
          <Node pos="l" depth="2" NCoef="0" IVar="-1" Cut="0.0000000000000000e+00" cType="1" res="8.4429336711764336e-03" rms="2.3901514708995819e-01" purity="1.6148717701435089e-01" nType="-99"/>
          <Node pos="r" depth="2" NCoef="0" IVar="-1" Cut="0.0000000000000000e+00" cType="1" res="-1.3583949767053127e-03" rms="8.4055759012699127e-02" purity="1.2760418467223644e-02" nType="-99"/>
        </Node>
        <Node pos="r" depth="1" NCoef="0" IVar="22" Cut="1.4056143760681152e+01" cType="1" res="-1.6858044546097517e-03" rms="1.9752205908298492e-01" purity="6.1995732784271240e-01" nType="0">
          <Node pos="l" depth="2" NCoef="0" IVar="-1" Cut="0.0000000000000000e+00" cType="1" res="-5.1140077412128448e-03" rms="2.1306966245174408e-01" purity="4.8721820116043091e-01" nType="-99"/>
          <Node pos="r" depth="2" NCoef="0" IVar="-1" Cut="0.0000000000000000e+00" cType="1" res="2.6567140594124794e-03" rms="1.7938204109668732e-01" purity="7.6159584522247314e-01" nType="-99"/>
        </Node>
      </Node>
    </BinaryTree>
    <BinaryTree type="DecisionTree" boostWeight="1.0000000000000000e+00" itree="891">
      <Node pos="s" depth="0" NCoef="0" IVar="2" Cut="1.0691500663757324e+01" cType="1" res="9.1712881112471223e-04" rms="1.9423907995223999e-01" purity="4.9895727634429932e-01" nType="0">
        <Node pos="l" depth="1" NCoef="0" IVar="2" Cut="3.2086377143859863e+00" cType="1" res="-3.9634582935832441e-04" rms="1.9602422416210175e-01" purity="5.2973967790603638e-01" nType="0">
          <Node pos="l" depth="2" NCoef="0" IVar="-1" Cut="0.0000000000000000e+00" cType="1" res="-1.6791086643934250e-02" rms="1.9761167466640472e-01" purity="4.0136203169822693e-01" nType="-99"/>
          <Node pos="r" depth="2" NCoef="0" IVar="-1" Cut="0.0000000000000000e+00" cType="1" res="7.4205407872796059e-04" rms="1.9586575031280518e-01" purity="5.3949230909347534e-01" nType="-99"/>
        </Node>
        <Node pos="r" depth="1" NCoef="0" IVar="16" Cut="3.5528084635734558e-01" cType="1" res="5.3856270387768745e-03" rms="1.8797041475772858e-01" purity="3.9423435926437378e-01" nType="0">
          <Node pos="l" depth="2" NCoef="0" IVar="-1" Cut="0.0000000000000000e+00" cType="1" res="1.5644181519746780e-02" rms="1.9293212890625000e-01" purity="2.2745144367218018e-01" nType="-99"/>
          <Node pos="r" depth="2" NCoef="0" IVar="-1" Cut="0.0000000000000000e+00" cType="1" res="-2.5093203876167536e-03" rms="1.8264824151992798e-01" purity="5.5867296457290649e-01" nType="-99"/>
        </Node>
      </Node>
    </BinaryTree>
    <BinaryTree type="DecisionTree" boostWeight="1.0000000000000000e+00" itree="892">
      <Node pos="s" depth="0" NCoef="0" IVar="13" Cut="7.0677361488342285e+00" cType="1" res="9.4869354506954551e-04" rms="1.9492824375629425e-01" purity="5.0213104486465454e-01" nType="0">
        <Node pos="l" depth="1" NCoef="0" IVar="-1" Cut="0.0000000000000000e+00" cType="1" res="-1.4112312346696854e-02" rms="1.9422085583209991e-01" purity="3.3185228705406189e-01" nType="-99"/>
        <Node pos="r" depth="1" NCoef="0" IVar="22" Cut="-6.7575583457946777e+00" cType="1" res="1.4245787169784307e-03" rms="1.9493839144706726e-01" purity="5.0847780704498291e-01" nType="0">
          <Node pos="l" depth="2" NCoef="0" IVar="-1" Cut="0.0000000000000000e+00" cType="1" res="1.9610317423939705e-02" rms="2.0675729215145111e-01" purity="4.1096371412277222e-01" nType="-99"/>
          <Node pos="r" depth="2" NCoef="0" IVar="-1" Cut="0.0000000000000000e+00" cType="1" res="1.1048337910324335e-03" rms="1.9443467259407043e-01" purity="5.1237094402313232e-01" nType="-99"/>
        </Node>
      </Node>
    </BinaryTree>
    <BinaryTree type="DecisionTree" boostWeight="1.0000000000000000e+00" itree="893">
      <Node pos="s" depth="0" NCoef="0" IVar="27" Cut="9.5197385549545288e-01" cType="1" res="6.7788052547257394e-05" rms="1.9038824737071991e-01" purity="4.9989175796508789e-01" nType="0">
        <Node pos="l" depth="1" NCoef="0" IVar="19" Cut="1.0760223388671875e+01" cType="1" res="-2.2845959756523371e-03" rms="1.9331584870815277e-01" purity="2.8101086616516113e-01" nType="0">
          <Node pos="l" depth="2" NCoef="0" IVar="-1" Cut="0.0000000000000000e+00" cType="1" res="2.2899319883435965e-03" rms="1.8384121358394623e-01" purity="1.7834550142288208e-01" nType="-99"/>
          <Node pos="r" depth="2" NCoef="0" IVar="-1" Cut="0.0000000000000000e+00" cType="1" res="-6.1938385479152203e-03" rms="2.0163412392139435e-01" purity="3.7616714835166931e-01" nType="-99"/>
        </Node>
        <Node pos="r" depth="1" NCoef="0" IVar="27" Cut="9.9048805236816406e-01" cType="1" res="2.4123128969222307e-03" rms="1.8739557266235352e-01" purity="7.1804136037826538e-01" nType="0">
          <Node pos="l" depth="2" NCoef="0" IVar="-1" Cut="0.0000000000000000e+00" cType="1" res="-2.4416504893451929e-03" rms="2.1309277415275574e-01" purity="5.8046996593475342e-01" nType="-99"/>
          <Node pos="r" depth="2" NCoef="0" IVar="-1" Cut="0.0000000000000000e+00" cType="1" res="9.6457200124859810e-03" rms="1.6356037557125092e-01" purity="8.2940119504928589e-01" nType="-99"/>
        </Node>
      </Node>
    </BinaryTree>
    <BinaryTree type="DecisionTree" boostWeight="1.0000000000000000e+00" itree="894">
      <Node pos="s" depth="0" NCoef="0" IVar="31" Cut="7.6156586408615112e-02" cType="1" res="3.7235129275359213e-04" rms="1.9132861495018005e-01" purity="4.9997907876968384e-01" nType="0">
        <Node pos="l" depth="1" NCoef="0" IVar="14" Cut="8.3825654983520508e+00" cType="1" res="1.5719889197498560e-03" rms="1.9199617207050323e-01" purity="5.6468993425369263e-01" nType="0">
          <Node pos="l" depth="2" NCoef="0" IVar="-1" Cut="0.0000000000000000e+00" cType="1" res="5.1585515029728413e-03" rms="1.9921503961086273e-01" purity="5.6176865100860596e-01" nType="-99"/>
          <Node pos="r" depth="2" NCoef="0" IVar="-1" Cut="0.0000000000000000e+00" cType="1" res="-1.9652997143566608e-03" rms="1.8435992300510406e-01" purity="5.6764310598373413e-01" nType="-99"/>
        </Node>
        <Node pos="r" depth="1" NCoef="0" IVar="33" Cut="1.9040817394852638e-02" cType="1" res="-4.8937029205262661e-03" rms="1.8827988207340240e-01" purity="2.1591770648956299e-01" nType="0">
          <Node pos="l" depth="2" NCoef="0" IVar="-1" Cut="0.0000000000000000e+00" cType="1" res="-1.5606038272380829e-02" rms="1.9102990627288818e-01" purity="3.1501621007919312e-01" nType="-99"/>
          <Node pos="r" depth="2" NCoef="0" IVar="-1" Cut="0.0000000000000000e+00" cType="1" res="1.5396735398098826e-03" rms="1.8609903752803802e-01" purity="1.4669585227966309e-01" nType="-99"/>
        </Node>
      </Node>
    </BinaryTree>
    <BinaryTree type="DecisionTree" boostWeight="1.0000000000000000e+00" itree="895">
      <Node pos="s" depth="0" NCoef="0" IVar="5" Cut="1.1203381538391113e+01" cType="1" res="9.6337764989584684e-04" rms="1.9317527115345001e-01" purity="5.0285559892654419e-01" nType="0">
        <Node pos="l" depth="1" NCoef="0" IVar="5" Cut="2.1380202770233154e+00" cType="1" res="1.3699255650863051e-03" rms="1.9412748515605927e-01" purity="5.1417690515518188e-01" nType="0">
          <Node pos="l" depth="2" NCoef="0" IVar="-1" Cut="0.0000000000000000e+00" cType="1" res="3.7914775311946869e-03" rms="1.9501772522926331e-01" purity="5.6198054552078247e-01" nType="-99"/>
          <Node pos="r" depth="2" NCoef="0" IVar="-1" Cut="0.0000000000000000e+00" cType="1" res="-4.7480366192758083e-03" rms="1.9146224856376648e-01" purity="3.7749737501144409e-01" nType="-99"/>
        </Node>
        <Node pos="r" depth="1" NCoef="0" IVar="-1" Cut="0.0000000000000000e+00" cType="1" res="-2.7644615620374680e-02" rms="1.5483532845973969e-01" purity="9.9869422614574432e-02" nType="-99"/>
      </Node>
    </BinaryTree>
    <BinaryTree type="DecisionTree" boostWeight="1.0000000000000000e+00" itree="896">
      <Node pos="s" depth="0" NCoef="0" IVar="12" Cut="6.5135540962219238e+00" cType="1" res="-8.6808786727488041e-04" rms="1.9136740267276764e-01" purity="4.9587038159370422e-01" nType="0">
        <Node pos="l" depth="1" NCoef="0" IVar="1" Cut="8.0374021530151367e+00" cType="1" res="6.6935541108250618e-03" rms="2.0449709892272949e-01" purity="3.0964848399162292e-01" nType="0">
          <Node pos="l" depth="2" NCoef="0" IVar="-1" Cut="0.0000000000000000e+00" cType="1" res="-1.0257752146571875e-03" rms="2.0075193047523499e-01" purity="2.6481741666793823e-01" nType="-99"/>
          <Node pos="r" depth="2" NCoef="0" IVar="-1" Cut="0.0000000000000000e+00" cType="1" res="2.4087170138955116e-02" rms="2.1143779158592224e-01" purity="4.0668472647666931e-01" nType="-99"/>
        </Node>
        <Node pos="r" depth="1" NCoef="0" IVar="10" Cut="7.3820095062255859e+00" cType="1" res="-1.5637039905413985e-03" rms="1.9009892642498016e-01" purity="5.1300138235092163e-01" nType="0">
          <Node pos="l" depth="2" NCoef="0" IVar="-1" Cut="0.0000000000000000e+00" cType="1" res="5.8978148445021361e-06" rms="1.8578624725341797e-01" purity="5.4224419593811035e-01" nType="-99"/>
          <Node pos="r" depth="2" NCoef="0" IVar="-1" Cut="0.0000000000000000e+00" cType="1" res="-5.3486297838389874e-03" rms="1.9812144339084625e-01" purity="4.5656749606132507e-01" nType="-99"/>
        </Node>
      </Node>
    </BinaryTree>
    <BinaryTree type="DecisionTree" boostWeight="1.0000000000000000e+00" itree="897">
      <Node pos="s" depth="0" NCoef="0" IVar="17" Cut="6.7278861999511719e+00" cType="1" res="3.2715815905248746e-05" rms="1.9054014980792999e-01" purity="5.0145947933197021e-01" nType="0">
        <Node pos="l" depth="1" NCoef="0" IVar="11" Cut="7.2878203392028809e+00" cType="1" res="5.4345056414604187e-03" rms="1.8702028691768646e-01" purity="1.5941856801509857e-01" nType="0">
          <Node pos="l" depth="2" NCoef="0" IVar="-1" Cut="0.0000000000000000e+00" cType="1" res="9.2501717153936625e-04" rms="1.8558125197887421e-01" purity="1.6601377725601196e-01" nType="-99"/>
          <Node pos="r" depth="2" NCoef="0" IVar="-1" Cut="0.0000000000000000e+00" cType="1" res="3.2044179737567902e-02" rms="1.9040420651435852e-01" purity="1.4063321053981781e-01" nType="-99"/>
        </Node>
        <Node pos="r" depth="1" NCoef="0" IVar="16" Cut="5.4565912485122681e-01" cType="1" res="-9.8232517484575510e-04" rms="1.9117729365825653e-01" purity="5.6573188304901123e-01" nType="0">
          <Node pos="l" depth="2" NCoef="0" IVar="-1" Cut="0.0000000000000000e+00" cType="1" res="-2.5370486546307802e-03" rms="1.9756068289279938e-01" purity="5.1880848407745361e-01" nType="-99"/>
          <Node pos="r" depth="2" NCoef="0" IVar="-1" Cut="0.0000000000000000e+00" cType="1" res="5.7398946955800056e-03" rms="1.6525368392467499e-01" purity="7.3991507291793823e-01" nType="-99"/>
        </Node>
      </Node>
    </BinaryTree>
    <BinaryTree type="DecisionTree" boostWeight="1.0000000000000000e+00" itree="898">
      <Node pos="s" depth="0" NCoef="0" IVar="10" Cut="8.1210441589355469e+00" cType="1" res="6.7365780705586076e-04" rms="1.9407007098197937e-01" purity="5.0272345542907715e-01" nType="0">
        <Node pos="l" depth="1" NCoef="0" IVar="29" Cut="7.3241001367568970e-01" cType="1" res="1.2964371126145124e-03" rms="1.9428400695323944e-01" purity="5.0719749927520752e-01" nType="0">
          <Node pos="l" depth="2" NCoef="0" IVar="-1" Cut="0.0000000000000000e+00" cType="1" res="2.2699739784002304e-03" rms="1.9435045123100281e-01" purity="5.1487874984741211e-01" nType="-99"/>
          <Node pos="r" depth="2" NCoef="0" IVar="-1" Cut="0.0000000000000000e+00" cType="1" res="-1.1529123410582542e-02" rms="1.9260203838348389e-01" purity="3.5537800192832947e-01" nType="-99"/>
        </Node>
        <Node pos="r" depth="1" NCoef="0" IVar="22" Cut="1.1780629158020020e+01" cType="1" res="-1.0270462371408939e-02" rms="1.8993839621543884e-01" purity="4.2410084605216980e-01" nType="0">
          <Node pos="l" depth="2" NCoef="0" IVar="-1" Cut="0.0000000000000000e+00" cType="1" res="5.7878210209310055e-03" rms="1.9838875532150269e-01" purity="3.2191696763038635e-01" nType="-99"/>
          <Node pos="r" depth="2" NCoef="0" IVar="-1" Cut="0.0000000000000000e+00" cType="1" res="-3.1576700508594513e-02" rms="1.7948547005653381e-01" purity="5.3040093183517456e-01" nType="-99"/>
        </Node>
      </Node>
    </BinaryTree>
    <BinaryTree type="DecisionTree" boostWeight="1.0000000000000000e+00" itree="899">
      <Node pos="s" depth="0" NCoef="0" IVar="32" Cut="2.4755539000034332e-01" cType="1" res="-2.7188539388589561e-04" rms="1.9420777261257172e-01" purity="5.0016027688980103e-01" nType="0">
        <Node pos="l" depth="1" NCoef="0" IVar="27" Cut="4.2874014377593994e-01" cType="1" res="-7.4519915506243706e-04" rms="1.9416274130344391e-01" purity="5.1379221677780151e-01" nType="0">
          <Node pos="l" depth="2" NCoef="0" IVar="-1" Cut="0.0000000000000000e+00" cType="1" res="8.9518539607524872e-03" rms="1.9940210878849030e-01" purity="1.9400691986083984e-01" nType="-99"/>
          <Node pos="r" depth="2" NCoef="0" IVar="-1" Cut="0.0000000000000000e+00" cType="1" res="-1.7665786435827613e-03" rms="1.9360990822315216e-01" purity="5.4611456394195557e-01" nType="-99"/>
        </Node>
        <Node pos="r" depth="1" NCoef="0" IVar="-1" Cut="0.0000000000000000e+00" cType="1" res="1.4218798838555813e-02" rms="1.9491933286190033e-01" purity="1.8975380063056946e-01" nType="-99"/>
      </Node>
    </BinaryTree>
    <BinaryTree type="DecisionTree" boostWeight="1.0000000000000000e+00" itree="900">
      <Node pos="s" depth="0" NCoef="0" IVar="23" Cut="5.7263773679733276e-01" cType="1" res="1.0709642665460706e-03" rms="1.9407935440540314e-01" purity="5.0431227684020996e-01" nType="0">
        <Node pos="l" depth="1" NCoef="0" IVar="27" Cut="9.5211845636367798e-01" cType="1" res="-2.5332570075988770e-03" rms="1.8469314277172089e-01" purity="1.0648687183856964e-01" nType="0">
          <Node pos="l" depth="2" NCoef="0" IVar="-1" Cut="0.0000000000000000e+00" cType="1" res="3.0926340259611607e-03" rms="1.6377221047878265e-01" purity="5.5474452674388885e-02" nType="-99"/>
          <Node pos="r" depth="2" NCoef="0" IVar="-1" Cut="0.0000000000000000e+00" cType="1" res="-9.3078613281250000e-03" rms="2.2264482080936432e-01" purity="2.1550796926021576e-01" nType="-99"/>
        </Node>
        <Node pos="r" depth="1" NCoef="0" IVar="12" Cut="8.1584568023681641e+00" cType="1" res="2.5890164542943239e-03" rms="1.9787986576557159e-01" purity="6.7187118530273438e-01" nType="0">
          <Node pos="l" depth="2" NCoef="0" IVar="-1" Cut="0.0000000000000000e+00" cType="1" res="3.8733626715838909e-03" rms="2.0175853371620178e-01" purity="6.5353095531463623e-01" nType="-99"/>
          <Node pos="r" depth="2" NCoef="0" IVar="-1" Cut="0.0000000000000000e+00" cType="1" res="-1.4907706528902054e-02" rms="1.4924682676792145e-01" purity="8.7043809890747070e-01" nType="-99"/>
        </Node>
      </Node>
    </BinaryTree>
    <BinaryTree type="DecisionTree" boostWeight="1.0000000000000000e+00" itree="901">
      <Node pos="s" depth="0" NCoef="0" IVar="10" Cut="6.9685921669006348e+00" cType="1" res="-6.5587385324761271e-04" rms="1.8903660774230957e-01" purity="5.0192117691040039e-01" nType="0">
        <Node pos="l" depth="1" NCoef="0" IVar="22" Cut="1.4071632385253906e+01" cType="1" res="-2.8762384317815304e-03" rms="1.8255028128623962e-01" purity="4.9381321668624878e-01" nType="0">
          <Node pos="l" depth="2" NCoef="0" IVar="-1" Cut="0.0000000000000000e+00" cType="1" res="-8.2901194691658020e-03" rms="1.9005219638347626e-01" purity="3.7049818038940430e-01" nType="-99"/>
          <Node pos="r" depth="2" NCoef="0" IVar="-1" Cut="0.0000000000000000e+00" cType="1" res="3.7579203490167856e-03" rms="1.7195785045623779e-01" purity="6.5710705518722534e-01" nType="-99"/>
        </Node>
        <Node pos="r" depth="1" NCoef="0" IVar="31" Cut="1.9033610820770264e-01" cType="1" res="1.3098773779347539e-03" rms="1.9457763433456421e-01" purity="5.0909924507141113e-01" nType="0">
          <Node pos="l" depth="2" NCoef="0" IVar="-1" Cut="0.0000000000000000e+00" cType="1" res="4.6285765711218119e-04" rms="1.9390685856342316e-01" purity="5.2363765239715576e-01" nType="-99"/>
          <Node pos="r" depth="2" NCoef="0" IVar="-1" Cut="0.0000000000000000e+00" cType="1" res="2.3542510345578194e-02" rms="2.0620003342628479e-01" purity="2.3151351511478424e-01" nType="-99"/>
        </Node>
      </Node>
    </BinaryTree>
    <BinaryTree type="DecisionTree" boostWeight="1.0000000000000000e+00" itree="902">
      <Node pos="s" depth="0" NCoef="0" IVar="33" Cut="2.2855772078037262e-01" cType="1" res="-8.7039836216717958e-04" rms="1.9216126203536987e-01" purity="4.9778568744659424e-01" nType="0">
        <Node pos="l" depth="1" NCoef="0" IVar="0" Cut="1.1379595756530762e+01" cType="1" res="-1.4021720271557570e-03" rms="1.9145001471042633e-01" purity="5.1356440782546997e-01" nType="0">
          <Node pos="l" depth="2" NCoef="0" IVar="-1" Cut="0.0000000000000000e+00" cType="1" res="-3.3701884094625711e-03" rms="1.9439993798732758e-01" purity="5.1837027072906494e-01" nType="-99"/>
          <Node pos="r" depth="2" NCoef="0" IVar="-1" Cut="0.0000000000000000e+00" cType="1" res="4.2103012092411518e-03" rms="1.8105190992355347e-01" purity="4.9732926487922668e-01" nType="-99"/>
        </Node>
        <Node pos="r" depth="1" NCoef="0" IVar="22" Cut="9.7655000686645508e+00" cType="1" res="7.2029596194624901e-03" rms="2.0248165726661682e-01" purity="2.5823494791984558e-01" nType="0">
          <Node pos="l" depth="2" NCoef="0" IVar="-1" Cut="0.0000000000000000e+00" cType="1" res="-9.0972809121012688e-03" rms="1.8899331986904144e-01" purity="1.5477807819843292e-01" nType="-99"/>
          <Node pos="r" depth="2" NCoef="0" IVar="-1" Cut="0.0000000000000000e+00" cType="1" res="2.0166480913758278e-02" rms="2.1288236975669861e-01" purity="3.4926012158393860e-01" nType="-99"/>
        </Node>
      </Node>
    </BinaryTree>
    <BinaryTree type="DecisionTree" boostWeight="1.0000000000000000e+00" itree="903">
      <Node pos="s" depth="0" NCoef="0" IVar="19" Cut="-4.7372570037841797e+00" cType="1" res="-1.9952114671468735e-03" rms="1.9119082391262054e-01" purity="4.9667537212371826e-01" nType="0">
        <Node pos="l" depth="1" NCoef="0" IVar="32" Cut="1.9005607813596725e-02" cType="1" res="5.7646604254841805e-03" rms="1.9110552966594696e-01" purity="4.4737780094146729e-01" nType="0">
          <Node pos="l" depth="2" NCoef="0" IVar="-1" Cut="0.0000000000000000e+00" cType="1" res="-3.5895847249776125e-03" rms="1.9057883322238922e-01" purity="5.7321017980575562e-01" nType="-99"/>
          <Node pos="r" depth="2" NCoef="0" IVar="-1" Cut="0.0000000000000000e+00" cType="1" res="2.2396622225642204e-02" rms="1.9122092425823212e-01" purity="2.8702735900878906e-01" nType="-99"/>
        </Node>
        <Node pos="r" depth="1" NCoef="0" IVar="16" Cut="3.6670452356338501e-01" cType="1" res="-2.8668760787695646e-03" rms="1.9118072092533112e-01" purity="5.0221288204193115e-01" nType="0">
          <Node pos="l" depth="2" NCoef="0" IVar="-1" Cut="0.0000000000000000e+00" cType="1" res="-5.7718991301953793e-03" rms="2.0558924973011017e-01" purity="2.8642433881759644e-01" nType="-99"/>
          <Node pos="r" depth="2" NCoef="0" IVar="-1" Cut="0.0000000000000000e+00" cType="1" res="-1.5357251977548003e-03" rms="1.8162652850151062e-01" purity="6.3636124134063721e-01" nType="-99"/>
        </Node>
      </Node>
    </BinaryTree>
    <BinaryTree type="DecisionTree" boostWeight="1.0000000000000000e+00" itree="904">
      <Node pos="s" depth="0" NCoef="0" IVar="3" Cut="4.8270446062088013e-01" cType="1" res="4.7809240641072392e-04" rms="1.9603185355663300e-01" purity="4.9937909841537476e-01" nType="0">
        <Node pos="l" depth="1" NCoef="0" IVar="-1" Cut="0.0000000000000000e+00" cType="1" res="1.0080697946250439e-02" rms="2.1101349592208862e-01" purity="7.5576823949813843e-01" nType="-99"/>
        <Node pos="r" depth="1" NCoef="0" IVar="29" Cut="1.8585866689682007e-01" cType="1" res="-7.8072422184050083e-05" rms="1.9512365758419037e-01" purity="4.8468339443206787e-01" nType="0">
          <Node pos="l" depth="2" NCoef="0" IVar="-1" Cut="0.0000000000000000e+00" cType="1" res="-2.4808614980429411e-03" rms="1.8748156726360321e-01" purity="5.9875810146331787e-01" nType="-99"/>
          <Node pos="r" depth="2" NCoef="0" IVar="-1" Cut="0.0000000000000000e+00" cType="1" res="3.0948400963097811e-03" rms="2.0612241327762604e-01" purity="3.1199157238006592e-01" nType="-99"/>
        </Node>
      </Node>
    </BinaryTree>
    <BinaryTree type="DecisionTree" boostWeight="1.0000000000000000e+00" itree="905">
      <Node pos="s" depth="0" NCoef="0" IVar="11" Cut="5.9088492393493652e+00" cType="1" res="-6.4570998074486852e-04" rms="1.9112353026866913e-01" purity="4.9916750192642212e-01" nType="0">
        <Node pos="l" depth="1" NCoef="0" IVar="33" Cut="1.9050858914852142e-02" cType="1" res="6.0036289505660534e-03" rms="1.9995044171810150e-01" purity="3.8848114013671875e-01" nType="0">
          <Node pos="l" depth="2" NCoef="0" IVar="-1" Cut="0.0000000000000000e+00" cType="1" res="-2.5264699943363667e-03" rms="1.9651302695274353e-01" purity="5.0877737998962402e-01" nType="-99"/>
          <Node pos="r" depth="2" NCoef="0" IVar="-1" Cut="0.0000000000000000e+00" cType="1" res="1.5276052989065647e-02" rms="2.0264875888824463e-01" purity="2.8255546092987061e-01" nType="-99"/>
        </Node>
        <Node pos="r" depth="1" NCoef="0" IVar="30" Cut="1.9047680497169495e-01" cType="1" res="-1.4489926397800446e-03" rms="1.9001367688179016e-01" purity="5.1253908872604370e-01" nType="0">
          <Node pos="l" depth="2" NCoef="0" IVar="-1" Cut="0.0000000000000000e+00" cType="1" res="-9.1679772594943643e-04" rms="1.9059203565120697e-01" purity="5.3371876478195190e-01" nType="-99"/>
          <Node pos="r" depth="2" NCoef="0" IVar="-1" Cut="0.0000000000000000e+00" cType="1" res="-1.3790111988782883e-02" rms="1.8194755911827087e-01" purity="2.3283813893795013e-01" nType="-99"/>
        </Node>
      </Node>
    </BinaryTree>
    <BinaryTree type="DecisionTree" boostWeight="1.0000000000000000e+00" itree="906">
      <Node pos="s" depth="0" NCoef="0" IVar="32" Cut="1.7138670384883881e-01" cType="1" res="1.6833253903314471e-04" rms="1.9205987453460693e-01" purity="4.9732542037963867e-01" nType="0">
        <Node pos="l" depth="1" NCoef="0" IVar="32" Cut="8.1639681011438370e-03" cType="1" res="-6.2541454099118710e-04" rms="1.9289068877696991e-01" purity="5.2298331260681152e-01" nType="0">
          <Node pos="l" depth="2" NCoef="0" IVar="-1" Cut="0.0000000000000000e+00" cType="1" res="2.4810109753161669e-03" rms="1.8346516788005829e-01" purity="6.7852181196212769e-01" nType="-99"/>
          <Node pos="r" depth="2" NCoef="0" IVar="-1" Cut="0.0000000000000000e+00" cType="1" res="-3.7162408698350191e-03" rms="2.0227313041687012e-01" purity="3.5979244112968445e-01" nType="-99"/>
        </Node>
        <Node pos="r" depth="1" NCoef="0" IVar="3" Cut="2.4093668460845947e+00" cType="1" res="9.3333469703793526e-03" rms="1.8194201588630676e-01" purity="2.0106592774391174e-01" nType="0">
          <Node pos="l" depth="2" NCoef="0" IVar="-1" Cut="0.0000000000000000e+00" cType="1" res="1.5655634924769402e-02" rms="2.4233756959438324e-01" purity="3.8269105553627014e-01" nType="-99"/>
          <Node pos="r" depth="2" NCoef="0" IVar="-1" Cut="0.0000000000000000e+00" cType="1" res="-3.1920650508254766e-04" rms="1.0336329042911530e-01" purity="4.3515875935554504e-02" nType="-99"/>
        </Node>
      </Node>
    </BinaryTree>
    <BinaryTree type="DecisionTree" boostWeight="1.0000000000000000e+00" itree="907">
      <Node pos="s" depth="0" NCoef="0" IVar="29" Cut="5.5757403373718262e-01" cType="1" res="-2.8455004212446511e-04" rms="1.9067661464214325e-01" purity="4.9960035085678101e-01" nType="0">
        <Node pos="l" depth="1" NCoef="0" IVar="0" Cut="1.8113939285278320e+01" cType="1" res="8.4397697355598211e-04" rms="1.8916846811771393e-01" purity="5.2958959341049194e-01" nType="0">
          <Node pos="l" depth="2" NCoef="0" IVar="-1" Cut="0.0000000000000000e+00" cType="1" res="-9.9270640930626541e-05" rms="1.8929263949394226e-01" purity="5.3645908832550049e-01" nType="-99"/>
          <Node pos="r" depth="2" NCoef="0" IVar="-1" Cut="0.0000000000000000e+00" cType="1" res="1.3957572169601917e-02" rms="1.8754622340202332e-01" purity="4.5593380928039551e-01" nType="-99"/>
        </Node>
        <Node pos="r" depth="1" NCoef="0" IVar="27" Cut="9.5211207866668701e-01" cType="1" res="-7.6513593085110188e-03" rms="2.0008635520935059e-01" purity="3.0383616685867310e-01" nType="0">
          <Node pos="l" depth="2" NCoef="0" IVar="-1" Cut="0.0000000000000000e+00" cType="1" res="-1.6267683357000351e-02" rms="1.7822538316249847e-01" purity="1.6520234942436218e-01" nType="-99"/>
          <Node pos="r" depth="2" NCoef="0" IVar="-1" Cut="0.0000000000000000e+00" cType="1" res="-4.3344698497094214e-04" rms="2.3004560172557831e-01" purity="5.2125817537307739e-01" nType="-99"/>
        </Node>
      </Node>
    </BinaryTree>
    <BinaryTree type="DecisionTree" boostWeight="1.0000000000000000e+00" itree="908">
      <Node pos="s" depth="0" NCoef="0" IVar="23" Cut="3.8229855895042419e-01" cType="1" res="5.8671232545748353e-04" rms="1.8872512876987457e-01" purity="5.0065827369689941e-01" nType="0">
        <Node pos="l" depth="1" NCoef="0" IVar="30" Cut="3.8125306367874146e-02" cType="1" res="-4.7013522125780582e-03" rms="1.5588511526584625e-01" purity="6.9690860807895660e-02" nType="0">
          <Node pos="l" depth="2" NCoef="0" IVar="-1" Cut="0.0000000000000000e+00" cType="1" res="-1.3414019718766212e-02" rms="1.5934969484806061e-01" purity="8.2230836153030396e-02" nType="-99"/>
          <Node pos="r" depth="2" NCoef="0" IVar="-1" Cut="0.0000000000000000e+00" cType="1" res="1.1449502781033516e-03" rms="1.5186256170272827e-01" purity="5.6095480918884277e-02" nType="-99"/>
        </Node>
        <Node pos="r" depth="1" NCoef="0" IVar="6" Cut="3.7356786727905273e+00" cType="1" res="1.6465774970129132e-03" rms="1.9462442398071289e-01" purity="5.8703529834747314e-01" nType="0">
          <Node pos="l" depth="2" NCoef="0" IVar="-1" Cut="0.0000000000000000e+00" cType="1" res="1.7551539465785027e-02" rms="2.0291532576084137e-01" purity="1.6991072893142700e-01" nType="-99"/>
          <Node pos="r" depth="2" NCoef="0" IVar="-1" Cut="0.0000000000000000e+00" cType="1" res="1.0815018322318792e-03" rms="1.9407086074352264e-01" purity="6.1317092180252075e-01" nType="-99"/>
        </Node>
      </Node>
    </BinaryTree>
    <BinaryTree type="DecisionTree" boostWeight="1.0000000000000000e+00" itree="909">
      <Node pos="s" depth="0" NCoef="0" IVar="20" Cut="1.4031729698181152e+01" cType="1" res="-1.8775278294924647e-04" rms="1.9371120631694794e-01" purity="4.9981921911239624e-01" nType="0">
        <Node pos="l" depth="1" NCoef="0" IVar="11" Cut="6.6826572418212891e+00" cType="1" res="-7.5383111834526062e-04" rms="1.9305954873561859e-01" purity="5.0499820709228516e-01" nType="0">
          <Node pos="l" depth="2" NCoef="0" IVar="-1" Cut="0.0000000000000000e+00" cType="1" res="2.4793872144073248e-03" rms="1.9880259037017822e-01" purity="5.0014191865921021e-01" nType="-99"/>
          <Node pos="r" depth="2" NCoef="0" IVar="-1" Cut="0.0000000000000000e+00" cType="1" res="-3.7836967967450619e-03" rms="1.8811564147472382e-01" purity="5.0903892517089844e-01" nType="-99"/>
        </Node>
        <Node pos="r" depth="1" NCoef="0" IVar="-1" Cut="0.0000000000000000e+00" cType="1" res="2.4305909872055054e-02" rms="2.1622096002101898e-01" purity="3.0016699433326721e-01" nType="-99"/>
      </Node>
    </BinaryTree>
    <BinaryTree type="DecisionTree" boostWeight="1.0000000000000000e+00" itree="910">
      <Node pos="s" depth="0" NCoef="0" IVar="13" Cut="7.2276654243469238e+00" cType="1" res="5.9700338169932365e-04" rms="1.9239674508571625e-01" purity="5.0328052043914795e-01" nType="0">
        <Node pos="l" depth="1" NCoef="0" IVar="26" Cut="4.7413416206836700e-02" cType="1" res="-6.7793484777212143e-03" rms="1.8489193916320801e-01" purity="3.4577581286430359e-01" nType="0">
          <Node pos="l" depth="2" NCoef="0" IVar="-1" Cut="0.0000000000000000e+00" cType="1" res="1.5257571358233690e-03" rms="1.9829411804676056e-01" purity="4.3559557199478149e-01" nType="-99"/>
          <Node pos="r" depth="2" NCoef="0" IVar="-1" Cut="0.0000000000000000e+00" cType="1" res="-3.0728399753570557e-02" rms="1.5577368438243866e-01" purity="1.7832997441291809e-01" nType="-99"/>
        </Node>
        <Node pos="r" depth="1" NCoef="0" IVar="10" Cut="5.9200344085693359e+00" cType="1" res="1.1969183105975389e-03" rms="1.9298188388347626e-01" purity="5.1609027385711670e-01" nType="0">
          <Node pos="l" depth="2" NCoef="0" IVar="-1" Cut="0.0000000000000000e+00" cType="1" res="1.4135623350739479e-02" rms="1.9747279584407806e-01" purity="4.0028116106987000e-01" nType="-99"/>
          <Node pos="r" depth="2" NCoef="0" IVar="-1" Cut="0.0000000000000000e+00" cType="1" res="8.9590944116935134e-04" rms="1.9276562333106995e-01" purity="5.2128797769546509e-01" nType="-99"/>
        </Node>
      </Node>
    </BinaryTree>
    <BinaryTree type="DecisionTree" boostWeight="1.0000000000000000e+00" itree="911">
      <Node pos="s" depth="0" NCoef="0" IVar="33" Cut="2.4761433899402618e-01" cType="1" res="1.8048458732664585e-03" rms="1.9239589571952820e-01" purity="4.9966582655906677e-01" nType="0">
        <Node pos="l" depth="1" NCoef="0" IVar="9" Cut="4.3724971771240234e+01" cType="1" res="2.3510267492383718e-03" rms="1.9319063425064087e-01" purity="5.1330912113189697e-01" nType="0">
          <Node pos="l" depth="2" NCoef="0" IVar="-1" Cut="0.0000000000000000e+00" cType="1" res="3.3026742748916149e-03" rms="1.9499436020851135e-01" purity="5.2412807941436768e-01" nType="-99"/>
          <Node pos="r" depth="2" NCoef="0" IVar="-1" Cut="0.0000000000000000e+00" cType="1" res="-1.6534687951207161e-02" rms="1.3042490184307098e-01" purity="2.0182183384895325e-01" nType="-99"/>
        </Node>
        <Node pos="r" depth="1" NCoef="0" IVar="10" Cut="6.9074940681457520e+00" cType="1" res="-8.2107605412602425e-03" rms="1.7689296603202820e-01" purity="2.4948166310787201e-01" nType="0">
          <Node pos="l" depth="2" NCoef="0" IVar="-1" Cut="0.0000000000000000e+00" cType="1" res="-1.7446141690015793e-02" rms="1.6964998841285706e-01" purity="2.5206723809242249e-01" nType="-99"/>
          <Node pos="r" depth="2" NCoef="0" IVar="-1" Cut="0.0000000000000000e+00" cType="1" res="-3.9376420900225639e-03" rms="1.8343231081962585e-01" purity="2.4700953066349030e-01" nType="-99"/>
        </Node>
      </Node>
    </BinaryTree>
    <BinaryTree type="DecisionTree" boostWeight="1.0000000000000000e+00" itree="912">
      <Node pos="s" depth="0" NCoef="0" IVar="26" Cut="6.6579568386077881e-01" cType="1" res="2.8465132345445454e-04" rms="1.9162504374980927e-01" purity="5.0317406654357910e-01" nType="0">
        <Node pos="l" depth="1" NCoef="0" IVar="30" Cut="3.8119699805974960e-02" cType="1" res="7.4475031578913331e-04" rms="1.9264058768749237e-01" purity="5.1433277130126953e-01" nType="0">
          <Node pos="l" depth="2" NCoef="0" IVar="-1" Cut="0.0000000000000000e+00" cType="1" res="2.8246650472283363e-03" rms="1.8965163826942444e-01" purity="6.1577671766281128e-01" nType="-99"/>
          <Node pos="r" depth="2" NCoef="0" IVar="-1" Cut="0.0000000000000000e+00" cType="1" res="-2.6248556096106768e-03" rms="1.9845734536647797e-01" purity="3.1110873818397522e-01" nType="-99"/>
        </Node>
        <Node pos="r" depth="1" NCoef="0" IVar="-1" Cut="0.0000000000000000e+00" cType="1" res="-2.1279118955135345e-02" rms="1.5694046020507812e-01" purity="1.6326801478862762e-01" nType="-99"/>
      </Node>
    </BinaryTree>
    <BinaryTree type="DecisionTree" boostWeight="1.0000000000000000e+00" itree="913">
      <Node pos="s" depth="0" NCoef="0" IVar="19" Cut="8.1315021514892578e+00" cType="1" res="-1.0657953098416328e-03" rms="1.9193600118160248e-01" purity="4.9945336580276489e-01" nType="0">
        <Node pos="l" depth="1" NCoef="0" IVar="10" Cut="6.5214047431945801e+00" cType="1" res="2.2133260499686003e-03" rms="1.9564814865589142e-01" purity="3.2490706443786621e-01" nType="0">
          <Node pos="l" depth="2" NCoef="0" IVar="-1" Cut="0.0000000000000000e+00" cType="1" res="-1.5870047733187675e-02" rms="1.7553739249706268e-01" purity="1.4653030037879944e-01" nType="-99"/>
          <Node pos="r" depth="2" NCoef="0" IVar="-1" Cut="0.0000000000000000e+00" cType="1" res="7.5957081280648708e-03" rms="2.0118878781795502e-01" purity="3.7907934188842773e-01" nType="-99"/>
        </Node>
        <Node pos="r" depth="1" NCoef="0" IVar="31" Cut="3.8056276738643646e-02" cType="1" res="-2.5788354687392712e-03" rms="1.9017967581748962e-01" purity="5.7999187707901001e-01" nType="0">
          <Node pos="l" depth="2" NCoef="0" IVar="-1" Cut="0.0000000000000000e+00" cType="1" res="-1.2357626110315323e-04" rms="1.8571433424949646e-01" purity="6.7961561679840088e-01" nType="-99"/>
          <Node pos="r" depth="2" NCoef="0" IVar="-1" Cut="0.0000000000000000e+00" cType="1" res="-1.0703660547733307e-02" rms="2.0199048519134521e-01" purity="3.0119848251342773e-01" nType="-99"/>
        </Node>
      </Node>
    </BinaryTree>
    <BinaryTree type="DecisionTree" boostWeight="1.0000000000000000e+00" itree="914">
      <Node pos="s" depth="0" NCoef="0" IVar="25" Cut="1.3882343471050262e-01" cType="1" res="1.3262245920486748e-04" rms="1.9276751577854156e-01" purity="5.0043690204620361e-01" nType="0">
        <Node pos="l" depth="1" NCoef="0" IVar="25" Cut="3.3053234219551086e-02" cType="1" res="1.5295516932383180e-03" rms="1.9491261243820190e-01" purity="6.1469984054565430e-01" nType="0">
          <Node pos="l" depth="2" NCoef="0" IVar="-1" Cut="0.0000000000000000e+00" cType="1" res="-8.4738060832023621e-04" rms="1.8932755291461945e-01" purity="6.8872511386871338e-01" nType="-99"/>
          <Node pos="r" depth="2" NCoef="0" IVar="-1" Cut="0.0000000000000000e+00" cType="1" res="8.1939436495304108e-03" rms="2.0972733199596405e-01" purity="4.0608808398246765e-01" nType="-99"/>
        </Node>
        <Node pos="r" depth="1" NCoef="0" IVar="3" Cut="2.3915441036224365e+00" cType="1" res="-3.3725886605679989e-03" rms="1.8723097443580627e-01" purity="2.1372520923614502e-01" nType="0">
          <Node pos="l" depth="2" NCoef="0" IVar="-1" Cut="0.0000000000000000e+00" cType="1" res="-7.2450279258191586e-03" rms="2.3968808352947235e-01" purity="3.9704868197441101e-01" nType="-99"/>
          <Node pos="r" depth="2" NCoef="0" IVar="-1" Cut="0.0000000000000000e+00" cType="1" res="6.9751609116792679e-03" rms="1.2250222265720367e-01" purity="5.0117023289203644e-02" nType="-99"/>
        </Node>
      </Node>
    </BinaryTree>
    <BinaryTree type="DecisionTree" boostWeight="1.0000000000000000e+00" itree="915">
      <Node pos="s" depth="0" NCoef="0" IVar="13" Cut="7.5432577133178711e+00" cType="1" res="1.5748993610031903e-04" rms="1.9397784769535065e-01" purity="5.0024539232254028e-01" nType="0">
        <Node pos="l" depth="1" NCoef="0" IVar="17" Cut="8.8856897354125977e+00" cType="1" res="-6.5991468727588654e-03" rms="1.9003523886203766e-01" purity="3.9009311795234680e-01" nType="0">
          <Node pos="l" depth="2" NCoef="0" IVar="-1" Cut="0.0000000000000000e+00" cType="1" res="7.3958239518105984e-03" rms="1.8293140828609467e-01" purity="1.3526146113872528e-01" nType="-99"/>
          <Node pos="r" depth="2" NCoef="0" IVar="-1" Cut="0.0000000000000000e+00" cType="1" res="-1.3709044083952904e-02" rms="1.9300225377082825e-01" purity="5.0788497924804688e-01" nType="-99"/>
        </Node>
        <Node pos="r" depth="1" NCoef="0" IVar="18" Cut="-1.6220899581909180e+01" cType="1" res="1.5921327285468578e-03" rms="1.9477455317974091e-01" purity="5.2363413572311401e-01" nType="0">
          <Node pos="l" depth="2" NCoef="0" IVar="-1" Cut="0.0000000000000000e+00" cType="1" res="-2.3292624391615391e-03" rms="1.8034572899341583e-01" purity="6.6554641723632812e-01" nType="-99"/>
          <Node pos="r" depth="2" NCoef="0" IVar="-1" Cut="0.0000000000000000e+00" cType="1" res="5.2971020340919495e-03" rms="2.0741012692451477e-01" purity="3.8984256982803345e-01" nType="-99"/>
        </Node>
      </Node>
    </BinaryTree>
    <BinaryTree type="DecisionTree" boostWeight="1.0000000000000000e+00" itree="916">
      <Node pos="s" depth="0" NCoef="0" IVar="33" Cut="9.5242604613304138e-02" cType="1" res="2.1047795598860830e-04" rms="1.9148944318294525e-01" purity="5.0084024667739868e-01" nType="0">
        <Node pos="l" depth="1" NCoef="0" IVar="13" Cut="8.3868484497070312e+00" cType="1" res="1.3419222086668015e-03" rms="1.9177997112274170e-01" purity="5.5696988105773926e-01" nType="0">
          <Node pos="l" depth="2" NCoef="0" IVar="-1" Cut="0.0000000000000000e+00" cType="1" res="4.8005171120166779e-03" rms="1.9630427658557892e-01" purity="5.4952394962310791e-01" nType="-99"/>
          <Node pos="r" depth="2" NCoef="0" IVar="-1" Cut="0.0000000000000000e+00" cType="1" res="-4.8386994749307632e-03" rms="1.8350750207901001e-01" purity="5.6997418403625488e-01" nType="-99"/>
        </Node>
        <Node pos="r" depth="1" NCoef="0" IVar="12" Cut="7.0271463394165039e+00" cType="1" res="-4.5831026509404182e-03" rms="1.9017903506755829e-01" purity="2.6303601264953613e-01" nType="0">
          <Node pos="l" depth="2" NCoef="0" IVar="-1" Cut="0.0000000000000000e+00" cType="1" res="-1.8377253785729408e-02" rms="1.8105235695838928e-01" purity="1.7121757566928864e-01" nType="-99"/>
          <Node pos="r" depth="2" NCoef="0" IVar="-1" Cut="0.0000000000000000e+00" cType="1" res="1.7508544260635972e-03" rms="1.9591614603996277e-01" purity="3.2555752992630005e-01" nType="-99"/>
        </Node>
      </Node>
    </BinaryTree>
    <BinaryTree type="DecisionTree" boostWeight="1.0000000000000000e+00" itree="917">
      <Node pos="s" depth="0" NCoef="0" IVar="28" Cut="2.8745684027671814e-01" cType="1" res="-4.9747078446671367e-04" rms="1.9262404739856720e-01" purity="4.9885454773902893e-01" nType="0">
        <Node pos="l" depth="1" NCoef="0" IVar="23" Cut="6.6756486892700195e-01" cType="1" res="5.2669653668999672e-03" rms="2.0544764399528503e-01" purity="3.0385196208953857e-01" nType="0">
          <Node pos="l" depth="2" NCoef="0" IVar="-1" Cut="0.0000000000000000e+00" cType="1" res="1.9118349999189377e-02" rms="1.9046787917613983e-01" purity="8.9360088109970093e-02" nType="-99"/>
          <Node pos="r" depth="2" NCoef="0" IVar="-1" Cut="0.0000000000000000e+00" cType="1" res="-2.1956220734864473e-03" rms="2.2002722322940826e-01" purity="5.3223854303359985e-01" nType="-99"/>
        </Node>
        <Node pos="r" depth="1" NCoef="0" IVar="29" Cut="3.1455835700035095e-01" cType="1" res="-1.6373646212741733e-03" rms="1.8996503949165344e-01" purity="5.3741550445556641e-01" nType="0">
          <Node pos="l" depth="2" NCoef="0" IVar="-1" Cut="0.0000000000000000e+00" cType="1" res="-5.5867963237687945e-04" rms="1.8844519555568695e-01" purity="5.8555567264556885e-01" nType="-99"/>
          <Node pos="r" depth="2" NCoef="0" IVar="-1" Cut="0.0000000000000000e+00" cType="1" res="-8.2301273941993713e-03" rms="1.9669513404369354e-01" purity="3.1651973724365234e-01" nType="-99"/>
        </Node>
      </Node>
    </BinaryTree>
    <BinaryTree type="DecisionTree" boostWeight="1.0000000000000000e+00" itree="918">
      <Node pos="s" depth="0" NCoef="0" IVar="7" Cut="7.0781260728836060e-01" cType="1" res="-7.5430673314258456e-04" rms="1.9401998817920685e-01" purity="4.9888676404953003e-01" nType="0">
        <Node pos="l" depth="1" NCoef="0" IVar="16" Cut="3.8615900278091431e-01" cType="1" res="-4.9028536304831505e-03" rms="1.8892122805118561e-01" purity="7.6815521717071533e-01" nType="0">
          <Node pos="l" depth="2" NCoef="0" IVar="-1" Cut="0.0000000000000000e+00" cType="1" res="-1.2294490821659565e-02" rms="2.3461383581161499e-01" purity="5.5144417285919189e-01" nType="-99"/>
          <Node pos="r" depth="2" NCoef="0" IVar="-1" Cut="0.0000000000000000e+00" cType="1" res="5.1962551660835743e-03" rms="1.4776952564716339e-01" purity="9.2168557643890381e-01" nType="-99"/>
        </Node>
        <Node pos="r" depth="1" NCoef="0" IVar="16" Cut="4.0356025099754333e-01" cType="1" res="4.1438895277678967e-04" rms="1.9541646540164948e-01" purity="4.2303052544593811e-01" nType="0">
          <Node pos="l" depth="2" NCoef="0" IVar="-1" Cut="0.0000000000000000e+00" cType="1" res="3.6543791648000479e-03" rms="2.0118069648742676e-01" purity="2.8924888372421265e-01" nType="-99"/>
          <Node pos="r" depth="2" NCoef="0" IVar="-1" Cut="0.0000000000000000e+00" cType="1" res="-3.3596016000956297e-03" rms="1.8910485506057739e-01" purity="5.6406277418136597e-01" nType="-99"/>
        </Node>
      </Node>
    </BinaryTree>
    <BinaryTree type="DecisionTree" boostWeight="1.0000000000000000e+00" itree="919">
      <Node pos="s" depth="0" NCoef="0" IVar="12" Cut="7.1094045639038086e+00" cType="1" res="-7.9037429532036185e-04" rms="1.9199346005916595e-01" purity="4.9720942974090576e-01" nType="0">
        <Node pos="l" depth="1" NCoef="0" IVar="15" Cut="5.5014190673828125e+00" cType="1" res="-3.3341273665428162e-03" rms="1.9914773106575012e-01" purity="3.7486943602561951e-01" nType="0">
          <Node pos="l" depth="2" NCoef="0" IVar="-1" Cut="0.0000000000000000e+00" cType="1" res="1.1144703254103661e-02" rms="2.1617139875888824e-01" purity="5.0999724864959717e-01" nType="-99"/>
          <Node pos="r" depth="2" NCoef="0" IVar="-1" Cut="0.0000000000000000e+00" cType="1" res="-5.6110299192368984e-03" rms="1.9723570346832275e-01" purity="3.6085769534111023e-01" nType="-99"/>
        </Node>
        <Node pos="r" depth="1" NCoef="0" IVar="15" Cut="6.1542215347290039e+00" cType="1" res="7.9881923738867044e-04" rms="1.8736776709556580e-01" purity="5.7364064455032349e-01" nType="0">
          <Node pos="l" depth="2" NCoef="0" IVar="-1" Cut="0.0000000000000000e+00" cType="1" res="-5.3493306040763855e-03" rms="1.9504067301750183e-01" purity="5.6184577941894531e-01" nType="-99"/>
          <Node pos="r" depth="2" NCoef="0" IVar="-1" Cut="0.0000000000000000e+00" cType="1" res="4.1011138819158077e-03" rms="1.8414999544620514e-01" purity="5.7837468385696411e-01" nType="-99"/>
        </Node>
      </Node>
    </BinaryTree>
    <BinaryTree type="DecisionTree" boostWeight="1.0000000000000000e+00" itree="920">
      <Node pos="s" depth="0" NCoef="0" IVar="31" Cut="1.9049573689699173e-02" cType="1" res="1.1335597373545170e-03" rms="1.9350190460681915e-01" purity="5.0246578454971313e-01" nType="0">
        <Node pos="l" depth="1" NCoef="0" IVar="23" Cut="2.3894944787025452e-01" cType="1" res="-1.9263509893789887e-03" rms="1.8590235710144043e-01" purity="6.4123916625976562e-01" nType="0">
          <Node pos="l" depth="2" NCoef="0" IVar="-1" Cut="0.0000000000000000e+00" cType="1" res="-2.5843337178230286e-02" rms="1.3655886054039001e-01" purity="6.4266473054885864e-02" nType="-99"/>
          <Node pos="r" depth="2" NCoef="0" IVar="-1" Cut="0.0000000000000000e+00" cType="1" res="-1.0023438371717930e-03" rms="1.8872879445552826e-01" purity="6.8034821748733521e-01" nType="-99"/>
        </Node>
        <Node pos="r" depth="1" NCoef="0" IVar="3" Cut="3.1039042472839355e+00" cType="1" res="5.3186975419521332e-03" rms="2.0336236059665680e-01" purity="3.1266102194786072e-01" nType="0">
          <Node pos="l" depth="2" NCoef="0" IVar="-1" Cut="0.0000000000000000e+00" cType="1" res="6.6604963503777981e-03" rms="2.4304912984371185e-01" purity="4.4692096114158630e-01" nType="-99"/>
          <Node pos="r" depth="2" NCoef="0" IVar="-1" Cut="0.0000000000000000e+00" cType="1" res="-5.1263988018035889e-02" rms="5.7592550292611122e-03" purity="0.0000000000000000e+00" nType="-99"/>
        </Node>
      </Node>
    </BinaryTree>
    <BinaryTree type="DecisionTree" boostWeight="1.0000000000000000e+00" itree="921">
      <Node pos="s" depth="0" NCoef="0" IVar="16" Cut="2.5913554430007935e-01" cType="1" res="-5.4290209664031863e-04" rms="1.9317525625228882e-01" purity="4.9987232685089111e-01" nType="0">
        <Node pos="l" depth="1" NCoef="0" IVar="3" Cut="1.6883765459060669e+00" cType="1" res="7.0899566635489464e-03" rms="1.9359877705574036e-01" purity="1.9407550990581512e-01" nType="0">
          <Node pos="l" depth="2" NCoef="0" IVar="-1" Cut="0.0000000000000000e+00" cType="1" res="1.4957519248127937e-02" rms="2.6829013228416443e-01" purity="4.3434911966323853e-01" nType="-99"/>
          <Node pos="r" depth="2" NCoef="0" IVar="-1" Cut="0.0000000000000000e+00" cType="1" res="1.8077462445944548e-03" rms="1.5103290975093842e-01" purity="9.2831879854202271e-02" nType="-99"/>
        </Node>
        <Node pos="r" depth="1" NCoef="0" IVar="16" Cut="3.7938824295997620e-01" cType="1" res="-1.5305964043363929e-03" rms="1.9309835135936737e-01" purity="5.3944259881973267e-01" nType="0">
          <Node pos="l" depth="2" NCoef="0" IVar="-1" Cut="0.0000000000000000e+00" cType="1" res="-6.4188460819423199e-03" rms="2.0966070890426636e-01" purity="3.5581159591674805e-01" nType="-99"/>
          <Node pos="r" depth="2" NCoef="0" IVar="-1" Cut="0.0000000000000000e+00" cType="1" res="2.1737606730312109e-03" rms="1.8237607181072235e-01" purity="6.4956510066986084e-01" nType="-99"/>
        </Node>
      </Node>
    </BinaryTree>
    <BinaryTree type="DecisionTree" boostWeight="1.0000000000000000e+00" itree="922">
      <Node pos="s" depth="0" NCoef="0" IVar="24" Cut="8.0983924865722656e-01" cType="1" res="6.1342099797911942e-05" rms="1.9276276230812073e-01" purity="5.0063610076904297e-01" nType="0">
        <Node pos="l" depth="1" NCoef="0" IVar="6" Cut="6.7223587036132812e+00" cType="1" res="-3.0933050438761711e-03" rms="1.8828573822975159e-01" purity="2.4222038686275482e-01" nType="0">
          <Node pos="l" depth="2" NCoef="0" IVar="-1" Cut="0.0000000000000000e+00" cType="1" res="-1.4819781063124537e-03" rms="1.9360770285129547e-01" purity="2.5154784321784973e-01" nType="-99"/>
          <Node pos="r" depth="2" NCoef="0" IVar="-1" Cut="0.0000000000000000e+00" cType="1" res="-2.2181704640388489e-02" rms="1.5412084758281708e-01" purity="1.8914024531841278e-01" nType="-99"/>
        </Node>
        <Node pos="r" depth="1" NCoef="0" IVar="13" Cut="7.2251377105712891e+00" cType="1" res="1.8109150696545839e-03" rms="1.9517950713634491e-01" purity="6.4395391941070557e-01" nType="0">
          <Node pos="l" depth="2" NCoef="0" IVar="-1" Cut="0.0000000000000000e+00" cType="1" res="2.1079521626234055e-02" rms="2.1619090437889099e-01" purity="6.3232749700546265e-01" nType="-99"/>
          <Node pos="r" depth="2" NCoef="0" IVar="-1" Cut="0.0000000000000000e+00" cType="1" res="1.1106027523055673e-03" rms="1.9405037164688110e-01" purity="6.4452290534973145e-01" nType="-99"/>
        </Node>
      </Node>
    </BinaryTree>
    <BinaryTree type="DecisionTree" boostWeight="1.0000000000000000e+00" itree="923">
      <Node pos="s" depth="0" NCoef="0" IVar="21" Cut="7.4358711242675781e+00" cType="1" res="-1.1083552381023765e-03" rms="1.9210252165794373e-01" purity="5.0033515691757202e-01" nType="0">
        <Node pos="l" depth="1" NCoef="0" IVar="22" Cut="8.9118289947509766e+00" cType="1" res="2.4793476331979036e-03" rms="2.0433501899242401e-01" purity="2.9014828801155090e-01" nType="0">
          <Node pos="l" depth="2" NCoef="0" IVar="-1" Cut="0.0000000000000000e+00" cType="1" res="8.2281179493293166e-04" rms="2.0051267743110657e-01" purity="2.8127837181091309e-01" nType="-99"/>
          <Node pos="r" depth="2" NCoef="0" IVar="-1" Cut="0.0000000000000000e+00" cType="1" res="1.5368414111435413e-02" rms="2.2583493590354919e-01" purity="3.4393271803855896e-01" nType="-99"/>
        </Node>
        <Node pos="r" depth="1" NCoef="0" IVar="11" Cut="7.2632040977478027e+00" cType="1" res="-2.4971065577119589e-03" rms="1.8713450431823730e-01" purity="5.8169567584991455e-01" nType="0">
          <Node pos="l" depth="2" NCoef="0" IVar="-1" Cut="0.0000000000000000e+00" cType="1" res="-5.5642328225076199e-03" rms="1.8601077795028687e-01" purity="6.0689085721969604e-01" nType="-99"/>
          <Node pos="r" depth="2" NCoef="0" IVar="-1" Cut="0.0000000000000000e+00" cType="1" res="2.7526710182428360e-03" rms="1.8991301953792572e-01" purity="5.1684027910232544e-01" nType="-99"/>
        </Node>
      </Node>
    </BinaryTree>
    <BinaryTree type="DecisionTree" boostWeight="1.0000000000000000e+00" itree="924">
      <Node pos="s" depth="0" NCoef="0" IVar="20" Cut="-3.3598908782005310e-01" cType="1" res="4.7885859385132790e-04" rms="1.9362793862819672e-01" purity="4.9871662259101868e-01" nType="0">
        <Node pos="l" depth="1" NCoef="0" IVar="34" Cut="3.1742565631866455e+00" cType="1" res="-7.8028196003288031e-04" rms="1.9057929515838623e-01" purity="5.5348861217498779e-01" nType="0">
          <Node pos="l" depth="2" NCoef="0" IVar="-1" Cut="0.0000000000000000e+00" cType="1" res="1.2277015484869480e-03" rms="1.9165176153182983e-01" purity="6.3380116224288940e-01" nType="-99"/>
          <Node pos="r" depth="2" NCoef="0" IVar="-1" Cut="0.0000000000000000e+00" cType="1" res="-8.4832282736897469e-03" rms="1.8678496778011322e-01" purity="2.8221434354782104e-01" nType="-99"/>
        </Node>
        <Node pos="r" depth="1" NCoef="0" IVar="15" Cut="7.1163496971130371e+00" cType="1" res="4.3674837797880173e-03" rms="2.0270456373691559e-01" purity="3.2956334948539734e-01" nType="0">
          <Node pos="l" depth="2" NCoef="0" IVar="-1" Cut="0.0000000000000000e+00" cType="1" res="9.0867495164275169e-03" rms="2.0801465213298798e-01" purity="3.2555916905403137e-01" nType="-99"/>
          <Node pos="r" depth="2" NCoef="0" IVar="-1" Cut="0.0000000000000000e+00" cType="1" res="-2.0685207098722458e-02" rms="1.7148742079734802e-01" purity="3.5024738311767578e-01" nType="-99"/>
        </Node>
      </Node>
    </BinaryTree>
    <BinaryTree type="DecisionTree" boostWeight="1.0000000000000000e+00" itree="925">
      <Node pos="s" depth="0" NCoef="0" IVar="10" Cut="8.1210441589355469e+00" cType="1" res="3.0079798307269812e-04" rms="1.9379909336566925e-01" purity="4.9931082129478455e-01" nType="0">
        <Node pos="l" depth="1" NCoef="0" IVar="22" Cut="2.6684854507446289e+01" cType="1" res="-2.1986830688547343e-04" rms="1.9367693364620209e-01" purity="5.0244206190109253e-01" nType="0">
          <Node pos="l" depth="2" NCoef="0" IVar="-1" Cut="0.0000000000000000e+00" cType="1" res="-1.3731733197346330e-03" rms="1.9798465073108673e-01" purity="4.4927093386650085e-01" nType="-99"/>
          <Node pos="r" depth="2" NCoef="0" IVar="-1" Cut="0.0000000000000000e+00" cType="1" res="1.1023942381143570e-02" rms="1.6413292288780212e-01" purity="8.3422851562500000e-01" nType="-99"/>
        </Node>
        <Node pos="r" depth="1" NCoef="0" IVar="24" Cut="9.0460187196731567e-01" cType="1" res="8.9198285713791847e-03" rms="1.9560883939266205e-01" purity="4.4747760891914368e-01" nType="0">
          <Node pos="l" depth="2" NCoef="0" IVar="-1" Cut="0.0000000000000000e+00" cType="1" res="3.5065654665231705e-02" rms="2.0692457258701324e-01" purity="2.4885019659996033e-01" nType="-99"/>
          <Node pos="r" depth="2" NCoef="0" IVar="-1" Cut="0.0000000000000000e+00" cType="1" res="-3.9414414204657078e-03" rms="1.8526157736778259e-01" purity="6.0480678081512451e-01" nType="-99"/>
        </Node>
      </Node>
    </BinaryTree>
    <BinaryTree type="DecisionTree" boostWeight="1.0000000000000000e+00" itree="926">
      <Node pos="s" depth="0" NCoef="0" IVar="19" Cut="9.2456617355346680e+00" cType="1" res="4.4247243204154074e-04" rms="1.9139799475669861e-01" purity="4.9839508533477783e-01" nType="0">
        <Node pos="l" depth="1" NCoef="0" IVar="17" Cut="3.4384529113769531e+01" cType="1" res="-3.6064030136913061e-03" rms="1.9302639365196228e-01" purity="3.1341400742530823e-01" nType="0">
          <Node pos="l" depth="2" NCoef="0" IVar="-1" Cut="0.0000000000000000e+00" cType="1" res="-6.8841860629618168e-03" rms="1.9472622871398926e-01" purity="2.4819725751876831e-01" nType="-99"/>
          <Node pos="r" depth="2" NCoef="0" IVar="-1" Cut="0.0000000000000000e+00" cType="1" res="1.6564005985856056e-02" rms="1.7801043391227722e-01" purity="8.3887124061584473e-01" nType="-99"/>
        </Node>
        <Node pos="r" depth="1" NCoef="0" IVar="24" Cut="8.0979710817337036e-01" cType="1" res="2.5807861238718033e-03" rms="1.9049765169620514e-01" purity="5.9608829021453857e-01" nType="0">
          <Node pos="l" depth="2" NCoef="0" IVar="-1" Cut="0.0000000000000000e+00" cType="1" res="1.2662828899919987e-02" rms="2.0439511537551880e-01" purity="3.5151761770248413e-01" nType="-99"/>
          <Node pos="r" depth="2" NCoef="0" IVar="-1" Cut="0.0000000000000000e+00" cType="1" res="-3.2736503635533154e-04" rms="1.8572068214416504e-01" purity="6.7469608783721924e-01" nType="-99"/>
        </Node>
      </Node>
    </BinaryTree>
    <BinaryTree type="DecisionTree" boostWeight="1.0000000000000000e+00" itree="927">
      <Node pos="s" depth="0" NCoef="0" IVar="12" Cut="6.3108892440795898e+00" cType="1" res="-1.0055932216346264e-03" rms="1.9024352729320526e-01" purity="4.9623203277587891e-01" nType="0">
        <Node pos="l" depth="1" NCoef="0" IVar="-1" Cut="0.0000000000000000e+00" cType="1" res="-1.3053350150585175e-02" rms="1.8072247505187988e-01" purity="2.5382652878761292e-01" nType="-99"/>
        <Node pos="r" depth="1" NCoef="0" IVar="15" Cut="7.1163496971130371e+00" cType="1" res="-5.4131902288645506e-04" rms="1.9065698981285095e-01" purity="5.0737720727920532e-01" nType="0">
          <Node pos="l" depth="2" NCoef="0" IVar="-1" Cut="0.0000000000000000e+00" cType="1" res="-1.9827140495181084e-03" rms="1.9461992383003235e-01" purity="4.8861503601074219e-01" nType="-99"/>
          <Node pos="r" depth="2" NCoef="0" IVar="-1" Cut="0.0000000000000000e+00" cType="1" res="5.5085700005292892e-03" rms="1.7479833960533142e-01" purity="5.7831209897994995e-01" nType="-99"/>
        </Node>
      </Node>
    </BinaryTree>
    <BinaryTree type="DecisionTree" boostWeight="1.0000000000000000e+00" itree="928">
      <Node pos="s" depth="0" NCoef="0" IVar="10" Cut="8.2088451385498047e+00" cType="1" res="-1.0065034730359912e-03" rms="1.8910492956638336e-01" purity="5.0169533491134644e-01" nType="0">
        <Node pos="l" depth="1" NCoef="0" IVar="24" Cut="8.0967134237289429e-01" cType="1" res="-4.4498161878436804e-04" rms="1.8941788375377655e-01" purity="5.0483161211013794e-01" nType="0">
          <Node pos="l" depth="2" NCoef="0" IVar="-1" Cut="0.0000000000000000e+00" cType="1" res="-4.9725729040801525e-03" rms="1.8653301894664764e-01" purity="2.4344079196453094e-01" nType="-99"/>
          <Node pos="r" depth="2" NCoef="0" IVar="-1" Cut="0.0000000000000000e+00" cType="1" res="1.7432069871574640e-03" rms="1.9095051288604736e-01" purity="6.4779520034790039e-01" nType="-99"/>
        </Node>
        <Node pos="r" depth="1" NCoef="0" IVar="-1" Cut="0.0000000000000000e+00" cType="1" res="-1.9616967067122459e-02" rms="1.8138857185840607e-01" purity="4.3050095438957214e-01" nType="-99"/>
      </Node>
    </BinaryTree>
    <BinaryTree type="DecisionTree" boostWeight="1.0000000000000000e+00" itree="929">
      <Node pos="s" depth="0" NCoef="0" IVar="11" Cut="6.2959895133972168e+00" cType="1" res="3.4123918158002198e-04" rms="1.9276781380176544e-01" purity="5.0084280967712402e-01" nType="0">
        <Node pos="l" depth="1" NCoef="0" IVar="11" Cut="6.2221598625183105e+00" cType="1" res="-3.8397798780351877e-03" rms="1.9410881400108337e-01" purity="4.3467241525650024e-01" nType="0">
          <Node pos="l" depth="2" NCoef="0" IVar="-1" Cut="0.0000000000000000e+00" cType="1" res="-2.0773273427039385e-03" rms="1.9524306058883667e-01" purity="4.2536684870719910e-01" nType="-99"/>
          <Node pos="r" depth="2" NCoef="0" IVar="-1" Cut="0.0000000000000000e+00" cType="1" res="-2.3935919627547264e-02" rms="1.8507824838161469e-01" purity="5.0153547525405884e-01" nType="-99"/>
        </Node>
        <Node pos="r" depth="1" NCoef="0" IVar="23" Cut="7.6212996244430542e-01" cType="1" res="1.8275020411238074e-03" rms="1.9226695597171783e-01" purity="5.2436494827270508e-01" nType="0">
          <Node pos="l" depth="2" NCoef="0" IVar="-1" Cut="0.0000000000000000e+00" cType="1" res="5.3125126287341118e-03" rms="2.0636764168739319e-01" purity="1.6864252090454102e-01" nType="-99"/>
          <Node pos="r" depth="2" NCoef="0" IVar="-1" Cut="0.0000000000000000e+00" cType="1" res="-1.1336812749505043e-03" rms="1.7998081445693970e-01" purity="8.1281328201293945e-01" nType="-99"/>
        </Node>
      </Node>
    </BinaryTree>
    <BinaryTree type="DecisionTree" boostWeight="1.0000000000000000e+00" itree="930">
      <Node pos="s" depth="0" NCoef="0" IVar="14" Cut="7.0534777641296387e+00" cType="1" res="1.1224012996535748e-04" rms="1.9297163188457489e-01" purity="4.9958130717277527e-01" nType="0">
        <Node pos="l" depth="1" NCoef="0" IVar="-1" Cut="0.0000000000000000e+00" cType="1" res="-2.0963881164789200e-02" rms="1.8203890323638916e-01" purity="3.2415902614593506e-01" nType="-99"/>
        <Node pos="r" depth="1" NCoef="0" IVar="6" Cut="3.9259374141693115e+00" cType="1" res="5.4172752425074577e-04" rms="1.9323942065238953e-01" purity="5.0430744886398315e-01" nType="0">
          <Node pos="l" depth="2" NCoef="0" IVar="-1" Cut="0.0000000000000000e+00" cType="1" res="-1.3795631937682629e-02" rms="1.8148389458656311e-01" purity="1.8732167780399323e-01" nType="-99"/>
          <Node pos="r" depth="2" NCoef="0" IVar="-1" Cut="0.0000000000000000e+00" cType="1" res="1.7256774008274078e-03" rms="1.9428886473178864e-01" purity="5.3429228067398071e-01" nType="-99"/>
        </Node>
      </Node>
    </BinaryTree>
    <BinaryTree type="DecisionTree" boostWeight="1.0000000000000000e+00" itree="931">
      <Node pos="s" depth="0" NCoef="0" IVar="28" Cut="2.8868362307548523e-01" cType="1" res="-7.3235592572018504e-04" rms="1.9155770540237427e-01" purity="4.9832180142402649e-01" nType="0">
        <Node pos="l" depth="1" NCoef="0" IVar="32" Cut="5.7136330753564835e-02" cType="1" res="6.3305906951427460e-03" rms="2.0057369768619537e-01" purity="3.0416825413703918e-01" nType="0">
          <Node pos="l" depth="2" NCoef="0" IVar="-1" Cut="0.0000000000000000e+00" cType="1" res="1.1742145754396915e-02" rms="2.1298135817050934e-01" purity="3.7822335958480835e-01" nType="-99"/>
          <Node pos="r" depth="2" NCoef="0" IVar="-1" Cut="0.0000000000000000e+00" cType="1" res="-9.0267742052674294e-03" rms="1.6555222868919373e-01" purity="1.2216383963823318e-01" nType="-99"/>
        </Node>
        <Node pos="r" depth="1" NCoef="0" IVar="33" Cut="7.6186694204807281e-02" cType="1" res="-2.1421059500426054e-03" rms="1.8967534601688385e-01" purity="5.3707444667816162e-01" nType="0">
          <Node pos="l" depth="2" NCoef="0" IVar="-1" Cut="0.0000000000000000e+00" cType="1" res="-4.6335496008396149e-03" rms="1.8633128702640533e-01" purity="5.9638607501983643e-01" nType="-99"/>
          <Node pos="r" depth="2" NCoef="0" IVar="-1" Cut="0.0000000000000000e+00" cType="1" res="3.9285672828555107e-03" rms="2.0151057839393616e-01" purity="3.1682699918746948e-01" nType="-99"/>
        </Node>
      </Node>
    </BinaryTree>
    <BinaryTree type="DecisionTree" boostWeight="1.0000000000000000e+00" itree="932">
      <Node pos="s" depth="0" NCoef="0" IVar="18" Cut="-5.8476257324218750e-01" cType="1" res="2.3543316638097167e-04" rms="1.9143243134021759e-01" purity="5.0295853614807129e-01" nType="0">
        <Node pos="l" depth="1" NCoef="0" IVar="31" Cut="7.6148711144924164e-02" cType="1" res="1.6343666939064860e-03" rms="1.9202017784118652e-01" purity="5.5313891172409058e-01" nType="0">
          <Node pos="l" depth="2" NCoef="0" IVar="-1" Cut="0.0000000000000000e+00" cType="1" res="1.1287783854641020e-04" rms="1.8679507076740265e-01" purity="6.1187559366226196e-01" nType="-99"/>
          <Node pos="r" depth="2" NCoef="0" IVar="-1" Cut="0.0000000000000000e+00" cType="1" res="1.0009416379034519e-02" rms="2.1500727534294128e-01" purity="2.7355235815048218e-01" nType="-99"/>
        </Node>
        <Node pos="r" depth="1" NCoef="0" IVar="10" Cut="7.3213973045349121e+00" cType="1" res="-5.6951181031763554e-03" rms="1.8880544602870941e-01" purity="2.9022669792175293e-01" nType="0">
          <Node pos="l" depth="2" NCoef="0" IVar="-1" Cut="0.0000000000000000e+00" cType="1" res="-1.4676570426672697e-03" rms="1.9277594983577728e-01" purity="3.1339448690414429e-01" nType="-99"/>
          <Node pos="r" depth="2" NCoef="0" IVar="-1" Cut="0.0000000000000000e+00" cType="1" res="-1.8474478274583817e-02" rms="1.8005518615245819e-01" purity="2.4281023442745209e-01" nType="-99"/>
        </Node>
      </Node>
    </BinaryTree>
    <BinaryTree type="DecisionTree" boostWeight="1.0000000000000000e+00" itree="933">
      <Node pos="s" depth="0" NCoef="0" IVar="20" Cut="-3.0994668602943420e-01" cType="1" res="-4.8015321954153478e-04" rms="1.9272033870220184e-01" purity="4.9933230876922607e-01" nType="0">
        <Node pos="l" depth="1" NCoef="0" IVar="11" Cut="5.7055144309997559e+00" cType="1" res="-1.5956192510202527e-03" rms="1.9124771654605865e-01" purity="5.5258744955062866e-01" nType="0">
          <Node pos="l" depth="2" NCoef="0" IVar="-1" Cut="0.0000000000000000e+00" cType="1" res="-2.3400640115141869e-02" rms="1.8314620852470398e-01" purity="3.4393593668937683e-01" nType="-99"/>
          <Node pos="r" depth="2" NCoef="0" IVar="-1" Cut="0.0000000000000000e+00" cType="1" res="-1.1512925848364830e-03" rms="1.9150701165199280e-01" purity="5.6025350093841553e-01" nType="-99"/>
        </Node>
        <Node pos="r" depth="1" NCoef="0" IVar="17" Cut="2.7910467147827148e+01" cType="1" res="2.9379380866885185e-03" rms="1.9712503254413605e-01" purity="3.3614405989646912e-01" nType="0">
          <Node pos="l" depth="2" NCoef="0" IVar="-1" Cut="0.0000000000000000e+00" cType="1" res="5.4539914708584547e-04" rms="1.9181664288043976e-01" purity="2.3958973586559296e-01" nType="-99"/>
          <Node pos="r" depth="2" NCoef="0" IVar="-1" Cut="0.0000000000000000e+00" cType="1" res="1.1381899937987328e-02" rms="2.1348366141319275e-01" purity="6.5441972017288208e-01" nType="-99"/>
        </Node>
      </Node>
    </BinaryTree>
    <BinaryTree type="DecisionTree" boostWeight="1.0000000000000000e+00" itree="934">
      <Node pos="s" depth="0" NCoef="0" IVar="12" Cut="7.1109547615051270e+00" cType="1" res="-7.1022968040779233e-04" rms="1.8874420225620270e-01" purity="4.9724802374839783e-01" nType="0">
        <Node pos="l" depth="1" NCoef="0" IVar="18" Cut="-1.3679040908813477e+01" cType="1" res="-3.6222995258867741e-03" rms="1.9337044656276703e-01" purity="3.7216290831565857e-01" nType="0">
          <Node pos="l" depth="2" NCoef="0" IVar="-1" Cut="0.0000000000000000e+00" cType="1" res="9.4529206398874521e-04" rms="1.9852773845195770e-01" purity="5.2565449476242065e-01" nType="-99"/>
          <Node pos="r" depth="2" NCoef="0" IVar="-1" Cut="0.0000000000000000e+00" cType="1" res="-9.0073645114898682e-03" rms="1.8888334929943085e-01" purity="2.4424257874488831e-01" nType="-99"/>
        </Node>
        <Node pos="r" depth="1" NCoef="0" IVar="23" Cut="6.2011671066284180e-01" cType="1" res="1.1209564981982112e-03" rms="1.8575271964073181e-01" purity="5.7590484619140625e-01" nType="0">
          <Node pos="l" depth="2" NCoef="0" IVar="-1" Cut="0.0000000000000000e+00" cType="1" res="-5.6808060035109520e-03" rms="1.8249715864658356e-01" purity="9.3106299638748169e-02" nType="-99"/>
          <Node pos="r" depth="2" NCoef="0" IVar="-1" Cut="0.0000000000000000e+00" cType="1" res="4.2579048313200474e-03" rms="1.8695420026779175e-01" purity="7.6313453912734985e-01" nType="-99"/>
        </Node>
      </Node>
    </BinaryTree>
    <BinaryTree type="DecisionTree" boostWeight="1.0000000000000000e+00" itree="935">
      <Node pos="s" depth="0" NCoef="0" IVar="28" Cut="3.8468891382217407e-01" cType="1" res="1.1747241951525211e-03" rms="1.9166022539138794e-01" purity="4.9864739179611206e-01" nType="0">
        <Node pos="l" depth="1" NCoef="0" IVar="20" Cut="-2.4726718902587891e+01" cType="1" res="-3.8000086788088083e-03" rms="1.9714203476905823e-01" purity="2.8852200508117676e-01" nType="0">
          <Node pos="l" depth="2" NCoef="0" IVar="-1" Cut="0.0000000000000000e+00" cType="1" res="-1.6251001507043839e-02" rms="2.0395430922508240e-01" purity="5.0964236259460449e-01" nType="-99"/>
          <Node pos="r" depth="2" NCoef="0" IVar="-1" Cut="0.0000000000000000e+00" cType="1" res="-1.0217211674898863e-03" rms="1.9521740078926086e-01" purity="2.3075060546398163e-01" nType="-99"/>
        </Node>
        <Node pos="r" depth="1" NCoef="0" IVar="22" Cut="2.6529507637023926e+00" cType="1" res="2.7228791732341051e-03" rms="1.8989540636539459e-01" purity="5.6403911113739014e-01" nType="0">
          <Node pos="l" depth="2" NCoef="0" IVar="-1" Cut="0.0000000000000000e+00" cType="1" res="1.9684616476297379e-02" rms="1.8820928037166595e-01" purity="4.7621697187423706e-01" nType="-99"/>
          <Node pos="r" depth="2" NCoef="0" IVar="-1" Cut="0.0000000000000000e+00" cType="1" res="2.1610714029520750e-03" rms="1.9001121819019318e-01" purity="5.7172900438308716e-01" nType="-99"/>
        </Node>
      </Node>
    </BinaryTree>
    <BinaryTree type="DecisionTree" boostWeight="1.0000000000000000e+00" itree="936">
      <Node pos="s" depth="0" NCoef="0" IVar="23" Cut="5.7214075326919556e-01" cType="1" res="1.0457369498908520e-03" rms="1.9134467840194702e-01" purity="5.0091695785522461e-01" nType="0">
        <Node pos="l" depth="1" NCoef="0" IVar="12" Cut="7.3158540725708008e+00" cType="1" res="-3.0442236457020044e-03" rms="1.7570991814136505e-01" purity="9.8669566214084625e-02" nType="0">
          <Node pos="l" depth="2" NCoef="0" IVar="-1" Cut="0.0000000000000000e+00" cType="1" res="8.5767474956810474e-04" rms="1.8045513331890106e-01" purity="1.1289571970701218e-01" nType="-99"/>
          <Node pos="r" depth="2" NCoef="0" IVar="-1" Cut="0.0000000000000000e+00" cType="1" res="-1.1952567845582962e-02" rms="1.6783900558948517e-01" purity="7.6369836926460266e-02" nType="-99"/>
        </Node>
        <Node pos="r" depth="1" NCoef="0" IVar="30" Cut="1.9067747518420219e-02" cType="1" res="2.7604461647570133e-03" rms="1.9750650227069855e-01" purity="6.6955846548080444e-01" nType="0">
          <Node pos="l" depth="2" NCoef="0" IVar="-1" Cut="0.0000000000000000e+00" cType="1" res="2.5489859399385750e-04" rms="1.7889599502086639e-01" purity="7.6789343357086182e-01" nType="-99"/>
          <Node pos="r" depth="2" NCoef="0" IVar="-1" Cut="0.0000000000000000e+00" cType="1" res="6.1262017115950584e-03" rms="2.2101111710071564e-01" purity="5.3115230798721313e-01" nType="-99"/>
        </Node>
      </Node>
    </BinaryTree>
    <BinaryTree type="DecisionTree" boostWeight="1.0000000000000000e+00" itree="937">
      <Node pos="s" depth="0" NCoef="0" IVar="34" Cut="1.1909580230712891e+00" cType="1" res="-3.1535251764580607e-04" rms="1.9058503210544586e-01" purity="4.9942120909690857e-01" nType="0">
        <Node pos="l" depth="1" NCoef="0" IVar="16" Cut="3.2736390829086304e-01" cType="1" res="2.5280029512941837e-03" rms="1.8597944080829620e-01" purity="6.4395654201507568e-01" nType="0">
          <Node pos="l" depth="2" NCoef="0" IVar="-1" Cut="0.0000000000000000e+00" cType="1" res="-4.6074963174760342e-03" rms="2.1383360028266907e-01" purity="3.2552194595336914e-01" nType="-99"/>
          <Node pos="r" depth="2" NCoef="0" IVar="-1" Cut="0.0000000000000000e+00" cType="1" res="7.9511571675539017e-03" rms="1.7248670756816864e-01" purity="7.8127622604370117e-01" nType="-99"/>
        </Node>
        <Node pos="r" depth="1" NCoef="0" IVar="11" Cut="7.4577131271362305e+00" cType="1" res="-2.2247193846851587e-03" rms="1.9359286129474640e-01" purity="4.0236306190490723e-01" nType="0">
          <Node pos="l" depth="2" NCoef="0" IVar="-1" Cut="0.0000000000000000e+00" cType="1" res="-4.7705243341624737e-03" rms="1.9416153430938721e-01" purity="4.1579350829124451e-01" nType="-99"/>
          <Node pos="r" depth="2" NCoef="0" IVar="-1" Cut="0.0000000000000000e+00" cType="1" res="6.8715582601726055e-03" rms="1.9084580242633820e-01" purity="3.4230336546897888e-01" nType="-99"/>
        </Node>
      </Node>
    </BinaryTree>
    <BinaryTree type="DecisionTree" boostWeight="1.0000000000000000e+00" itree="938">
      <Node pos="s" depth="0" NCoef="0" IVar="28" Cut="1.9802810251712799e-01" cType="1" res="1.4014303451403975e-03" rms="1.9360361993312836e-01" purity="4.9707829952239990e-01" nType="0">
        <Node pos="l" depth="1" NCoef="0" IVar="20" Cut="-1.8800926208496094e+01" cType="1" res="-5.3093205206096172e-03" rms="1.9708041846752167e-01" purity="2.8656119108200073e-01" nType="0">
          <Node pos="l" depth="2" NCoef="0" IVar="-1" Cut="0.0000000000000000e+00" cType="1" res="-1.8153088167309761e-02" rms="2.0460554957389832e-01" purity="4.5286101102828979e-01" nType="-99"/>
          <Node pos="r" depth="2" NCoef="0" IVar="-1" Cut="0.0000000000000000e+00" cType="1" res="-4.2760677752085030e-04" rms="1.9371974468231201e-01" purity="2.1901476383209229e-01" nType="-99"/>
        </Node>
        <Node pos="r" depth="1" NCoef="0" IVar="29" Cut="4.6101751923561096e-01" cType="1" res="2.0777932368218899e-03" rms="1.9323679804801941e-01" purity="5.1829594373703003e-01" nType="0">
          <Node pos="l" depth="2" NCoef="0" IVar="-1" Cut="0.0000000000000000e+00" cType="1" res="1.4910666504874825e-03" rms="1.9013322889804840e-01" purity="5.5135250091552734e-01" nType="-99"/>
          <Node pos="r" depth="2" NCoef="0" IVar="-1" Cut="0.0000000000000000e+00" cType="1" res="8.0124568194150925e-03" rms="2.1139593422412872e-01" purity="3.1318631768226624e-01" nType="-99"/>
        </Node>
      </Node>
    </BinaryTree>
    <BinaryTree type="DecisionTree" boostWeight="1.0000000000000000e+00" itree="939">
      <Node pos="s" depth="0" NCoef="0" IVar="33" Cut="2.8570717573165894e-01" cType="1" res="1.7407356062904000e-03" rms="1.9155080616474152e-01" purity="5.0240045785903931e-01" nType="0">
        <Node pos="l" depth="1" NCoef="0" IVar="3" Cut="3.0979743003845215e+00" cType="1" res="2.1146952640265226e-03" rms="1.9176127016544342e-01" purity="5.1098835468292236e-01" nType="0">
          <Node pos="l" depth="2" NCoef="0" IVar="-1" Cut="0.0000000000000000e+00" cType="1" res="3.0668219551444054e-03" rms="2.1508796513080597e-01" purity="6.4316254854202271e-01" nType="-99"/>
          <Node pos="r" depth="2" NCoef="0" IVar="-1" Cut="0.0000000000000000e+00" cType="1" res="-5.1941446959972382e-02" rms="7.9429568722844124e-03" purity="0.0000000000000000e+00" nType="-99"/>
        </Node>
        <Node pos="r" depth="1" NCoef="0" IVar="-1" Cut="0.0000000000000000e+00" cType="1" res="-1.0180117562413216e-02" rms="1.8527369201183319e-01" purity="2.6262187957763672e-01" nType="-99"/>
      </Node>
    </BinaryTree>
    <BinaryTree type="DecisionTree" boostWeight="1.0000000000000000e+00" itree="940">
      <Node pos="s" depth="0" NCoef="0" IVar="33" Cut="1.9045987725257874e-01" cType="1" res="7.9942226875573397e-04" rms="1.9221460819244385e-01" purity="5.0200325250625610e-01" nType="0">
        <Node pos="l" depth="1" NCoef="0" IVar="13" Cut="7.0722064971923828e+00" cType="1" res="8.0805315519683063e-05" rms="1.9151861965656281e-01" purity="5.2403926849365234e-01" nType="0">
          <Node pos="l" depth="2" NCoef="0" IVar="-1" Cut="0.0000000000000000e+00" cType="1" res="1.6053967177867889e-02" rms="2.0328594744205475e-01" purity="3.7180230021476746e-01" nType="-99"/>
          <Node pos="r" depth="2" NCoef="0" IVar="-1" Cut="0.0000000000000000e+00" cType="1" res="-5.1875232020393014e-04" rms="1.9104140996932983e-01" purity="5.2979272603988647e-01" nType="-99"/>
        </Node>
        <Node pos="r" depth="1" NCoef="0" IVar="16" Cut="3.3682495355606079e-01" cType="1" res="8.5449405014514923e-03" rms="1.9939783215522766e-01" purity="2.6449126005172729e-01" nType="0">
          <Node pos="l" depth="2" NCoef="0" IVar="-1" Cut="0.0000000000000000e+00" cType="1" res="3.1777437776327133e-02" rms="2.1565230190753937e-01" purity="1.4468665421009064e-01" nType="-99"/>
          <Node pos="r" depth="2" NCoef="0" IVar="-1" Cut="0.0000000000000000e+00" cType="1" res="-1.8150031100958586e-03" rms="1.8800404667854309e-01" purity="3.3812579512596130e-01" nType="-99"/>
        </Node>
      </Node>
    </BinaryTree>
    <BinaryTree type="DecisionTree" boostWeight="1.0000000000000000e+00" itree="941">
      <Node pos="s" depth="0" NCoef="0" IVar="16" Cut="2.5947535037994385e-01" cType="1" res="-5.7493231724947691e-04" rms="1.9075292348861694e-01" purity="4.9967271089553833e-01" nType="0">
        <Node pos="l" depth="1" NCoef="0" IVar="3" Cut="1.6734050512313843e+00" cType="1" res="5.6523559615015984e-03" rms="1.9021365046501160e-01" purity="1.8727068603038788e-01" nType="0">
          <Node pos="l" depth="2" NCoef="0" IVar="-1" Cut="0.0000000000000000e+00" cType="1" res="1.4725015498697758e-02" rms="2.5798454880714417e-01" purity="4.3002456426620483e-01" nType="-99"/>
          <Node pos="r" depth="2" NCoef="0" IVar="-1" Cut="0.0000000000000000e+00" cType="1" res="-4.7833129065111279e-04" rms="1.5544945001602173e-01" purity="9.2216879129409790e-02" nType="-99"/>
        </Node>
        <Node pos="r" depth="1" NCoef="0" IVar="11" Cut="6.8023324012756348e+00" cType="1" res="-1.4020765665918589e-03" rms="1.9080914556980133e-01" purity="5.4116773605346680e-01" nType="0">
          <Node pos="l" depth="2" NCoef="0" IVar="-1" Cut="0.0000000000000000e+00" cType="1" res="-4.7226184979081154e-03" rms="1.8910750746726990e-01" purity="5.2623873949050903e-01" nType="-99"/>
          <Node pos="r" depth="2" NCoef="0" IVar="-1" Cut="0.0000000000000000e+00" cType="1" res="1.8705788534134626e-03" rms="1.9277642667293549e-01" purity="5.5896019935607910e-01" nType="-99"/>
        </Node>
      </Node>
    </BinaryTree>
    <BinaryTree type="DecisionTree" boostWeight="1.0000000000000000e+00" itree="942">
      <Node pos="s" depth="0" NCoef="0" IVar="13" Cut="7.0717015266418457e+00" cType="1" res="-3.9794243639335036e-04" rms="1.9225566089153290e-01" purity="4.9957621097564697e-01" nType="0">
        <Node pos="l" depth="1" NCoef="0" IVar="-1" Cut="0.0000000000000000e+00" cType="1" res="1.3468235731124878e-02" rms="2.0685842633247375e-01" purity="3.4542489051818848e-01" nType="-99"/>
        <Node pos="r" depth="1" NCoef="0" IVar="27" Cut="3.8239496946334839e-01" cType="1" res="-8.4231328219175339e-04" rms="1.9164802134037018e-01" purity="5.0560748577117920e-01" nType="0">
          <Node pos="l" depth="2" NCoef="0" IVar="-1" Cut="0.0000000000000000e+00" cType="1" res="-1.1112402193248272e-02" rms="1.7350128293037415e-01" purity="1.6251403093338013e-01" nType="-99"/>
          <Node pos="r" depth="2" NCoef="0" IVar="-1" Cut="0.0000000000000000e+00" cType="1" res="-2.2587089915759861e-04" rms="1.9328352808952332e-01" purity="5.3846091032028198e-01" nType="-99"/>
        </Node>
      </Node>
    </BinaryTree>
    <BinaryTree type="DecisionTree" boostWeight="1.0000000000000000e+00" itree="943">
      <Node pos="s" depth="0" NCoef="0" IVar="16" Cut="3.6217653751373291e-01" cType="1" res="1.7105856386478990e-04" rms="1.9193863868713379e-01" purity="5.0152456760406494e-01" nType="0">
        <Node pos="l" depth="1" NCoef="0" IVar="16" Cut="2.7237725257873535e-01" cType="1" res="3.0399754177778959e-03" rms="2.0785185694694519e-01" purity="3.0093684792518616e-01" nType="0">
          <Node pos="l" depth="2" NCoef="0" IVar="-1" Cut="0.0000000000000000e+00" cType="1" res="-9.2802671715617180e-03" rms="1.9292429089546204e-01" purity="1.8652954697608948e-01" nType="-99"/>
          <Node pos="r" depth="2" NCoef="0" IVar="-1" Cut="0.0000000000000000e+00" cType="1" res="9.5601323992013931e-03" rms="2.1694242954254150e-01" purity="3.7708550691604614e-01" nType="-99"/>
        </Node>
        <Node pos="r" depth="1" NCoef="0" IVar="12" Cut="6.5186195373535156e+00" cType="1" res="-1.6804792685434222e-03" rms="1.8090280890464783e-01" purity="6.3097965717315674e-01" nType="0">
          <Node pos="l" depth="2" NCoef="0" IVar="-1" Cut="0.0000000000000000e+00" cType="1" res="-2.3404013365507126e-02" rms="1.9983197748661041e-01" purity="4.0000218152999878e-01" nType="-99"/>
          <Node pos="r" depth="2" NCoef="0" IVar="-1" Cut="0.0000000000000000e+00" cType="1" res="-7.2638498386368155e-04" rms="1.7964404821395874e-01" purity="6.4476102590560913e-01" nType="-99"/>
        </Node>
      </Node>
    </BinaryTree>
    <BinaryTree type="DecisionTree" boostWeight="1.0000000000000000e+00" itree="944">
      <Node pos="s" depth="0" NCoef="0" IVar="10" Cut="6.9685921669006348e+00" cType="1" res="-2.1338723308872432e-04" rms="1.9021551311016083e-01" purity="5.0164574384689331e-01" nType="0">
        <Node pos="l" depth="1" NCoef="0" IVar="19" Cut="4.6358666419982910e+00" cType="1" res="1.7764456570148468e-03" rms="1.8751020729541779e-01" purity="4.9466657638549805e-01" nType="0">
          <Node pos="l" depth="2" NCoef="0" IVar="-1" Cut="0.0000000000000000e+00" cType="1" res="-1.1490964330732822e-02" rms="1.7113421857357025e-01" purity="1.4967969059944153e-01" nType="-99"/>
          <Node pos="r" depth="2" NCoef="0" IVar="-1" Cut="0.0000000000000000e+00" cType="1" res="4.0378896519541740e-03" rms="1.8990932404994965e-01" purity="5.4877650737762451e-01" nType="-99"/>
        </Node>
        <Node pos="r" depth="1" NCoef="0" IVar="6" Cut="5.8067355155944824e+00" cType="1" res="-1.9567781127989292e-03" rms="1.9253762066364288e-01" purity="5.0776040554046631e-01" nType="0">
          <Node pos="l" depth="2" NCoef="0" IVar="-1" Cut="0.0000000000000000e+00" cType="1" res="-6.6590784117579460e-03" rms="1.9888293743133545e-01" purity="5.5277949571609497e-01" nType="-99"/>
          <Node pos="r" depth="2" NCoef="0" IVar="-1" Cut="0.0000000000000000e+00" cType="1" res="2.5066691450774670e-03" rms="1.8562272191047668e-01" purity="4.6092832088470459e-01" nType="-99"/>
        </Node>
      </Node>
    </BinaryTree>
    <BinaryTree type="DecisionTree" boostWeight="1.0000000000000000e+00" itree="945">
      <Node pos="s" depth="0" NCoef="0" IVar="26" Cut="5.7068341970443726e-01" cType="1" res="2.3358041653409600e-04" rms="1.9115543365478516e-01" purity="4.9859973788261414e-01" nType="0">
        <Node pos="l" depth="1" NCoef="0" IVar="3" Cut="9.5820802450180054e-01" cType="1" res="6.6374393645673990e-04" rms="1.9209246337413788e-01" purity="5.1186388731002808e-01" nType="0">
          <Node pos="l" depth="2" NCoef="0" IVar="-1" Cut="0.0000000000000000e+00" cType="1" res="-4.4314726255834103e-03" rms="1.9369642436504364e-01" purity="7.5347220897674561e-01" nType="-99"/>
          <Node pos="r" depth="2" NCoef="0" IVar="-1" Cut="0.0000000000000000e+00" cType="1" res="2.2079173941165209e-03" rms="1.9168725609779358e-01" purity="4.5359742641448975e-01" nType="-99"/>
        </Node>
        <Node pos="r" depth="1" NCoef="0" IVar="-1" Cut="0.0000000000000000e+00" cType="1" res="-1.3425814919173717e-02" rms="1.6868081688880920e-01" purity="2.0342728495597839e-01" nType="-99"/>
      </Node>
    </BinaryTree>
    <BinaryTree type="DecisionTree" boostWeight="1.0000000000000000e+00" itree="946">
      <Node pos="s" depth="0" NCoef="0" IVar="13" Cut="8.3495073318481445e+00" cType="1" res="-4.9754820065572858e-04" rms="1.8919153511524200e-01" purity="5.0020956993103027e-01" nType="0">
        <Node pos="l" depth="1" NCoef="0" IVar="11" Cut="7.3796224594116211e+00" cType="1" res="1.6580517403781414e-03" rms="1.9681084156036377e-01" purity="4.8580417037010193e-01" nType="0">
          <Node pos="l" depth="2" NCoef="0" IVar="-1" Cut="0.0000000000000000e+00" cType="1" res="3.2138128299266100e-03" rms="1.9540093839168549e-01" purity="5.0622552633285522e-01" nType="-99"/>
          <Node pos="r" depth="2" NCoef="0" IVar="-1" Cut="0.0000000000000000e+00" cType="1" res="-1.1846801266074181e-02" rms="2.1162240207195282e-01" purity="2.5633919239044189e-01" nType="-99"/>
        </Node>
        <Node pos="r" depth="1" NCoef="0" IVar="6" Cut="4.8536376953125000e+00" cType="1" res="-4.0065781213343143e-03" rms="1.7602808773517609e-01" purity="5.2365976572036743e-01" nType="0">
          <Node pos="l" depth="2" NCoef="0" IVar="-1" Cut="0.0000000000000000e+00" cType="1" res="1.2202301993966103e-02" rms="1.9847029447555542e-01" purity="6.2390106916427612e-01" nType="-99"/>
          <Node pos="r" depth="2" NCoef="0" IVar="-1" Cut="0.0000000000000000e+00" cType="1" res="-8.7291058152914047e-03" rms="1.7182070016860962e-01" purity="5.0664794445037842e-01" nType="-99"/>
        </Node>
      </Node>
    </BinaryTree>
    <BinaryTree type="DecisionTree" boostWeight="1.0000000000000000e+00" itree="947">
      <Node pos="s" depth="0" NCoef="0" IVar="10" Cut="7.3037853240966797e+00" cType="1" res="-1.2318778317421675e-04" rms="1.9004206359386444e-01" purity="4.9393364787101746e-01" nType="0">
        <Node pos="l" depth="1" NCoef="0" IVar="11" Cut="7.4632987976074219e+00" cType="1" res="1.6160692321136594e-03" rms="1.8892621994018555e-01" purity="5.1534909009933472e-01" nType="0">
          <Node pos="l" depth="2" NCoef="0" IVar="-1" Cut="0.0000000000000000e+00" cType="1" res="4.0216152556240559e-03" rms="1.8884912133216858e-01" purity="5.4797708988189697e-01" nType="-99"/>
          <Node pos="r" depth="2" NCoef="0" IVar="-1" Cut="0.0000000000000000e+00" cType="1" res="-8.3287954330444336e-03" rms="1.8910567462444305e-01" purity="3.4624969959259033e-01" nType="-99"/>
        </Node>
        <Node pos="r" depth="1" NCoef="0" IVar="11" Cut="7.4578084945678711e+00" cType="1" res="-3.2198608387261629e-03" rms="1.9197373092174530e-01" purity="4.5580437779426575e-01" nType="0">
          <Node pos="l" depth="2" NCoef="0" IVar="-1" Cut="0.0000000000000000e+00" cType="1" res="-8.3940979093313217e-03" rms="1.9298097491264343e-01" purity="4.7987505793571472e-01" nType="-99"/>
          <Node pos="r" depth="2" NCoef="0" IVar="-1" Cut="0.0000000000000000e+00" cType="1" res="9.0496409684419632e-03" rms="1.8891571462154388e-01" purity="3.9302778244018555e-01" nType="-99"/>
        </Node>
      </Node>
    </BinaryTree>
    <BinaryTree type="DecisionTree" boostWeight="1.0000000000000000e+00" itree="948">
      <Node pos="s" depth="0" NCoef="0" IVar="3" Cut="2.1469361782073975e+00" cType="1" res="7.1765593020245433e-04" rms="1.9127169251441956e-01" purity="5.0297641754150391e-01" nType="0">
        <Node pos="l" depth="1" NCoef="0" IVar="32" Cut="1.7138670384883881e-01" cType="1" res="2.8878841549158096e-03" rms="2.0900315046310425e-01" purity="7.0140868425369263e-01" nType="0">
          <Node pos="l" depth="2" NCoef="0" IVar="-1" Cut="0.0000000000000000e+00" cType="1" res="1.8841007258743048e-03" rms="2.0652142167091370e-01" purity="7.1920216083526611e-01" nType="-99"/>
          <Node pos="r" depth="2" NCoef="0" IVar="-1" Cut="0.0000000000000000e+00" cType="1" res="1.6512535512447357e-02" rms="2.4816912412643433e-01" purity="3.8595381379127502e-01" nType="-99"/>
        </Node>
        <Node pos="r" depth="1" NCoef="0" IVar="20" Cut="-1.5423098564147949e+01" cType="1" res="-2.4855129886418581e-03" rms="1.6153043508529663e-01" purity="2.1009829640388489e-01" nType="0">
          <Node pos="l" depth="2" NCoef="0" IVar="-1" Cut="0.0000000000000000e+00" cType="1" res="-1.2768159620463848e-02" rms="1.7038743197917938e-01" purity="3.4732335805892944e-01" nType="-99"/>
          <Node pos="r" depth="2" NCoef="0" IVar="-1" Cut="0.0000000000000000e+00" cType="1" res="6.1173149151727557e-04" rms="1.5681961178779602e-01" purity="1.4119283854961395e-01" nType="-99"/>
        </Node>
      </Node>
    </BinaryTree>
    <BinaryTree type="DecisionTree" boostWeight="1.0000000000000000e+00" itree="949">
      <Node pos="s" depth="0" NCoef="0" IVar="15" Cut="6.3505506515502930e+00" cType="1" res="-2.9226156766526401e-04" rms="1.9440566003322601e-01" purity="5.0242191553115845e-01" nType="0">
        <Node pos="l" depth="1" NCoef="0" IVar="33" Cut="1.5238319337368011e-01" cType="1" res="2.1413608919829130e-03" rms="2.0657004415988922e-01" purity="4.8325994610786438e-01" nType="0">
          <Node pos="l" depth="2" NCoef="0" IVar="-1" Cut="0.0000000000000000e+00" cType="1" res="4.7379103489220142e-03" rms="2.0736253261566162e-01" purity="5.1973265409469604e-01" nType="-99"/>
          <Node pos="r" depth="2" NCoef="0" IVar="-1" Cut="0.0000000000000000e+00" cType="1" res="-1.1619303375482559e-02" rms="2.0149907469749451e-01" purity="2.7333417534828186e-01" nType="-99"/>
        </Node>
        <Node pos="r" depth="1" NCoef="0" IVar="10" Cut="6.1019001007080078e+00" cType="1" res="-2.2514257580041885e-03" rms="1.8400618433952332e-01" purity="5.1784807443618774e-01" nType="0">
          <Node pos="l" depth="2" NCoef="0" IVar="-1" Cut="0.0000000000000000e+00" cType="1" res="-2.8060434386134148e-02" rms="1.6711965203285217e-01" purity="3.5858595371246338e-01" nType="-99"/>
          <Node pos="r" depth="2" NCoef="0" IVar="-1" Cut="0.0000000000000000e+00" cType="1" res="-1.2421179562807083e-03" rms="1.8524000048637390e-01" purity="5.3070443868637085e-01" nType="-99"/>
        </Node>
      </Node>
    </BinaryTree>
    <BinaryTree type="DecisionTree" boostWeight="1.0000000000000000e+00" itree="950">
      <Node pos="s" depth="0" NCoef="0" IVar="2" Cut="2.6546953201293945e+01" cType="1" res="-1.5900177822913975e-04" rms="1.9086962938308716e-01" purity="4.9993318319320679e-01" nType="0">
        <Node pos="l" depth="1" NCoef="0" IVar="34" Cut="1.5879541635513306e+00" cType="1" res="2.1441432181745768e-04" rms="1.9237615168094635e-01" purity="5.1070052385330200e-01" nType="0">
          <Node pos="l" depth="2" NCoef="0" IVar="-1" Cut="0.0000000000000000e+00" cType="1" res="3.1429457012563944e-03" rms="1.8811906874179840e-01" purity="6.5233337879180908e-01" nType="-99"/>
          <Node pos="r" depth="2" NCoef="0" IVar="-1" Cut="0.0000000000000000e+00" cType="1" res="-2.5909822434186935e-03" rms="1.9643130898475647e-01" purity="3.7186348438262939e-01" nType="-99"/>
        </Node>
        <Node pos="r" depth="1" NCoef="0" IVar="-1" Cut="0.0000000000000000e+00" cType="1" res="-2.2829014807939529e-02" rms="1.2827908992767334e-01" purity="1.3055647909641266e-01" nType="-99"/>
      </Node>
    </BinaryTree>
    <BinaryTree type="DecisionTree" boostWeight="1.0000000000000000e+00" itree="951">
      <Node pos="s" depth="0" NCoef="0" IVar="13" Cut="8.2187356948852539e+00" cType="1" res="8.7793817510828376e-04" rms="1.9198162853717804e-01" purity="4.9868673086166382e-01" nType="0">
        <Node pos="l" depth="1" NCoef="0" IVar="15" Cut="7.1877431869506836e+00" cType="1" res="-1.5862194122746587e-03" rms="1.9268409907817841e-01" purity="4.7486093640327454e-01" nType="0">
          <Node pos="l" depth="2" NCoef="0" IVar="-1" Cut="0.0000000000000000e+00" cType="1" res="-4.6570406993851066e-04" rms="1.9385030865669250e-01" purity="4.8095694184303284e-01" nType="-99"/>
          <Node pos="r" depth="2" NCoef="0" IVar="-1" Cut="0.0000000000000000e+00" cType="1" res="-2.6187745854258537e-02" rms="1.7438702285289764e-01" purity="3.8818714022636414e-01" nType="-99"/>
        </Node>
        <Node pos="r" depth="1" NCoef="0" IVar="11" Cut="6.2963280677795410e+00" cType="1" res="3.5216936375945807e-03" rms="1.9118976593017578e-01" purity="5.2424907684326172e-01" nType="0">
          <Node pos="l" depth="2" NCoef="0" IVar="-1" Cut="0.0000000000000000e+00" cType="1" res="1.7993330955505371e-02" rms="2.0614501833915710e-01" purity="5.5273801088333130e-01" nType="-99"/>
          <Node pos="r" depth="2" NCoef="0" IVar="-1" Cut="0.0000000000000000e+00" cType="1" res="2.6309154927730560e-03" rms="1.8923281133174896e-01" purity="5.2077013254165649e-01" nType="-99"/>
        </Node>
      </Node>
    </BinaryTree>
    <BinaryTree type="DecisionTree" boostWeight="1.0000000000000000e+00" itree="952">
      <Node pos="s" depth="0" NCoef="0" IVar="24" Cut="6.6733521223068237e-01" cType="1" res="2.8479016691562720e-05" rms="1.9216246902942657e-01" purity="4.9954631924629211e-01" nType="0">
        <Node pos="l" depth="1" NCoef="0" IVar="19" Cut="-3.3268082141876221e+00" cType="1" res="5.4862867109477520e-03" rms="1.9400992989540100e-01" purity="2.0670843124389648e-01" nType="0">
          <Node pos="l" depth="2" NCoef="0" IVar="-1" Cut="0.0000000000000000e+00" cType="1" res="-1.0355588048696518e-02" rms="1.6503702104091644e-01" purity="1.2353692203760147e-01" nType="-99"/>
          <Node pos="r" depth="2" NCoef="0" IVar="-1" Cut="0.0000000000000000e+00" cType="1" res="9.7850998863577843e-03" rms="1.9913868606090546e-01" purity="2.2308424115180969e-01" nType="-99"/>
        </Node>
        <Node pos="r" depth="1" NCoef="0" IVar="0" Cut="1.0612513542175293e+01" cType="1" res="-1.9608989823609591e-03" rms="1.9144594669342041e-01" purity="6.0628610849380493e-01" nType="0">
          <Node pos="l" depth="2" NCoef="0" IVar="-1" Cut="0.0000000000000000e+00" cType="1" res="-4.7975680790841579e-03" rms="1.9391983747482300e-01" purity="6.2280082702636719e-01" nType="-99"/>
          <Node pos="r" depth="2" NCoef="0" IVar="-1" Cut="0.0000000000000000e+00" cType="1" res="4.7327294014394283e-03" rms="1.8465366959571838e-01" purity="5.6282436847686768e-01" nType="-99"/>
        </Node>
      </Node>
    </BinaryTree>
    <BinaryTree type="DecisionTree" boostWeight="1.0000000000000000e+00" itree="953">
      <Node pos="s" depth="0" NCoef="0" IVar="11" Cut="7.6502089500427246e+00" cType="1" res="-5.9556466294452548e-04" rms="1.9109110534191132e-01" purity="5.0224387645721436e-01" nType="0">
        <Node pos="l" depth="1" NCoef="0" IVar="24" Cut="3.3554410934448242e-01" cType="1" res="1.5783900744281709e-04" rms="1.9283057749271393e-01" purity="5.2325266599655151e-01" nType="0">
          <Node pos="l" depth="2" NCoef="0" IVar="-1" Cut="0.0000000000000000e+00" cType="1" res="-1.1480374261736870e-02" rms="1.6964875161647797e-01" purity="1.2532378733158112e-01" nType="-99"/>
          <Node pos="r" depth="2" NCoef="0" IVar="-1" Cut="0.0000000000000000e+00" cType="1" res="1.3526264810934663e-03" rms="1.9562119245529175e-01" purity="5.7497924566268921e-01" nType="-99"/>
        </Node>
        <Node pos="r" depth="1" NCoef="0" IVar="15" Cut="6.9196834564208984e+00" cType="1" res="-5.6734466925263405e-03" rms="1.7884388566017151e-01" purity="3.6064621806144714e-01" nType="0">
          <Node pos="l" depth="2" NCoef="0" IVar="-1" Cut="0.0000000000000000e+00" cType="1" res="-1.7886850982904434e-02" rms="1.7986801266670227e-01" purity="2.4122971296310425e-01" nType="-99"/>
          <Node pos="r" depth="2" NCoef="0" IVar="-1" Cut="0.0000000000000000e+00" cType="1" res="5.8659818023443222e-03" rms="1.7723749577999115e-01" purity="4.8309022188186646e-01" nType="-99"/>
        </Node>
      </Node>
    </BinaryTree>
    <BinaryTree type="DecisionTree" boostWeight="1.0000000000000000e+00" itree="954">
      <Node pos="s" depth="0" NCoef="0" IVar="7" Cut="4.1761870384216309e+00" cType="1" res="-7.2441453812643886e-04" rms="1.9081509113311768e-01" purity="4.9899229407310486e-01" nType="0">
        <Node pos="l" depth="1" NCoef="0" IVar="30" Cut="7.6208882033824921e-02" cType="1" res="-1.4821005752310157e-03" rms="1.9116881489753723e-01" purity="5.2499169111251831e-01" nType="0">
          <Node pos="l" depth="2" NCoef="0" IVar="-1" Cut="0.0000000000000000e+00" cType="1" res="-5.8308960433350876e-05" rms="1.9111910462379456e-01" purity="5.9110271930694580e-01" nType="-99"/>
          <Node pos="r" depth="2" NCoef="0" IVar="-1" Cut="0.0000000000000000e+00" cType="1" res="-8.1738261505961418e-03" rms="1.9125974178314209e-01" purity="2.6605790853500366e-01" nType="-99"/>
        </Node>
        <Node pos="r" depth="1" NCoef="0" IVar="6" Cut="5.1198363304138184e+00" cType="1" res="7.6776742935180664e-03" rms="1.8664169311523438e-01" purity="2.1068124473094940e-01" nType="0">
          <Node pos="l" depth="2" NCoef="0" IVar="-1" Cut="0.0000000000000000e+00" cType="1" res="3.9720717817544937e-02" rms="2.1102131903171539e-01" purity="2.8106206655502319e-01" nType="-99"/>
          <Node pos="r" depth="2" NCoef="0" IVar="-1" Cut="0.0000000000000000e+00" cType="1" res="-2.6031613815575838e-03" rms="1.7263987660408020e-01" purity="1.7603722214698792e-01" nType="-99"/>
        </Node>
      </Node>
    </BinaryTree>
    <BinaryTree type="DecisionTree" boostWeight="1.0000000000000000e+00" itree="955">
      <Node pos="s" depth="0" NCoef="0" IVar="28" Cut="3.3495429158210754e-01" cType="1" res="-1.0807875078171492e-03" rms="1.9127312302589417e-01" purity="4.9995073676109314e-01" nType="0">
        <Node pos="l" depth="1" NCoef="0" IVar="19" Cut="1.4249028205871582e+01" cType="1" res="-5.7668867520987988e-03" rms="1.9225379824638367e-01" purity="2.9038754105567932e-01" nType="0">
          <Node pos="l" depth="2" NCoef="0" IVar="-1" Cut="0.0000000000000000e+00" cType="1" res="-1.3803847134113312e-02" rms="1.8317322432994843e-01" purity="1.7126566171646118e-01" nType="-99"/>
          <Node pos="r" depth="2" NCoef="0" IVar="-1" Cut="0.0000000000000000e+00" cType="1" res="4.2117518023587763e-04" rms="2.0381695032119751e-01" purity="4.5273974537849426e-01" nType="-99"/>
        </Node>
        <Node pos="r" depth="1" NCoef="0" IVar="19" Cut="1.9938966751098633e+01" cType="1" res="8.6423249740619212e-05" rms="1.9101019203662872e-01" purity="5.5214858055114746e-01" nType="0">
          <Node pos="l" depth="2" NCoef="0" IVar="-1" Cut="0.0000000000000000e+00" cType="1" res="2.0552871283143759e-03" rms="1.9811496138572693e-01" purity="4.3656390905380249e-01" nType="-99"/>
          <Node pos="r" depth="2" NCoef="0" IVar="-1" Cut="0.0000000000000000e+00" cType="1" res="-3.9742374792695045e-03" rms="1.7803780734539032e-01" purity="7.5175571441650391e-01" nType="-99"/>
        </Node>
      </Node>
    </BinaryTree>
    <BinaryTree type="DecisionTree" boostWeight="1.0000000000000000e+00" itree="956">
      <Node pos="s" depth="0" NCoef="0" IVar="34" Cut="3.9683609008789062e+00" cType="1" res="1.2303201947361231e-03" rms="1.9103620946407318e-01" purity="4.9857246875762939e-01" nType="0">
        <Node pos="l" depth="1" NCoef="0" IVar="31" Cut="1.5229453146457672e-01" cType="1" res="8.3603163147927262e-06" rms="1.9116489589214325e-01" purity="5.7103115320205688e-01" nType="0">
          <Node pos="l" depth="2" NCoef="0" IVar="-1" Cut="0.0000000000000000e+00" cType="1" res="-8.6992501746863127e-04" rms="1.9068022072315216e-01" purity="5.9785944223403931e-01" nType="-99"/>
          <Node pos="r" depth="2" NCoef="0" IVar="-1" Cut="0.0000000000000000e+00" cType="1" res="9.4156507402658463e-03" rms="1.9642131030559540e-01" purity="2.6469460129737854e-01" nType="-99"/>
        </Node>
        <Node pos="r" depth="1" NCoef="0" IVar="23" Cut="5.7309526205062866e-01" cType="1" res="6.4043696038424969e-03" rms="1.9040341675281525e-01" purity="1.9176661968231201e-01" nType="0">
          <Node pos="l" depth="2" NCoef="0" IVar="-1" Cut="0.0000000000000000e+00" cType="1" res="-7.3459106497466564e-03" rms="1.2955853343009949e-01" purity="3.2778024673461914e-02" nType="-99"/>
          <Node pos="r" depth="2" NCoef="0" IVar="-1" Cut="0.0000000000000000e+00" cType="1" res="1.3864306733012199e-02" rms="2.2636967897415161e-01" purity="3.1516414880752563e-01" nType="-99"/>
        </Node>
      </Node>
    </BinaryTree>
    <BinaryTree type="DecisionTree" boostWeight="1.0000000000000000e+00" itree="957">
      <Node pos="s" depth="0" NCoef="0" IVar="0" Cut="2.2000394821166992e+01" cType="1" res="7.9967372585088015e-04" rms="1.8969410657882690e-01" purity="5.0582313537597656e-01" nType="0">
        <Node pos="l" depth="1" NCoef="0" IVar="10" Cut="6.7168431282043457e+00" cType="1" res="1.4374254969879985e-03" rms="1.9160227477550507e-01" purity="5.1380240917205811e-01" nType="0">
          <Node pos="l" depth="2" NCoef="0" IVar="-1" Cut="0.0000000000000000e+00" cType="1" res="-2.8745152521878481e-03" rms="1.8014916777610779e-01" purity="4.7585314512252808e-01" nType="-99"/>
          <Node pos="r" depth="2" NCoef="0" IVar="-1" Cut="0.0000000000000000e+00" cType="1" res="3.8934957701712847e-03" rms="1.9738900661468506e-01" purity="5.3395968675613403e-01" nType="-99"/>
        </Node>
        <Node pos="r" depth="1" NCoef="0" IVar="33" Cut="1.9048957154154778e-02" cType="1" res="-1.0891034267842770e-02" rms="1.5000812709331512e-01" purity="3.5955414175987244e-01" nType="0">
          <Node pos="l" depth="2" NCoef="0" IVar="-1" Cut="0.0000000000000000e+00" cType="1" res="-6.4618848264217377e-03" rms="1.5220947563648224e-01" purity="5.0302219390869141e-01" nType="-99"/>
          <Node pos="r" depth="2" NCoef="0" IVar="-1" Cut="0.0000000000000000e+00" cType="1" res="-2.5793511420488358e-02" rms="1.4750024676322937e-01" purity="2.1611809730529785e-01" nType="-99"/>
        </Node>
      </Node>
    </BinaryTree>
    <BinaryTree type="DecisionTree" boostWeight="1.0000000000000000e+00" itree="958">
      <Node pos="s" depth="0" NCoef="0" IVar="16" Cut="2.9573372006416321e-01" cType="1" res="-9.5634692115709186e-04" rms="1.9061069190502167e-01" purity="4.9670922756195068e-01" nType="0">
        <Node pos="l" depth="1" NCoef="0" IVar="16" Cut="2.7543199062347412e-01" cType="1" res="4.8286993987858295e-03" rms="1.9997380673885345e-01" purity="2.4221423268318176e-01" nType="0">
          <Node pos="l" depth="2" NCoef="0" IVar="-1" Cut="0.0000000000000000e+00" cType="1" res="-1.6350462101399899e-03" rms="2.0070186257362366e-01" purity="1.9536714255809784e-01" nType="-99"/>
          <Node pos="r" depth="2" NCoef="0" IVar="-1" Cut="0.0000000000000000e+00" cType="1" res="3.1599719077348709e-02" rms="1.9433057308197021e-01" purity="4.5107555389404297e-01" nType="-99"/>
        </Node>
        <Node pos="r" depth="1" NCoef="0" IVar="27" Cut="9.0456056594848633e-01" cType="1" res="-2.4024066515266895e-03" rms="1.8816970288753510e-01" purity="5.6032407283782959e-01" nType="0">
          <Node pos="l" depth="2" NCoef="0" IVar="-1" Cut="0.0000000000000000e+00" cType="1" res="-6.9086393341422081e-03" rms="1.9668848812580109e-01" purity="2.9913172125816345e-01" nType="-99"/>
          <Node pos="r" depth="2" NCoef="0" IVar="-1" Cut="0.0000000000000000e+00" cType="1" res="-3.0732888262718916e-04" rms="1.8309022486209869e-01" purity="7.0953488349914551e-01" nType="-99"/>
        </Node>
      </Node>
    </BinaryTree>
    <BinaryTree type="DecisionTree" boostWeight="1.0000000000000000e+00" itree="959">
      <Node pos="s" depth="0" NCoef="0" IVar="12" Cut="7.3077440261840820e+00" cType="1" res="9.2444091569632292e-04" rms="1.9230234622955322e-01" purity="4.9930274486541748e-01" nType="0">
        <Node pos="l" depth="1" NCoef="0" IVar="0" Cut="1.8358556747436523e+01" cType="1" res="2.8396714478731155e-03" rms="2.0210401713848114e-01" purity="4.1433468461036682e-01" nType="0">
          <Node pos="l" depth="2" NCoef="0" IVar="-1" Cut="0.0000000000000000e+00" cType="1" res="4.2998720891773701e-03" rms="2.0309643447399139e-01" purity="4.2044487595558167e-01" nType="-99"/>
          <Node pos="r" depth="2" NCoef="0" IVar="-1" Cut="0.0000000000000000e+00" cType="1" res="-1.2707632035017014e-02" rms="1.8698354065418243e-01" purity="3.2811942696571350e-01" nType="-99"/>
        </Node>
        <Node pos="r" depth="1" NCoef="0" IVar="6" Cut="7.5453162193298340e+00" cType="1" res="-1.1566721368581057e-03" rms="1.8102818727493286e-01" purity="5.9162998199462891e-01" nType="0">
          <Node pos="l" depth="2" NCoef="0" IVar="-1" Cut="0.0000000000000000e+00" cType="1" res="-3.2973606139421463e-03" rms="1.8295298516750336e-01" purity="6.1744779348373413e-01" nType="-99"/>
          <Node pos="r" depth="2" NCoef="0" IVar="-1" Cut="0.0000000000000000e+00" cType="1" res="1.7169043421745300e-02" rms="1.6176266968250275e-01" purity="3.5474756360054016e-01" nType="-99"/>
        </Node>
      </Node>
    </BinaryTree>
    <BinaryTree type="DecisionTree" boostWeight="1.0000000000000000e+00" itree="960">
      <Node pos="s" depth="0" NCoef="0" IVar="13" Cut="7.2255339622497559e+00" cType="1" res="-2.8562429361045361e-04" rms="1.9092069566249847e-01" purity="4.9898478388786316e-01" nType="0">
        <Node pos="l" depth="1" NCoef="0" IVar="19" Cut="1.3472647666931152e+01" cType="1" res="6.7615443840622902e-03" rms="1.9768947362899780e-01" purity="3.7207362055778503e-01" nType="0">
          <Node pos="l" depth="2" NCoef="0" IVar="-1" Cut="0.0000000000000000e+00" cType="1" res="-2.6338838506489992e-03" rms="1.9050048291683197e-01" purity="1.7242206633090973e-01" nType="-99"/>
          <Node pos="r" depth="2" NCoef="0" IVar="-1" Cut="0.0000000000000000e+00" cType="1" res="1.8720183521509171e-02" rms="2.0500707626342773e-01" purity="5.9590792655944824e-01" nType="-99"/>
        </Node>
        <Node pos="r" depth="1" NCoef="0" IVar="3" Cut="7.2439265251159668e-01" cType="1" res="-8.7672821246087551e-04" rms="1.9033014774322510e-01" purity="5.0962984561920166e-01" nType="0">
          <Node pos="l" depth="2" NCoef="0" IVar="-1" Cut="0.0000000000000000e+00" cType="1" res="5.6611080653965473e-03" rms="1.9093176722526550e-01" purity="7.6019227504730225e-01" nType="-99"/>
          <Node pos="r" depth="2" NCoef="0" IVar="-1" Cut="0.0000000000000000e+00" cType="1" res="-2.1046192850917578e-03" rms="1.9023333489894867e-01" purity="4.7529536485671997e-01" nType="-99"/>
        </Node>
      </Node>
    </BinaryTree>
    <BinaryTree type="DecisionTree" boostWeight="1.0000000000000000e+00" itree="961">
      <Node pos="s" depth="0" NCoef="0" IVar="29" Cut="5.9932267665863037e-01" cType="1" res="1.2907959753647447e-03" rms="1.9153079390525818e-01" purity="4.9999579787254333e-01" nType="0">
        <Node pos="l" depth="1" NCoef="0" IVar="14" Cut="7.4667997360229492e+00" cType="1" res="4.0450823144055903e-04" rms="1.8977905809879303e-01" purity="5.2284145355224609e-01" nType="0">
          <Node pos="l" depth="2" NCoef="0" IVar="-1" Cut="0.0000000000000000e+00" cType="1" res="-8.3285253494977951e-03" rms="1.9394424557685852e-01" purity="3.9502927660942078e-01" nType="-99"/>
          <Node pos="r" depth="2" NCoef="0" IVar="-1" Cut="0.0000000000000000e+00" cType="1" res="1.3855539727956057e-03" rms="1.8934153020381927e-01" purity="5.3566575050354004e-01" nType="-99"/>
        </Node>
        <Node pos="r" depth="1" NCoef="0" IVar="22" Cut="4.9420332908630371e+00" cType="1" res="8.1424340605735779e-03" rms="2.0443774759769440e-01" purity="3.2338285446166992e-01" nType="0">
          <Node pos="l" depth="2" NCoef="0" IVar="-1" Cut="0.0000000000000000e+00" cType="1" res="1.7528320895507932e-03" rms="1.9385780394077301e-01" purity="2.9090896248817444e-01" nType="-99"/>
          <Node pos="r" depth="2" NCoef="0" IVar="-1" Cut="0.0000000000000000e+00" cType="1" res="3.0292611569166183e-02" rms="2.3575642704963684e-01" purity="4.3475219607353210e-01" nType="-99"/>
        </Node>
      </Node>
    </BinaryTree>
    <BinaryTree type="DecisionTree" boostWeight="1.0000000000000000e+00" itree="962">
      <Node pos="s" depth="0" NCoef="0" IVar="13" Cut="7.2261176109313965e+00" cType="1" res="2.0782143110409379e-04" rms="1.9335259497165680e-01" purity="5.0110059976577759e-01" nType="0">
        <Node pos="l" depth="1" NCoef="0" IVar="3" Cut="2.8815610408782959e+00" cType="1" res="9.1206878423690796e-03" rms="1.9713427126407623e-01" purity="3.5021033883094788e-01" nType="0">
          <Node pos="l" depth="2" NCoef="0" IVar="-1" Cut="0.0000000000000000e+00" cType="1" res="1.3433306477963924e-02" rms="2.4483367800712585e-01" purity="5.5912899971008301e-01" nType="-99"/>
          <Node pos="r" depth="2" NCoef="0" IVar="-1" Cut="0.0000000000000000e+00" cType="1" res="-1.6232088208198547e-02" rms="7.4250511825084686e-02" purity="2.1940832957625389e-02" nType="-99"/>
        </Node>
        <Node pos="r" depth="1" NCoef="0" IVar="28" Cut="8.5787153244018555e-01" cType="1" res="-5.0515972543507814e-04" rms="1.9302910566329956e-01" purity="5.1317101716995239e-01" nType="0">
          <Node pos="l" depth="2" NCoef="0" IVar="-1" Cut="0.0000000000000000e+00" cType="1" res="-3.3339939545840025e-03" rms="2.0130899548530579e-01" purity="3.7800088524818420e-01" nType="-99"/>
          <Node pos="r" depth="2" NCoef="0" IVar="-1" Cut="0.0000000000000000e+00" cType="1" res="4.2225266806781292e-03" rms="1.8022702634334564e-01" purity="7.1009993553161621e-01" nType="-99"/>
        </Node>
      </Node>
    </BinaryTree>
    <BinaryTree type="DecisionTree" boostWeight="1.0000000000000000e+00" itree="963">
      <Node pos="s" depth="0" NCoef="0" IVar="15" Cut="5.5208749771118164e+00" cType="1" res="-1.0948709677904844e-03" rms="1.9097764790058136e-01" purity="5.0276589393615723e-01" nType="0">
        <Node pos="l" depth="1" NCoef="0" IVar="23" Cut="6.7010158300399780e-01" cType="1" res="7.0541235618293285e-03" rms="1.9464515149593353e-01" purity="5.8556699752807617e-01" nType="0">
          <Node pos="l" depth="2" NCoef="0" IVar="-1" Cut="0.0000000000000000e+00" cType="1" res="-7.3701571673154831e-03" rms="2.1211673319339752e-01" purity="1.8941079080104828e-01" nType="-99"/>
          <Node pos="r" depth="2" NCoef="0" IVar="-1" Cut="0.0000000000000000e+00" cType="1" res="1.7458701506257057e-02" rms="1.8434500694274902e-01" purity="7.9284948110580444e-01" nType="-99"/>
        </Node>
        <Node pos="r" depth="1" NCoef="0" IVar="27" Cut="7.6181441545486450e-01" cType="1" res="-1.8214598530903459e-03" rms="1.9063030183315277e-01" purity="4.9538314342498779e-01" nType="0">
          <Node pos="l" depth="2" NCoef="0" IVar="-1" Cut="0.0000000000000000e+00" cType="1" res="3.7812825758010149e-03" rms="1.8197374045848846e-01" purity="2.0099349319934845e-01" nType="-99"/>
          <Node pos="r" depth="2" NCoef="0" IVar="-1" Cut="0.0000000000000000e+00" cType="1" res="-3.9191399700939655e-03" rms="1.9310589134693146e-01" purity="5.8283895254135132e-01" nType="-99"/>
        </Node>
      </Node>
    </BinaryTree>
    <BinaryTree type="DecisionTree" boostWeight="1.0000000000000000e+00" itree="964">
      <Node pos="s" depth="0" NCoef="0" IVar="23" Cut="4.7676014900207520e-01" cType="1" res="2.3146346211433411e-04" rms="1.9205327332019806e-01" purity="5.0093543529510498e-01" nType="0">
        <Node pos="l" depth="1" NCoef="0" IVar="17" Cut="3.2529941558837891e+01" cType="1" res="-3.6438901443034410e-03" rms="1.7061893641948700e-01" purity="8.2288056612014771e-02" nType="0">
          <Node pos="l" depth="2" NCoef="0" IVar="-1" Cut="0.0000000000000000e+00" cType="1" res="-2.0884533878415823e-03" rms="1.6212642192840576e-01" purity="6.8924851715564728e-02" nType="-99"/>
          <Node pos="r" depth="2" NCoef="0" IVar="-1" Cut="0.0000000000000000e+00" cType="1" res="-1.7348134890198708e-02" rms="2.2620737552642822e-01" purity="1.8848881125450134e-01" nType="-99"/>
        </Node>
        <Node pos="r" depth="1" NCoef="0" IVar="25" Cut="5.9963238239288330e-01" cType="1" res="1.3756720582023263e-03" rms="1.9792398810386658e-01" purity="6.2454223632812500e-01" nType="0">
          <Node pos="l" depth="2" NCoef="0" IVar="-1" Cut="0.0000000000000000e+00" cType="1" res="6.9666741183027625e-04" rms="1.9719453155994415e-01" purity="6.4460313320159912e-01" nType="-99"/>
          <Node pos="r" depth="2" NCoef="0" IVar="-1" Cut="0.0000000000000000e+00" cType="1" res="1.7409101128578186e-02" rms="2.1057455241680145e-01" purity="2.4923546612262726e-01" nType="-99"/>
        </Node>
      </Node>
    </BinaryTree>
    <BinaryTree type="DecisionTree" boostWeight="1.0000000000000000e+00" itree="965">
      <Node pos="s" depth="0" NCoef="0" IVar="14" Cut="7.4657139778137207e+00" cType="1" res="3.4527445677667856e-04" rms="1.8853326141834259e-01" purity="4.9810108542442322e-01" nType="0">
        <Node pos="l" depth="1" NCoef="0" IVar="16" Cut="4.0303626656532288e-01" cType="1" res="-8.0261379480361938e-03" rms="1.8775263428688049e-01" purity="3.6823230981826782e-01" nType="0">
          <Node pos="l" depth="2" NCoef="0" IVar="-1" Cut="0.0000000000000000e+00" cType="1" res="6.5997559577226639e-03" rms="2.0119717717170715e-01" purity="2.4530822038650513e-01" nType="-99"/>
          <Node pos="r" depth="2" NCoef="0" IVar="-1" Cut="0.0000000000000000e+00" cType="1" res="-1.7487986013293266e-02" rms="1.8100561201572418e-01" purity="4.2415487766265869e-01" nType="-99"/>
        </Node>
        <Node pos="r" depth="1" NCoef="0" IVar="20" Cut="-2.9827916622161865e+00" cType="1" res="1.2715624179691076e-03" rms="1.8859662115573883e-01" purity="5.1247090101242065e-01" nType="0">
          <Node pos="l" depth="2" NCoef="0" IVar="-1" Cut="0.0000000000000000e+00" cType="1" res="-2.0792614668607712e-04" rms="1.8448610603809357e-01" purity="5.7806992530822754e-01" nType="-99"/>
          <Node pos="r" depth="2" NCoef="0" IVar="-1" Cut="0.0000000000000000e+00" cType="1" res="5.5912379175424576e-03" rms="1.9791950285434723e-01" purity="3.5763177275657654e-01" nType="-99"/>
        </Node>
      </Node>
    </BinaryTree>
    <BinaryTree type="DecisionTree" boostWeight="1.0000000000000000e+00" itree="966">
      <Node pos="s" depth="0" NCoef="0" IVar="26" Cut="4.7556927800178528e-01" cType="1" res="-5.2814581431448460e-04" rms="1.9257612526416779e-01" purity="5.0188952684402466e-01" nType="0">
        <Node pos="l" depth="1" NCoef="0" IVar="16" Cut="4.7353920340538025e-01" cType="1" res="-1.0414033895358443e-03" rms="1.9274024665355682e-01" purity="5.1868456602096558e-01" nType="0">
          <Node pos="l" depth="2" NCoef="0" IVar="-1" Cut="0.0000000000000000e+00" cType="1" res="-2.9578637331724167e-03" rms="2.0045676827430725e-01" purity="4.3278536200523376e-01" nType="-99"/>
          <Node pos="r" depth="2" NCoef="0" IVar="-1" Cut="0.0000000000000000e+00" cType="1" res="2.9496892821043730e-03" rms="1.7723223567008972e-01" purity="6.8072700500488281e-01" nType="-99"/>
        </Node>
        <Node pos="r" depth="1" NCoef="0" IVar="19" Cut="1.2531367301940918e+01" cType="1" res="7.9794498160481453e-03" rms="1.8963254988193512e-01" purity="2.2350087761878967e-01" nType="0">
          <Node pos="l" depth="2" NCoef="0" IVar="-1" Cut="0.0000000000000000e+00" cType="1" res="-2.2284840233623981e-03" rms="1.5849484503269196e-01" purity="1.2273903936147690e-01" nType="-99"/>
          <Node pos="r" depth="2" NCoef="0" IVar="-1" Cut="0.0000000000000000e+00" cType="1" res="1.9375015050172806e-02" rms="2.2144949436187744e-01" purity="3.4726557135581970e-01" nType="-99"/>
        </Node>
      </Node>
    </BinaryTree>
    <BinaryTree type="DecisionTree" boostWeight="1.0000000000000000e+00" itree="967">
      <Node pos="s" depth="0" NCoef="0" IVar="33" Cut="1.9045832753181458e-01" cType="1" res="-5.6969700381159782e-04" rms="1.9342747330665588e-01" purity="4.9555918574333191e-01" nType="0">
        <Node pos="l" depth="1" NCoef="0" IVar="12" Cut="7.9027624130249023e+00" cType="1" res="-1.3913118746131659e-03" rms="1.9291812181472778e-01" purity="5.1819121837615967e-01" nType="0">
          <Node pos="l" depth="2" NCoef="0" IVar="-1" Cut="0.0000000000000000e+00" cType="1" res="-2.7606145013123751e-03" rms="1.9682329893112183e-01" purity="4.8089268803596497e-01" nType="-99"/>
          <Node pos="r" depth="2" NCoef="0" IVar="-1" Cut="0.0000000000000000e+00" cType="1" res="7.1584619581699371e-03" rms="1.6893076896667480e-01" purity="7.3001098632812500e-01" nType="-99"/>
        </Node>
        <Node pos="r" depth="1" NCoef="0" IVar="3" Cut="2.8724710941314697e+00" cType="1" res="7.8436983749270439e-03" rms="1.9837233424186707e-01" purity="2.6380532979965210e-01" nType="0">
          <Node pos="l" depth="2" NCoef="0" IVar="-1" Cut="0.0000000000000000e+00" cType="1" res="1.1353794485330582e-02" rms="2.4467083811759949e-01" purity="4.0944975614547729e-01" nType="-99"/>
          <Node pos="r" depth="2" NCoef="0" IVar="-1" Cut="0.0000000000000000e+00" cType="1" res="-2.8881398960947990e-02" rms="5.8100748807191849e-02" purity="9.8475944250822067e-03" nType="-99"/>
        </Node>
      </Node>
    </BinaryTree>
    <BinaryTree type="DecisionTree" boostWeight="1.0000000000000000e+00" itree="968">
      <Node pos="s" depth="0" NCoef="0" IVar="6" Cut="5.5406517982482910e+00" cType="1" res="-3.6608753725886345e-04" rms="1.9133865833282471e-01" purity="4.9764290452003479e-01" nType="0">
        <Node pos="l" depth="1" NCoef="0" IVar="10" Cut="7.3466148376464844e+00" cType="1" res="-3.1540831550955772e-03" rms="1.9484683871269226e-01" purity="4.9665683507919312e-01" nType="0">
          <Node pos="l" depth="2" NCoef="0" IVar="-1" Cut="0.0000000000000000e+00" cType="1" res="-4.1982205584645271e-04" rms="1.9271345436573029e-01" purity="4.9101567268371582e-01" nType="-99"/>
          <Node pos="r" depth="2" NCoef="0" IVar="-1" Cut="0.0000000000000000e+00" cType="1" res="-1.2494524009525776e-02" rms="2.0064587891101837e-01" purity="5.1291257143020630e-01" nType="-99"/>
        </Node>
        <Node pos="r" depth="1" NCoef="0" IVar="14" Cut="7.8142237663269043e+00" cType="1" res="2.5646439753472805e-03" rms="1.8753546476364136e-01" purity="4.9867945909500122e-01" nType="0">
          <Node pos="l" depth="2" NCoef="0" IVar="-1" Cut="0.0000000000000000e+00" cType="1" res="1.4078134670853615e-02" rms="1.9056302309036255e-01" purity="6.1087965965270996e-01" nType="-99"/>
          <Node pos="r" depth="2" NCoef="0" IVar="-1" Cut="0.0000000000000000e+00" cType="1" res="1.7980150878429413e-03" rms="1.8716107308864594e-01" purity="4.8621696233749390e-01" nType="-99"/>
        </Node>
      </Node>
    </BinaryTree>
    <BinaryTree type="DecisionTree" boostWeight="1.0000000000000000e+00" itree="969">
      <Node pos="s" depth="0" NCoef="0" IVar="29" Cut="6.4033174514770508e-01" cType="1" res="3.8006916292943060e-04" rms="1.9187767803668976e-01" purity="4.9971714615821838e-01" nType="0">
        <Node pos="l" depth="1" NCoef="0" IVar="29" Cut="4.5735102891921997e-01" cType="1" res="1.2122150510549545e-03" rms="1.9139979779720306e-01" purity="5.1900428533554077e-01" nType="0">
          <Node pos="l" depth="2" NCoef="0" IVar="-1" Cut="0.0000000000000000e+00" cType="1" res="3.2166118035092950e-04" rms="1.9032913446426392e-01" purity="5.4623073339462280e-01" nType="-99"/>
          <Node pos="r" depth="2" NCoef="0" IVar="-1" Cut="0.0000000000000000e+00" cType="1" res="9.4202812761068344e-03" rms="1.9920361042022705e-01" purity="3.1195157766342163e-01" nType="-99"/>
        </Node>
        <Node pos="r" depth="1" NCoef="0" IVar="29" Cut="7.0137077569961548e-01" cType="1" res="-7.7938628382980824e-03" rms="1.9632250070571899e-01" purity="3.1026512384414673e-01" nType="0">
          <Node pos="l" depth="2" NCoef="0" IVar="-1" Cut="0.0000000000000000e+00" cType="1" res="-2.3995360359549522e-02" rms="1.9367966055870056e-01" purity="2.6849722862243652e-01" nType="-99"/>
          <Node pos="r" depth="2" NCoef="0" IVar="-1" Cut="0.0000000000000000e+00" cType="1" res="-1.2083454057574272e-03" rms="1.9725930690765381e-01" purity="3.3080974221229553e-01" nType="-99"/>
        </Node>
      </Node>
    </BinaryTree>
    <BinaryTree type="DecisionTree" boostWeight="1.0000000000000000e+00" itree="970">
      <Node pos="s" depth="0" NCoef="0" IVar="23" Cut="7.6213574409484863e-01" cType="1" res="4.6002047020010650e-04" rms="1.9135747849941254e-01" purity="5.0278222560882568e-01" nType="0">
        <Node pos="l" depth="1" NCoef="0" IVar="12" Cut="7.8297557830810547e+00" cType="1" res="3.0739060603082180e-03" rms="2.0041145384311676e-01" purity="1.5884262323379517e-01" nType="0">
          <Node pos="l" depth="2" NCoef="0" IVar="-1" Cut="0.0000000000000000e+00" cType="1" res="1.8754904158413410e-03" rms="1.9888080656528473e-01" purity="1.5736895799636841e-01" nType="-99"/>
          <Node pos="r" depth="2" NCoef="0" IVar="-1" Cut="0.0000000000000000e+00" cType="1" res="1.6971189528703690e-02" rms="2.1410027146339417e-01" purity="1.7299899458885193e-01" nType="-99"/>
        </Node>
        <Node pos="r" depth="1" NCoef="0" IVar="27" Cut="5.2482038736343384e-01" cType="1" res="-1.7079609679058194e-03" rms="1.8348118662834167e-01" purity="7.8804904222488403e-01" nType="0">
          <Node pos="l" depth="2" NCoef="0" IVar="-1" Cut="0.0000000000000000e+00" cType="1" res="-1.5403972007334232e-02" rms="2.1749384701251984e-01" purity="4.3932300806045532e-01" nType="-99"/>
          <Node pos="r" depth="2" NCoef="0" IVar="-1" Cut="0.0000000000000000e+00" cType="1" res="-6.2416918808594346e-04" rms="1.8036179244518280e-01" purity="8.1652593612670898e-01" nType="-99"/>
        </Node>
      </Node>
    </BinaryTree>
    <BinaryTree type="DecisionTree" boostWeight="1.0000000000000000e+00" itree="971">
      <Node pos="s" depth="0" NCoef="0" IVar="22" Cut="3.5500015258789062e+01" cType="1" res="8.2301424117758870e-04" rms="1.9193951785564423e-01" purity="4.9802681803703308e-01" nType="0">
        <Node pos="l" depth="1" NCoef="0" IVar="16" Cut="3.6608186364173889e-01" cType="1" res="4.2603482143022120e-04" rms="1.9449156522750854e-01" purity="4.7734898328781128e-01" nType="0">
          <Node pos="l" depth="2" NCoef="0" IVar="-1" Cut="0.0000000000000000e+00" cType="1" res="-1.8471414223313332e-03" rms="2.0763377845287323e-01" purity="2.7282929420471191e-01" nType="-99"/>
          <Node pos="r" depth="2" NCoef="0" IVar="-1" Cut="0.0000000000000000e+00" cType="1" res="2.5045527145266533e-03" rms="1.8474368751049042e-01" purity="6.2019604444503784e-01" nType="-99"/>
        </Node>
        <Node pos="r" depth="1" NCoef="0" IVar="-1" Cut="0.0000000000000000e+00" cType="1" res="2.3940103128552437e-02" rms="1.2746945023536682e-01" purity="9.2829406261444092e-01" nType="-99"/>
      </Node>
    </BinaryTree>
    <BinaryTree type="DecisionTree" boostWeight="1.0000000000000000e+00" itree="972">
      <Node pos="s" depth="0" NCoef="0" IVar="33" Cut="1.9047424197196960e-01" cType="1" res="-6.8553723394870758e-04" rms="1.9037897884845734e-01" purity="4.9981501698493958e-01" nType="0">
        <Node pos="l" depth="1" NCoef="0" IVar="25" Cut="9.2551201581954956e-02" cType="1" res="2.5557645130902529e-04" rms="1.9113363325595856e-01" purity="5.2344524860382080e-01" nType="0">
          <Node pos="l" depth="2" NCoef="0" IVar="-1" Cut="0.0000000000000000e+00" cType="1" res="-1.5169370453804731e-03" rms="1.9018663465976715e-01" purity="6.5405738353729248e-01" nType="-99"/>
          <Node pos="r" depth="2" NCoef="0" IVar="-1" Cut="0.0000000000000000e+00" cType="1" res="4.0105259977281094e-03" rms="1.9298735260963440e-01" purity="2.6103478670120239e-01" nType="-99"/>
        </Node>
        <Node pos="r" depth="1" NCoef="0" IVar="7" Cut="1.6049952507019043e+00" cType="1" res="-1.0784736834466457e-02" rms="1.8177752196788788e-01" purity="2.4623556435108185e-01" nType="0">
          <Node pos="l" depth="2" NCoef="0" IVar="-1" Cut="0.0000000000000000e+00" cType="1" res="-1.8310500308871269e-02" rms="2.1236337721347809e-01" purity="4.4943463802337646e-01" nType="-99"/>
          <Node pos="r" depth="2" NCoef="0" IVar="-1" Cut="0.0000000000000000e+00" cType="1" res="-7.6909526251256466e-03" rms="1.6505701839923859e-01" purity="1.5035977959632874e-01" nType="-99"/>
        </Node>
      </Node>
    </BinaryTree>
    <BinaryTree type="DecisionTree" boostWeight="1.0000000000000000e+00" itree="973">
      <Node pos="s" depth="0" NCoef="0" IVar="9" Cut="1.8087589263916016e+01" cType="1" res="-4.8821300879353657e-05" rms="1.9038133323192596e-01" purity="5.0272697210311890e-01" nType="0">
        <Node pos="l" depth="1" NCoef="0" IVar="1" Cut="4.1816592216491699e+00" cType="1" res="2.0574973896145821e-03" rms="1.9631221890449524e-01" purity="5.2422368526458740e-01" nType="0">
          <Node pos="l" depth="2" NCoef="0" IVar="-1" Cut="0.0000000000000000e+00" cType="1" res="-5.1468661986291409e-03" rms="1.9131705164909363e-01" purity="3.7788686156272888e-01" nType="-99"/>
          <Node pos="r" depth="2" NCoef="0" IVar="-1" Cut="0.0000000000000000e+00" cType="1" res="5.6888107210397720e-03" rms="1.9840487837791443e-01" purity="5.8847928047180176e-01" nType="-99"/>
        </Node>
        <Node pos="r" depth="1" NCoef="0" IVar="16" Cut="4.0166431665420532e-01" cType="1" res="-4.6668471768498421e-03" rms="1.7659480869770050e-01" purity="4.5559623837471008e-01" nType="0">
          <Node pos="l" depth="2" NCoef="0" IVar="-1" Cut="0.0000000000000000e+00" cType="1" res="-1.2522640638053417e-02" rms="1.8126766383647919e-01" purity="2.2992393374443054e-01" nType="-99"/>
          <Node pos="r" depth="2" NCoef="0" IVar="-1" Cut="0.0000000000000000e+00" cType="1" res="4.0167672559618950e-03" rms="1.7028152942657471e-01" purity="7.3771870136260986e-01" nType="-99"/>
        </Node>
      </Node>
    </BinaryTree>
    <BinaryTree type="DecisionTree" boostWeight="1.0000000000000000e+00" itree="974">
      <Node pos="s" depth="0" NCoef="0" IVar="16" Cut="5.4396110773086548e-01" cType="1" res="3.7726745358668268e-04" rms="1.9120833277702332e-01" purity="5.0012248754501343e-01" nType="0">
        <Node pos="l" depth="1" NCoef="0" IVar="12" Cut="7.4732570648193359e+00" cType="1" res="1.6529613640159369e-03" rms="1.9624608755111694e-01" purity="4.6030652523040771e-01" nType="0">
          <Node pos="l" depth="2" NCoef="0" IVar="-1" Cut="0.0000000000000000e+00" cType="1" res="4.2456928640604019e-03" rms="2.0223015546798706e-01" purity="4.1402602195739746e-01" nType="-99"/>
          <Node pos="r" depth="2" NCoef="0" IVar="-1" Cut="0.0000000000000000e+00" cType="1" res="-3.8056455086916685e-03" rms="1.8292778730392456e-01" purity="5.5772024393081665e-01" nType="-99"/>
        </Node>
        <Node pos="r" depth="1" NCoef="0" IVar="17" Cut="1.7224483489990234e+01" cType="1" res="-4.4752443209290504e-03" rms="1.7060540616512299e-01" purity="6.5157526731491089e-01" nType="0">
          <Node pos="l" depth="2" NCoef="0" IVar="-1" Cut="0.0000000000000000e+00" cType="1" res="-1.5191127546131611e-02" rms="2.0026098191738129e-01" purity="4.0183225274085999e-01" nType="-99"/>
          <Node pos="r" depth="2" NCoef="0" IVar="-1" Cut="0.0000000000000000e+00" cType="1" res="6.4411712810397148e-03" rms="1.3795483112335205e-01" purity="8.7775325775146484e-01" nType="-99"/>
        </Node>
      </Node>
    </BinaryTree>
    <BinaryTree type="DecisionTree" boostWeight="1.0000000000000000e+00" itree="975">
      <Node pos="s" depth="0" NCoef="0" IVar="22" Cut="3.4190752506256104e+00" cType="1" res="-1.6545647522434592e-03" rms="1.8800653517246246e-01" purity="4.9981263279914856e-01" nType="0">
        <Node pos="l" depth="1" NCoef="0" IVar="15" Cut="6.7088956832885742e+00" cType="1" res="-7.0184366777539253e-03" rms="1.8423561751842499e-01" purity="3.2464477419853210e-01" nType="0">
          <Node pos="l" depth="2" NCoef="0" IVar="-1" Cut="0.0000000000000000e+00" cType="1" res="-1.6860995441675186e-02" rms="1.9563180208206177e-01" purity="2.7328488230705261e-01" nType="-99"/>
          <Node pos="r" depth="2" NCoef="0" IVar="-1" Cut="0.0000000000000000e+00" cType="1" res="6.1398912221193314e-03" rms="1.6568608582019806e-01" purity="3.9932447671890259e-01" nType="-99"/>
        </Node>
        <Node pos="r" depth="1" NCoef="0" IVar="28" Cut="5.7240808010101318e-01" cType="1" res="-5.8665324468165636e-04" rms="1.8873010575771332e-01" purity="5.3468745946884155e-01" nType="0">
          <Node pos="l" depth="2" NCoef="0" IVar="-1" Cut="0.0000000000000000e+00" cType="1" res="5.2528739906847477e-03" rms="2.0141489803791046e-01" purity="3.6214759945869446e-01" nType="-99"/>
          <Node pos="r" depth="2" NCoef="0" IVar="-1" Cut="0.0000000000000000e+00" cType="1" res="-3.7783649750053883e-03" rms="1.8300208449363708e-01" purity="6.0829442739486694e-01" nType="-99"/>
        </Node>
      </Node>
    </BinaryTree>
    <BinaryTree type="DecisionTree" boostWeight="1.0000000000000000e+00" itree="976">
      <Node pos="s" depth="0" NCoef="0" IVar="11" Cut="5.9088492393493652e+00" cType="1" res="2.8263310014153831e-05" rms="1.8944238126277924e-01" purity="5.0092995166778564e-01" nType="0">
        <Node pos="l" depth="1" NCoef="0" IVar="6" Cut="5.4286828041076660e+00" cType="1" res="7.5758756138384342e-03" rms="1.9721025228500366e-01" purity="3.9027935266494751e-01" nType="0">
          <Node pos="l" depth="2" NCoef="0" IVar="-1" Cut="0.0000000000000000e+00" cType="1" res="2.6672452222555876e-03" rms="1.9117525219917297e-01" purity="3.3965605497360229e-01" nType="-99"/>
          <Node pos="r" depth="2" NCoef="0" IVar="-1" Cut="0.0000000000000000e+00" cType="1" res="2.0202463492751122e-02" rms="2.0816065371036530e-01" purity="4.8983314633369446e-01" nType="-99"/>
        </Node>
        <Node pos="r" depth="1" NCoef="0" IVar="10" Cut="7.9120826721191406e+00" cType="1" res="-8.9719909010455012e-04" rms="1.8844707310199738e-01" purity="5.1449757814407349e-01" nType="0">
          <Node pos="l" depth="2" NCoef="0" IVar="-1" Cut="0.0000000000000000e+00" cType="1" res="-2.0293095149099827e-03" rms="1.8788526952266693e-01" purity="5.2088642120361328e-01" nType="-99"/>
          <Node pos="r" depth="2" NCoef="0" IVar="-1" Cut="0.0000000000000000e+00" cType="1" res="6.5868468955159187e-03" rms="1.9283097982406616e-01" purity="4.6281003952026367e-01" nType="-99"/>
        </Node>
      </Node>
    </BinaryTree>
    <BinaryTree type="DecisionTree" boostWeight="1.0000000000000000e+00" itree="977">
      <Node pos="s" depth="0" NCoef="0" IVar="30" Cut="2.4761076271533966e-01" cType="1" res="-7.1295880479738116e-04" rms="1.8895916640758514e-01" purity="4.9968972802162170e-01" nType="0">
        <Node pos="l" depth="1" NCoef="0" IVar="7" Cut="6.0390836000442505e-01" cType="1" res="-2.1108097280375659e-04" rms="1.8940778076648712e-01" purity="5.1331561803817749e-01" nType="0">
          <Node pos="l" depth="2" NCoef="0" IVar="-1" Cut="0.0000000000000000e+00" cType="1" res="-5.7191848754882812e-03" rms="1.8345667421817780e-01" purity="7.7364444732666016e-01" nType="-99"/>
          <Node pos="r" depth="2" NCoef="0" IVar="-1" Cut="0.0000000000000000e+00" cType="1" res="1.1131302453577518e-03" rms="1.9084465503692627e-01" purity="4.4849655032157898e-01" nType="-99"/>
        </Node>
        <Node pos="r" depth="1" NCoef="0" IVar="-1" Cut="0.0000000000000000e+00" cType="1" res="-1.5698278322815895e-02" rms="1.7789490520954132e-01" purity="1.8510356545448303e-01" nType="-99"/>
      </Node>
    </BinaryTree>
    <BinaryTree type="DecisionTree" boostWeight="1.0000000000000000e+00" itree="978">
      <Node pos="s" depth="0" NCoef="0" IVar="33" Cut="2.8566190600395203e-01" cType="1" res="-4.6874047257006168e-04" rms="1.9087265431880951e-01" purity="5.0128185749053955e-01" nType="0">
        <Node pos="l" depth="1" NCoef="0" IVar="12" Cut="7.3098373413085938e+00" cType="1" res="-9.6097137429751456e-06" rms="1.9113969802856445e-01" purity="5.1031976938247681e-01" nType="0">
          <Node pos="l" depth="2" NCoef="0" IVar="-1" Cut="0.0000000000000000e+00" cType="1" res="2.8145734686404467e-03" rms="2.0146946609020233e-01" purity="4.2602667212486267e-01" nType="-99"/>
          <Node pos="r" depth="2" NCoef="0" IVar="-1" Cut="0.0000000000000000e+00" cType="1" res="-3.6085413303226233e-03" rms="1.7947474122047424e-01" purity="5.9989297389984131e-01" nType="-99"/>
        </Node>
        <Node pos="r" depth="1" NCoef="0" IVar="-1" Cut="0.0000000000000000e+00" cType="1" res="-1.5529970638453960e-02" rms="1.8325659632682800e-01" purity="2.6238444447517395e-01" nType="-99"/>
      </Node>
    </BinaryTree>
    <BinaryTree type="DecisionTree" boostWeight="1.0000000000000000e+00" itree="979">
      <Node pos="s" depth="0" NCoef="0" IVar="17" Cut="1.8047536849975586e+01" cType="1" res="-1.4990838826633990e-04" rms="1.9112077355384827e-01" purity="4.9939614534378052e-01" nType="0">
        <Node pos="l" depth="1" NCoef="0" IVar="16" Cut="4.0256804227828979e-01" cType="1" res="-2.7652778662741184e-03" rms="1.8842127919197083e-01" purity="2.8197708725929260e-01" nType="0">
          <Node pos="l" depth="2" NCoef="0" IVar="-1" Cut="0.0000000000000000e+00" cType="1" res="1.0668154573068023e-03" rms="1.7964012920856476e-01" purity="1.5105044841766357e-01" nType="-99"/>
          <Node pos="r" depth="2" NCoef="0" IVar="-1" Cut="0.0000000000000000e+00" cType="1" res="-7.1375360712409019e-03" rms="1.9660852849483490e-01" purity="4.1065627336502075e-01" nType="-99"/>
        </Node>
        <Node pos="r" depth="1" NCoef="0" IVar="24" Cut="9.0604668855667114e-01" cType="1" res="2.0634636748582125e-03" rms="1.9334827363491058e-01" purity="6.8339663743972778e-01" nType="0">
          <Node pos="l" depth="2" NCoef="0" IVar="-1" Cut="0.0000000000000000e+00" cType="1" res="1.6467168927192688e-02" rms="2.0013782382011414e-01" purity="5.7969343662261963e-01" nType="-99"/>
          <Node pos="r" depth="2" NCoef="0" IVar="-1" Cut="0.0000000000000000e+00" cType="1" res="2.2904235811438411e-04" rms="1.9220171868801117e-01" purity="6.9953954219818115e-01" nType="-99"/>
        </Node>
      </Node>
    </BinaryTree>
    <BinaryTree type="DecisionTree" boostWeight="1.0000000000000000e+00" itree="980">
      <Node pos="s" depth="0" NCoef="0" IVar="30" Cut="1.5235565602779388e-01" cType="1" res="7.6682528015226126e-04" rms="1.9129817187786102e-01" purity="5.0043654441833496e-01" nType="0">
        <Node pos="l" depth="1" NCoef="0" IVar="13" Cut="8.5511779785156250e+00" cType="1" res="-3.2953059417195618e-05" rms="1.9057542085647583e-01" purity="5.3058177232742310e-01" nType="0">
          <Node pos="l" depth="2" NCoef="0" IVar="-1" Cut="0.0000000000000000e+00" cType="1" res="1.5707280253991485e-03" rms="1.9460026919841766e-01" purity="5.2267342805862427e-01" nType="-99"/>
          <Node pos="r" depth="2" NCoef="0" IVar="-1" Cut="0.0000000000000000e+00" cType="1" res="-5.7346159592270851e-03" rms="1.7803002893924713e-01" purity="5.5406141281127930e-01" nType="-99"/>
        </Node>
        <Node pos="r" depth="1" NCoef="0" IVar="23" Cut="5.7207310199737549e-01" cType="1" res="7.8155305236577988e-03" rms="1.9741372764110565e-01" purity="2.3475626111030579e-01" nType="0">
          <Node pos="l" depth="2" NCoef="0" IVar="-1" Cut="0.0000000000000000e+00" cType="1" res="-5.4331828141584992e-04" rms="1.6495676338672638e-01" purity="6.6926479339599609e-02" nType="-99"/>
          <Node pos="r" depth="2" NCoef="0" IVar="-1" Cut="0.0000000000000000e+00" cType="1" res="1.4501044526696205e-02" rms="2.2455044090747833e-01" purity="3.9999678730964661e-01" nType="-99"/>
        </Node>
      </Node>
    </BinaryTree>
    <BinaryTree type="DecisionTree" boostWeight="1.0000000000000000e+00" itree="981">
      <Node pos="s" depth="0" NCoef="0" IVar="10" Cut="7.3820095062255859e+00" cType="1" res="-2.1750437736045569e-04" rms="1.9019459187984467e-01" purity="4.9808159470558167e-01" nType="0">
        <Node pos="l" depth="1" NCoef="0" IVar="15" Cut="7.1765470504760742e+00" cType="1" res="1.4158652629703283e-03" rms="1.8786944448947906e-01" purity="5.2254939079284668e-01" nType="0">
          <Node pos="l" depth="2" NCoef="0" IVar="-1" Cut="0.0000000000000000e+00" cType="1" res="3.3997155260294676e-03" rms="1.8982011079788208e-01" purity="5.1701301336288452e-01" nType="-99"/>
          <Node pos="r" depth="2" NCoef="0" IVar="-1" Cut="0.0000000000000000e+00" cType="1" res="-1.3078161515295506e-02" rms="1.7312717437744141e-01" purity="5.6179040670394897e-01" nType="-99"/>
        </Node>
        <Node pos="r" depth="1" NCoef="0" IVar="11" Cut="7.5228776931762695e+00" cType="1" res="-3.6607147194445133e-03" rms="1.9496044516563416e-01" purity="4.4650247693061829e-01" nType="0">
          <Node pos="l" depth="2" NCoef="0" IVar="-1" Cut="0.0000000000000000e+00" cType="1" res="-7.5464164838194847e-03" rms="1.9898323714733124e-01" purity="4.6487593650817871e-01" nType="-99"/>
          <Node pos="r" depth="2" NCoef="0" IVar="-1" Cut="0.0000000000000000e+00" cType="1" res="6.6869137808680534e-03" rms="1.8169809877872467e-01" purity="3.8982221484184265e-01" nType="-99"/>
        </Node>
      </Node>
    </BinaryTree>
    <BinaryTree type="DecisionTree" boostWeight="1.0000000000000000e+00" itree="982">
      <Node pos="s" depth="0" NCoef="0" IVar="24" Cut="4.2989498376846313e-01" cType="1" res="-5.5997341405600309e-04" rms="1.8976154923439026e-01" purity="5.0100177526473999e-01" nType="0">
        <Node pos="l" depth="1" NCoef="0" IVar="22" Cut="1.6944814682006836e+01" cType="1" res="4.4740145094692707e-03" rms="1.8515720963478088e-01" purity="1.5053486824035645e-01" nType="0">
          <Node pos="l" depth="2" NCoef="0" IVar="-1" Cut="0.0000000000000000e+00" cType="1" res="1.0521957883611321e-03" rms="1.7526845633983612e-01" purity="1.1685874313116074e-01" nType="-99"/>
          <Node pos="r" depth="2" NCoef="0" IVar="-1" Cut="0.0000000000000000e+00" cType="1" res="2.1150920540094376e-02" rms="2.1795235574245453e-01" purity="2.7793884277343750e-01" nType="-99"/>
        </Node>
        <Node pos="r" depth="1" NCoef="0" IVar="25" Cut="2.6152226328849792e-01" cType="1" res="-1.4924223069101572e-03" rms="1.9058761000633240e-01" purity="5.6591898202896118e-01" nType="0">
          <Node pos="l" depth="2" NCoef="0" IVar="-1" Cut="0.0000000000000000e+00" cType="1" res="-4.8394434270448983e-04" rms="1.9093592464923859e-01" purity="5.9446483850479126e-01" nType="-99"/>
          <Node pos="r" depth="2" NCoef="0" IVar="-1" Cut="0.0000000000000000e+00" cType="1" res="-1.5305191278457642e-02" rms="1.8673080205917358e-01" purity="2.8116405010223389e-01" nType="-99"/>
        </Node>
      </Node>
    </BinaryTree>
    <BinaryTree type="DecisionTree" boostWeight="1.0000000000000000e+00" itree="983">
      <Node pos="s" depth="0" NCoef="0" IVar="29" Cut="7.4714356660842896e-01" cType="1" res="1.8280596705153584e-03" rms="1.8953277170658112e-01" purity="5.0103342533111572e-01" nType="0">
        <Node pos="l" depth="1" NCoef="0" IVar="16" Cut="5.0879734754562378e-01" cType="1" res="1.1920616962015629e-03" rms="1.8885573744773865e-01" purity="5.0658267736434937e-01" nType="0">
          <Node pos="l" depth="2" NCoef="0" IVar="-1" Cut="0.0000000000000000e+00" cType="1" res="-4.5862069237045944e-04" rms="1.9419685006141663e-01" purity="4.4329541921615601e-01" nType="-99"/>
          <Node pos="r" depth="2" NCoef="0" IVar="-1" Cut="0.0000000000000000e+00" cType="1" res="8.1508001312613487e-03" rms="1.7383889853954315e-01" purity="6.7431080341339111e-01" nType="-99"/>
        </Node>
        <Node pos="r" depth="1" NCoef="0" IVar="-1" Cut="0.0000000000000000e+00" cType="1" res="1.6415771096944809e-02" rms="2.0308817923069000e-01" purity="3.8149330019950867e-01" nType="-99"/>
      </Node>
    </BinaryTree>
    <BinaryTree type="DecisionTree" boostWeight="1.0000000000000000e+00" itree="984">
      <Node pos="s" depth="0" NCoef="0" IVar="24" Cut="9.5225816965103149e-01" cType="1" res="-7.6781807001680136e-04" rms="1.9146560132503510e-01" purity="4.9811121821403503e-01" nType="0">
        <Node pos="l" depth="1" NCoef="0" IVar="4" Cut="6.2126646041870117e+00" cType="1" res="-2.6127388700842857e-03" rms="1.9288043677806854e-01" purity="3.4747251868247986e-01" nType="0">
          <Node pos="l" depth="2" NCoef="0" IVar="-1" Cut="0.0000000000000000e+00" cType="1" res="-4.1493275202810764e-03" rms="1.9280563294887543e-01" purity="3.5330072045326233e-01" nType="-99"/>
          <Node pos="r" depth="2" NCoef="0" IVar="-1" Cut="0.0000000000000000e+00" cType="1" res="1.9920198246836662e-02" rms="1.9364176690578461e-01" purity="2.3624245822429657e-01" nType="-99"/>
        </Node>
        <Node pos="r" depth="1" NCoef="0" IVar="12" Cut="6.7146272659301758e+00" cType="1" res="1.7255299026146531e-03" rms="1.8950818479061127e-01" purity="7.0169430971145630e-01" nType="0">
          <Node pos="l" depth="2" NCoef="0" IVar="-1" Cut="0.0000000000000000e+00" cType="1" res="1.1482609435915947e-02" rms="2.2772915661334991e-01" purity="5.5369740724563599e-01" nType="-99"/>
          <Node pos="r" depth="2" NCoef="0" IVar="-1" Cut="0.0000000000000000e+00" cType="1" res="4.6668643335578963e-05" rms="1.8316704034805298e-01" purity="7.2341853380203247e-01" nType="-99"/>
        </Node>
      </Node>
    </BinaryTree>
    <BinaryTree type="DecisionTree" boostWeight="1.0000000000000000e+00" itree="985">
      <Node pos="s" depth="0" NCoef="0" IVar="18" Cut="9.2444839477539062e+00" cType="1" res="-9.6731318990350701e-06" rms="1.8969382345676422e-01" purity="5.0345063209533691e-01" nType="0">
        <Node pos="l" depth="1" NCoef="0" IVar="12" Cut="6.3215394020080566e+00" cType="1" res="-6.3772161956876516e-04" rms="1.8856045603752136e-01" purity="5.1638847589492798e-01" nType="0">
          <Node pos="l" depth="2" NCoef="0" IVar="-1" Cut="0.0000000000000000e+00" cType="1" res="1.1206902563571930e-02" rms="1.9144901633262634e-01" purity="3.0841970443725586e-01" nType="-99"/>
          <Node pos="r" depth="2" NCoef="0" IVar="-1" Cut="0.0000000000000000e+00" cType="1" res="-1.4342494541779160e-03" rms="1.8840324878692627e-01" purity="5.2657496929168701e-01" nType="-99"/>
        </Node>
        <Node pos="r" depth="1" NCoef="0" IVar="-1" Cut="0.0000000000000000e+00" cType="1" res="1.5483809635043144e-02" rms="2.1235269308090210e-01" purity="2.2265322506427765e-01" nType="-99"/>
      </Node>
    </BinaryTree>
    <BinaryTree type="DecisionTree" boostWeight="1.0000000000000000e+00" itree="986">
      <Node pos="s" depth="0" NCoef="0" IVar="34" Cut="3.9765545725822449e-01" cType="1" res="3.4408163628540933e-05" rms="1.9123029708862305e-01" purity="4.9994203448295593e-01" nType="0">
        <Node pos="l" depth="1" NCoef="0" IVar="28" Cut="6.7122912406921387e-01" cType="1" res="5.8395909145474434e-03" rms="1.9399654865264893e-01" purity="6.5754872560501099e-01" nType="0">
          <Node pos="l" depth="2" NCoef="0" IVar="-1" Cut="0.0000000000000000e+00" cType="1" res="1.8512956798076630e-02" rms="2.2075782716274261e-01" purity="5.0335520505905151e-01" nType="-99"/>
          <Node pos="r" depth="2" NCoef="0" IVar="-1" Cut="0.0000000000000000e+00" cType="1" res="-2.7283385861665010e-03" rms="1.7581836879253387e-01" purity="7.4867951869964600e-01" nType="-99"/>
        </Node>
        <Node pos="r" depth="1" NCoef="0" IVar="28" Cut="6.1989879608154297e-01" cType="1" res="-7.8448915155604482e-04" rms="1.9082263112068176e-01" purity="4.7770950198173523e-01" nType="0">
          <Node pos="l" depth="2" NCoef="0" IVar="-1" Cut="0.0000000000000000e+00" cType="1" res="-4.6598021872341633e-03" rms="1.9348230957984924e-01" purity="3.0101850628852844e-01" nType="-99"/>
          <Node pos="r" depth="2" NCoef="0" IVar="-1" Cut="0.0000000000000000e+00" cType="1" res="1.7465391429141164e-03" rms="1.8897181749343872e-01" purity="5.9723621606826782e-01" nType="-99"/>
        </Node>
      </Node>
    </BinaryTree>
    <BinaryTree type="DecisionTree" boostWeight="1.0000000000000000e+00" itree="987">
      <Node pos="s" depth="0" NCoef="0" IVar="33" Cut="3.8107410073280334e-02" cType="1" res="5.3667498286813498e-04" rms="1.9043399393558502e-01" purity="5.0151532888412476e-01" nType="0">
        <Node pos="l" depth="1" NCoef="0" IVar="23" Cut="2.8651067614555359e-01" cType="1" res="-1.3586572604253888e-03" rms="1.8637305498123169e-01" purity="5.9883421659469604e-01" nType="0">
          <Node pos="l" depth="2" NCoef="0" IVar="-1" Cut="0.0000000000000000e+00" cType="1" res="1.1404702439904213e-02" rms="1.7810337245464325e-01" purity="1.0170369595289230e-01" nType="-99"/>
          <Node pos="r" depth="2" NCoef="0" IVar="-1" Cut="0.0000000000000000e+00" cType="1" res="-2.9185260646045208e-03" rms="1.8714392185211182e-01" purity="6.4807718992233276e-01" nType="-99"/>
        </Node>
        <Node pos="r" depth="1" NCoef="0" IVar="33" Cut="5.5339593440294266e-02" cType="1" res="4.1222935542464256e-03" rms="1.9783903658390045e-01" purity="3.1740605831146240e-01" nType="0">
          <Node pos="l" depth="2" NCoef="0" IVar="-1" Cut="0.0000000000000000e+00" cType="1" res="2.1842388436198235e-02" rms="2.1478803455829620e-01" purity="4.0288802981376648e-01" nType="-99"/>
          <Node pos="r" depth="2" NCoef="0" IVar="-1" Cut="0.0000000000000000e+00" cType="1" res="5.9206382138654590e-04" rms="1.9352991878986359e-01" purity="2.9765182733535767e-01" nType="-99"/>
        </Node>
      </Node>
    </BinaryTree>
    <BinaryTree type="DecisionTree" boostWeight="1.0000000000000000e+00" itree="988">
      <Node pos="s" depth="0" NCoef="0" IVar="13" Cut="8.3356809616088867e+00" cType="1" res="-6.8897497840225697e-04" rms="1.9144630432128906e-01" purity="5.0446474552154541e-01" nType="0">
        <Node pos="l" depth="1" NCoef="0" IVar="11" Cut="7.3658881187438965e+00" cType="1" res="-2.7826104778796434e-03" rms="1.9529858231544495e-01" purity="4.9077481031417847e-01" nType="0">
          <Node pos="l" depth="2" NCoef="0" IVar="-1" Cut="0.0000000000000000e+00" cType="1" res="-2.0596226677298546e-03" rms="1.9590733945369720e-01" purity="5.1051580905914307e-01" nType="-99"/>
          <Node pos="r" depth="2" NCoef="0" IVar="-1" Cut="0.0000000000000000e+00" cType="1" res="-1.6362264752388000e-02" rms="1.8778392672538757e-01" purity="2.6463684439659119e-01" nType="-99"/>
        </Node>
        <Node pos="r" depth="1" NCoef="0" IVar="27" Cut="9.5214504003524780e-01" cType="1" res="2.5573116727173328e-03" rms="1.8526810407638550e-01" purity="5.2569168806076050e-01" nType="0">
          <Node pos="l" depth="2" NCoef="0" IVar="-1" Cut="0.0000000000000000e+00" cType="1" res="1.0071789845824242e-02" rms="1.9705572724342346e-01" purity="3.1295859813690186e-01" nType="-99"/>
          <Node pos="r" depth="2" NCoef="0" IVar="-1" Cut="0.0000000000000000e+00" cType="1" res="-3.4375158138573170e-03" rms="1.7376351356506348e-01" purity="7.1808320283889771e-01" nType="-99"/>
        </Node>
      </Node>
    </BinaryTree>
    <BinaryTree type="DecisionTree" boostWeight="1.0000000000000000e+00" itree="989">
      <Node pos="s" depth="0" NCoef="0" IVar="16" Cut="2.5808304548263550e-01" cType="1" res="-7.0880423299968243e-04" rms="1.8892851471900940e-01" purity="4.9904552102088928e-01" nType="0">
        <Node pos="l" depth="1" NCoef="0" IVar="3" Cut="2.6284351348876953e+00" cType="1" res="6.7701926454901695e-03" rms="1.9455033540725708e-01" purity="1.8601067364215851e-01" nType="0">
          <Node pos="l" depth="2" NCoef="0" IVar="-1" Cut="0.0000000000000000e+00" cType="1" res="1.3219499029219151e-02" rms="2.6359915733337402e-01" purity="3.4590423107147217e-01" nType="-99"/>
          <Node pos="r" depth="2" NCoef="0" IVar="-1" Cut="0.0000000000000000e+00" cType="1" res="-2.7192674577236176e-02" rms="6.6649861633777618e-02" purity="1.8374478444457054e-02" nType="-99"/>
        </Node>
        <Node pos="r" depth="1" NCoef="0" IVar="16" Cut="2.8805527091026306e-01" cType="1" res="-1.6552078304812312e-03" rms="1.8818396329879761e-01" purity="5.3865748643875122e-01" nType="0">
          <Node pos="l" depth="2" NCoef="0" IVar="-1" Cut="0.0000000000000000e+00" cType="1" res="-1.6004929319024086e-02" rms="1.9311314821243286e-01" purity="2.4552993476390839e-01" nType="-99"/>
          <Node pos="r" depth="2" NCoef="0" IVar="-1" Cut="0.0000000000000000e+00" cType="1" res="-5.6652532657608390e-04" rms="1.8770885467529297e-01" purity="5.6365960836410522e-01" nType="-99"/>
        </Node>
      </Node>
    </BinaryTree>
    <BinaryTree type="DecisionTree" boostWeight="1.0000000000000000e+00" itree="990">
      <Node pos="s" depth="0" NCoef="0" IVar="6" Cut="6.7296957969665527e+00" cType="1" res="-7.4616208439692855e-04" rms="1.8865163624286652e-01" purity="5.0040483474731445e-01" nType="0">
        <Node pos="l" depth="1" NCoef="0" IVar="0" Cut="1.6025659561157227e+01" cType="1" res="-2.1390700712800026e-03" rms="1.9208665192127228e-01" purity="5.2129375934600830e-01" nType="0">
          <Node pos="l" depth="2" NCoef="0" IVar="-1" Cut="0.0000000000000000e+00" cType="1" res="-1.9630696624517441e-03" rms="1.9186136126518250e-01" purity="5.1940298080444336e-01" nType="-99"/>
          <Node pos="r" depth="2" NCoef="0" IVar="-1" Cut="0.0000000000000000e+00" cType="1" res="-1.7908941954374313e-02" rms="1.9723036885261536e-01" purity="5.6921309232711792e-01" nType="-99"/>
        </Node>
        <Node pos="r" depth="1" NCoef="0" IVar="10" Cut="7.9143376350402832e+00" cType="1" res="5.6374780833721161e-03" rms="1.7188951373100281e-01" purity="4.0467163920402527e-01" nType="0">
          <Node pos="l" depth="2" NCoef="0" IVar="-1" Cut="0.0000000000000000e+00" cType="1" res="3.4627967979758978e-03" rms="1.6653679311275482e-01" purity="4.0935647487640381e-01" nType="-99"/>
          <Node pos="r" depth="2" NCoef="0" IVar="-1" Cut="0.0000000000000000e+00" cType="1" res="2.5637939572334290e-02" rms="1.9281785190105438e-01" purity="3.8435462117195129e-01" nType="-99"/>
        </Node>
      </Node>
    </BinaryTree>
    <BinaryTree type="DecisionTree" boostWeight="1.0000000000000000e+00" itree="991">
      <Node pos="s" depth="0" NCoef="0" IVar="28" Cut="2.4279054999351501e-01" cType="1" res="3.8069178117439151e-04" rms="1.9237855076789856e-01" purity="4.9979647994041443e-01" nType="0">
        <Node pos="l" depth="1" NCoef="0" IVar="6" Cut="5.7697997093200684e+00" cType="1" res="-6.2196389771997929e-03" rms="1.9547209143638611e-01" purity="2.9149913787841797e-01" nType="0">
          <Node pos="l" depth="2" NCoef="0" IVar="-1" Cut="0.0000000000000000e+00" cType="1" res="1.5127668157219887e-03" rms="2.0274046063423157e-01" purity="3.1671661138534546e-01" nType="-99"/>
          <Node pos="r" depth="2" NCoef="0" IVar="-1" Cut="0.0000000000000000e+00" cType="1" res="-2.5152796879410744e-02" rms="1.8266704678535461e-01" purity="2.5138252973556519e-01" nType="-99"/>
        </Node>
        <Node pos="r" depth="1" NCoef="0" IVar="14" Cut="8.6600475311279297e+00" cType="1" res="1.3525320682674646e-03" rms="1.9189967215061188e-01" purity="5.3046637773513794e-01" nType="0">
          <Node pos="l" depth="2" NCoef="0" IVar="-1" Cut="0.0000000000000000e+00" cType="1" res="-4.0942904888652265e-04" rms="1.9641254842281342e-01" purity="5.1115101575851440e-01" nType="-99"/>
          <Node pos="r" depth="2" NCoef="0" IVar="-1" Cut="0.0000000000000000e+00" cType="1" res="7.3140179738402367e-03" rms="1.8074934184551239e-01" purity="5.7601404190063477e-01" nType="-99"/>
        </Node>
      </Node>
    </BinaryTree>
    <BinaryTree type="DecisionTree" boostWeight="1.0000000000000000e+00" itree="992">
      <Node pos="s" depth="0" NCoef="0" IVar="28" Cut="2.8746354579925537e-01" cType="1" res="3.0218914616852999e-04" rms="1.9077646732330322e-01" purity="4.9968126416206360e-01" nType="0">
        <Node pos="l" depth="1" NCoef="0" IVar="22" Cut="-1.0290139913558960e+00" cType="1" res="6.0760979540646076e-03" rms="2.0124521851539612e-01" purity="3.0712565779685974e-01" nType="0">
          <Node pos="l" depth="2" NCoef="0" IVar="-1" Cut="0.0000000000000000e+00" cType="1" res="-1.1420441791415215e-02" rms="1.8681609630584717e-01" purity="1.9951738417148590e-01" nType="-99"/>
          <Node pos="r" depth="2" NCoef="0" IVar="-1" Cut="0.0000000000000000e+00" cType="1" res="1.0924684815108776e-02" rms="2.0479880273342133e-01" purity="3.3621045947074890e-01" nType="-99"/>
        </Node>
        <Node pos="r" depth="1" NCoef="0" IVar="34" Cut="1.1909209489822388e+00" cType="1" res="-8.1668107304722071e-04" rms="1.8866021931171417e-01" purity="5.3699481487274170e-01" nType="0">
          <Node pos="l" depth="2" NCoef="0" IVar="-1" Cut="0.0000000000000000e+00" cType="1" res="2.6589352637529373e-03" rms="1.8360163271427155e-01" purity="6.7422097921371460e-01" nType="-99"/>
          <Node pos="r" depth="2" NCoef="0" IVar="-1" Cut="0.0000000000000000e+00" cType="1" res="-3.4881366882473230e-03" rms="1.9197933375835419e-01" purity="4.4422706961631775e-01" nType="-99"/>
        </Node>
      </Node>
    </BinaryTree>
    <BinaryTree type="DecisionTree" boostWeight="1.0000000000000000e+00" itree="993">
      <Node pos="s" depth="0" NCoef="0" IVar="27" Cut="7.1423238515853882e-01" cType="1" res="4.9929913075175136e-05" rms="1.9159199297428131e-01" purity="5.0132697820663452e-01" nType="0">
        <Node pos="l" depth="1" NCoef="0" IVar="18" Cut="6.3879995346069336e+00" cType="1" res="-3.8708467036485672e-03" rms="1.7830194532871246e-01" purity="1.9881632924079895e-01" nType="0">
          <Node pos="l" depth="2" NCoef="0" IVar="-1" Cut="0.0000000000000000e+00" cType="1" res="-1.0980584658682346e-02" rms="1.7092588543891907e-01" purity="1.8291021883487701e-01" nType="-99"/>
          <Node pos="r" depth="2" NCoef="0" IVar="-1" Cut="0.0000000000000000e+00" cType="1" res="5.0489101558923721e-03" rms="1.9211763143539429e-01" purity="2.3099018633365631e-01" nType="-99"/>
        </Node>
        <Node pos="r" depth="1" NCoef="0" IVar="27" Cut="9.8613184690475464e-01" cType="1" res="1.0405167704448104e-03" rms="1.9479383528232574e-01" purity="5.7775646448135376e-01" nType="0">
          <Node pos="l" depth="2" NCoef="0" IVar="-1" Cut="0.0000000000000000e+00" cType="1" res="-1.2985868379473686e-03" rms="2.0742313563823700e-01" purity="4.1879478096961975e-01" nType="-99"/>
          <Node pos="r" depth="2" NCoef="0" IVar="-1" Cut="0.0000000000000000e+00" cType="1" res="6.1639086343348026e-03" rms="1.7488023638725281e-01" purity="8.0756825208663940e-01" nType="-99"/>
        </Node>
      </Node>
    </BinaryTree>
    <BinaryTree type="DecisionTree" boostWeight="1.0000000000000000e+00" itree="994">
      <Node pos="s" depth="0" NCoef="0" IVar="34" Cut="3.1749055385589600e+00" cType="1" res="4.2819522786885500e-04" rms="1.9134807586669922e-01" purity="4.9943232536315918e-01" nType="0">
        <Node pos="l" depth="1" NCoef="0" IVar="16" Cut="3.6779060959815979e-01" cType="1" res="-1.5745313139632344e-03" rms="1.8942010402679443e-01" purity="5.9081387519836426e-01" nType="0">
          <Node pos="l" depth="2" NCoef="0" IVar="-1" Cut="0.0000000000000000e+00" cType="1" res="-5.7508959434926510e-03" rms="2.0987251400947571e-01" purity="3.4689652919769287e-01" nType="-99"/>
          <Node pos="r" depth="2" NCoef="0" IVar="-1" Cut="0.0000000000000000e+00" cType="1" res="2.2686359006911516e-03" rms="1.7283061146736145e-01" purity="7.6960813999176025e-01" nType="-99"/>
        </Node>
        <Node pos="r" depth="1" NCoef="0" IVar="3" Cut="3.1033279895782471e+00" cType="1" res="6.0791252180933952e-03" rms="1.9657622277736664e-01" purity="2.4158842861652374e-01" nType="0">
          <Node pos="l" depth="2" NCoef="0" IVar="-1" Cut="0.0000000000000000e+00" cType="1" res="8.3548454567790031e-03" rms="2.4637871980667114e-01" purity="3.7977737188339233e-01" nType="-99"/>
          <Node pos="r" depth="2" NCoef="0" IVar="-1" Cut="0.0000000000000000e+00" cType="1" res="-5.0363946706056595e-02" rms="2.0653989631682634e-03" purity="0.0000000000000000e+00" nType="-99"/>
        </Node>
      </Node>
    </BinaryTree>
    <BinaryTree type="DecisionTree" boostWeight="1.0000000000000000e+00" itree="995">
      <Node pos="s" depth="0" NCoef="0" IVar="18" Cut="-5.4528217315673828e+01" cType="1" res="1.1496971128508449e-03" rms="1.9157874584197998e-01" purity="4.9965929985046387e-01" nType="0">
        <Node pos="l" depth="1" NCoef="0" IVar="22" Cut="1.9043680191040039e+01" cType="1" res="8.6642941460013390e-03" rms="1.3431048393249512e-01" purity="9.3106919527053833e-01" nType="0">
          <Node pos="l" depth="2" NCoef="0" IVar="-1" Cut="0.0000000000000000e+00" cType="1" res="2.6106523349881172e-02" rms="1.7160876095294952e-01" purity="8.9496815204620361e-01" nType="-99"/>
          <Node pos="r" depth="2" NCoef="0" IVar="-1" Cut="0.0000000000000000e+00" cType="1" res="1.0335229337215424e-02" rms="8.8361844420433044e-02" purity="9.6318805217742920e-01" nType="-99"/>
        </Node>
        <Node pos="r" depth="1" NCoef="0" IVar="20" Cut="1.3680294990539551e+01" cType="1" res="4.5134130050428212e-04" rms="1.9603852927684784e-01" purity="4.5956695079803467e-01" nType="0">
          <Node pos="l" depth="2" NCoef="0" IVar="-1" Cut="0.0000000000000000e+00" cType="1" res="-6.7640619818121195e-05" rms="1.9566003978252411e-01" purity="4.6485677361488342e-01" nType="-99"/>
          <Node pos="r" depth="2" NCoef="0" IVar="-1" Cut="0.0000000000000000e+00" cType="1" res="2.0428435876965523e-02" rms="2.0737232267856598e-01" purity="2.8617611527442932e-01" nType="-99"/>
        </Node>
      </Node>
    </BinaryTree>
    <BinaryTree type="DecisionTree" boostWeight="1.0000000000000000e+00" itree="996">
      <Node pos="s" depth="0" NCoef="0" IVar="24" Cut="7.1478170156478882e-01" cType="1" res="1.6986016998998821e-04" rms="1.9004447758197784e-01" purity="4.9963349103927612e-01" nType="0">
        <Node pos="l" depth="1" NCoef="0" IVar="17" Cut="1.2562671661376953e+01" cType="1" res="4.5797280035912991e-03" rms="1.8736517429351807e-01" purity="2.1258120238780975e-01" nType="0">
          <Node pos="l" depth="2" NCoef="0" IVar="-1" Cut="0.0000000000000000e+00" cType="1" res="3.1181820668280125e-03" rms="1.8231846392154694e-01" purity="1.8588349223136902e-01" nType="-99"/>
          <Node pos="r" depth="2" NCoef="0" IVar="-1" Cut="0.0000000000000000e+00" cType="1" res="2.0716890692710876e-02" rms="2.1737121045589447e-01" purity="3.9035257697105408e-01" nType="-99"/>
        </Node>
        <Node pos="r" depth="1" NCoef="0" IVar="0" Cut="9.2767295837402344e+00" cType="1" res="-1.6460354672744870e-03" rms="1.9110725820064545e-01" purity="6.1783581972122192e-01" nType="0">
          <Node pos="l" depth="2" NCoef="0" IVar="-1" Cut="0.0000000000000000e+00" cType="1" res="-4.6072280965745449e-03" rms="1.9577838480472565e-01" purity="6.3249951601028442e-01" nType="-99"/>
          <Node pos="r" depth="2" NCoef="0" IVar="-1" Cut="0.0000000000000000e+00" cType="1" res="3.2304683700203896e-03" rms="1.8207249045372009e-01" purity="5.9070080518722534e-01" nType="-99"/>
        </Node>
      </Node>
    </BinaryTree>
    <BinaryTree type="DecisionTree" boostWeight="1.0000000000000000e+00" itree="997">
      <Node pos="s" depth="0" NCoef="0" IVar="15" Cut="6.3817205429077148e+00" cType="1" res="1.3105763355270028e-03" rms="1.9213926792144775e-01" purity="4.9784278869628906e-01" nType="0">
        <Node pos="l" depth="1" NCoef="0" IVar="27" Cut="8.5692071914672852e-01" cType="1" res="3.8656482938677073e-03" rms="2.0117947459220886e-01" purity="4.7764873504638672e-01" nType="0">
          <Node pos="l" depth="2" NCoef="0" IVar="-1" Cut="0.0000000000000000e+00" cType="1" res="-2.2592542227357626e-03" rms="1.9130401313304901e-01" purity="2.0531582832336426e-01" nType="-99"/>
          <Node pos="r" depth="2" NCoef="0" IVar="-1" Cut="0.0000000000000000e+00" cType="1" res="7.0862458087503910e-03" rms="2.0565530657768250e-01" purity="6.0719889402389526e-01" nType="-99"/>
        </Node>
        <Node pos="r" depth="1" NCoef="0" IVar="28" Cut="6.2126100063323975e-01" cType="1" res="-8.7031500879675150e-04" rms="1.8404401838779449e-01" purity="5.1507943868637085e-01" nType="0">
          <Node pos="l" depth="2" NCoef="0" IVar="-1" Cut="0.0000000000000000e+00" cType="1" res="-9.9014714360237122e-03" rms="1.8464335799217224e-01" purity="2.1080978214740753e-01" nType="-99"/>
          <Node pos="r" depth="2" NCoef="0" IVar="-1" Cut="0.0000000000000000e+00" cType="1" res="1.8501671729609370e-03" rms="1.8378593027591705e-01" purity="6.1834573745727539e-01" nType="-99"/>
        </Node>
      </Node>
    </BinaryTree>
    <BinaryTree type="DecisionTree" boostWeight="1.0000000000000000e+00" itree="998">
      <Node pos="s" depth="0" NCoef="0" IVar="12" Cut="6.3160467147827148e+00" cType="1" res="-5.2766432054340839e-04" rms="1.9209559261798859e-01" purity="4.9915191531181335e-01" nType="0">
        <Node pos="l" depth="1" NCoef="0" IVar="-1" Cut="0.0000000000000000e+00" cType="1" res="1.5071317553520203e-02" rms="2.0923061668872833e-01" purity="2.9734051227569580e-01" nType="-99"/>
        <Node pos="r" depth="1" NCoef="0" IVar="34" Cut="3.9686181545257568e+00" cType="1" res="-1.2000706046819687e-03" rms="1.9119594991207123e-01" purity="5.0898581743240356e-01" nType="0">
          <Node pos="l" depth="2" NCoef="0" IVar="-1" Cut="0.0000000000000000e+00" cType="1" res="-2.7987689245492220e-03" rms="1.9189900159835815e-01" purity="5.7627385854721069e-01" nType="-99"/>
          <Node pos="r" depth="2" NCoef="0" IVar="-1" Cut="0.0000000000000000e+00" cType="1" res="5.1261051557958126e-03" rms="1.8792302906513214e-01" purity="2.0655603706836700e-01" nType="-99"/>
        </Node>
      </Node>
    </BinaryTree>
    <BinaryTree type="DecisionTree" boostWeight="1.0000000000000000e+00" itree="999">
      <Node pos="s" depth="0" NCoef="0" IVar="7" Cut="-6.0120522975921631e-01" cType="1" res="1.9268086180090904e-03" rms="1.9096724689006805e-01" purity="4.9949878454208374e-01" nType="0">
        <Node pos="l" depth="1" NCoef="0" IVar="-1" Cut="0.0000000000000000e+00" cType="1" res="1.5107410028576851e-02" rms="1.8470855057239532e-01" purity="8.0801016092300415e-01" nType="-99"/>
        <Node pos="r" depth="1" NCoef="0" IVar="0" Cut="2.5614759445190430e+01" cType="1" res="1.4199814759194851e-03" rms="1.9126844406127930e-01" purity="4.8370051383972168e-01" nType="0">
          <Node pos="l" depth="2" NCoef="0" IVar="-1" Cut="0.0000000000000000e+00" cType="1" res="2.2310293279588223e-03" rms="1.9251142442226410e-01" purity="4.9045315384864807e-01" nType="-99"/>
          <Node pos="r" depth="2" NCoef="0" IVar="-1" Cut="0.0000000000000000e+00" cType="1" res="-1.7892207950353622e-02" rms="1.5036737918853760e-01" purity="2.8818798065185547e-01" nType="-99"/>
        </Node>
      </Node>
    </BinaryTree>
  </Weights>
</MethodSetup>
